{
  "version": "1.0",
  "truncation": null,
  "padding": null,
  "added_tokens": [
    {
      "id": 0,
      "content": "<s>",
      "single_word": false,
      "lstrip": false,
      "rstrip": false,
      "normalized": false,
      "special": true
    },
    {
      "id": 1,
      "content": "</s>",
      "single_word": false,
      "lstrip": false,
      "rstrip": false,
      "normalized": false,
      "special": true
    },
    {
      "id": 2,
      "content": "<unk>",
      "single_word": false,
      "lstrip": false,
      "rstrip": false,
      "normalized": false,
      "special": true
    },
    {
      "id": 3,
      "content": "<pad>",
      "single_word": false,
      "lstrip": false,
      "rstrip": false,
      "normalized": false,
      "special": true
    },
    {
      "id": 4,
      "content": "<mask>",
      "single_word": false,
      "lstrip": false,
      "rstrip": false,
      "normalized": false,
      "special": true
    }
  ],
  "normalizer": {
    "type": "Sequence",
    "normalizers": [
      {
        "type": "NFKC"
      },
      {
        "type": "Replace",
        "pattern": {
          "Regex": "[^\\'\\n\\ \\!\\\"\\#\\$\\%\\&\\'\\(\\)\\*\\+\\,\\-\\.\\/0123456789\\:\\;\\<\\=\\>\\?\\@ABCDEFGHIJKLMNOPQRSTUVWXYZ\\[\\\\\\]\\^\\_\\`abcdefghijklmnopqrstuvwxyz\\{\\|\\}\\~\\±\\´\\·ÂÃÄÅÇÖÜâçéêîöûüĞğ\\İ\\ıŞş\\‘\\’\\…\\′\\']"
        },
        "content": ""
      }
    ]
  },
  "pre_tokenizer": {
    "type": "Sequence",
    "pretokenizers": [
      {
        "type": "Digits",
        "individual_digits": true
      },
      {
        "type": "Whitespace"
      },
      {
        "type": "Punctuation",
        "behavior": "Isolated"
      },
      {
        "type": "ByteLevel",
        "add_prefix_space": true,
        "trim_offsets": true,
        "use_regex": true
      }
    ]
  },
  "post_processor": {
    "type": "TemplateProcessing",
    "single": [
      {
        "SpecialToken": {
          "id": "<s>",
          "type_id": 0
        }
      },
      {
        "Sequence": {
          "id": "A",
          "type_id": 0
        }
      },
      {
        "SpecialToken": {
          "id": "</s>",
          "type_id": 0
        }
      }
    ],
    "pair": [
      {
        "SpecialToken": {
          "id": "<s>",
          "type_id": 0
        }
      },
      {
        "Sequence": {
          "id": "A",
          "type_id": 0
        }
      },
      {
        "SpecialToken": {
          "id": "</s>",
          "type_id": 0
        }
      },
      {
        "SpecialToken": {
          "id": "</s>",
          "type_id": 0
        }
      },
      {
        "Sequence": {
          "id": "B",
          "type_id": 0
        }
      },
      {
        "SpecialToken": {
          "id": "</s>",
          "type_id": 0
        }
      }
    ],
    "special_tokens": {
      "</s>": {
        "id": "</s>",
        "ids": [
          1
        ],
        "tokens": [
          "</s>"
        ]
      },
      "<s>": {
        "id": "<s>",
        "ids": [
          0
        ],
        "tokens": [
          "<s>"
        ]
      }
    }
  },
  "decoder": {
    "type": "ByteLevel",
    "add_prefix_space": true,
    "trim_offsets": true,
    "use_regex": true
  },
  "model": {
    "type": "BPE",
    "dropout": null,
    "unk_token": null,
    "continuing_subword_prefix": null,
    "end_of_word_suffix": null,
    "fuse_unk": false,
    "vocab": {
      "<s>": 0,
      "</s>": 1,
      "<unk>": 2,
      "<pad>": 3,
      "<mask>": 4,
      ",": 5,
      ".": 6,
      "A": 7,
      "B": 8,
      "C": 9,
      "D": 10,
      "E": 11,
      "F": 12,
      "G": 13,
      "H": 14,
      "I": 15,
      "J": 16,
      "K": 17,
      "L": 18,
      "M": 19,
      "N": 20,
      "O": 21,
      "P": 22,
      "Q": 23,
      "R": 24,
      "S": 25,
      "T": 26,
      "U": 27,
      "V": 28,
      "W": 29,
      "X": 30,
      "Y": 31,
      "Z": 32,
      "a": 33,
      "b": 34,
      "c": 35,
      "d": 36,
      "e": 37,
      "f": 38,
      "g": 39,
      "h": 40,
      "i": 41,
      "j": 42,
      "k": 43,
      "l": 44,
      "m": 45,
      "n": 46,
      "o": 47,
      "p": 48,
      "q": 49,
      "r": 50,
      "s": 51,
      "t": 52,
      "u": 53,
      "v": 54,
      "w": 55,
      "x": 56,
      "y": 57,
      "z": 58,
      "¢": 59,
      "§": 60,
      "©": 61,
      "ª": 62,
      "®": 63,
      "°": 64,
      "±": 65,
      "¶": 66,
      "·": 67,
      "»": 68,
      "¼": 69,
      "Â": 70,
      "Ã": 71,
      "Ä": 72,
      "Å": 73,
      "Ġ": 74,
      "Ĥ": 75,
      "ĥ": 76,
      "Ħ": 77,
      "ħ": 78,
      "ĩ": 79,
      "ĸ": 80,
      "ľ": 81,
      "ŀ": 82,
      "Ł": 83,
      "Ä±": 84,
      "ar": 85,
      "er": 86,
      "Ã¼": 87,
      "an": 88,
      "in": 89,
      "ÅŁ": 90,
      "Ġb": 91,
      "Ġ.": 92,
      "en": 93,
      "Ä±n": 94,
      "il": 95,
      "ir": 96,
      "Ġk": 97,
      "ÄŁ": 98,
      "Ġd": 99,
      "Ã§": 100,
      "Ġs": 101,
      "Ġ,": 102,
      "Ġy": 103,
      "al": 104,
      "ak": 105,
      "Ġg": 106,
      "lar": 107,
      "Ã¶": 108,
      "ek": 109,
      "el": 110,
      "Ġo": 111,
      "Ġv": 112,
      "ay": 113,
      "et": 114,
      "Ġt": 115,
      "Ġi": 116,
      "am": 117,
      "un": 118,
      "de": 119,
      "as": 120,
      "da": 121,
      "ler": 122,
      "Ġve": 123,
      "Ġh": 124,
      "or": 125,
      "at": 126,
      "es": 127,
      "iy": 128,
      "im": 129,
      "iz": 130,
      "Ġbir": 131,
      "em": 132,
      "ik": 133,
      "Ä±r": 134,
      "ĠB": 135,
      "Ġm": 136,
      "on": 137,
      "Ġol": 138,
      "aÅŁ": 139,
      "ur": 140,
      "Ä±l": 141,
      "ul": 142,
      "ed": 143,
      "ad": 144,
      "Ã¼n": 145,
      "ĠÃ§": 146,
      "ĠA": 147,
      "Ä±k": 148,
      "Ã¼r": 149,
      "ey": 150,
      "Ä±m": 151,
      "az": 152,
      "is": 153,
      "ap": 154,
      "ah": 155,
      "ĠK": 156,
      "Ä±ÅŁ": 157,
      "iÅŁ": 158,
      "Ġde": 159,
      "le": 160,
      "ĠÃ¶": 161,
      "um": 162,
      "ab": 163,
      "ĠS": 164,
      "Ġil": 165,
      "it": 166,
      "Ä±z": 167,
      "ĠT": 168,
      "Ġp": 169,
      "aÄŁ": 170,
      "li": 171,
      "ĠM": 172,
      "ĠiÃ§": 173,
      "ol": 174,
      "Ä°": 175,
      "larÄ±n": 176,
      "Ġf": 177,
      "ac": 178,
      "ĠgÃ¶": 179,
      "Ġal": 180,
      "Ã¼z": 181,
      "dan": 182,
      "ok": 183,
      "st": 184,
      "Ä±ÄŁ": 185,
      "lan": 186,
      "ini": 187,
      "inde": 188,
      "Ä±nda": 189,
      "ĠD": 190,
      "ĠÅŁ": 191,
      "ine": 192,
      "Ġn": 193,
      "Ġyap": 194,
      "di": 195,
      "ev": 196,
      "Ä±y": 197,
      "du": 198,
      "Ġar": 199,
      "ec": 200,
      "Ġbu": 201,
      "ĠÄ°": 202,
      "ĠE": 203,
      "la": 204,
      "den": 205,
      "ĠÃ": 206,
      "ĠH": 207,
      "uy": 208,
      "larÄ±": 209,
      "Ã¼k": 210,
      "asÄ±": 211,
      "uz": 212,
      "ĠY": 213,
      "ĠG": 214,
      "Ġda": 215,
      "ĠiÃ§in": 216,
      "iler": 217,
      "aÃ§": 218,
      "Ã¼m": 219,
      "esi": 220,
      "eler": 221,
      "alar": 222,
      "leri": 223,
      "iyor": 224,
      "ti": 225,
      "inin": 226,
      "Ä±nÄ±": 227,
      "Ġile": 228,
      "Ġz": 229,
      "af": 230,
      "lÄ±": 231,
      "mak": 232,
      "Ġr": 233,
      "ĠgÃ¶r": 234,
      "eÄŁ": 235,
      "ĠbaÅŁ": 236,
      "Ġed": 237,
      "Ġet": 238,
      "Ã¼l": 239,
      "uÅŁ": 240,
      "ĠP": 241,
      "lik": 242,
      "Ä±s": 243,
      "Ä±na": 244,
      "Ġan": 245,
      "dir": 246,
      "oÄŁ": 247,
      "ut": 248,
      "Ġson": 249,
      "eÃ§": 250,
      "tir": 251,
      "Ġgel": 252,
      "Ġc": 253,
      "ilir": 254,
      "Ġkar": 255,
      "Ġver": 256,
      "ilm": 257,
      "Ġger": 258,
      "ĠO": 259,
      "eb": 260,
      "ma": 261,
      "ĠÃ¶n": 262,
      "lam": 263,
      "ez": 264,
      "Ã¶n": 265,
      "uk": 266,
      "Ã¼y": 267,
      "dÄ±r": 268,
      "iniz": 269,
      "larak": 270,
      "us": 271,
      "av": 272,
      "Ã¼ÅŁ": 273,
      "Ġoldu": 274,
      "Ġin": 275,
      "ya": 276,
      "len": 277,
      "Ġkon": 278,
      "iye": 279,
      "Ġolarak": 280,
      "eÅŁ": 281,
      "tÄ±r": 282,
      "ce": 283,
      "Ġay": 284,
      "ib": 285,
      "Ä±ÄŁÄ±": 286,
      "Ġen": 287,
      "aya": 288,
      "ĠBu": 289,
      "ip": 290,
      "ta": 291,
      "ĠC": 292,
      "iÄŁ": 293,
      "Ġbil": 294,
      "Ġtar": 295,
      "Ä±yor": 296,
      "ĠiÅŁ": 297,
      "acak": 298,
      "ĠdeÄŁ": 299,
      "Ä±ndan": 300,
      "ĠF": 301,
      "ro": 302,
      "te": 303,
      "mek": 304,
      "ĠÃ§ok": 305,
      "Ġolan": 306,
      "Ġolm": 307,
      "Ġbul": 308,
      "Ġyer": 309,
      "aha": 310,
      "lÄ±k": 311,
      "Ä±nÄ±n": 312,
      "lem": 313,
      "anÄ±": 314,
      "Ã¼rk": 315,
      "se": 316,
      "Ġkul": 317,
      "imiz": 318,
      "unu": 319,
      "ayÄ±": 320,
      "Ġkal": 321,
      "Ġkad": 322,
      "anÄ±n": 323,
      "Ġor": 324,
      "Ġist": 325,
      "op": 326,
      "ede": 327,
      "dÄ±": 328,
      "ĠyÄ±l": 329,
      "ibi": 330,
      "ada": 331,
      "ĠgÃ¼n": 332,
      "Ã¶y": 333,
      "om": 334,
      "ĠaÃ§": 335,
      "Ġdaha": 336,
      "Ġad": 337,
      "tan": 338,
      "ĠÃĩ": 339,
      "eni": 340,
      "Ġkullan": 341,
      "ĠR": 342,
      "Ġher": 343,
      "ih": 344,
      "ĠolduÄŁ": 345,
      "Ġkur": 346,
      "mÄ±ÅŁ": 347,
      "ĠsÃ¼r": 348,
      "ÄŁi": 349,
      "tÄ±": 350,
      "ĠTÃ¼rk": 351,
      "Ã¶r": 352,
      "lerin": 353,
      "lu": 354,
      "alÄ±ÅŁ": 355,
      "Ġvar": 356,
      "ĠN": 357,
      "yon": 358,
      "Ġuy": 359,
      "ecek": 360,
      "aki": 361,
      "eki": 362,
      "ark": 363,
      "Ġbel": 364,
      "Ġgibi": 365,
      "Åŀ": 366,
      "ĠgeÃ§": 367,
      "ra": 368,
      "ĠyaÅŁ": 369,
      "Ġken": 370,
      "ki": 371,
      "ĠÃ§Ä±k": 372,
      "ĠÃ§alÄ±ÅŁ": 373,
      "ĠÃĸ": 374,
      "Ä±mÄ±z": 375,
      "aman": 376,
      "isi": 377,
      "man": 378,
      "Ġyar": 379,
      "ca": 380,
      "eye": 381,
      "eden": 382,
      "ĠÃ¼z": 383,
      "ilen": 384,
      "me": 385,
      "ama": 386,
      "masÄ±": 387,
      "ic": 388,
      "san": 389,
      "ayan": 390,
      "Ġgerek": 391,
      "ken": 392,
      "Ġbulun": 393,
      "abilir": 394,
      "ĠyapÄ±l": 395,
      "ĠÃ¼zer": 396,
      "Ã¼t": 397,
      "ÄŁr": 398,
      "ist": 399,
      "eh": 400,
      "Ġel": 401,
      "Ġon": 402,
      "unda": 403,
      "asÄ±nda": 404,
      "ep": 405,
      "ĠÃ¶z": 406,
      "ĠÅŀ": 407,
      "ili": 408,
      "leÅŁ": 409,
      "ĠsaÄŁ": 410,
      "miÅŁ": 411,
      "ĠAn": 412,
      "ĠV": 413,
      "alÄ±": 414,
      "cÄ±": 415,
      "inden": 416,
      "Ġkadar": 417,
      "let": 418,
      "ekt": 419,
      "os": 420,
      "oy": 421,
      "laÅŁ": 422,
      "Ġek": 423,
      "unun": 424,
      "ers": 425,
      "ĠL": 426,
      "ru": 427,
      "met": 428,
      "iyle": 429,
      "iyet": 430,
      "enin": 431,
      "Ä±nÄ±z": 432,
      "ter": 433,
      "Ã¶z": 434,
      "Ġzaman": 435,
      "Ã¢": 436,
      "Ġyaz": 437,
      "lÃ¼": 438,
      "ĠyÃ¶n": 439,
      "sa": 440,
      "ĠdÃ¼ÅŁ": 441,
      "Ġsor": 442,
      "Ä±yla": 443,
      "Ġdur": 444,
      "ade": 445,
      "tur": 446,
      "daki": 447,
      "Ġtek": 448,
      "ĠkarÅŁ": 449,
      "eli": 450,
      "gi": 451,
      "Ġl": 452,
      "Ġhal": 453,
      "Ġyan": 454,
      "Ġdev": 455,
      "lara": 456,
      "arak": 457,
      "edi": 458,
      "Ġpro": 459,
      "ef": 460,
      "id": 461,
      "ĠbÃ¼y": 462,
      "Ã¶l": 463,
      "Ġtaraf": 464,
      "Ġak": 465,
      "Ġtop": 466,
      "Ã¼c": 467,
      "ĠdoÄŁ": 468,
      "Ġoy": 469,
      "Ġsonra": 470,
      "edir": 471,
      "if": 472,
      "larÄ±nÄ±": 473,
      "Ġben": 474,
      "Ġkat": 475,
      "ĠU": 476,
      "Ġsah": 477,
      "ĠBaÅŁ": 478,
      "oc": 479,
      "Ġuyg": 480,
      "ĠÅŁek": 481,
      "Ġise": 482,
      "ĠÃ¼r": 483,
      "Ġsay": 484,
      "ĠdÃ¶n": 485,
      "acaÄŁ": 486,
      "ot": 487,
      "Ã¼Ã§": 488,
      "iÃ§": 489,
      "eri": 490,
      "ĠBir": 491,
      "Ġpar": 492,
      "mas": 493,
      "ans": 494,
      "Ġkap": 495,
      "Ġhay": 496,
      "malar": 497,
      "ĠAl": 498,
      "uyor": 499,
      "lerini": 500,
      "tad": 501,
      "erk": 502,
      "Ġbelir": 503,
      "imi": 504,
      "eceÄŁ": 505,
      "erek": 506,
      "Ġkay": 507,
      "est": 508,
      "esinde": 509,
      "deki": 510,
      "cak": 511,
      "Ġsiz": 512,
      "ĠÃľ": 513,
      "Ġyak": 514,
      "Ġat": 515,
      "ĠÃ¶zel": 516,
      "Ġhak": 517,
      "lad": 518,
      "siniz": 519,
      "Ġev": 520,
      "ĠÃ¶ÄŁr": 521,
      "ĠAr": 522,
      "Ġveya": 523,
      "Ġyeni": 524,
      "ĠgerÃ§": 525,
      "Ġiy": 526,
      "Ġyol": 527,
      "Ġkend": 528,
      "Ġden": 529,
      "larda": 530,
      "ley": 531,
      "una": 532,
      "Ġsev": 533,
      "Ã¼s": 534,
      "lat": 535,
      "ĠkiÅŁ": 536,
      "Ġalan": 537,
      "elik": 538,
      "ĠbÃ¼yÃ¼k": 539,
      "Ġuz": 540,
      "ĠyÃ¼z": 541,
      "Ġne": 542,
      "art": 543,
      "dÃ¼r": 544,
      "lere": 545,
      "arÄ±": 546,
      "ĠdÃ¼z": 547,
      "sel": 548,
      "Ġgen": 549,
      "Ġtak": 550,
      "kin": 551,
      "Ġgir": 552,
      "eleri": 553,
      "ildi": 554,
      "Ġort": 555,
      "Ġbak": 556,
      "lay": 557,
      "ĠÃ¶nem": 558,
      "Ġilg": 559,
      "ediÄŁ": 560,
      "ram": 561,
      "iv": 562,
      "Ġbiz": 563,
      "Ä±sÄ±": 564,
      "Ġhem": 565,
      "ster": 566,
      "tadÄ±r": 567,
      "ĠdeÄŁil": 568,
      "kan": 569,
      "Ġilk": 570,
      "iÅŁtir": 571,
      "Ä±lan": 572,
      "eyi": 573,
      "ci": 574,
      "Ġes": 575,
      "Ġinsan": 576,
      "Ġdurum": 577,
      "ĠaÃ§Ä±k": 578,
      "Ġok": 579,
      "men": 580,
      "ĠsÃ¶y": 581,
      "Ġa": 582,
      "ten": 583,
      "ĠbÃ¶l": 584,
      "uÃ§": 585,
      "adan": 586,
      "od": 587,
      "ĠtarafÄ±ndan": 588,
      "Ġki": 589,
      "Ġtem": 590,
      "ĠbaÄŁ": 591,
      "etim": 592,
      "asyon": 593,
      "ĠyÃ¼k": 594,
      "cu": 595,
      "ĠÅŁekil": 596,
      "ĠgÃ¶re": 597,
      "Ġas": 598,
      "Ġfark": 599,
      "izmet": 600,
      "ĠeÄŁ": 601,
      "ĠI": 602,
      "dÄ±m": 603,
      "Ġhar": 604,
      "Ġiyi": 605,
      "tÄ±k": 606,
      "ĠolduÄŁu": 607,
      "maya": 608,
      "Ġtam": 609,
      "ĠgÃ¶ster": 610,
      "ĠgerÃ§ek": 611,
      "ebilir": 612,
      "aat": 613,
      "ĠoluÅŁ": 614,
      "sun": 615,
      "uh": 616,
      "larÄ±nÄ±n": 617,
      "abil": 618,
      "ĠseÃ§": 619,
      "ÄŁu": 620,
      "Ġder": 621,
      "aÄŁÄ±": 622,
      "tr": 623,
      "iyat": 624,
      "Ġyok": 625,
      "Ġtarih": 626,
      "oz": 627,
      "Ġyet": 628,
      "Ġsan": 629,
      "Ä±lÄ±": 630,
      "Ä±ÄŁÄ±nÄ±": 631,
      "mesi": 632,
      "etir": 633,
      "ĠAy": 634,
      "rÄ±": 635,
      "ast": 636,
      "ĠÅŁekilde": 637,
      "ayÄ±n": 638,
      "Ġmil": 639,
      "Ġul": 640,
      "Ġih": 641,
      "Ġalt": 642,
      "Ġama": 643,
      "ĠtÃ¼m": 644,
      "Ġya": 645,
      "Ġser": 646,
      "Ġuygul": 647,
      "dur": 648,
      "Ġhizmet": 649,
      "Ã¼st": 650,
      "Ġgetir": 651,
      "Ã¼zel": 652,
      "ileri": 653,
      "ĠÃ¼l": 654,
      "aret": 655,
      "ĠZ": 656,
      "up": 657,
      "bir": 658,
      "ĠEr": 659,
      "ĠgÃ¶z": 660,
      "oÅŁ": 661,
      "Ġneden": 662,
      "maktadÄ±r": 663,
      "liÄŁ": 664,
      "ĠdÃ¼n": 665,
      "ĠsÄ±r": 666,
      "iÄŁer": 667,
      "ĠaÅŁ": 668,
      "Ã¼v": 669,
      "ĠÃ¶ÄŁren": 670,
      "ĠÃ§ek": 671,
      "Ġam": 672,
      "esine": 673,
      "Ġiz": 674,
      "larÄ±na": 675,
      "ran": 676,
      "ĠÄ°n": 677,
      "lerde": 678,
      "Ä±mÄ±": 679,
      "ĠÅŁey": 680,
      "liÄŁi": 681,
      "mam": 682,
      "Ġdol": 683,
      "dÄ±ÄŁÄ±": 684,
      "nÄ±": 685,
      "istem": 686,
      "ĠdÃ¼ÅŁÃ¼n": 687,
      "Ġaz": 688,
      "Ġsahip": 689,
      "Ġkaz": 690,
      "Ġbilg": 691,
      "Ġdevam": 692,
      "leÅŁtir": 693,
      "Ġtut": 694,
      "Ġilgili": 695,
      "ĠKur": 696,
      "ĠiÃ§er": 697,
      "ĠTÃ¼rkiye": 698,
      "Ã¼yor": 699,
      "itim": 700,
      "alÄ±k": 701,
      "ocuk": 702,
      "ĠÃ¶nemli": 703,
      "kanÄ±": 704,
      "aber": 705,
      "iyorum": 706,
      "ĠolduÄŁunu": 707,
      "tar": 708,
      "raf": 709,
      "ĠsÃ¶z": 710,
      "ĠdeÄŁer": 711,
      "ĠalÄ±n": 712,
      "Ä±p": 713,
      "ret": 714,
      "Ġter": 715,
      "Ġfaz": 716,
      "Ġetti": 717,
      "ĠÄ°l": 718,
      "oj": 719,
      "Ġhaz": 720,
      "alarÄ±": 721,
      "lerinin": 722,
      "esini": 723,
      "ĠÃ¼lk": 724,
      "ka": 725,
      "tÃ¼r": 726,
      "Ġbin": 727,
      "ĠaÄŁ": 728,
      "Ġduy": 729,
      "emek": 730,
      "Ġede": 731,
      "ĠdÃ¼zen": 732,
      "Ã¼ven": 733,
      "ĠgÃ¼zel": 734,
      "Ġbirlik": 735,
      "mekt": 736,
      "Ġtan": 737,
      "lerine": 738,
      "Ã¶yle": 739,
      "lendir": 740,
      "Ġkol": 741,
      "ĠkÄ±s": 742,
      "Ġhayat": 743,
      "emiz": 744,
      "dÃ¼": 745,
      "ĠiÃ§inde": 746,
      "azÄ±": 747,
      "Ġis": 748,
      "esin": 749,
      "Ã¼nde": 750,
      "Ġolur": 751,
      "larÄ±nda": 752,
      "Ġiki": 753,
      "Ġsun": 754,
      "re": 755,
      "ĠÃ¶nce": 756,
      "eniz": 757,
      "lÄ±ÄŁÄ±": 758,
      "ĠtaÅŁ": 759,
      "usu": 760,
      "der": 761,
      "Ġbas": 762,
      "siz": 763,
      "ĠÄ°st": 764,
      "likle": 765,
      "ĠhiÃ§": 766,
      "Ġzor": 767,
      "ĠarasÄ±nda": 768,
      "ilik": 769,
      "han": 770,
      "sÄ±z": 771,
      "Ġkor": 772,
      "ĠBel": 773,
      "erkez": 774,
      "sek": 775,
      "lÄ±ÄŁ": 776,
      "por": 777,
      "diÄŁ": 778,
      "ob": 779,
      "lardan": 780,
      "ulu": 781,
      "lah": 782,
      "ĠdÄ±ÅŁ": 783,
      "ara": 784,
      "Ġsat": 785,
      "Ġsistem": 786,
      "oloj": 787,
      "Ã¼nÃ¼": 788,
      "ĠÃĸz": 789,
      "dik": 790,
      "alan": 791,
      "ĠhazÄ±r": 792,
      "Ġhat": 793,
      "mektedir": 794,
      "Ġbek": 795,
      "diÄŁi": 796,
      "ĠÃ¶l": 797,
      "ide": 798,
      "gÃ¼n": 799,
      "ĠGen": 800,
      "ĠdiÄŁer": 801,
      "iÅŁim": 802,
      "Ġetk": 803,
      "Ġsit": 804,
      "Ã§a": 805,
      "eyen": 806,
      "ĠkonuÅŁ": 807,
      "Ä±ndaki": 808,
      "Ġtes": 809,
      "asÄ±l": 810,
      "bul": 811,
      "Ġgelen": 812,
      "Ġark": 813,
      "tÄ±ÄŁÄ±": 814,
      "Ġim": 815,
      "adece": 816,
      "ĠdÃ¶nem": 817,
      "meye": 818,
      "Ġbirlikte": 819,
      "ĠAk": 820,
      "tu": 821,
      "ig": 822,
      "tik": 823,
      "Ġboy": 824,
      "Ġoyun": 825,
      "Ġolmak": 826,
      "si": 827,
      "ĠaynÄ±": 828,
      "ĠBak": 829,
      "Ġkab": 830,
      "ilmesi": 831,
      "Ġdiye": 832,
      "Ġhakk": 833,
      "og": 834,
      "Ġfazla": 835,
      "Ġkazan": 836,
      "Ä±cÄ±": 837,
      "ĠÃ¶r": 838,
      "Ġkim": 839,
      "Ġdik": 840,
      "Ġolacak": 841,
      "ĠkÃ¶": 842,
      "ehir": 843,
      "ĠKar": 844,
      "Ġbur": 845,
      "rup": 846,
      "ĠÄ°ÅŁ": 847,
      "muÅŁ": 848,
      "ĠEn": 849,
      "Ġeden": 850,
      "Ã§e": 851,
      "maz": 852,
      "Ġu": 853,
      "ĠÃ§ocuk": 854,
      "gram": 855,
      "Ġmes": 856,
      "Ã¼tÃ¼n": 857,
      "Ġdil": 858,
      "ĠÃ¼rÃ¼n": 859,
      "ĠyapÄ±lan": 860,
      "tÃ¼": 861,
      "asar": 862,
      "lama": 863,
      "ilerin": 864,
      "osy": 865,
      "ana": 866,
      "ĠulaÅŁ": 867,
      "Ã¼p": 868,
      "abilirsiniz": 869,
      "Ġkonu": 870,
      "Ä±lÄ±k": 871,
      "anbul": 872,
      "esinin": 873,
      "larla": 874,
      "orm": 875,
      "Ġif": 876,
      "lerinde": 877,
      "ĠeÅŁ": 878,
      "ĠÄ°s": 879,
      "asÄ±na": 880,
      "ĠgÃ¼ven": 881,
      "Ġyat": 882,
      "Ġkurul": 883,
      "Ġsaat": 884,
      "Ġdest": 885,
      "ub": 886,
      "ĠÃ¼st": 887,
      "Ġot": 888,
      "kÃ¼": 889,
      "Ġkan": 890,
      "uv": 891,
      "acÄ±": 892,
      "Ġkendi": 893,
      "eÄŁi": 894,
      "iyon": 895,
      "ĠiÅŁlem": 896,
      "ĠÃ§Ä±kar": 897,
      "cel": 898,
      "tiÄŁ": 899,
      "Ġsen": 900,
      "iyoruz": 901,
      "bet": 902,
      "ĠBen": 903,
      "ĠgÃ¶rÃ¼n": 904,
      "ĠbÃ¶lg": 905,
      "ĠkarÅŁÄ±": 906,
      "ĠfarklÄ±": 907,
      "Ġtamam": 908,
      "ĠgÃ¶rev": 909,
      "Ġhaf": 910,
      "ĠEÄŁ": 911,
      "ĠÃ¶nc": 912,
      "ket": 913,
      "ĠiliÅŁ": 914,
      "larÄ±mÄ±z": 915,
      "Ã¼ne": 916,
      "ĠW": 917,
      "ĠOr": 918,
      "Ġsadece": 919,
      "ĠsÄ±k": 920,
      "isinde": 921,
      "dÄ±ÄŁ": 922,
      "ĠdoÄŁru": 923,
      "ĠtÃ¼r": 924,
      "luk": 925,
      "dar": 926,
      "Ġkit": 927,
      "Ġmut": 928,
      "ĠÄ°stanbul": 929,
      "Ġanlam": 930,
      "Ġmod": 931,
      "Ġmal": 932,
      "kat": 933,
      "adaÅŁ": 934,
      "iyas": 935,
      "dÄ±k": 936,
      "ĠdeÄŁiÅŁ": 937,
      "Ġiht": 938,
      "ladÄ±": 939,
      "Ġer": 940,
      "Ġkr": 941,
      "eket": 942,
      "Ġtekn": 943,
      "ici": 944,
      "ĠCum": 945,
      "Ġkarar": 946,
      "hur": 947,
      "ivers": 948,
      "mÄ±ÅŁtÄ±r": 949,
      "ĠAv": 950,
      "Ġdav": 951,
      "Ġtab": 952,
      "Ġkam": 953,
      "Ġtel": 954,
      "aÅŁtÄ±r": 955,
      "ĠPro": 956,
      "Ġbun": 957,
      "asÄ±nÄ±": 958,
      "iversit": 959,
      "Ã¼dÃ¼r": 960,
      "Ġsal": 961,
      "ahat": 962,
      "Ġart": 963,
      "ĠnasÄ±l": 964,
      "lerden": 965,
      "eg": 966,
      "ĠyardÄ±m": 967,
      "Ä±zÄ±": 968,
      "ĠJ": 969,
      "ĠBaÅŁkanÄ±": 970,
      "Ġbulunan": 971,
      "Ġem": 972,
      "Ġmad": 973,
      "anda": 974,
      "ĠKon": 975,
      "ĠkatÄ±l": 976,
      "Ġetm": 977,
      "Ġeder": 978,
      "Ġbelirt": 979,
      "Ġsav": 980,
      "Ġgit": 981,
      "Ġdedi": 982,
      "net": 983,
      "ĠeÄŁitim": 984,
      "Ã®": 985,
      "ĠOn": 986,
      "ĠyÃ¼ksek": 987,
      "Ä±rak": 988,
      "ĠolmasÄ±": 989,
      "ĠkullanÄ±l": 990,
      "ĠTÃ¼rkiy": 991,
      "Ġolduk": 992,
      "lak": 993,
      "ĠSon": 994,
      "Ġhav": 995,
      "usunda": 996,
      "Ġuygun": 997,
      "Ġgid": 998,
      "rak": 999,
      "ĠoluÅŁtur": 1000,
      "ĠyaÅŁam": 1001,
      "layan": 1002,
      "Ġbit": 1003,
      "Ġmak": 1004,
      "lÃ¼ÄŁ": 1005,
      "end": 1006,
      "Ġbah": 1007,
      "ĠgÃ¼Ã§": 1008,
      "unuz": 1009,
      "Ġte": 1010,
      "sam": 1011,
      "Ġanlat": 1012,
      "ĠÃ§ev": 1013,
      "mad": 1014,
      "ĠBeled": 1015,
      "Ġproj": 1016,
      "Ġdikkat": 1017,
      "okt": 1018,
      "eme": 1019,
      "Ġik": 1020,
      "lÃ¼k": 1021,
      "ektÃ¶r": 1022,
      "ĠÃ§alÄ±ÅŁmalar": 1023,
      "ĠarkadaÅŁ": 1024,
      "ece": 1025,
      "ort": 1026,
      "lum": 1027,
      "ĠyÃ¼r": 1028,
      "ĠbÄ±rak": 1029,
      "atÄ±": 1030,
      "Ġsu": 1031,
      "Ġbile": 1032,
      "lerinden": 1033,
      "Ġbiri": 1034,
      "ika": 1035,
      "ilecek": 1036,
      "ĠsÃ¶yl": 1037,
      "ĠgÃ¶n": 1038,
      "lerle": 1039,
      "ĠÃ¼zere": 1040,
      "inizi": 1041,
      "Ġgenel": 1042,
      "ĠHer": 1043,
      "Ġhast": 1044,
      "larÄ±ndan": 1045,
      "lanan": 1046,
      "ĠkadÄ±n": 1047,
      "ĠBil": 1048,
      "gil": 1049,
      "Ã¼mÃ¼z": 1050,
      "ĠÃ¼zerine": 1051,
      "duÄŁu": 1052,
      "ĠBur": 1053,
      "elerin": 1054,
      "ĠdÃ¼ny": 1055,
      "ĠgerÃ§ekleÅŁtir": 1056,
      "ĠkarÅŁÄ±l": 1057,
      "ost": 1058,
      "enk": 1059,
      "ĠMil": 1060,
      "ĠGenel": 1061,
      "ĠBiz": 1062,
      "Ġpay": 1063,
      "Ġkayn": 1064,
      "rÄ±ca": 1065,
      "Ġdestek": 1066,
      "umuz": 1067,
      "Ġprogram": 1068,
      "ĠGÃ¼n": 1069,
      "ĠyÄ±lÄ±nda": 1070,
      "mi": 1071,
      "Ġedilm": 1072,
      "ant": 1073,
      "ĠÃ¼ret": 1074,
      "Ġsorun": 1075,
      "osyal": 1076,
      "Ãľ": 1077,
      "ĠkaÃ§": 1078,
      "bar": 1079,
      "irket": 1080,
      "ĠbÃ¼tÃ¼n": 1081,
      "edik": 1082,
      "orum": 1083,
      "ĠÃ¼zerinde": 1084,
      "Ġsonr": 1085,
      "ĠgeÃ§ir": 1086,
      "ĠhÄ±z": 1087,
      "kÄ±": 1088,
      "amaz": 1089,
      "ĠbaÅŁar": 1090,
      "sal": 1091,
      "ĠÃ§Ã¶z": 1092,
      "Ã¼nkÃ¼": 1093,
      "Ġdin": 1094,
      "Ä±rÄ±m": 1095,
      "Ġmuh": 1096,
      "ĠCumhur": 1097,
      "ĠÃ¼n": 1098,
      "Ġuzun": 1099,
      "Ġfiyat": 1100,
      "Ġihtiy": 1101,
      "lerimiz": 1102,
      "ing": 1103,
      "Ġkolay": 1104,
      "ĠbazÄ±": 1105,
      "Ġkoy": 1106,
      "Ġhareket": 1107,
      "tÄ±ÄŁ": 1108,
      "gel": 1109,
      "ĠmÃ¼": 1110,
      "lenen": 1111,
      "ĠteÅŁ": 1112,
      "rar": 1113,
      "ĠÃ¼y": 1114,
      "ĠÃľn": 1115,
      "akat": 1116,
      "Ġoyn": 1117,
      "onom": 1118,
      "mayÄ±": 1119,
      "Ġdem": 1120,
      "Ġseb": 1121,
      "Ġmerkez": 1122,
      "ĠgÃ¶rÃ¼ÅŁ": 1123,
      "Ġfir": 1124,
      "elim": 1125,
      "Ġun": 1126,
      "Ġortaya": 1127,
      "ĠbaÅŁka": 1128,
      "ov": 1129,
      "aba": 1130,
      "tÄ±m": 1131,
      "Ġfilm": 1132,
      "Ġdiy": 1133,
      "Ġuygulam": 1134,
      "eti": 1135,
      "iÄŁi": 1136,
      "sin": 1137,
      "Ġhep": 1138,
      "ĠsÄ±": 1139,
      "Ä±yorum": 1140,
      "ĠyÃ¶net": 1141,
      "ĠEk": 1142,
      "asÄ±nÄ±n": 1143,
      "ĠAllah": 1144,
      "ĠÃ¼Ã§": 1145,
      "Ġtasar": 1146,
      "ent": 1147,
      "lamak": 1148,
      "leme": 1149,
      "ĠgeliÅŁ": 1150,
      "masÄ±nÄ±": 1151,
      "Ġifade": 1152,
      "Ġcan": 1153,
      "dÃ¼ÄŁ": 1154,
      "may": 1155,
      "gan": 1156,
      "ĠbÃ¶lÃ¼m": 1157,
      "Ġkabul": 1158,
      "Ã§ok": 1159,
      "indeki": 1160,
      "ĠhakkÄ±nda": 1161,
      "ri": 1162,
      "ucu": 1163,
      "aj": 1164,
      "Ġolmad": 1165,
      "ank": 1166,
      "ĠDev": 1167,
      "ĠAB": 1168,
      "Ġetmek": 1169,
      "ektedir": 1170,
      "ĠAm": 1171,
      "Ġmet": 1172,
      "ĠkÄ±z": 1173,
      "Ġbenim": 1174,
      "baÅŁ": 1175,
      "bol": 1176,
      "ediÄŁi": 1177,
      "ĠEv": 1178,
      "Ġediyor": 1179,
      "Ġkes": 1180,
      "Ġbey": 1181,
      "ĠAncak": 1182,
      "cek": 1183,
      "Ġkom": 1184,
      "Ä±ya": 1185,
      "ĠEs": 1186,
      "ĠAt": 1187,
      "ĠEl": 1188,
      "rik": 1189,
      "dÄ±ndan": 1190,
      "Ã¼Ã§Ã¼k": 1191,
      "Ġmev": 1192,
      "ĠÃ¶ÄŁrenc": 1193,
      "ĠAs": 1194,
      "ĠDÃ¼n": 1195,
      "suz": 1196,
      "Ġayr": 1197,
      "Ã¼ltÃ¼r": 1198,
      "isini": 1199,
      "Ġmi": 1200,
      "Ġplan": 1201,
      "Ġfa": 1202,
      "Ġyay": 1203,
      "ĠyaklaÅŁ": 1204,
      "urt": 1205,
      "ĠTek": 1206,
      "ĠMÃ¼dÃ¼r": 1207,
      "meler": 1208,
      "Ã§i": 1209,
      "Ġres": 1210,
      "atik": 1211,
      "dum": 1212,
      "siyon": 1213,
      "efon": 1214,
      "ĠbÃ¶yle": 1215,
      "ĠÃ§eÅŁ": 1216,
      "ĠAd": 1217,
      "Ġrahat": 1218,
      "Ġpol": 1219,
      "ĠBaÅŁkan": 1220,
      "ĠÅŁu": 1221,
      "ĠyakÄ±n": 1222,
      "Ġyas": 1223,
      "gÄ±": 1224,
      "Ġhaber": 1225,
      "acaÄŁÄ±": 1226,
      "duÄŁ": 1227,
      "Ġancak": 1228,
      "ĠsaÄŁlÄ±k": 1229,
      "Ġtal": 1230,
      "isine": 1231,
      "undan": 1232,
      "Ä±yoruz": 1233,
      "Ġhas": 1234,
      "azar": 1235,
      "ĠyÃ¼zde": 1236,
      "ĠpaylaÅŁ": 1237,
      "ge": 1238,
      "Ä±ÅŁtÄ±r": 1239,
      "sanÄ±z": 1240,
      "ne": 1241,
      "ĠkiÅŁi": 1242,
      "Ġziy": 1243,
      "ĠKan": 1244,
      "Ã¼nÃ¼n": 1245,
      "tem": 1246,
      "Ġterc": 1247,
      "gin": 1248,
      "miÅŁtir": 1249,
      "oÄŁraf": 1250,
      "Ġhan": 1251,
      "Ġbilin": 1252,
      "Ġtah": 1253,
      "masÄ±na": 1254,
      "ĠyayÄ±n": 1255,
      "Ġyerine": 1256,
      "Ã¶k": 1257,
      "eceÄŁi": 1258,
      "uc": 1259,
      "vur": 1260,
      "tal": 1261,
      "ĠSan": 1262,
      "Ġedilen": 1263,
      "Ġbilgi": 1264,
      "Ġkav": 1265,
      "tif": 1266,
      "min": 1267,
      "trol": 1268,
      "edef": 1269,
      "mez": 1270,
      "Ġmah": 1271,
      "ĠiÃ§erisinde": 1272,
      "ĠYar": 1273,
      "Ä±ma": 1274,
      "dav": 1275,
      "ĠBakan": 1276,
      "lim": 1277,
      "Ġhes": 1278,
      "Ġdevlet": 1279,
      "ver": 1280,
      "abilm": 1281,
      "Ġkonusunda": 1282,
      "ĠÅŁirket": 1283,
      "olu": 1284,
      "ber": 1285,
      "acaktÄ±r": 1286,
      "imdi": 1287,
      "Ġyapan": 1288,
      "ĠkÄ±r": 1289,
      "ĠvardÄ±r": 1290,
      "ĠgÃ¶nder": 1291,
      "ĠYÄ±l": 1292,
      "nin": 1293,
      "gul": 1294,
      "Ġkurum": 1295,
      "dim": 1296,
      "ĠbirÃ§ok": 1297,
      "madan": 1298,
      "yada": 1299,
      "Ġail": 1300,
      "Ġmer": 1301,
      "Ä±nÄ±r": 1302,
      "Ġmilyon": 1303,
      "ĠsonuÃ§": 1304,
      "ele": 1305,
      "Ġinan": 1306,
      "Ä±lmasÄ±": 1307,
      "ĠartÄ±k": 1308,
      "leyen": 1309,
      "ĠÃľniversit": 1310,
      "ĠÃ§eÅŁit": 1311,
      "ye": 1312,
      "ĠaraÃ§": 1313,
      "iliyor": 1314,
      "ĠBÃ¼y": 1315,
      "oÄŁlu": 1316,
      "Ġkalit": 1317,
      "ĠardÄ±ndan": 1318,
      "Ġkapsam": 1319,
      "ER": 1320,
      "Ġtur": 1321,
      "Ġedeb": 1322,
      "ĠYÃ¶n": 1323,
      "unca": 1324,
      "Ã¼kÃ¼m": 1325,
      "Ġtoplum": 1326,
      "van": 1327,
      "ilere": 1328,
      "ĠaÃ§Ä±klam": 1329,
      "Ã¼ÅŁter": 1330,
      "per": 1331,
      "ĠbugÃ¼n": 1332,
      "ĠAvrup": 1333,
      "Ġyarat": 1334,
      "sik": 1335,
      "ekk": 1336,
      "ĠDoÄŁ": 1337,
      "ĠmaÃ§": 1338,
      "Ġtelefon": 1339,
      "Ġtercih": 1340,
      "manÄ±n": 1341,
      "uÅŁtur": 1342,
      "ĠdeÄŁerlendir": 1343,
      "ternet": 1344,
      "uluk": 1345,
      "sil": 1346,
      "Ġman": 1347,
      "ĠgÃ¶rÃ¼l": 1348,
      "Ä±lÄ±r": 1349,
      "Ġolabilir": 1350,
      "nek": 1351,
      "iyi": 1352,
      "ĠÃ¼c": 1353,
      "erj": 1354,
      "Ġhis": 1355,
      "ĠgeliÅŁtir": 1356,
      "ĠÃĸzel": 1357,
      "ĠHal": 1358,
      "ĠAma": 1359,
      "kÃ¼n": 1360,
      "Ġber": 1361,
      "ekli": 1362,
      "res": 1363,
      "Ġyine": 1364,
      "oÄŁun": 1365,
      "malÄ±": 1366,
      "ĠÃĸn": 1367,
      "ĠÃ¼cret": 1368,
      "AR": 1369,
      "Ġgelir": 1370,
      "Ġtat": 1371,
      "ĠTar": 1372,
      "Ġhedef": 1373,
      "Ġses": 1374,
      "ag": 1375,
      "Ġolsun": 1376,
      "Ġmey": 1377,
      "AN": 1378,
      "ali": 1379,
      "Ġyen": 1380,
      "Ġtav": 1381,
      "Ġerk": 1382,
      "ĠmÃ¼m": 1383,
      "ust": 1384,
      "det": 1385,
      "anan": 1386,
      "Ġisim": 1387,
      "alt": 1388,
      "Ġziyaret": 1389,
      "fa": 1390,
      "Ä±t": 1391,
      "ud": 1392,
      "Ġid": 1393,
      "Ġvat": 1394,
      "Ġkez": 1395,
      "Ġli": 1396,
      "ale": 1397,
      "Ġiti": 1398,
      "ĠsektÃ¶r": 1399,
      "Ġdah": 1400,
      "ĠPar": 1401,
      "ĠBÃ¼yÃ¼k": 1402,
      "isinin": 1403,
      "ĠÃ¶de": 1404,
      "ĠYap": 1405,
      "sunuz": 1406,
      "ĠyaptÄ±ÄŁÄ±": 1407,
      "Ġadam": 1408,
      "azet": 1409,
      "Ġkontrol": 1410,
      "ilmiÅŁ": 1411,
      "ĠaraÅŁtÄ±r": 1412,
      "Ġhemen": 1413,
      "ĠgenÃ§": 1414,
      "Ġmodel": 1415,
      "Ġyapmak": 1416,
      "arasÄ±": 1417,
      "Ä±ÅŁÄ±": 1418,
      "Ġokul": 1419,
      "ĠgeÃ§en": 1420,
      "eyin": 1421,
      "ĠseÃ§im": 1422,
      "erli": 1423,
      "Ã¼cad": 1424,
      "ĠbaÅŁvur": 1425,
      "las": 1426,
      "Ġvur": 1427,
      "ĠyaÄŁ": 1428,
      "doÄŁ": 1429,
      "Ġmem": 1430,
      "Ġbunu": 1431,
      "ayet": 1432,
      "Ġtr": 1433,
      "Ã¼b": 1434,
      "Ġzamanda": 1435,
      "Ġsosyal": 1436,
      "Ġolay": 1437,
      "ĠhiÃ§bir": 1438,
      "Ġtoplan": 1439,
      "Ġkaynak": 1440,
      "Ġekonom": 1441,
      "Ġbar": 1442,
      "ize": 1443,
      "istan": 1444,
      "adÄ±": 1445,
      "Ġherk": 1446,
      "mem": 1447,
      "gu": 1448,
      "Ġbenz": 1449,
      "Ġmas": 1450,
      "ĠBunun": 1451,
      "ĠyanÄ±": 1452,
      "ĠfÄ±r": 1453,
      "duk": 1454,
      "ĠkÃ¼Ã§Ã¼k": 1455,
      "ĠmÄ±": 1456,
      "Ġkil": 1457,
      "Ġolup": 1458,
      "Ġitibar": 1459,
      "Ġpek": 1460,
      "ĠbaÄŁlÄ±": 1461,
      "ĠaltÄ±nda": 1462,
      "Ġdiz": 1463,
      "ĠTop": 1464,
      "edim": 1465,
      "abilecek": 1466,
      "Ġzar": 1467,
      "Ä±ldÄ±": 1468,
      "kinci": 1469,
      "Ġod": 1470,
      "ĠoldukÃ§a": 1471,
      "Ġincel": 1472,
      "Ġsize": 1473,
      "abÄ±": 1474,
      "Ġav": 1475,
      "aliyet": 1476,
      "alarÄ±n": 1477,
      "ĠAyrÄ±ca": 1478,
      "landÄ±r": 1479,
      "tim": 1480,
      "Ä±lmÄ±ÅŁ": 1481,
      "ĠgÃ¼nÃ¼": 1482,
      "Ġkitap": 1483,
      "Ġonun": 1484,
      "oh": 1485,
      "Ġhalk": 1486,
      "Ġrenk": 1487,
      "amak": 1488,
      "Ã§Ä±": 1489,
      "ĠdÃ¶nÃ¼ÅŁ": 1490,
      "dÄ±ÄŁÄ±nÄ±": 1491,
      "tiÄŁi": 1492,
      "ĠuÃ§": 1493,
      "otoÄŁraf": 1494,
      "ebilirsiniz": 1495,
      "Ġac": 1496,
      "ĠsÃ¼re": 1497,
      "Ġgereken": 1498,
      "Ġcev": 1499,
      "ĠÃ§alÄ±ÅŁan": 1500,
      "imde": 1501,
      "ĠsÄ±nÄ±r": 1502,
      "acaÄŁÄ±nÄ±": 1503,
      "ĠkÄ±sa": 1504,
      "ĠmÃ¼mkÃ¼n": 1505,
      "ĠDer": 1506,
      "ĠAnk": 1507,
      "Ġsab": 1508,
      "lemek": 1509,
      "mir": 1510,
      "andaÅŁ": 1511,
      "ĠMerkez": 1512,
      "Ġw": 1513,
      "Ġsiyas": 1514,
      "ĠTÃ¼rkiyenin": 1515,
      "Ġbiraz": 1516,
      "imizin": 1517,
      "uslar": 1518,
      "ĠmÃ¼z": 1519,
      "Ġait": 1520,
      "ĠDr": 1521,
      "ĠHay": 1522,
      "ĠYeni": 1523,
      "obil": 1524,
      "Ã¼f": 1525,
      "ĠtakÄ±m": 1526,
      "ĠTem": 1527,
      "ayÄ±s": 1528,
      "Ġtemiz": 1529,
      "ĠmÃ¼ÅŁter": 1530,
      "Ġdir": 1531,
      "Ġtedav": 1532,
      "tiv": 1533,
      "uyla": 1534,
      "Ġkir": 1535,
      "ĠÄ°z": 1536,
      "Ġe": 1537,
      "Ġper": 1538,
      "Ġtekrar": 1539,
      "ĠanlaÅŁ": 1540,
      "ĠÃ¼zerinden": 1541,
      "ĠDaha": 1542,
      "ĠSer": 1543,
      "Ġoluyor": 1544,
      "gÄ±n": 1545,
      "ĠNe": 1546,
      "mÃ¼ÅŁ": 1547,
      "Ġbizim": 1548,
      "hangi": 1549,
      "Ġgeri": 1550,
      "ĠdeÄŁiÅŁik": 1551,
      "esinden": 1552,
      "Ġpara": 1553,
      "Ġindir": 1554,
      "eÄŁin": 1555,
      "Ġetkin": 1556,
      "aban": 1557,
      "Ġveren": 1558,
      "ĠmÃ¼cad": 1559,
      "Ġders": 1560,
      "ĠiliÅŁk": 1561,
      "ekten": 1562,
      "uÄŁ": 1563,
      "ĠsavaÅŁ": 1564,
      "Ġberaber": 1565,
      "umlu": 1566,
      "ĠOs": 1567,
      "tin": 1568,
      "Ä±sÄ±nda": 1569,
      "Ġmark": 1570,
      "ĠÃ¶zellikle": 1571,
      "Ġeski": 1572,
      "ĠMah": 1573,
      "Ġilet": 1574,
      "Ġgeldi": 1575,
      "Ġbilm": 1576,
      "Ġadet": 1577,
      "isyon": 1578,
      "Ġnokt": 1579,
      "Ġdak": 1580,
      "Ġbirbir": 1581,
      "ĠEÄŁitim": 1582,
      "Ġteknoloj": 1583,
      "elen": 1584,
      "ĠkoÅŁ": 1585,
      "ĠKad": 1586,
      "ĠOk": 1587,
      "ĠsÃ¶yledi": 1588,
      "Ġbunun": 1589,
      "Ġengel": 1590,
      "ĠÅŁeh": 1591,
      "ĠdeÄŁiÅŁtir": 1592,
      "ĠÃ¶zellik": 1593,
      "imizi": 1594,
      "ĠhÃ¼kÃ¼m": 1595,
      "ĠÃĩÃ¼nkÃ¼": 1596,
      "Ġbildir": 1597,
      "ĠtÃ¼k": 1598,
      "ĠkayÄ±": 1599,
      "br": 1600,
      "akk": 1601,
      "Ġerkek": 1602,
      "Ġhafta": 1603,
      "ime": 1604,
      "ĠaÄŁÄ±r": 1605,
      "olar": 1606,
      "Ġuzak": 1607,
      "ĠÃ§Ã¶zÃ¼m": 1608,
      "ĠEy": 1609,
      "Ġbana": 1610,
      "Ġsar": 1611,
      "umu": 1612,
      "alÄ±m": 1613,
      "ĠHaz": 1614,
      "ekkÃ¼r": 1615,
      "ĠyÃ¶ntem": 1616,
      "Ġask": 1617,
      "Ġsak": 1618,
      "Ġsanat": 1619,
      "Ġyani": 1620,
      "Ġelde": 1621,
      "ĠKal": 1622,
      "Ġfaaliyet": 1623,
      "Ġmillet": 1624,
      "Ġmik": 1625,
      "ĠÄ°lk": 1626,
      "ari": 1627,
      "cÃ¼": 1628,
      "Ġtakip": 1629,
      "Ġistem": 1630,
      "for": 1631,
      "ĠÃ§evr": 1632,
      "ĠYan": 1633,
      "elere": 1634,
      "larÄ±yla": 1635,
      "Ġsey": 1636,
      "Ġtemel": 1637,
      "Ä±nÄ±f": 1638,
      "Ã¼nden": 1639,
      "ĠBÃ¶l": 1640,
      "elerini": 1641,
      "inize": 1642,
      "Ġcez": 1643,
      "eceÄŁini": 1644,
      "Ġonu": 1645,
      "ĠTur": 1646,
      "alat": 1647,
      "lardÄ±r": 1648,
      "Ġkesin": 1649,
      "ĠyÃ¶nelik": 1650,
      "ĠKay": 1651,
      "of": 1652,
      "ĠÃ¶ÄŁret": 1653,
      "Ġsin": 1654,
      "ĠkaldÄ±r": 1655,
      "Ġotur": 1656,
      "amp": 1657,
      "ĠkÄ±y": 1658,
      "ĠyatÄ±rÄ±m": 1659,
      "ĠBelediy": 1660,
      "ĠilÃ§": 1661,
      "Ġfay": 1662,
      "deÅŁ": 1663,
      "ĠÄ°Ã§": 1664,
      "Ġboz": 1665,
      "Ġgerekir": 1666,
      "ĠAK": 1667,
      "elerde": 1668,
      "ĠboÅŁ": 1669,
      "uyu": 1670,
      "ĠvatandaÅŁ": 1671,
      "ulan": 1672,
      "ĠÃ¶lÃ§": 1673,
      "adaki": 1674,
      "Ġnedeniyle": 1675,
      "ĠkÃ¼ltÃ¼r": 1676,
      "Ġyorum": 1677,
      "bak": 1678,
      "ĠbaÅŁladÄ±": 1679,
      "ĠÃ§aÄŁ": 1680,
      "ilerini": 1681,
      "ĠraÄŁ": 1682,
      "Ġspor": 1683,
      "ince": 1684,
      "Ġmadde": 1685,
      "Ġkut": 1686,
      "he": 1687,
      "ĠgeniÅŁ": 1688,
      "Ġkonusu": 1689,
      "itik": 1690,
      "ĠTr": 1691,
      "ĠdeÄŁildir": 1692,
      "Ġherhangi": 1693,
      "Ġgez": 1694,
      "Ã¼sÃ¼": 1695,
      "ĠVe": 1696,
      "ĠfotoÄŁraf": 1697,
      "Ġolmayan": 1698,
      "Ġbor": 1699,
      "Ġmu": 1700,
      "ĠOy": 1701,
      "ĠEÄŁer": 1702,
      "imize": 1703,
      "lÄ±nda": 1704,
      "malarÄ±": 1705,
      "alarda": 1706,
      "aten": 1707,
      "ĠparÃ§": 1708,
      "yle": 1709,
      "leriyle": 1710,
      "sÄ±n": 1711,
      "Ġinternet": 1712,
      "sÄ±nÄ±z": 1713,
      "Ġalmak": 1714,
      "eyim": 1715,
      "ilerine": 1716,
      "Ġortam": 1717,
      "Ä±nav": 1718,
      "Ġyeniden": 1719,
      "ĠÅŁekl": 1720,
      "ĠÄ°ngil": 1721,
      "erÃ§": 1722,
      "ĠraÄŁmen": 1723,
      "Ġedildi": 1724,
      "ĠDevlet": 1725,
      "uma": 1726,
      "ĠKul": 1727,
      "meden": 1728,
      "Ä±sÄ±ndan": 1729,
      "mel": 1730,
      "alet": 1731,
      "dÄ±n": 1732,
      "ĠdolayÄ±": 1733,
      "Ġsil": 1734,
      "Ġgerekli": 1735,
      "ĠAh": 1736,
      "Ġbay": 1737,
      "ĠTÃ¼rkiyede": 1738,
      "ĠÃ§Ä±kan": 1739,
      "Ġrek": 1740,
      "Ġner": 1741,
      "meyi": 1742,
      "Ġsoru": 1743,
      "avaÅŁ": 1744,
      "fer": 1745,
      "ĠihtiyaÃ§": 1746,
      "taj": 1747,
      "cut": 1748,
      "ĠBelediye": 1749,
      "ĠÃ§alÄ±ÅŁma": 1750,
      "amÄ±z": 1751,
      "pr": 1752,
      "Ġserv": 1753,
      "Ġyal": 1754,
      "ĠyÃ¼ksel": 1755,
      "lÄ±yor": 1756,
      "ĠyÃ¶netim": 1757,
      "esel": 1758,
      "dÃ¼l": 1759,
      "Ġortak": 1760,
      "din": 1761,
      "ĠHas": 1762,
      "Ġkah": 1763,
      "yanÄ±n": 1764,
      "izm": 1765,
      "Ãĸ": 1766,
      "uslararasÄ±": 1767,
      "Ä±rken": 1768,
      "ĠUz": 1769,
      "ow": 1770,
      "ĠuÄŁr": 1771,
      "Ġhiss": 1772,
      "ĠgiriÅŁ": 1773,
      "ĠalÄ±ÅŁ": 1774,
      "ĠSaÄŁ": 1775,
      "ron": 1776,
      "asÄ±ndan": 1777,
      "ĠÃ¶rg": 1778,
      "Ã¼ÄŁ": 1779,
      "ĠdÄ±ÅŁÄ±nda": 1780,
      "ĠErdoÄŁ": 1781,
      "ĠÅŁart": 1782,
      "Ġoran": 1783,
      "ĠÃ§iz": 1784,
      "ĠtanÄ±m": 1785,
      "ĠsaÃ§": 1786,
      "Ġyemek": 1787,
      "Ġsizin": 1788,
      "Ġmed": 1789,
      "ĠhÄ±zlÄ±": 1790,
      "ĠsuÃ§": 1791,
      "lek": 1792,
      "ĠOsman": 1793,
      "Ġdair": 1794,
      "ĠSiz": 1795,
      "icaret": 1796,
      "ĠMer": 1797,
      "esiyle": 1798,
      "ĠteÅŁekkÃ¼r": 1799,
      "ukuk": 1800,
      "Ġdok": 1801,
      "Ġgrup": 1802,
      "ĠbaÄŁlan": 1803,
      "Ġcih": 1804,
      "okr": 1805,
      "ĠsÃ¼rdÃ¼r": 1806,
      "ĠÃĸÄŁr": 1807,
      "luÄŁ": 1808,
      "asÄ±ndaki": 1809,
      "ĠSur": 1810,
      "efer": 1811,
      "ĠiliÅŁkin": 1812,
      "ĠBey": 1813,
      "larÄ±nÄ±z": 1814,
      "ĠinÅŁ": 1815,
      "ĠbakÄ±m": 1816,
      "enek": 1817,
      "Ġgec": 1818,
      "day": 1819,
      "ĠdoÄŁr": 1820,
      "ĠÃ¶ner": 1821,
      "ĠayrÄ±": 1822,
      "sat": 1823,
      "ĠMuh": 1824,
      "Ġisteyen": 1825,
      "ĠAb": 1826,
      "ĠTL": 1827,
      "ĠCumhuriyet": 1828,
      "Ġamac": 1829,
      "muz": 1830,
      "Ġsayf": 1831,
      "ĠsayÄ±": 1832,
      "Ġikinci": 1833,
      "Ġsok": 1834,
      "ĠkÄ±sm": 1835,
      "Ġenerj": 1836,
      "Ġolsa": 1837,
      "ĠÅŁehir": 1838,
      "pan": 1839,
      "ĠgerÃ§ekleÅŁ": 1840,
      "ĠKom": 1841,
      "nÄ±z": 1842,
      "lÃ¼l": 1843,
      "Ġboyunca": 1844,
      "ĠamaÃ§": 1845,
      "ĠistediÄŁ": 1846,
      "ĠsaldÄ±r": 1847,
      "ĠaÃ§Ä±l": 1848,
      "ĠAvrupa": 1849,
      "ift": 1850,
      "acaÄŁÄ±z": 1851,
      "ĠÃ§eÅŁitli": 1852,
      "Ġiddi": 1853,
      "rim": 1854,
      "Ġcin": 1855,
      "Ġgider": 1856,
      "lÃ¼ÄŁÃ¼": 1857,
      "ĠBun": 1858,
      "Ġsayesinde": 1859,
      "ĠsÄ±ra": 1860,
      "Ġimz": 1861,
      "afa": 1862,
      "Ġyarar": 1863,
      "ch": 1864,
      "all": 1865,
      "ĠyapÄ±": 1866,
      "Ġaday": 1867,
      "Ġunut": 1868,
      "Ġorgan": 1869,
      "Ġister": 1870,
      "Ġelekt": 1871,
      "iliÄŁ": 1872,
      "Ġtoplam": 1873,
      "Ġmek": 1874,
      "manÄ±z": 1875,
      "Ġdayan": 1876,
      "ÅŁam": 1877,
      "ĠÃ¼retim": 1878,
      "ĠGÃ¶r": 1879,
      "Ġburada": 1880,
      "eci": 1881,
      "ET": 1882,
      "laÅŁtÄ±r": 1883,
      "Ġhey": 1884,
      "anlar": 1885,
      "ĠBay": 1886,
      "ĠyoÄŁun": 1887,
      "ĠGel": 1888,
      "Ġsek": 1889,
      "isay": 1890,
      "kil": 1891,
      "dana": 1892,
      "ĠsatÄ±ÅŁ": 1893,
      "ĠRus": 1894,
      "ren": 1895,
      "ĠAmer": 1896,
      "rub": 1897,
      "ĠyardÄ±mcÄ±": 1898,
      "ĠMar": 1899,
      "ĠtanÄ±": 1900,
      "kÄ±n": 1901,
      "Ã»": 1902,
      "arken": 1903,
      "apor": 1904,
      "Ġhesap": 1905,
      "ĠÃĩok": 1906,
      "Ġlis": 1907,
      "ĠMeh": 1908,
      "utbol": 1909,
      "ĠUy": 1910,
      "Ã¶rt": 1911,
      "Ġgelecek": 1912,
      "ĠkuruluÅŁ": 1913,
      "ĠgÃ¼nde": 1914,
      "isk": 1915,
      "Ġteh": 1916,
      "tiÄŁini": 1917,
      "ezon": 1918,
      "Ġkork": 1919,
      "Ä±mda": 1920,
      "ĠsÄ±nÄ±f": 1921,
      "luluk": 1922,
      "ĠDem": 1923,
      "Ġmevcut": 1924,
      "Ġedin": 1925,
      "Ġzarar": 1926,
      "Ã¢n": 1927,
      "Ã¼cÃ¼": 1928,
      "Ġhalinde": 1929,
      "ĠdÃ¼nya": 1930,
      "mesini": 1931,
      "edeki": 1932,
      "Ġkas": 1933,
      "Ġey": 1934,
      "landÄ±": 1935,
      "ĠtÃ¼rlÃ¼": 1936,
      "Ġbize": 1937,
      "ĠyaklaÅŁÄ±k": 1938,
      "Ġedil": 1939,
      "Ġbeni": 1940,
      "ĠCumhurbaÅŁ": 1941,
      "enc": 1942,
      "Ġuygulan": 1943,
      "ĠbiÃ§": 1944,
      "Ġsebep": 1945,
      "ĠkapsamÄ±nda": 1946,
      "Ġederek": 1947,
      "ĠHar": 1948,
      "erson": 1949,
      "ere": 1950,
      "ĠaÅŁaÄŁÄ±": 1951,
      "Ġekip": 1952,
      "ĠÃľniversitesi": 1953,
      "Ġvak": 1954,
      "Ġbelg": 1955,
      "etin": 1956,
      "ĠOl": 1957,
      "pit": 1958,
      "emin": 1959,
      "Ġsahibi": 1960,
      "Ġmez": 1961,
      "ĠEm": 1962,
      "ĠÃ§ar": 1963,
      "lÃ¼m": 1964,
      "ĠsÄ±cak": 1965,
      "Ä±ÅŁÄ±k": 1966,
      "Ġedecek": 1967,
      "ĠUl": 1968,
      "ĠolacaktÄ±r": 1969,
      "ĠAlman": 1970,
      "Ġistiyor": 1971,
      "ĠÃĸr": 1972,
      "ĠkÃ¶y": 1973,
      "Ä±yÄ±": 1974,
      "adÄ±ÄŁÄ±": 1975,
      "Ġab": 1976,
      "inc": 1977,
      "ĠkayÄ±t": 1978,
      "be": 1979,
      "Ġmalz": 1980,
      "ĠKas": 1981,
      "Ġhale": 1982,
      "ĠHat": 1983,
      "Ġgiy": 1984,
      "uya": 1985,
      "Ġanda": 1986,
      "Ä±ntÄ±": 1987,
      "Ġdar": 1988,
      "Ġteknik": 1989,
      "ĠiÅŁlet": 1990,
      "lilik": 1991,
      "ĠOt": 1992,
      "azi": 1993,
      "Ġbeb": 1994,
      "ĠyazÄ±": 1995,
      "mey": 1996,
      "ĠkarÅŁÄ±laÅŁ": 1997,
      "elerinin": 1998,
      "Ġbekl": 1999,
      "Ġtarihi": 2000,
      "ĠKo": 2001,
      "ĠyanÄ±nda": 2002,
      "ilerinin": 2003,
      "Ġiler": 2004,
      "Ġbab": 2005,
      "lo": 2006,
      "Ġle": 2007,
      "ĠhatÄ±r": 2008,
      "ĠsaÄŁlay": 2009,
      "Ġtep": 2010,
      "sak": 2011,
      "Ġdurumda": 2012,
      "ĠGeÃ§": 2013,
      "Ä±nÄ±zÄ±": 2014,
      "ĠkardeÅŁ": 2015,
      "alarÄ±nda": 2016,
      "isayar": 2017,
      "ĠdoÄŁal": 2018,
      "Ġdet": 2019,
      "ĠadÄ±m": 2020,
      "vek": 2021,
      "yi": 2022,
      "ĠHav": 2023,
      "ĠkullanÄ±cÄ±": 2024,
      "Ġgazet": 2025,
      "Ġarac": 2026,
      "lanmÄ±ÅŁ": 2027,
      "Ġverilen": 2028,
      "ĠaldÄ±": 2029,
      "ĠsÃ¼rekli": 2030,
      "mayan": 2031,
      "vet": 2032,
      "ĠvÃ¼c": 2033,
      "diÄŁini": 2034,
      "Ġann": 2035,
      "Ã¼ler": 2036,
      "ĠAli": 2037,
      "cÄ±sÄ±": 2038,
      "Ġanlay": 2039,
      "Ġmen": 2040,
      "tay": 2041,
      "ĠettiÄŁi": 2042,
      "ĠettiÄŁ": 2043,
      "kaÃ§": 2044,
      "Ġotom": 2045,
      "Ġdahil": 2046,
      "Ġfik": 2047,
      "na": 2048,
      "ĠÄ°nsan": 2049,
      "ĠyaptÄ±": 2050,
      "Ġtalep": 2051,
      "Ġdavran": 2052,
      "ile": 2053,
      "lis": 2054,
      "ĠÅŁÃ¶yle": 2055,
      "ĠÃ¶zg": 2056,
      "Ġham": 2057,
      "ĠolmuÅŁ": 2058,
      "ĠÃ¶rnek": 2059,
      "ĠyÃ¼rÃ¼t": 2060,
      "Ġnum": 2061,
      "uvar": 2062,
      "masÄ±nÄ±n": 2063,
      "Ġgerekiyor": 2064,
      "ĠyaÅŁan": 2065,
      "Ġkonuda": 2066,
      "alama": 2067,
      "eÅŁtir": 2068,
      "Ġfayd": 2069,
      "ĠtÄ±k": 2070,
      "oÄŁu": 2071,
      "Ã¼lt": 2072,
      "ite": 2073,
      "Ã¼le": 2074,
      "Ġins": 2075,
      "ĠaÃ§Ä±sÄ±ndan": 2076,
      "ĠyÄ±k": 2077,
      "oktor": 2078,
      "ayÄ±p": 2079,
      "ĠadÄ±": 2080,
      "Ġpazar": 2081,
      "Ġgeliyor": 2082,
      "ĠTekn": 2083,
      "meyen": 2084,
      "ĠadÄ±na": 2085,
      "ej": 2086,
      "adÄ±k": 2087,
      "Ġvide": 2088,
      "gun": 2089,
      "mesine": 2090,
      "ÅŁehir": 2091,
      "Ġbilim": 2092,
      "uan": 2093,
      "Ġverdi": 2094,
      "Ġona": 2095,
      "mal": 2096,
      "ĠÅŁimdi": 2097,
      "adÄ±ÄŁ": 2098,
      "abancÄ±": 2099,
      "ĠbaÅŁlad": 2100,
      "elidir": 2101,
      "Ġhangi": 2102,
      "ĠÅŁeklinde": 2103,
      "Ġpat": 2104,
      "ĠmaÄŁ": 2105,
      "Ġtespit": 2106,
      "ĠkonuÅŁtu": 2107,
      "Ġrak": 2108,
      "Ä±rÄ±": 2109,
      "ĠbaÅŁlam": 2110,
      "Ġnedenle": 2111,
      "alarÄ±nÄ±": 2112,
      "Ġnit": 2113,
      "ĠDÃ¼nya": 2114,
      "ebil": 2115,
      "alara": 2116,
      "Ġsezon": 2117,
      "ĠABD": 2118,
      "Ġcevap": 2119,
      "ormal": 2120,
      "Ġbeklen": 2121,
      "ira": 2122,
      "Ä±sÄ±nÄ±": 2123,
      "Ġtemsil": 2124,
      "izi": 2125,
      "Ä±nca": 2126,
      "Ġsol": 2127,
      "usal": 2128,
      "ĠSen": 2129,
      "Ġcid": 2130,
      "Ġherkes": 2131,
      "Ġdiyor": 2132,
      "anlÄ±": 2133,
      "Ã¼len": 2134,
      "ĠKÃ¼r": 2135,
      "eceÄŁiniz": 2136,
      "ĠvardÄ±": 2137,
      "ĠterÃ¶r": 2138,
      "Ġah": 2139,
      "ĠtasarÄ±m": 2140,
      "ĠAnkara": 2141,
      "Ġdemek": 2142,
      "Ġpart": 2143,
      "asyonu": 2144,
      "amÄ±": 2145,
      "Ġtabi": 2146,
      "atif": 2147,
      "elerine": 2148,
      "ĠÃ§oc": 2149,
      "ĠsÄ±nav": 2150,
      "ĠTÃ¼m": 2151,
      "Ġbelli": 2152,
      "ĠMehmet": 2153,
      "inci": 2154,
      "Ġruh": 2155,
      "Ġcihaz": 2156,
      "Ġtart": 2157,
      "Ġuzman": 2158,
      "ĠYÃ¼k": 2159,
      "Ġkalan": 2160,
      "Ġana": 2161,
      "Ġtarihinde": 2162,
      "ĠartÄ±r": 2163,
      "ĠkÃ¶tÃ¼": 2164,
      "ildiÄŁ": 2165,
      "ni": 2166,
      "Ġip": 2167,
      "taÅŁ": 2168,
      "ĠAnad": 2169,
      "menin": 2170,
      "ĠtÃ¼ket": 2171,
      "Ġhava": 2172,
      "Ġbilgiler": 2173,
      "ij": 2174,
      "ĠMillet": 2175,
      "EN": 2176,
      "Ã¼mÃ¼": 2177,
      "ĠyarÄ±ÅŁ": 2178,
      "Ġj": 2179,
      "ĠÃ¼niversit": 2180,
      "ve": 2181,
      "ĠÃĩocuk": 2182,
      "ĠsÄ±rasÄ±nda": 2183,
      "Ġyurt": 2184,
      "Ġbaz": 2185,
      "ĠbaÅŁarÄ±lÄ±": 2186,
      "yar": 2187,
      "ĠAÃ§": 2188,
      "ĠkiÅŁinin": 2189,
      "asa": 2190,
      "ĠsaÄŁlan": 2191,
      "ilerek": 2192,
      "ĠbaÅŁkan": 2193,
      "ĠyaptÄ±r": 2194,
      "Ġinsanlar": 2195,
      "Ġseviy": 2196,
      "ĠyalnÄ±z": 2197,
      "Ġyum": 2198,
      "anÄ±ÅŁ": 2199,
      "ĠRes": 2200,
      "ĠÅŀub": 2201,
      "hal": 2202,
      "emizde": 2203,
      "Ä±lÄ±ÄŁ": 2204,
      "Ġst": 2205,
      "elikle": 2206,
      "Ġoyuncu": 2207,
      "ĠTab": 2208,
      "ĠkullanÄ±m": 2209,
      "eder": 2210,
      "ĠAf": 2211,
      "emi": 2212,
      "lÄ±ÅŁ": 2213,
      "sÄ±": 2214,
      "ayacak": 2215,
      "ĠHak": 2216,
      "ĠÄ°zmir": 2217,
      "Ġnet": 2218,
      "ĠgeÃ§miÅŁ": 2219,
      "ĠyapÄ±lacak": 2220,
      "oloji": 2221,
      "Ġbes": 2222,
      "Ä±mÄ±za": 2223,
      "Ġkapat": 2224,
      "lif": 2225,
      "Ġma": 2226,
      "tep": 2227,
      "ĠkullanÄ±lan": 2228,
      "Ġverilm": 2229,
      "AL": 2230,
      "Ä±lÄ±m": 2231,
      "Ġhik": 2232,
      "Ġsistemi": 2233,
      "ĠBÃ¶yle": 2234,
      "ĠHan": 2235,
      "ceÄŁ": 2236,
      "ĠSev": 2237,
      "ĠYaÅŁ": 2238,
      "ĠÃ§Ã¼nkÃ¼": 2239,
      "ĠBugÃ¼n": 2240,
      "ĠÄ±s": 2241,
      "Ġpiyas": 2242,
      "ĠyÃ¼zden": 2243,
      "ĠKap": 2244,
      "nun": 2245,
      "ĠProf": 2246,
      "ĠSÃ¶z": 2247,
      "adem": 2248,
      "ecektir": 2249,
      "Ġdetay": 2250,
      "Ġaktar": 2251,
      "ĠhastalÄ±k": 2252,
      "ĠyaptÄ±k": 2253,
      "Ġolmaz": 2254,
      "yo": 2255,
      "liÄŁini": 2256,
      "Ġsonunda": 2257,
      "abiliyor": 2258,
      "Ġkey": 2259,
      "ĠsÃ¼reÃ§": 2260,
      "otor": 2261,
      "ĠIn": 2262,
      "Ġderece": 2263,
      "Ġko": 2264,
      "Ġetkil": 2265,
      "Ä±mÄ±zÄ±": 2266,
      "Ġit": 2267,
      "ĠÃ¶yle": 2268,
      "Ġdal": 2269,
      "ener": 2270,
      "ĠÅŁah": 2271,
      "Ġbayan": 2272,
      "ĠiletiÅŁim": 2273,
      "lerce": 2274,
      "Ã¼slÃ¼m": 2275,
      "Ġmesaj": 2276,
      "ĠtartÄ±ÅŁ": 2277,
      "Ġyem": 2278,
      "elerinde": 2279,
      "ĠFakat": 2280,
      "ĠMust": 2281,
      "Ġdon": 2282,
      "iden": 2283,
      "makta": 2284,
      "ĠBar": 2285,
      "imin": 2286,
      "Ġkamu": 2287,
      "siy": 2288,
      "asÄ±yla": 2289,
      "iliÄŁi": 2290,
      "Ġitibaren": 2291,
      "Ġgece": 2292,
      "ebilm": 2293,
      "Ġof": 2294,
      "Ġtamamen": 2295,
      "Ġsonucu": 2296,
      "iyeti": 2297,
      "ĠMilli": 2298,
      "Ġzaten": 2299,
      "ĠsaÄŁlamak": 2300,
      "ĠdÃ¼ÅŁÃ¼nÃ¼yor": 2301,
      "adde": 2302,
      "Ġrapor": 2303,
      "ĠhoÅŁ": 2304,
      "ern": 2305,
      "iri": 2306,
      "ĠKr": 2307,
      "ĠbaÅŁlat": 2308,
      "ediye": 2309,
      "Ġmis": 2310,
      "Ġhukuk": 2311,
      "Ġfakat": 2312,
      "ĠDeÄŁ": 2313,
      "ayi": 2314,
      "ĠÃ¶rgÃ¼t": 2315,
      "Ġoper": 2316,
      "imizde": 2317,
      "amasÄ±": 2318,
      "ĠÄ°ÅŁte": 2319,
      "ĠcanlÄ±": 2320,
      "ĠbulunduÄŁu": 2321,
      "olojik": 2322,
      "ĠSu": 2323,
      "ĠbirkaÃ§": 2324,
      "tul": 2325,
      "Ä±da": 2326,
      "isel": 2327,
      "lÃ¢": 2328,
      "Ġsebeb": 2329,
      "Ġkelim": 2330,
      "Ġkaf": 2331,
      "ĠKat": 2332,
      "ĠgÃ¼Ã§lÃ¼": 2333,
      "Ġteslim": 2334,
      "Ä±sÄ±na": 2335,
      "Ġkaybet": 2336,
      "ĠÄ°slam": 2337,
      "ĠTemmuz": 2338,
      "ĠCH": 2339,
      "kem": 2340,
      "Ġyerde": 2341,
      "dÃ¼ÄŁÃ¼": 2342,
      "Äŀ": 2343,
      "Ġsig": 2344,
      "lin": 2345,
      "meleri": 2346,
      "Ġhaline": 2347,
      "uar": 2348,
      "ĠYani": 2349,
      "bi": 2350,
      "cort": 2351,
      "emez": 2352,
      "lerdir": 2353,
      "ĠyÄ±llÄ±k": 2354,
      "Ġform": 2355,
      "ĠÃ§Ä±ktÄ±": 2356,
      "ĠayrÄ±ca": 2357,
      "Ġmutlak": 2358,
      "ĠiÅŁaret": 2359,
      "ĠdÃ¼zenlenen": 2360,
      "Ġkendini": 2361,
      "ĠKurulu": 2362,
      "ĠÃĸzellikle": 2363,
      "Ġperson": 2364,
      "Ġvarsa": 2365,
      "ĠTer": 2366,
      "Ġcam": 2367,
      "blem": 2368,
      "onun": 2369,
      "Ġorta": 2370,
      "ĠaslÄ±nda": 2371,
      "Ġekonomik": 2372,
      "Ġbelirlen": 2373,
      "Ġpolitik": 2374,
      "dÃ¼k": 2375,
      "ohbet": 2376,
      "ĠsayÄ±lÄ±": 2377,
      "Ġvermek": 2378,
      "ĠgÃ¼venlik": 2379,
      "Ġservis": 2380,
      "ĠHem": 2381,
      "Ġprof": 2382,
      "atÃ¶r": 2383,
      "ĠSel": 2384,
      "Ġeser": 2385,
      "Ġayak": 2386,
      "Ġhatta": 2387,
      "ĠDeniz": 2388,
      "ĠoluÅŁan": 2389,
      "gam": 2390,
      "ind": 2391,
      "Ã¼nÃ¼z": 2392,
      "ĠkÄ±l": 2393,
      "Ġedilir": 2394,
      "Ġkayb": 2395,
      "ĠÃ¶ÄŁretmen": 2396,
      "Ġizin": 2397,
      "etler": 2398,
      "ĠsoÄŁ": 2399,
      "Ġisten": 2400,
      "ĠSpor": 2401,
      "ĠkatkÄ±": 2402,
      "ĠBah": 2403,
      "izyon": 2404,
      "ĠbaÅŁlay": 2405,
      "ĠAÅŁ": 2406,
      "malÄ±dÄ±r": 2407,
      "engin": 2408,
      "ĠMustafa": 2409,
      "Ġstr": 2410,
      "Ġyoktur": 2411,
      "ser": 2412,
      "Ġdep": 2413,
      "Ġverir": 2414,
      "Ġele": 2415,
      "Ġsavun": 2416,
      "Ä±mÄ±zda": 2417,
      "alarÄ±nÄ±n": 2418,
      "ĠverdiÄŁi": 2419,
      "ĠarasÄ±ndaki": 2420,
      "AT": 2421,
      "Ġic": 2422,
      "ĠamacÄ±yla": 2423,
      "emal": 2424,
      "ĠSar": 2425,
      "luÄŁu": 2426,
      "ĠMes": 2427,
      "ĠTak": 2428,
      "ĠyanlÄ±ÅŁ": 2429,
      "lk": 2430,
      "Ġmeydana": 2431,
      "Ġgiz": 2432,
      "ros": 2433,
      "Ä±yorlar": 2434,
      "ĠYardÄ±m": 2435,
      "Ġfutbol": 2436,
      "ĠgerÃ§ekten": 2437,
      "ĠaldÄ±ÄŁÄ±": 2438,
      "bah": 2439,
      "aca": 2440,
      "ĠsaÄŁlam": 2441,
      "Ġhayvan": 2442,
      "ĠGenÃ§": 2443,
      "rafik": 2444,
      "lÄ±kla": 2445,
      "mamÄ±z": 2446,
      "ĠdÃ¼zenlen": 2447,
      "Ġum": 2448,
      "ĠX": 2449,
      "ĠÅŁark": 2450,
      "Ä±nÄ±za": 2451,
      "Ġsorum": 2452,
      "ildiÄŁi": 2453,
      "ĠakÄ±l": 2454,
      "Ġvaz": 2455,
      "Ġfin": 2456,
      "ĠYaz": 2457,
      "ĠYÃ¶net": 2458,
      "Ġasker": 2459,
      "ukarÄ±": 2460,
      "Ġlist": 2461,
      "Ġnak": 2462,
      "Ġweb": 2463,
      "miyor": 2464,
      "aÄŁa": 2465,
      "sta": 2466,
      "ĠMan": 2467,
      "larÄ±m": 2468,
      "ĠBelediyesi": 2469,
      "Ġbilgisayar": 2470,
      "Ġbi": 2471,
      "ĠkiÅŁiler": 2472,
      "ĠParti": 2473,
      "forman": 2474,
      "Ġciddi": 2475,
      "atÃ¼rk": 2476,
      "Ġend": 2477,
      "air": 2478,
      "ĠÃ¼lke": 2479,
      "ĠkoÅŁul": 2480,
      "eÅŁil": 2481,
      "dÄ±z": 2482,
      "tiÄŁimiz": 2483,
      "Ġtip": 2484,
      "ĠÃ§ift": 2485,
      "ba": 2486,
      "Ġistiyorum": 2487,
      "yum": 2488,
      "Ġdost": 2489,
      "lulu": 2490,
      "Ġmutlu": 2491,
      "Ġyapar": 2492,
      "fak": 2493,
      "ĠEt": 2494,
      "ĠKurul": 2495,
      "Ġgrub": 2496,
      "ĠEylÃ¼l": 2497,
      "ĠÄ°ngiliz": 2498,
      "Ġmalzem": 2499,
      "Ġtec": 2500,
      "Ġotel": 2501,
      "Ä°N": 2502,
      "veriÅŁ": 2503,
      "inizin": 2504,
      "ĠÃ¶lÃ¼m": 2505,
      "ĠdÃ¼nyanÄ±n": 2506,
      "ĠMec": 2507,
      "ĠSaÄŁlÄ±k": 2508,
      "ĠMal": 2509,
      "Ġyere": 2510,
      "inizde": 2511,
      "Ġeksik": 2512,
      "ĠKor": 2513,
      "ĠinsanlarÄ±n": 2514,
      "ĠSam": 2515,
      "Ġsizi": 2516,
      "EL": 2517,
      "ĠetmiÅŁ": 2518,
      "ES": 2519,
      "Ġkims": 2520,
      "ĠdÃ¼zey": 2521,
      "Ġproblem": 2522,
      "ĠAmerik": 2523,
      "ĠdÃ¶rt": 2524,
      "azÄ±m": 2525,
      "Ġkarak": 2526,
      "Ġboyut": 2527,
      "Ġokuy": 2528,
      "evi": 2529,
      "ĠKend": 2530,
      "Ġmiktar": 2531,
      "Ġcil": 2532,
      "ĠYak": 2533,
      "ĠkatÄ±lÄ±m": 2534,
      "Ġemek": 2535,
      "ĠErdoÄŁan": 2536,
      "Ġstan": 2537,
      "Ġedebilir": 2538,
      "tÄ±ÄŁÄ±nÄ±": 2539,
      "ĠÃĩalÄ±ÅŁ": 2540,
      "ĠsatÄ±n": 2541,
      "ĠgÃ¼ncel": 2542,
      "enler": 2543,
      "etik": 2544,
      "Ġsilah": 2545,
      "ĠdÃ¼ÅŁÃ¼k": 2546,
      "ĠHaber": 2547,
      "ĠAtatÃ¼rk": 2548,
      "Ãĩ": 2549,
      "ersiz": 2550,
      "ĠÃ¶ldÃ¼r": 2551,
      "ĠdÃ¶nemde": 2552,
      "Ġdolar": 2553,
      "Ġmerak": 2554,
      "Ġdoktor": 2555,
      "iir": 2556,
      "ĠbaÄŁÄ±m": 2557,
      "ĠoÄŁ": 2558,
      "yan": 2559,
      "ĠkuÅŁ": 2560,
      "Ġarada": 2561,
      "ĠbaÅŁvuru": 2562,
      "Ġdakika": 2563,
      "ĠPol": 2564,
      "ĠilaÃ§": 2565,
      "Ġolun": 2566,
      "ĠsonrasÄ±": 2567,
      "aliz": 2568,
      "ĠyaÅŁayan": 2569,
      "ĠÅŀimdi": 2570,
      "ĠakÅŁam": 2571,
      "ĠeÄŁlen": 2572,
      "Ġbl": 2573,
      "Ġtarz": 2574,
      "Ġbal": 2575,
      "Ġbuna": 2576,
      "ĠbasÄ±n": 2577,
      "Ã¼ncÃ¼": 2578,
      "Ġekran": 2579,
      "osu": 2580,
      "Ġbahis": 2581,
      "Ġdeniz": 2582,
      "ĠAnadolu": 2583,
      "mer": 2584,
      "ĠbaÅŁÄ±na": 2585,
      "ĠgÃ¼nlÃ¼k": 2586,
      "Ġyeterli": 2587,
      "ĠsÃ¶zleÅŁ": 2588,
      "ĠbaÅŁlayan": 2589,
      "inÃ§": 2590,
      "Ġzorunda": 2591,
      "imleri": 2592,
      "Ä±mÄ±zÄ±n": 2593,
      "ĠbulunmaktadÄ±r": 2594,
      "AK": 2595,
      "Ġkart": 2596,
      "uvvet": 2597,
      "Ġkalk": 2598,
      "ĠyÄ±lÄ±": 2599,
      "Ġkent": 2600,
      "ediy": 2601,
      "ĠYÃ¶netim": 2602,
      "ĠBaÅŁbak": 2603,
      "alarÄ±na": 2604,
      "Ġmemnun": 2605,
      "Ġyazar": 2606,
      "alÄ±dÄ±r": 2607,
      "Ġir": 2608,
      "one": 2609,
      "mÄ±ÅŁtÄ±": 2610,
      "oda": 2611,
      "dÄ±ÄŁÄ±nda": 2612,
      "ĠbeÅŁ": 2613,
      "Ġnef": 2614,
      "ĠiÃ§ine": 2615,
      "aÄŁÄ±t": 2616,
      "ĠPart": 2617,
      "Ġnok": 2618,
      "ĠyaptÄ±ÄŁ": 2619,
      "ĠateÅŁ": 2620,
      "ĠCh": 2621,
      "ĠsÃ¼rec": 2622,
      "ebilecek": 2623,
      "Ġtoprak": 2624,
      "lÄ±lÄ±k": 2625,
      "ĠHazir": 2626,
      "acaÄŁÄ±m": 2627,
      "Ġpolis": 2628,
      "muÅŁtur": 2629,
      "Ä±lÄ±ÄŁÄ±": 2630,
      "ĠadlÄ±": 2631,
      "ĠBul": 2632,
      "ĠsÃ¶ylem": 2633,
      "ĠbeÄŁ": 2634,
      "ĠgÃ¶tÃ¼r": 2635,
      "ĠGÃ¼ven": 2636,
      "Ġonlar": 2637,
      "Ä±yordu": 2638,
      "Ġyana": 2639,
      "Ġgar": 2640,
      "Ġsonuc": 2641,
      "Ġediyorum": 2642,
      "neÄŁin": 2643,
      "asÄ±n": 2644,
      "ĠVer": 2645,
      "eygam": 2646,
      "ga": 2647,
      "ĠdÃ¼ÅŁÃ¼nc": 2648,
      "ĠMart": 2649,
      "ĠyabancÄ±": 2650,
      "imli": 2651,
      "IN": 2652,
      "Ġsizlere": 2653,
      "fen": 2654,
      "amam": 2655,
      "gr": 2656,
      "ina": 2657,
      "ĠKÄ±": 2658,
      "ĠProj": 2659,
      "Ġbulundu": 2660,
      "Ġmutlaka": 2661,
      "ĠmÃ¼zik": 2662,
      "mayÄ±n": 2663,
      "ĠNis": 2664,
      "ĠSosyal": 2665,
      "ĠaltÄ±na": 2666,
      "Ä±c": 2667,
      "ĠKadÄ±n": 2668,
      "Ã¼me": 2669,
      "ĠdiÅŁ": 2670,
      "erÃ§ev": 2671,
      "ĠAynÄ±": 2672,
      "Ġettik": 2673,
      "manÄ±": 2674,
      "Ġmilyar": 2675,
      "Ġbank": 2676,
      "eksiyon": 2677,
      "Ġbahs": 2678,
      "ĠÃľr": 2679,
      "AD": 2680,
      "ĠAz": 2681,
      "Ġkaliteli": 2682,
      "Ġnormal": 2683,
      "can": 2684,
      "Ġdam": 2685,
      "taki": 2686,
      "ĠSal": 2687,
      "Ġaraya": 2688,
      "aket": 2689,
      "anÄ±z": 2690,
      "masÄ±nda": 2691,
      "Ġokum": 2692,
      "ĠÃ¶nceki": 2693,
      "daÄŁ": 2694,
      "ayÄ±sÄ±yla": 2695,
      "Ġderec": 2696,
      "eng": 2697,
      "ĠAhmet": 2698,
      "Ġperforman": 2699,
      "line": 2700,
      "ĠTan": 2701,
      "Ġzengin": 2702,
      "Ġtarif": 2703,
      "ĠalÄ±nan": 2704,
      "ati": 2705,
      "ĠmÃ¼cadel": 2706,
      "ene": 2707,
      "Ġmin": 2708,
      "abilmek": 2709,
      "Ġpuan": 2710,
      "ĠAlt": 2711,
      "siye": 2712,
      "ĠmÃ¼cadele": 2713,
      "Ġbelki": 2714,
      "lÄ±ÄŁÄ±nÄ±": 2715,
      "Ġfak": 2716,
      "ĠMÃ¼slÃ¼m": 2717,
      "Ġtesis": 2718,
      "ĠÃ§ocuÄŁ": 2719,
      "Ġetkinlik": 2720,
      "vekili": 2721,
      "ĠKasÄ±m": 2722,
      "Ġsur": 2723,
      "tÃ¶r": 2724,
      "ĠSay": 2725,
      "ampiyon": 2726,
      "ĠYÃ¼ksek": 2727,
      "imler": 2728,
      "asi": 2729,
      "Ġhayal": 2730,
      "ĠbaÅŁarÄ±": 2731,
      "teki": 2732,
      "Ġhastan": 2733,
      "uzur": 2734,
      "Ġuyar": 2735,
      "Ġbulunuyor": 2736,
      "bilir": 2737,
      "rol": 2738,
      "gisi": 2739,
      "seniz": 2740,
      "Ġban": 2741,
      "ladÄ±ÄŁÄ±": 2742,
      "ĠbaÅŁlan": 2743,
      "eygamber": 2744,
      "ĠalÄ±yor": 2745,
      "iddet": 2746,
      "Ġtedavi": 2747,
      "Ä±sÄ±nÄ±n": 2748,
      "Ġkarakter": 2749,
      "ĠsayÄ±sÄ±": 2750,
      "iydi": 2751,
      "ĠBakanÄ±": 2752,
      "ĠOsmanlÄ±": 2753,
      "Ġdurumu": 2754,
      "Ġdile": 2755,
      "uzey": 2756,
      "ĠdaÄŁ": 2757,
      "ĠÃ¶zgÃ¼r": 2758,
      "Ġdek": 2759,
      "Ä±ÄŁÄ±n": 2760,
      "ĠdeÄŁiÅŁiklik": 2761,
      "Ġetkili": 2762,
      "ĠÃ¶dÃ¼l": 2763,
      "dak": 2764,
      "Ġzam": 2765,
      "ata": 2766,
      "ook": 2767,
      "ĠKÄ±r": 2768,
      "ĠCumhurbaÅŁkanÄ±": 2769,
      "Ġhizmeti": 2770,
      "AS": 2771,
      "ĠAÄŁ": 2772,
      "Ġberi": 2773,
      "Ã¢r": 2774,
      "Ġyolu": 2775,
      "ĠKit": 2776,
      "madÄ±": 2777,
      "lÄ±ÄŁÄ±na": 2778,
      "Ġmakin": 2779,
      "ilendir": 2780,
      "Ä±nt": 2781,
      "Ä±nÄ±zda": 2782,
      "Ġsohbet": 2783,
      "ĠKim": 2784,
      "Ġhaft": 2785,
      "Ġsiyasi": 2786,
      "Ġdevr": 2787,
      "ĠTel": 2788,
      "Ġedilmesi": 2789,
      "Ġbirey": 2790,
      "ĠsÃ¶yley": 2791,
      "ĠmÃ¼k": 2792,
      "med": 2793,
      "ĠalÄ±r": 2794,
      "Ġrol": 2795,
      "Ġkum": 2796,
      "Ġhalde": 2797,
      "Ġsoy": 2798,
      "ĠsaÄŁlÄ±klÄ±": 2799,
      "rac": 2800,
      "Ġbizi": 2801,
      "ĠdÃ¶k": 2802,
      "ĠÃ§erÃ§ev": 2803,
      "mada": 2804,
      "onu": 2805,
      "mamÄ±ÅŁ": 2806,
      "Ġileri": 2807,
      "ete": 2808,
      "ĠFr": 2809,
      "izik": 2810,
      "ĠKÃ¼ltÃ¼r": 2811,
      "neÄŁi": 2812,
      "ĠDiÄŁer": 2813,
      "ĠÃľlk": 2814,
      "enÃ¼z": 2815,
      "Ġidar": 2816,
      "ĠdÃ¶": 2817,
      "ĠayÄ±nda": 2818,
      "ĠBank": 2819,
      "Ġmotor": 2820,
      "Ġdeneyim": 2821,
      "ĠtaÅŁÄ±m": 2822,
      "Ġsene": 2823,
      "ĠbaÅŁÄ±nda": 2824,
      "Ġesn": 2825,
      "mar": 2826,
      "elerden": 2827,
      "ĠÃ§at": 2828,
      "Ġnerede": 2829,
      "ĠgiriÅŁim": 2830,
      "ĠsaÄŁlar": 2831,
      "eceÄŁiz": 2832,
      "Ġyandan": 2833,
      "ĠuluslararasÄ±": 2834,
      "Ġenerji": 2835,
      "Ġzorun": 2836,
      "esindeki": 2837,
      "ĠÃ¶ÄŁrenciler": 2838,
      "egor": 2839,
      "Ġtest": 2840,
      "ĠeÄŁer": 2841,
      "meniz": 2842,
      "ĠseÃ§enek": 2843,
      "Ġrisk": 2844,
      "Ġmekan": 2845,
      "ital": 2846,
      "ĠfÄ±rsat": 2847,
      "lenme": 2848,
      "hend": 2849,
      "Ġilan": 2850,
      "Ã¼mÃ¼zde": 2851,
      "ĠTarih": 2852,
      "ĠÅŁeyler": 2853,
      "Ġkendisine": 2854,
      "ult": 2855,
      "ĠayÄ±r": 2856,
      "ĠSÃ¼r": 2857,
      "ĠyapÄ±lmasÄ±": 2858,
      "Ġsunul": 2859,
      "ĠKÄ±z": 2860,
      "Ġnes": 2861,
      "ĠsonrasÄ±nda": 2862,
      "ĠolmadÄ±ÄŁÄ±nÄ±": 2863,
      "Ġkredi": 2864,
      "ĠgerektiÄŁini": 2865,
      "yÄ±l": 2866,
      "ĠBeÅŁ": 2867,
      "ullah": 2868,
      "Ġayar": 2869,
      "rek": 2870,
      "Ġsefer": 2871,
      "Ġarz": 2872,
      "ĠSt": 2873,
      "Ġeg": 2874,
      "Ġdemokr": 2875,
      "ĠolmadÄ±ÄŁÄ±": 2876,
      "Ġsabah": 2877,
      "ĠonlarÄ±n": 2878,
      "ĠBÃ¼yÃ¼kÅŁehir": 2879,
      "Ġtrans": 2880,
      "Ġduyur": 2881,
      "form": 2882,
      "Ã¼yle": 2883,
      "Ġbenzer": 2884,
      "Ġteklif": 2885,
      "Ġbat": 2886,
      "ĠhazÄ±rlan": 2887,
      "ĠyaÅŁanan": 2888,
      "Ġbelirten": 2889,
      "AM": 2890,
      "mamak": 2891,
      "ĠsayÄ±da": 2892,
      "istik": 2893,
      "Ġpersonel": 2894,
      "Ġbeyaz": 2895,
      "Ġdolu": 2896,
      "ĠMÃ¼dÃ¼rÃ¼": 2897,
      "ediÄŁini": 2898,
      "lev": 2899,
      "Ġsem": 2900,
      "eyn": 2901,
      "Ġadres": 2902,
      "ĠtaÅŁÄ±y": 2903,
      "ĠÃ¶nÃ¼nde": 2904,
      "Ġyada": 2905,
      "Ġdosy": 2906,
      "esyon": 2907,
      "ĠalanÄ±nda": 2908,
      "ĠYun": 2909,
      "mekte": 2910,
      "umsuz": 2911,
      "ĠLis": 2912,
      "ĠBurada": 2913,
      "Ġdurumunda": 2914,
      "Ġpoz": 2915,
      "Ġyetk": 2916,
      "ĠartÄ±ÅŁ": 2917,
      "dart": 2918,
      "ĠbuluÅŁ": 2919,
      "Ġderin": 2920,
      "ĠDemir": 2921,
      "mÄ±yor": 2922,
      "Ġkok": 2923,
      "Ġkurtul": 2924,
      "ĠÃ¼nlÃ¼": 2925,
      "ilmiÅŁtir": 2926,
      "ĠMayÄ±s": 2927,
      "Ġnumar": 2928,
      "ĠeÄŁit": 2929,
      "eliÄŁ": 2930,
      "spor": 2931,
      "ĠOnun": 2932,
      "Ġhuzur": 2933,
      "usun": 2934,
      "Ġmerkezi": 2935,
      "ĠaÅŁam": 2936,
      "ĠÃ§evir": 2937,
      "ĠyapÄ±yor": 2938,
      "gar": 2939,
      "Ġkural": 2940,
      "Ġtehlik": 2941,
      "ĠpiÅŁ": 2942,
      "sen": 2943,
      "Ġresmi": 2944,
      "Ġesas": 2945,
      "ĠMak": 2946,
      "geÃ§": 2947,
      "Ġfikir": 2948,
      "ĠsÃ¼t": 2949,
      "Ġdoldur": 2950,
      "ayla": 2951,
      "Ġilgi": 2952,
      "ĠGÃ¼l": 2953,
      "Ä°R": 2954,
      "Ġmar": 2955,
      "sÄ±zlÄ±k": 2956,
      "ĠBenim": 2957,
      "ĠyavaÅŁ": 2958,
      "ĠBakanlÄ±ÄŁÄ±": 2959,
      "Ġvideo": 2960,
      "Ġuygulama": 2961,
      "Ġpr": 2962,
      "Ã¼ph": 2963,
      "ĠÅŁans": 2964,
      "ĠFak": 2965,
      "eyle": 2966,
      "su": 2967,
      "Ġgay": 2968,
      "fi": 2969,
      "ĠlazÄ±m": 2970,
      "Ġyeri": 2971,
      "Ġhala": 2972,
      "ĠonlarÄ±": 2973,
      "ĠdeÄŁerli": 2974,
      "Ġyaparak": 2975,
      "ĠKemal": 2976,
      "ĠÃ¼cretsiz": 2977,
      "Ġreklam": 2978,
      "ĠyerleÅŁ": 2979,
      "esyonel": 2980,
      "acaÄŁÄ±nÄ±z": 2981,
      "ĠEkim": 2982,
      "ĠÃ§ab": 2983,
      "ĠKam": 2984,
      "niyet": 2985,
      "Ã¶ren": 2986,
      "Ġmobil": 2987,
      "ĠaylÄ±k": 2988,
      "ĠHizmet": 2989,
      "miÅŁti": 2990,
      "Ġazal": 2991,
      "Ġdefa": 2992,
      "abet": 2993,
      "Ġakl": 2994,
      "ansÄ±z": 2995,
      "Ġvurgul": 2996,
      "Ġalanda": 2997,
      "ĠKullan": 2998,
      "ĠgÃ¼l": 2999,
      "ĠHaziran": 3000,
      "ekler": 3001,
      "alam": 3002,
      "ĠHz": 3003,
      "ĠkeÅŁ": 3004,
      "evk": 3005,
      "adÄ±m": 3006,
      "Ġkampan": 3007,
      "ĠOcak": 3008,
      "ĠGir": 3009,
      "Ġbitir": 3010,
      "Ġonay": 3011,
      "uyorum": 3012,
      "ĠÃ§arp": 3013,
      "Ġheyec": 3014,
      "ĠProgram": 3015,
      "EM": 3016,
      "Ġoperasyon": 3017,
      "ĠhÃ¢": 3018,
      "Ġhastal": 3019,
      "Ä±mÄ±n": 3020,
      "Ġveriyor": 3021,
      "Ġalacak": 3022,
      "esiz": 3023,
      "ĠÃ§alÄ±ÅŁmalarÄ±": 3024,
      "Ġfirmalar": 3025,
      "Ġgerekmektedir": 3026,
      "ĠGo": 3027,
      "ĠLig": 3028,
      "tadan": 3029,
      "ĠÅŁeyi": 3030,
      "liÄŁinde": 3031,
      "larÄ±nÄ±zÄ±": 3032,
      "ĠÃ§al": 3033,
      "kenin": 3034,
      "yal": 3035,
      "ĠFat": 3036,
      "amet": 3037,
      "Ä±lÄ±yor": 3038,
      "ĠBaÄŁ": 3039,
      "Ġuc": 3040,
      "idi": 3041,
      "Ġelektrik": 3042,
      "ĠÅŁiddet": 3043,
      "ĠOd": 3044,
      "ĠalÄ±ÅŁveriÅŁ": 3045,
      "ĠiÅŁi": 3046,
      "ĠarttÄ±r": 3047,
      "ĠKÃ¶": 3048,
      "Ġyararlan": 3049,
      "aÅŁÄ±r": 3050,
      "dem": 3051,
      "duÄŁunu": 3052,
      "Ġeylem": 3053,
      "ĠDiy": 3054,
      "ĠAp": 3055,
      "Ġdakik": 3056,
      "Ġolursa": 3057,
      "Ġproje": 3058,
      "lisi": 3059,
      "ĠbaÅŁta": 3060,
      "ĠAntal": 3061,
      "Ġyapacak": 3062,
      "anlÄ±k": 3063,
      "Ġbol": 3064,
      "Ġhikay": 3065,
      "ĠDol": 3066,
      "Ġnokta": 3067,
      "Ġdavet": 3068,
      "Ä°L": 3069,
      "lenmesi": 3070,
      "ĠhayÄ±r": 3071,
      "Ġef": 3072,
      "Ġederim": 3073,
      "ĠSistem": 3074,
      "ĠOyun": 3075,
      "ĠiÅŁÃ§": 3076,
      "ĠBazÄ±": 3077,
      "rÃ¼b": 3078,
      "ĠMÃ¼dÃ¼rlÃ¼ÄŁÃ¼": 3079,
      "ĠGazet": 3080,
      "allah": 3081,
      "ĠhÃ¼c": 3082,
      "ĠYer": 3083,
      "lÄ±ÄŁa": 3084,
      "liyor": 3085,
      "iyim": 3086,
      "Ġdef": 3087,
      "ĠgÃ¶rÃ¼ntÃ¼": 3088,
      "ĠMÃ¼z": 3089,
      "dikleri": 3090,
      "Ġkorum": 3091,
      "Ġhisset": 3092,
      "Ġifad": 3093,
      "tÃ¼l": 3094,
      "Ġharc": 3095,
      "Ä±lmaz": 3096,
      "Ġalarak": 3097,
      "Ã¢h": 3098,
      "Ġmadd": 3099,
      "ĠÃ¢": 3100,
      "ĠkararÄ±": 3101,
      "Ġmec": 3102,
      "ĠsaÄŁlayan": 3103,
      "ĠgÃ¼neÅŁ": 3104,
      "ĠyapmÄ±ÅŁ": 3105,
      "Ġgide": 3106,
      "Ġsel": 3107,
      "Ġlez": 3108,
      "Ġtavsiye": 3109,
      "Ä±lacak": 3110,
      "sim": 3111,
      "Ġbed": 3112,
      "Ġkop": 3113,
      "ĠÃ¶ÄŁ": 3114,
      "dal": 3115,
      "tern": 3116,
      "ĠgÃ¶steren": 3117,
      "ĠmÃ¼da": 3118,
      "Ġtoplant": 3119,
      "Ġkavram": 3120,
      "ĠSin": 3121,
      "ton": 3122,
      "Ġlider": 3123,
      "altÄ±": 3124,
      "Ġgol": 3125,
      "ĠolmuÅŁtur": 3126,
      "yen": 3127,
      "lÄ±ÄŁÄ±n": 3128,
      "ĠgÃ¶rÃ¼yor": 3129,
      "oya": 3130,
      "ĠgÃ¼c": 3131,
      "Ġcep": 3132,
      "antaj": 3133,
      "Ä±larak": 3134,
      "ĠeleÅŁtir": 3135,
      "ĠsÄ±rada": 3136,
      "dÄ±ktan": 3137,
      "ĠBunu": 3138,
      "ĠKÃ¼rt": 3139,
      "Ġkanal": 3140,
      "Ä±ldÄ±ÄŁÄ±": 3141,
      "Ġbirisi": 3142,
      "ke": 3143,
      "iÅŁi": 3144,
      "diler": 3145,
      "larÄ±mÄ±zÄ±n": 3146,
      "ĠFilm": 3147,
      "nak": 3148,
      "latform": 3149,
      "AY": 3150,
      "ĠÅŀu": 3151,
      "ivil": 3152,
      "Ġkurtar": 3153,
      "Ġpan": 3154,
      "ku": 3155,
      "Ġhafif": 3156,
      "ĠhenÃ¼z": 3157,
      "cÄ±lÄ±k": 3158,
      "ĠHalk": 3159,
      "ĠbeÄŁen": 3160,
      "atej": 3161,
      "yas": 3162,
      "Ġkorun": 3163,
      "ĠyapÄ±lÄ±r": 3164,
      "ĠkÃ¼r": 3165,
      "Ä°K": 3166,
      "hendis": 3167,
      "ĠTay": 3168,
      "Ġikti": 3169,
      "ĠÃĸnc": 3170,
      "Ġkullanarak": 3171,
      "Ġmesel": 3172,
      "ĠbaÅŁk": 3173,
      "Ġfon": 3174,
      "best": 3175,
      "EK": 3176,
      "tiler": 3177,
      "Ġkayde": 3178,
      "ĠSor": 3179,
      "ĠAÃ§Ä±k": 3180,
      "amay": 3181,
      "dÃ¼m": 3182,
      "Ġettir": 3183,
      "Ġkonum": 3184,
      "Ġnot": 3185,
      "Ġsap": 3186,
      "aÅŁa": 3187,
      "Ġbundan": 3188,
      "ĠtaÅŁÄ±n": 3189,
      "Ġyiy": 3190,
      "Ġkimse": 3191,
      "oman": 3192,
      "uyoruz": 3193,
      "Ġyans": 3194,
      "ĠyerleÅŁtir": 3195,
      "Ġaile": 3196,
      "ĠCan": 3197,
      "ĠHam": 3198,
      "ĠSayÄ±n": 3199,
      "UR": 3200,
      "ĠPer": 3201,
      "Ġticaret": 3202,
      "Ġoku": 3203,
      "astik": 3204,
      "estiv": 3205,
      "Ġizley": 3206,
      "Ġhayata": 3207,
      "Ġkendine": 3208,
      "Ġihtiyac": 3209,
      "rin": 3210,
      "Ġneler": 3211,
      "mÃ¼r": 3212,
      "Ġescort": 3213,
      "ĠNisan": 3214,
      "ĠDÄ±ÅŁ": 3215,
      "tuk": 3216,
      "ĠKen": 3217,
      "ĠÅŁiir": 3218,
      "Ġgal": 3219,
      "ĠkarÄ±ÅŁ": 3220,
      "cil": 3221,
      "ack": 3222,
      "ĠdÃ¼nyada": 3223,
      "ĠyÄ±llarda": 3224,
      "ĠSanat": 3225,
      "terek": 3226,
      "ĠkarÅŁÄ±sÄ±nda": 3227,
      "daÅŁ": 3228,
      "adÄ±r": 3229,
      "Ġediyoruz": 3230,
      "ĠbaÅŁlÄ±k": 3231,
      "Ġsitesi": 3232,
      "Ġduygu": 3233,
      "ĠMerkezi": 3234,
      "Ġdel": 3235,
      "Ġtaz": 3236,
      "mÄ±zÄ±": 3237,
      "ogle": 3238,
      "ĠDur": 3239,
      "gili": 3240,
      "ĠAÄŁu": 3241,
      "ĠalanÄ±": 3242,
      "ĠtoplantÄ±": 3243,
      "ĠAraÅŁtÄ±r": 3244,
      "ĠyÄ±ldÄ±r": 3245,
      "ekim": 3246,
      "ĠkapÄ±": 3247,
      "ĠBr": 3248,
      "ĠÃ¶nÃ¼ne": 3249,
      "Ġtakdir": 3250,
      "Ġdu": 3251,
      "Ġolumsuz": 3252,
      "ĠÄ°yi": 3253,
      "liÄŁe": 3254,
      "evizyon": 3255,
      "ĠdÄ±ÅŁÄ±": 3256,
      "ĠMÃ¼": 3257,
      "ĠinsanÄ±n": 3258,
      "ĠedilmiÅŁ": 3259,
      "Ġolma": 3260,
      "ĠbaÅŁlar": 3261,
      "ĠkÄ±": 3262,
      "ladÄ±k": 3263,
      "ĠdÃ¶neminde": 3264,
      "ĠborÃ§": 3265,
      "diÄŁimiz": 3266,
      "Ã¼per": 3267,
      "ĠBor": 3268,
      "ĠgÃ¶rmek": 3269,
      "Ġeklen": 3270,
      "emmel": 3271,
      "ĠtecrÃ¼b": 3272,
      "Ġbasit": 3273,
      "Ġkesinlikle": 3274,
      "elerinden": 3275,
      "dÄ±klarÄ±": 3276,
      "ĠGÃ¶k": 3277,
      "ĠiÅŁe": 3278,
      "Ġyoksa": 3279,
      "ha": 3280,
      "ii": 3281,
      "Ġkeyif": 3282,
      "Ġbunlar": 3283,
      "Ġton": 3284,
      "Ġfil": 3285,
      "ĠGÃ¶z": 3286,
      "bur": 3287,
      "ĠAralÄ±k": 3288,
      "ledi": 3289,
      "elerle": 3290,
      "liÄŁine": 3291,
      "ĠkazandÄ±r": 3292,
      "ĠyukarÄ±": 3293,
      "Ġkem": 3294,
      "har": 3295,
      "Ġmat": 3296,
      "sine": 3297,
      "ĠAÄŁust": 3298,
      "ĠÄ°h": 3299,
      "ĠkarÅŁÄ±lÄ±k": 3300,
      "ediler": 3301,
      "yse": 3302,
      "gesi": 3303,
      "ĠBal": 3304,
      "Ġkamer": 3305,
      "erin": 3306,
      "ĠÃ§oÄŁu": 3307,
      "Ġtatil": 3308,
      "ĠSavaÅŁ": 3309,
      "Ġanlamda": 3310,
      "ĠDav": 3311,
      "ipar": 3312,
      "erler": 3313,
      "ĠÅŁik": 3314,
      "ĠUluslararasÄ±": 3315,
      "sas": 3316,
      "Ġbebek": 3317,
      "ĠiÅŁte": 3318,
      "ilebilir": 3319,
      "ĠnÃ¼f": 3320,
      "Ġmuht": 3321,
      "Ġtutul": 3322,
      "ĠSeÃ§": 3323,
      "ĠdoÄŁum": 3324,
      "ĠÄ±ÅŁ": 3325,
      "ĠÃľst": 3326,
      "lediÄŁi": 3327,
      "ĠTaÅŁ": 3328,
      "ĠiÃ§i": 3329,
      "atÄ±n": 3330,
      "Ġsenin": 3331,
      "ĠKÄ±br": 3332,
      "ĠedeceÄŁ": 3333,
      "ĠSadece": 3334,
      "zet": 3335,
      "Ġsonucunda": 3336,
      "layarak": 3337,
      "ĠarasÄ±": 3338,
      "Ġyolc": 3339,
      "Ġemin": 3340,
      "Ġadr": 3341,
      "liÄŁin": 3342,
      "haba": 3343,
      "Ġanne": 3344,
      "iyah": 3345,
      "par": 3346,
      "gÃ¶r": 3347,
      "ĠÃĩev": 3348,
      "ĠyÃ¶netic": 3349,
      "Ġasla": 3350,
      "Ġyerinde": 3351,
      "masÄ±yla": 3352,
      "ĠMÃ¼slÃ¼man": 3353,
      "ĠaÅŁk": 3354,
      "Ġsahiptir": 3355,
      "dam": 3356,
      "Ġtemsilc": 3357,
      "ĠOkul": 3358,
      "Ġamel": 3359,
      "ĠKol": 3360,
      "ĠyayÄ±m": 3361,
      "ĠBuna": 3362,
      "ĠÃ¶deme": 3363,
      "ĠalmÄ±ÅŁ": 3364,
      "rail": 3365,
      "Ġib": 3366,
      "ĠmeÅŁ": 3367,
      "isinden": 3368,
      "ĠKaz": 3369,
      "ĠHastan": 3370,
      "Ġzevk": 3371,
      "ĠvazgeÃ§": 3372,
      "Ġfel": 3373,
      "abileceÄŁi": 3374,
      "ĠÃ¼rÃ¼nleri": 3375,
      "Ġted": 3376,
      "ĠKÄ±brÄ±s": 3377,
      "Ġpsik": 3378,
      "alim": 3379,
      "ĠÃ¶ÄŁrenci": 3380,
      "Ġetmektedir": 3381,
      "lanmasÄ±": 3382,
      "ayÄ±cÄ±": 3383,
      "lardÄ±": 3384,
      "ĠCHP": 3385,
      "Ġstandart": 3386,
      "Ġhad": 3387,
      "ĠdavranÄ±ÅŁ": 3388,
      "Ġperformans": 3389,
      "Ġbazen": 3390,
      "iÅŁleri": 3391,
      "Ġgaz": 3392,
      "Ġpo": 3393,
      "elt": 3394,
      "Ġceza": 3395,
      "uklu": 3396,
      "ĠAnkar": 3397,
      "Ġsonraki": 3398,
      "mamasÄ±": 3399,
      "ĠAllahÄ±n": 3400,
      "Ġonlara": 3401,
      "lÄ±ÄŁÄ±nÄ±n": 3402,
      "Ġtaleb": 3403,
      "ĠalÄ±p": 3404,
      "err": 3405,
      "ore": 3406,
      "lerinizi": 3407,
      "ĠTes": 3408,
      "Ġbelirtti": 3409,
      "meli": 3410,
      "Ġbilgileri": 3411,
      "ĠSonra": 3412,
      "ĠaÃ§Ä±klamada": 3413,
      "ĠTicaret": 3414,
      "Ġkuvvet": 3415,
      "emizin": 3416,
      "ĠyazÄ±lÄ±": 3417,
      "uru": 3418,
      "ĠkarÄ±ÅŁtÄ±r": 3419,
      "ĠyetiÅŁtir": 3420,
      "Ġbuy": 3421,
      "ĠYine": 3422,
      "aÄŁan": 3423,
      "ĠdÃ¼ÅŁÃ¼r": 3424,
      "larÄ±mÄ±zÄ±": 3425,
      "Ġsokak": 3426,
      "say": 3427,
      "ĠsÄ±kÄ±ntÄ±": 3428,
      "Ã¼ndeki": 3429,
      "Ġla": 3430,
      "ĠBas": 3431,
      "ĠKurum": 3432,
      "ĠMed": 3433,
      "ayÄ±f": 3434,
      "Ġhap": 3435,
      "ronik": 3436,
      "Ġerken": 3437,
      "ahim": 3438,
      "ladÄ±ÄŁ": 3439,
      "ĠaydÄ±n": 3440,
      "ultan": 3441,
      "ĠÃ¶den": 3442,
      "Ġgenellikle": 3443,
      "Ġtas": 3444,
      "ĠYol": 3445,
      "Ġez": 3446,
      "Ġprofesyonel": 3447,
      "Ġyerel": 3448,
      "ĠgÃ¶ren": 3449,
      "ĠiÅŁbir": 3450,
      "ise": 3451,
      "ĠBizim": 3452,
      "ĠSit": 3453,
      "dro": 3454,
      "Ä±sÄ±r": 3455,
      "ĠaldÄ±ÄŁ": 3456,
      "ĠGÃ¶": 3457,
      "Ġkategor": 3458,
      "ĠyetiÅŁ": 3459,
      "ĠYÃ¼z": 3460,
      "Ġpark": 3461,
      "eyh": 3462,
      "Ġaf": 3463,
      "Ġnin": 3464,
      "ĠdÃ¼zenlem": 3465,
      "ĠEÅŁ": 3466,
      "ĠYet": 3467,
      "Ġpop": 3468,
      "Ġlim": 3469,
      "ĠkaÅŁ": 3470,
      "nam": 3471,
      "Ġkitab": 3472,
      "ĠSuriye": 3473,
      "Ġnedir": 3474,
      "oÄŁl": 3475,
      "Ġodak": 3476,
      "dat": 3477,
      "dit": 3478,
      "ĠÅŁer": 3479,
      "pek": 3480,
      "Ġaray": 3481,
      "ĠbunlarÄ±n": 3482,
      "utan": 3483,
      "ĠolmasÄ±na": 3484,
      "ĠsÃ¼rede": 3485,
      "gen": 3486,
      "diÄŁim": 3487,
      "Ġday": 3488,
      "Ġfizik": 3489,
      "dikten": 3490,
      "ĠGerÃ§": 3491,
      "ĠDÃ¶n": 3492,
      "Ã¼tfen": 3493,
      "ĠOrta": 3494,
      "ĠgÃ¼nlerde": 3495,
      "ĠkiÅŁisel": 3496,
      "ia": 3497,
      "larca": 3498,
      "ĠyaygÄ±n": 3499,
      "lanÄ±r": 3500,
      "eceÄŁim": 3501,
      "ĠBaÅŁbakan": 3502,
      "ĠSab": 3503,
      "ĠCam": 3504,
      "Ġisimli": 3505,
      "afir": 3506,
      "emiÅŁ": 3507,
      "Ġbelirterek": 3508,
      "Ġara": 3509,
      "ĠdÃ¼ÄŁ": 3510,
      "Ġdahi": 3511,
      "go": 3512,
      "Ġrad": 3513,
      "Ġlisans": 3514,
      "ĠaltÄ±n": 3515,
      "hat": 3516,
      "Ġkendisini": 3517,
      "medi": 3518,
      "ĠÃ¶ne": 3519,
      "Ġmodern": 3520,
      "ĠÄ°ki": 3521,
      "Ä°M": 3522,
      "ĠÃ§iÃ§": 3523,
      "Ġenf": 3524,
      "ĠMev": 3525,
      "ĠiÃ§erik": 3526,
      "ĠdeÄŁiÅŁim": 3527,
      "erseniz": 3528,
      "sini": 3529,
      "Ġoyunu": 3530,
      "ĠFakÃ¼lt": 3531,
      "Ġmedya": 3532,
      "ĠmÃ¼dÃ¼r": 3533,
      "Ä±ydÄ±": 3534,
      "emey": 3535,
      "ĠPh": 3536,
      "ĠBÃ¼tÃ¼n": 3537,
      "ĠTÃ¼rkÃ§e": 3538,
      "bette": 3539,
      "Ġtutar": 3540,
      "ĠÄ±ÅŁÄ±k": 3541,
      "Ġhesab": 3542,
      "Ġprot": 3543,
      "Ġide": 3544,
      "Ġduvar": 3545,
      "Ġgiden": 3546,
      "ĠhayatÄ±nÄ±": 3547,
      "inal": 3548,
      "eÄŁini": 3549,
      "ĠDÃ¼z": 3550,
      "Ġvb": 3551,
      "irken": 3552,
      "layÄ±p": 3553,
      "ON": 3554,
      "Ġedip": 3555,
      "sizlik": 3556,
      "ĠÅŁÃ¼ph": 3557,
      "Ġkendisi": 3558,
      "ĠÄ°k": 3559,
      "Ġtane": 3560,
      "ĠMur": 3561,
      "ĠmÃ¼ÅŁteri": 3562,
      "yaya": 3563,
      "iyordu": 3564,
      "Ġyor": 3565,
      "ĠBÃ¶ylece": 3566,
      "Ã¶yl": 3567,
      "imar": 3568,
      "ĠKÄ±s": 3569,
      "ĠÃĸrneÄŁin": 3570,
      "ĠVal": 3571,
      "Ġep": 3572,
      "Ä±lmÄ±ÅŁtÄ±r": 3573,
      "ĠGazi": 3574,
      "ĠEf": 3575,
      "ĠprogramÄ±": 3576,
      "Ġkans": 3577,
      "ĠsaldÄ±rÄ±": 3578,
      "omet": 3579,
      "Ġyola": 3580,
      "ĠdanÄ±ÅŁ": 3581,
      "ĠHol": 3582,
      "Ġtahmin": 3583,
      "ĠbunlarÄ±": 3584,
      "Ġkilo": 3585,
      "Ġcinsel": 3586,
      "ĠPeygamber": 3587,
      "ova": 3588,
      "ĠistediÄŁiniz": 3589,
      "Ġsana": 3590,
      "Ġap": 3591,
      "ĠYal": 3592,
      "ĠyapÄ±ldÄ±": 3593,
      "ĠeÅŁit": 3594,
      "Ġbilinen": 3595,
      "Ġorada": 3596,
      "ÃĦ": 3597,
      "Ġkaydet": 3598,
      "Ġsert": 3599,
      "ĠVak": 3600,
      "ĠFil": 3601,
      "Ġbilir": 3602,
      "ink": 3603,
      "ĠKah": 3604,
      "Ġbirinci": 3605,
      "ĠÃ§ap": 3606,
      "ĠyazÄ±lÄ±m": 3607,
      "izasyon": 3608,
      "ĠtanÄ±ÅŁ": 3609,
      "abz": 3610,
      "Ġpas": 3611,
      "ĠbiÃ§imde": 3612,
      "edeni": 3613,
      "oyu": 3614,
      "erken": 3615,
      "ĠbÃ¼t": 3616,
      "ĠyanÄ±t": 3617,
      "Ġx": 3618,
      "diÄŁinde": 3619,
      "ĠmÃ¼kemmel": 3620,
      "Ġkalp": 3621,
      "Ġgerektir": 3622,
      "Ä°T": 3623,
      "ĠyÄ±lda": 3624,
      "artesi": 3625,
      "ĠÃ¶zelliÄŁi": 3626,
      "ĠÄ°ran": 3627,
      "ĠaÅŁaÄŁÄ±daki": 3628,
      "ĠGoogle": 3629,
      "raman": 3630,
      "Ġimza": 3631,
      "ĠAÄŁustos": 3632,
      "ebook": 3633,
      "Ġdo": 3634,
      "ĠDoÄŁu": 3635,
      "osta": 3636,
      "ĠGÃ¼ney": 3637,
      "ĠyÃ¼rÃ¼y": 3638,
      "Ã¼ny": 3639,
      "lerimizi": 3640,
      "ĠÄ°lÃ§e": 3641,
      "Ġpaket": 3642,
      "Ġhoc": 3643,
      "racat": 3644,
      "isiyle": 3645,
      "ĠkÄ±ÅŁ": 3646,
      "Ġiddia": 3647,
      "Ġolumlu": 3648,
      "ĠUygul": 3649,
      "Ġimk": 3650,
      "ĠYardÄ±mcÄ±sÄ±": 3651,
      "Ġfor": 3652,
      "ĠFir": 3653,
      "Ġarab": 3654,
      "Ġhus": 3655,
      "Ġimkan": 3656,
      "Ġsona": 3657,
      "ĠÅŁif": 3658,
      "ĠÅŀubat": 3659,
      "ediÄŁiniz": 3660,
      "AÅŀ": 3661,
      "ĠHaf": 3662,
      "liler": 3663,
      "ĠuÃ§ak": 3664,
      "mur": 3665,
      "Ġsorunu": 3666,
      "ĠÄ°stanbulda": 3667,
      "rem": 3668,
      "ĠaltÄ±": 3669,
      "ĠÄ°ngilter": 3670,
      "Ġye": 3671,
      "usunu": 3672,
      "Ġavantaj": 3673,
      "Ġyapmaya": 3674,
      "Ġsonu": 3675,
      "eytin": 3676,
      "ĠÃ§ay": 3677,
      "ĠÃ¶nemlidir": 3678,
      "alardan": 3679,
      "ĠaraÅŁtÄ±rma": 3680,
      "meni": 3681,
      "Ġdiyerek": 3682,
      "Ġharika": 3683,
      "imden": 3684,
      "ĠSah": 3685,
      "ĠÅŁar": 3686,
      "ĠBirliÄŁi": 3687,
      "Ġetmeye": 3688,
      "Ġelem": 3689,
      "ĠyÃ¼zyÄ±l": 3690,
      "ĠolduÄŁuna": 3691,
      "urken": 3692,
      "ĠGÃ¼zel": 3693,
      "madÄ±ÄŁÄ±": 3694,
      "ĠÃ¼lkenin": 3695,
      "Ġlira": 3696,
      "acÄ±lÄ±k": 3697,
      "DE": 3698,
      "OR": 3699,
      "ĠRec": 3700,
      "Ġgr": 3701,
      "ĠUzun": 3702,
      "ĠgÃ¶nÃ¼l": 3703,
      "Ġetraf": 3704,
      "tarÄ±": 3705,
      "ĠÃ§Ä±kÄ±ÅŁ": 3706,
      "unlarÄ±": 3707,
      "Ġta": 3708,
      "ĠkÃ¶ÅŁ": 3709,
      "ĠÃ¼Ã§Ã¼ncÃ¼": 3710,
      "ĠÃ§eken": 3711,
      "ĠBin": 3712,
      "Ġkahv": 3713,
      "ĠTe": 3714,
      "ĠanlayÄ±ÅŁ": 3715,
      "Ġyasak": 3716,
      "ĠHep": 3717,
      "ĠEski": 3718,
      "ĠsÃ¶ylÃ¼yor": 3719,
      "iktaÅŁ": 3720,
      "Ġetme": 3721,
      "LAR": 3722,
      "Ġyeter": 3723,
      "Ġevde": 3724,
      "edikleri": 3725,
      "ĠsÃ¶ylen": 3726,
      "Ġserbest": 3727,
      "sinin": 3728,
      "giler": 3729,
      "ĠPeki": 3730,
      "eÄŁe": 3731,
      "ĠMod": 3732,
      "Ġvit": 3733,
      "ĠGalat": 3734,
      "ĠbalÄ±k": 3735,
      "Ġbelirtilen": 3736,
      "Ã§ak": 3737,
      "ĠBer": 3738,
      "Ġgiren": 3739,
      "ĠkaldÄ±": 3740,
      "ĠArtÄ±k": 3741,
      "Ġtuz": 3742,
      "Ä±sÄ±t": 3743,
      "Ġkoruy": 3744,
      "liÄŁinin": 3745,
      "ulmasÄ±": 3746,
      "are": 3747,
      "ĠBat": 3748,
      "Ġresim": 3749,
      "Ġsp": 3750,
      "ĠÃ¼ye": 3751,
      "Ġus": 3752,
      "tak": 3753,
      "ediÄŁimiz": 3754,
      "ĠFener": 3755,
      "ĠBayram": 3756,
      "Ġdes": 3757,
      "Ġazalt": 3758,
      "ĠÄ°m": 3759,
      "ĠYunan": 3760,
      "ĠdÃ¶v": 3761,
      "ĠHiÃ§": 3762,
      "Ã¼stÃ¼": 3763,
      "memiÅŁ": 3764,
      "ĠKÃ¼Ã§Ã¼k": 3765,
      "ĠTÃľ": 3766,
      "ĠyaÅŁÄ±ndaki": 3767,
      "Ġbeden": 3768,
      "gal": 3769,
      "ĠkiÅŁilerin": 3770,
      "ĠÃ§Ä±kart": 3771,
      "Ġsahn": 3772,
      "ĠÃ§ocuklar": 3773,
      "mayacak": 3774,
      "Ã¶ÄŁr": 3775,
      "Ġekley": 3776,
      "Ġsivil": 3777,
      "ipariÅŁ": 3778,
      "Ġbirik": 3779,
      "ban": 3780,
      "Ġkonut": 3781,
      "ĠIrak": 3782,
      "ĠÄ°srail": 3783,
      "ĠhakkÄ±": 3784,
      "ĠArap": 3785,
      "Ġfaiz": 3786,
      "iber": 3787,
      "Ġdokun": 3788,
      "Ġstratej": 3789,
      "ĠgeliÅŁim": 3790,
      "Ġmeslek": 3791,
      "Ġortadan": 3792,
      "Ġkapas": 3793,
      "Ġmilli": 3794,
      "sÃ¼z": 3795,
      "ĠyapÄ±m": 3796,
      "ĠinÅŁa": 3797,
      "ĠbaskÄ±": 3798,
      "Ġbec": 3799,
      "ses": 3800,
      "ĠDerneÄŁi": 3801,
      "liye": 3802,
      "Ġgetiren": 3803,
      "ĠUn": 3804,
      "ĠayrÄ±l": 3805,
      "ĠoranÄ±": 3806,
      "Ġnedeni": 3807,
      "ĠSh": 3808,
      "ĠMahall": 3809,
      "Ġcen": 3810,
      "ĠÅŀah": 3811,
      "Ä±ÄŁÄ±nda": 3812,
      "fet": 3813,
      "ĠÃ¶ncesi": 3814,
      "ger": 3815,
      "kar": 3816,
      "ebiliriz": 3817,
      "bay": 3818,
      "ĠÃĩin": 3819,
      "ĠkatÄ±ldÄ±": 3820,
      "ĠAlan": 3821,
      "Ä±sÄ±nÄ±z": 3822,
      "ĠTeknik": 3823,
      "Ġyetkil": 3824,
      "ĠMut": 3825,
      "ĠdÃ¼ÅŁÃ¼nÃ¼yorum": 3826,
      "ĠEvet": 3827,
      "ĠÃ¶lÃ§Ã¼": 3828,
      "abilen": 3829,
      "ĠÅŁarkÄ±": 3830,
      "Ä±sÄ±z": 3831,
      "tis": 3832,
      "Ġplatform": 3833,
      "ĠPazar": 3834,
      "ĠasÄ±l": 3835,
      "abileceÄŁiniz": 3836,
      "ĠtanÄ±t": 3837,
      "ĠbÃ¶": 3838,
      "Ġdeney": 3839,
      "Ġvakit": 3840,
      "diÄŁiniz": 3841,
      "Ġetkisi": 3842,
      "ĠSamsun": 3843,
      "ons": 3844,
      "ĠBeÅŁiktaÅŁ": 3845,
      "ĠolmasÄ±nÄ±": 3846,
      "ĠÅŀeh": 3847,
      "ĠiÅŁlemi": 3848,
      "ĠÃľy": 3849,
      "Ġarama": 3850,
      "ĠyeÅŁil": 3851,
      "ĠvÃ¼cut": 3852,
      "ĠbaÄŁÄ±msÄ±z": 3853,
      "ĠgeÃ§erli": 3854,
      "ĠyalnÄ±zca": 3855,
      "ĠgÃ¶Ã§": 3856,
      "Ġgelin": 3857,
      "Ä±ndÄ±r": 3858,
      "ĠkiÅŁilik": 3859,
      "ĠÅŁehit": 3860,
      "ĠcÃ¼m": 3861,
      "ĠÃ¶ÄŁretim": 3862,
      "acebook": 3863,
      "ĠtÃ¼rk": 3864,
      "Ġaktif": 3865,
      "ĠkÄ±smÄ±": 3866,
      "Ġnamaz": 3867,
      "Ġuyum": 3868,
      "ĠaÃ§Ä±": 3869,
      "ĠArk": 3870,
      "Ġolmam": 3871,
      "ĠpeÅŁ": 3872,
      "Ġsalon": 3873,
      "ĠaÅŁÄ±rÄ±": 3874,
      "ĠgÃ¶rdÃ¼ÄŁ": 3875,
      "ĠFran": 3876,
      "Ġbende": 3877,
      "Ġnitelik": 3878,
      "ĠVar": 3879,
      "Ġheyecan": 3880,
      "Ġotomobil": 3881,
      "Ġalg": 3882,
      "ĠÃ¼zerindeki": 3883,
      "Ġotob": 3884,
      "iyer": 3885,
      "Ġduyg": 3886,
      "ĠDair": 3887,
      "sur": 3888,
      "ĠinÅŁaat": 3889,
      "ĠyaÅŁÄ±nda": 3890,
      "iklet": 3891,
      "Ġciv": 3892,
      "ĠdoÄŁrult": 3893,
      "icari": 3894,
      "Ã§iler": 3895,
      "etleri": 3896,
      "ĠacÄ±": 3897,
      "ĠtatlÄ±": 3898,
      "ĠzayÄ±f": 3899,
      "Ġmaliyet": 3900,
      "Ġeve": 3901,
      "ĠDil": 3902,
      "yap": 3903,
      "ĠMadde": 3904,
      "ĠdoÄŁrudan": 3905,
      "iyorlar": 3906,
      "ala": 3907,
      "Ġsuyu": 3908,
      "Ġsorumlu": 3909,
      "ĠÃ¼rÃ¼nler": 3910,
      "ham": 3911,
      "ĠÅŀirket": 3912,
      "Ġistih": 3913,
      "isin": 3914,
      "ĠKanunun": 3915,
      "ĠMilletvekili": 3916,
      "ĠYat": 3917,
      "Ġism": 3918,
      "ĠdÄ±ÅŁarÄ±": 3919,
      "Ġtemin": 3920,
      "atur": 3921,
      "Ġparti": 3922,
      "ĠBÃ¶lg": 3923,
      "Ä±za": 3924,
      "lamasÄ±": 3925,
      "ilmektedir": 3926,
      "ĠhatÄ±rlat": 3927,
      "gÄ±Ã§": 3928,
      "Ġten": 3929,
      "Ġteknoloji": 3930,
      "ED": 3931,
      "ĠgÃ¼venli": 3932,
      "ĠAydÄ±n": 3933,
      "Ġetmesi": 3934,
      "ĠhazÄ±rlÄ±k": 3935,
      "ĠgelmiÅŁ": 3936,
      "Ġkod": 3937,
      "aÄŁÄ±n": 3938,
      "abrik": 3939,
      "ĠsÃ¼resi": 3940,
      "ebiliyor": 3941,
      "ĠHakk": 3942,
      "Ġalma": 3943,
      "Ġcilt": 3944,
      "ĠMa": 3945,
      "ĠThe": 3946,
      "ĠTÃ¼rkiyeye": 3947,
      "ĠTrabz": 3948,
      "emen": 3949,
      "Ġhizmetleri": 3950,
      "Ġbelirli": 3951,
      "ĠbÃ¼ny": 3952,
      "ĠSultan": 3953,
      "Ġuyan": 3954,
      "Ġsinem": 3955,
      "ĠÃ¶nlem": 3956,
      "ĠSak": 3957,
      "ezi": 3958,
      "Ġtransfer": 3959,
      "ĠFenerbah": 3960,
      "ternatif": 3961,
      "ĠKÃ¶y": 3962,
      "Ġiyil": 3963,
      "ĠaÃ§Ä±klama": 3964,
      "Ġkm": 3965,
      "ork": 3966,
      "Ġameliyat": 3967,
      "ĠyÄ±ldÄ±z": 3968,
      "ĠGalatasar": 3969,
      "Ġaskeri": 3970,
      "ĠdÃ¼ÅŁman": 3971,
      "layÄ±n": 3972,
      "Ġteb": 3973,
      "Ġince": 3974,
      "ĠÃ§oÄŁ": 3975,
      "ĠAc": 3976,
      "Ġkurulu": 3977,
      "ĠSat": 3978,
      "ĠNur": 3979,
      "Ġmesaf": 3980,
      "ĠKarÅŁ": 3981,
      "Ġiktidar": 3982,
      "ahmet": 3983,
      "lamÄ±ÅŁ": 3984,
      "Ġolmadan": 3985,
      "masÄ±ndan": 3986,
      "Ã¢y": 3987,
      "alarÄ±ndan": 3988,
      "ÅŁey": 3989,
      "Ġseni": 3990,
      "Ġgur": 3991,
      "ĠGÃ¼r": 3992,
      "Ġolmaya": 3993,
      "Ġzih": 3994,
      "Ä±rlar": 3995,
      "ĠRusya": 3996,
      "Ġoyunc": 3997,
      "Ġalb": 3998,
      "ĠkullanÄ±mÄ±": 3999,
      "Ġherkesin": 4000,
      "ĠHÃ¼s": 4001,
      "ĠolduÄŁumuz": 4002,
      "ĠanlamÄ±na": 4003,
      "ĠakÄ±llÄ±": 4004,
      "LER": 4005,
      "Ġkadro": 4006,
      "Ġkendilerine": 4007,
      "Ġoda": 4008,
      "ĠErk": 4009,
      "ĠDo": 4010,
      "maktan": 4011,
      "ĠÃ§Ä±kÄ±yor": 4012,
      "ĠhÃ¼kÃ¼met": 4013,
      "ĠDen": 4014,
      "ĠiÃ§eren": 4015,
      "macÄ±": 4016,
      "ĠBit": 4017,
      "Ġyerini": 4018,
      "Ġdiyen": 4019,
      "mesinin": 4020,
      "ĠyapÄ±lmÄ±ÅŁ": 4021,
      "Ġedilecek": 4022,
      "irler": 4023,
      "leÅŁme": 4024,
      "ĠtÃ¶ren": 4025,
      "ĠRab": 4026,
      "abilmektedir": 4027,
      "Ġbon": 4028,
      "Ġseyahat": 4029,
      "ĠYayÄ±n": 4030,
      "ĠkapalÄ±": 4031,
      "ĠHD": 4032,
      "ĠyÄ±lÄ±n": 4033,
      "ĠsoÄŁuk": 4034,
      "Ġyaparken": 4035,
      "Ä±lÄ±Ã§": 4036,
      "ĠyatÄ±r": 4037,
      "ai": 4038,
      "Ġdan": 4039,
      "Ä±b": 4040,
      "ĠYÄ±lmaz": 4041,
      "ĠgeÃ§ti": 4042,
      "ĠÄ°tal": 4043,
      "ĠuÄŁraÅŁ": 4044,
      "Ġlezzet": 4045,
      "Ġklas": 4046,
      "Ġkanun": 4047,
      "ST": 4048,
      "liy": 4049,
      "Ġyarg": 4050,
      "Ġmo": 4051,
      "ayÄ±m": 4052,
      "LI": 4053,
      "ĠSanayi": 4054,
      "ĠdoÄŁrultusunda": 4055,
      "ĠamacÄ±": 4056,
      "Ġdiren": 4057,
      "Ġtad": 4058,
      "ze": 4059,
      "Ġfinans": 4060,
      "tÃ¼ÄŁ": 4061,
      "okul": 4062,
      "Ġdedim": 4063,
      "asin": 4064,
      "ĠHerk": 4065,
      "son": 4066,
      "ĠbakÄ±ÅŁ": 4067,
      "ĠBunlar": 4068,
      "pt": 4069,
      "ĠPark": 4070,
      "Ġmarka": 4071,
      "ĠolduÄŁundan": 4072,
      "ediÄŁim": 4073,
      "cÄ±lar": 4074,
      "amayan": 4075,
      "cilik": 4076,
      "ane": 4077,
      "ĠHatta": 4078,
      "Ġyakal": 4079,
      "ĠTam": 4080,
      "ĠÃ¼yesi": 4081,
      "ĠElekt": 4082,
      "Ġcm": 4083,
      "ĠalÄ±m": 4084,
      "ĠkullandÄ±": 4085,
      "ĠkanÄ±": 4086,
      "ĠApp": 4087,
      "ĠSuriy": 4088,
      "kiler": 4089,
      "Ġsiyaset": 4090,
      "eyiz": 4091,
      "Ġmon": 4092,
      "ĠÃ¶zellikleri": 4093,
      "Ġces": 4094,
      "ĠdÃ¼zenli": 4095,
      "liliÄŁ": 4096,
      "Ä±f": 4097,
      "ard": 4098,
      "Ä±labilir": 4099,
      "ĠeÅŁy": 4100,
      "Ġolanlar": 4101,
      "ĠAslÄ±nda": 4102,
      "ijital": 4103,
      "Ġcom": 4104,
      "arÄ±m": 4105,
      "ĠSek": 4106,
      "leriniz": 4107,
      "lardaki": 4108,
      "Ġcok": 4109,
      "abilmesi": 4110,
      "eÅŁem": 4111,
      "dek": 4112,
      "ĠÃ§oÄŁun": 4113,
      "ĠsÃ¶yleyen": 4114,
      "Ġlir": 4115,
      "Ġsuy": 4116,
      "estor": 4117,
      "Ġolanak": 4118,
      "ĠRecep": 4119,
      "emesi": 4120,
      "ĠkÄ±rmÄ±zÄ±": 4121,
      "lerim": 4122,
      "ĠMÃ¼dÃ¼rlÃ¼ÄŁ": 4123,
      "Ġolmay": 4124,
      "ĠbahÃ§": 4125,
      "Ġfirma": 4126,
      "ĠMeclis": 4127,
      "Ġmisafir": 4128,
      "ĠmaÄŁaz": 4129,
      "anet": 4130,
      "Ġred": 4131,
      "luluÄŁ": 4132,
      "Ġkampany": 4133,
      "lenmiÅŁ": 4134,
      "ĠGÃ¼venlik": 4135,
      "unuzu": 4136,
      "ĠMark": 4137,
      "arÄ±nda": 4138,
      "zu": 4139,
      "ĠsÄ±f": 4140,
      "larÄ±mÄ±za": 4141,
      "aka": 4142,
      "Ġverecek": 4143,
      "ĠCem": 4144,
      "Ġtelevizyon": 4145,
      "Ġfazl": 4146,
      "yip": 4147,
      "ĠYÄ±ldÄ±r": 4148,
      "ĠEkonom": 4149,
      "Ġhasta": 4150,
      "Ã¶ÄŁretim": 4151,
      "ĠCen": 4152,
      "Ġanaliz": 4153,
      "ation": 4154,
      "vik": 4155,
      "Ġneredeyse": 4156,
      "Ġgelenek": 4157,
      "ĠTrabzon": 4158,
      "ĠsaygÄ±": 4159,
      "ĠÃ¼stÃ¼n": 4160,
      "ĠgeÃ§iÅŁ": 4161,
      "Ġmezun": 4162,
      "ĠÃ¶nceden": 4163,
      "Ã¼mÃ¼zdeki": 4164,
      "ĠII": 4165,
      "Ġortalama": 4166,
      "ĠtanÄ±n": 4167,
      "ĠMuham": 4168,
      "Ġrakam": 4169,
      "Ġatan": 4170,
      "ĠmÃ¼t": 4171,
      "ĠÃ§erÃ§evesinde": 4172,
      "isiniz": 4173,
      "ĠÃ¼lkede": 4174,
      "Ġokun": 4175,
      "ĠdÃ¼nyaya": 4176,
      "lÄ±ÄŁÄ±nda": 4177,
      "Ġblog": 4178,
      "Ġkus": 4179,
      "ĠSÄ±r": 4180,
      "ĠHayat": 4181,
      "Ġfer": 4182,
      "iyan": 4183,
      "ĠÅŁikayet": 4184,
      "Ġyaralan": 4185,
      "ĠPK": 4186,
      "ĠÄ°nÅŁ": 4187,
      "ĠeÄŁitimi": 4188,
      "Ġbirden": 4189,
      "ĠEb": 4190,
      "Ã¼lebilir": 4191,
      "ĠÅŁÄ±k": 4192,
      "tuÄŁ": 4193,
      "ĠaÃ§Ä±kladÄ±": 4194,
      "ĠÃľrÃ¼n": 4195,
      "alle": 4196,
      "ĠeÄŁlenc": 4197,
      "Ġsik": 4198,
      "Ġbayram": 4199,
      "Ġordu": 4200,
      "Ġtoplumsal": 4201,
      "udi": 4202,
      "Ġhac": 4203,
      "ĠihtiyacÄ±": 4204,
      "likleri": 4205,
      "ĠKuzey": 4206,
      "Ġucuz": 4207,
      "ĠCez": 4208,
      "avi": 4209,
      "ĠfiyatlarÄ±": 4210,
      "Ġbirim": 4211,
      "ĠyÃ¶netimi": 4212,
      "rum": 4213,
      "ĠaÄŁaÃ§": 4214,
      "ĠeriÅŁ": 4215,
      "ĠkalÄ±n": 4216,
      "Ġihtim": 4217,
      "Ġitir": 4218,
      "AP": 4219,
      "Ġters": 4220,
      "Ä±nÄ±zÄ±n": 4221,
      "emize": 4222,
      "ezer": 4223,
      "ĠKab": 4224,
      "Ġyatak": 4225,
      "arlar": 4226,
      "Ġreh": 4227,
      "ilmek": 4228,
      "ĠtÄ±r": 4229,
      "ator": 4230,
      "iyatro": 4231,
      "usuna": 4232,
      "ĠÃ¶y": 4233,
      "Ġsim": 4234,
      "bin": 4235,
      "ĠkatÄ±lan": 4236,
      "ĠMas": 4237,
      "ĠÄ°br": 4238,
      "Ġgizli": 4239,
      "ates": 4240,
      "Ġilav": 4241,
      "ĠsoruÅŁtur": 4242,
      "ĠadÄ±nÄ±": 4243,
      "Ġrast": 4244,
      "ĠyaÅŁat": 4245,
      "ĠyaÅŁamak": 4246,
      "Ġsorumluluk": 4247,
      "Ġkapasit": 4248,
      "ĠRe": 4249,
      "Ġedebilirsiniz": 4250,
      "Ġpozisyon": 4251,
      "ĠÅŁeker": 4252,
      "ord": 4253,
      "ilim": 4254,
      "Ġbelediye": 4255,
      "Ä±yÄ±z": 4256,
      "ĠsÃ¼reci": 4257,
      "Ġverildi": 4258,
      "ĠBab": 4259,
      "ĠCumhurbaÅŁkan": 4260,
      "ĠdÃ¶nÃ¼ÅŁtÃ¼r": 4261,
      "ĠdolaÅŁ": 4262,
      "ĠÅŁiÅŁ": 4263,
      "ĠvermiÅŁ": 4264,
      "ĠDir": 4265,
      "Ġsiyah": 4266,
      "ĠrahatsÄ±z": 4267,
      "Ġkurulan": 4268,
      "ĠbÃ¶lgede": 4269,
      "ĠmÃ¼ÅŁteriler": 4270,
      "estival": 4271,
      "Ġotomatik": 4272,
      "Ġkomp": 4273,
      "yÃ¼z": 4274,
      "Ġcum": 4275,
      "ĠiÃ§indeki": 4276,
      "ĠÃ§ocuklarÄ±n": 4277,
      "Ġmodelleri": 4278,
      "ĠgÃ¼venilir": 4279,
      "sem": 4280,
      "ĠNasÄ±l": 4281,
      "ĠDÃ¼ÅŁ": 4282,
      "Ġzamanlarda": 4283,
      "ĠdaÄŁÄ±t": 4284,
      "ĠbarÄ±ÅŁ": 4285,
      "ĠTah": 4286,
      "ĠÃľÃ§": 4287,
      "Ġbiliyor": 4288,
      "Ġveri": 4289,
      "ĠSav": 4290,
      "ĠKanun": 4291,
      "Ġbinlerce": 4292,
      "Ġbecer": 4293,
      "ĠtarÄ±m": 4294,
      "ĠinsanlarÄ±": 4295,
      "ĠÃ¶t": 4296,
      "ĠbaÄŁlantÄ±": 4297,
      "ĠdetaylÄ±": 4298,
      "Ġhediye": 4299,
      "iyiz": 4300,
      "ĠyÃ¶nlendir": 4301,
      "ĠsÄ±v": 4302,
      "uf": 4303,
      "Ġiken": 4304,
      "ekil": 4305,
      "ĠÄ°ngilizce": 4306,
      "ĠolduklarÄ±": 4307,
      "ĠsipariÅŁ": 4308,
      "Ġgiderek": 4309,
      "Ġsite": 4310,
      "esef": 4311,
      "Ġonline": 4312,
      "ĠÅŁampiyon": 4313,
      "ĠayÄ±": 4314,
      "ĠHava": 4315,
      "ĠTayyip": 4316,
      "Ġidi": 4317,
      "ĠkÃ¶k": 4318,
      "Ġdemektir": 4319,
      "ĠÅŀehir": 4320,
      "Ġiptal": 4321,
      "ĠMad": 4322,
      "ĠboÄŁ": 4323,
      "Ġfilmi": 4324,
      "ĠBilg": 4325,
      "larÄ±ndaki": 4326,
      "irin": 4327,
      "ĠQ": 4328,
      "encer": 4329,
      "ĠalmaktadÄ±r": 4330,
      "Ġekib": 4331,
      "Ġtez": 4332,
      "Ġkullanmak": 4333,
      "elin": 4334,
      "ĠMet": 4335,
      "ĠSp": 4336,
      "Ġediliyor": 4337,
      "Ġtutuk": 4338,
      "ese": 4339,
      "adi": 4340,
      "ĠÃ¶zen": 4341,
      "ĠFatih": 4342,
      "Ġpil": 4343,
      "ess": 4344,
      "Ġsaf": 4345,
      "mede": 4346,
      "ĠvÃ¼cud": 4347,
      "Ġdikkate": 4348,
      "Ġyalan": 4349,
      "Ġalternatif": 4350,
      "Ġbulundur": 4351,
      "ĠtaÅŁÄ±yan": 4352,
      "ĠMH": 4353,
      "ĠÄ°nternet": 4354,
      "asÄ±z": 4355,
      "Ġhassas": 4356,
      "Ġbahset": 4357,
      "ĠBan": 4358,
      "ĠilÃ§esinde": 4359,
      "Ġyasal": 4360,
      "ond": 4361,
      "Ġbozuk": 4362,
      "Ġsonuna": 4363,
      "ĠkaÃ§Ä±r": 4364,
      "ĠEur": 4365,
      "ĠSey": 4366,
      "ĠÃ§evre": 4367,
      "Ġvergi": 4368,
      "tepe": 4369,
      "UL": 4370,
      "ĠKitap": 4371,
      "ĠkiÅŁiye": 4372,
      "adet": 4373,
      "hi": 4374,
      "ĠYok": 4375,
      "Ġhakim": 4376,
      "ĠhÃ¼cr": 4377,
      "Ġtehdit": 4378,
      "ĠyÄ±llar": 4379,
      "ĠlÃ¼tfen": 4380,
      "ĠteÅŁkil": 4381,
      "ĠgÃ¶rsel": 4382,
      "dÃ¼z": 4383,
      "ĠÄ°kinci": 4384,
      "Ġyapabilir": 4385,
      "duÄŁumuz": 4386,
      "uldu": 4387,
      "ĠarkadaÅŁlar": 4388,
      "ĠvarlÄ±k": 4389,
      "ksiyon": 4390,
      "ĠgÃ¶rÃ¼len": 4391,
      "Ġmahk": 4392,
      "Ġilgilen": 4393,
      "Ġkriz": 4394,
      "int": 4395,
      "ulur": 4396,
      "Ä±nar": 4397,
      "Ä±lÄ±p": 4398,
      "Ġhepsi": 4399,
      "ĠbaÄŁlant": 4400,
      "ĠbÃ¼yÃ¼m": 4401,
      "ĠGÃ¼neÅŁ": 4402,
      "ĠiÅŁlemleri": 4403,
      "Ġdenetim": 4404,
      "ĠÃľz": 4405,
      "Ġistek": 4406,
      "Ġdurdur": 4407,
      "ĠduruÅŁ": 4408,
      "Ġduyar": 4409,
      "iciler": 4410,
      "ows": 4411,
      "Ã¼lÃ¼": 4412,
      "ĠPnin": 4413,
      "ĠbÃ¶lge": 4414,
      "leyici": 4415,
      "ĠÅŁub": 4416,
      "Ġref": 4417,
      "ĠMurat": 4418,
      "Ã¼ley": 4419,
      "ĠÃ§alÄ±ÅŁtÄ±r": 4420,
      "ĠHasan": 4421,
      "ĠdolayÄ±sÄ±yla": 4422,
      "ebek": 4423,
      "ĠYa": 4424,
      "co": 4425,
      "Ġbence": 4426,
      "Ġunsur": 4427,
      "ĠMus": 4428,
      "ledik": 4429,
      "ĠYapÄ±lan": 4430,
      "imizden": 4431,
      "ĠÃ§alÄ±ÅŁÄ±yor": 4432,
      "lendi": 4433,
      "Ġuzat": 4434,
      "ĠdemiÅŁ": 4435,
      "ĠAbd": 4436,
      "ĠÃ¶ncelikle": 4437,
      "ĠaracÄ±": 4438,
      "ĠseÃ§en": 4439,
      "ĠNo": 4440,
      "Ġismi": 4441,
      "liyet": 4442,
      "ĠhÄ±zla": 4443,
      "ĠsÃ¼s": 4444,
      "bal": 4445,
      "ĠolacaÄŁÄ±nÄ±": 4446,
      "Ġbulunur": 4447,
      "ĠiÅŁin": 4448,
      "ĠhÃ¼k": 4449,
      "ĠhazÄ±rlanan": 4450,
      "Ġgetirdi": 4451,
      "iter": 4452,
      "ĠKer": 4453,
      "ĠgerÃ§ekleÅŁtirilen": 4454,
      "ĠettiÄŁini": 4455,
      "Ġayn": 4456,
      "ĠgÃ¼cÃ¼": 4457,
      "Ġmahkem": 4458,
      "anlarÄ±": 4459,
      "ĠkavuÅŁ": 4460,
      "Ġetik": 4461,
      "ĠBl": 4462,
      "ĠMahkem": 4463,
      "Ġvs": 4464,
      "ĠHast": 4465,
      "Ġseks": 4466,
      "lanma": 4467,
      "uÄŁu": 4468,
      "Ġetkilen": 4469,
      "ĠkullanÄ±lÄ±r": 4470,
      "lerimizin": 4471,
      "Ġterk": 4472,
      "Ġihracat": 4473,
      "Ġsebebi": 4474,
      "cisi": 4475,
      "Ġaktiv": 4476,
      "ĠTeÅŁ": 4477,
      "abileceÄŁini": 4478,
      "Ġsermay": 4479,
      "Ġistik": 4480,
      "ĠdesteÄŁi": 4481,
      "Ġeb": 4482,
      "ĠÅŁim": 4483,
      "ĠkadÄ±nlar": 4484,
      "ĠÃ¶ngÃ¶r": 4485,
      "luluÄŁu": 4486,
      "ĠbaÅŁlamÄ±ÅŁ": 4487,
      "Ä±ÅŁma": 4488,
      "Ġdeng": 4489,
      "ĠbilinÃ§": 4490,
      "Ġgem": 4491,
      "ĠMerhaba": 4492,
      "Ġtrafik": 4493,
      "Ġticari": 4494,
      "ĠÃ¼rÃ¼nÃ¼": 4495,
      "Ġfaydalan": 4496,
      "ĠÃĩaÄŁ": 4497,
      "ĠAnay": 4498,
      "Ġyerli": 4499,
      "ĠBundan": 4500,
      "ebilmek": 4501,
      "ĠHÃ¼kÃ¼m": 4502,
      "ĠyaÅŁay": 4503,
      "avuz": 4504,
      "Ġbilgilendir": 4505,
      "alarla": 4506,
      "ĠYah": 4507,
      "ĠiliÅŁkiler": 4508,
      "ĠMic": 4509,
      "dÄ±ÄŁÄ±mÄ±z": 4510,
      "Ġdis": 4511,
      "ĠZaman": 4512,
      "Ġyakalan": 4513,
      "aÄŁÄ±nÄ±": 4514,
      "ĠKiÅŁ": 4515,
      "ĠDin": 4516,
      "ĠBursa": 4517,
      "amik": 4518,
      "ĠBÃ¶lÃ¼m": 4519,
      "sit": 4520,
      "ĠiÅŁler": 4521,
      "ĠdeÄŁeri": 4522,
      "apon": 4523,
      "wit": 4524,
      "ulmuÅŁ": 4525,
      "ĠkitabÄ±": 4526,
      "amÄ±yor": 4527,
      "Ġkuru": 4528,
      "ĠedilmiÅŁtir": 4529,
      "yer": 4530,
      "sinde": 4531,
      "etiyle": 4532,
      "ĠtaÅŁÄ±": 4533,
      "lemeye": 4534,
      "Ġbom": 4535,
      "ire": 4536,
      "Ġakadem": 4537,
      "ĠYas": 4538,
      "Ġkesim": 4539,
      "ĠpopÃ¼ler": 4540,
      "ĠalÄ±nmasÄ±": 4541,
      "Ġkendilerini": 4542,
      "Ġbirer": 4543,
      "ĠFransÄ±z": 4544,
      "Ġfi": 4545,
      "ĠÅŁaÅŁÄ±r": 4546,
      "ĠgÃ¶rÃ¼nt": 4547,
      "undaki": 4548,
      "ĠDolayÄ±sÄ±yla": 4549,
      "Ġitibariyle": 4550,
      "laÅŁma": 4551,
      "Ġdurumlarda": 4552,
      "ĠPat": 4553,
      "jans": 4554,
      "ĠAntalya": 4555,
      "ĠSa": 4556,
      "Ġalk": 4557,
      "ĠbÃ¶lÃ¼mÃ¼": 4558,
      "ildiÄŁini": 4559,
      "duklarÄ±": 4560,
      "ĠRamaz": 4561,
      "Ġbekliyor": 4562,
      "ĠBahÃ§": 4563,
      "edek": 4564,
      "ĠsÃ¼ren": 4565,
      "ersin": 4566,
      "ĠWeb": 4567,
      "Ġalmaya": 4568,
      "ĠsanatÃ§Ä±": 4569,
      "sey": 4570,
      "usunun": 4571,
      "ĠkÄ±yaf": 4572,
      "Ġrenkli": 4573,
      "ĠFakÃ¼ltesi": 4574,
      "ĠolmaktadÄ±r": 4575,
      "ĠhayatÄ±": 4576,
      "ĠhÄ±r": 4577,
      "ĠSig": 4578,
      "ĠÃ§alÄ±ÅŁmasÄ±": 4579,
      "lanÄ±yor": 4580,
      "ĠolmalÄ±dÄ±r": 4581,
      "ĠbÃ¼r": 4582,
      "ĠbakÄ±mÄ±ndan": 4583,
      "ĠyaÅŁadÄ±ÄŁÄ±": 4584,
      "ĠÃĩan": 4585,
      "ikat": 4586,
      "Ġsorgul": 4587,
      "ĠBatÄ±": 4588,
      "Ġpet": 4589,
      "ĠLe": 4590,
      "urum": 4591,
      "ĠDnin": 4592,
      "Ġarka": 4593,
      "ciler": 4594,
      "Ġbuyur": 4595,
      "ĠfaktÃ¶r": 4596,
      "Ġiyice": 4597,
      "ukat": 4598,
      "ĠyumuÅŁ": 4599,
      "ĠÄ°lÃ§": 4600,
      "ĠbaÅŁlÄ±yor": 4601,
      "ĠÃ¼niversite": 4602,
      "Ġbesin": 4603,
      "ĠuygulamasÄ±": 4604,
      "ĠRo": 4605,
      "ĠparÃ§asÄ±": 4606,
      "ĠFET": 4607,
      "emizi": 4608,
      "lal": 4609,
      "dÄ±ÄŁÄ±m": 4610,
      "layÄ±cÄ±": 4611,
      "ĠistiyorsanÄ±z": 4612,
      "Ġyenilik": 4613,
      "Ġorganizasyon": 4614,
      "gre": 4615,
      "Ġsakin": 4616,
      "Ġmetre": 4617,
      "ĠgÃ¶zlem": 4618,
      "ĠiliÅŁki": 4619,
      "ĠAnn": 4620,
      "ĠMey": 4621,
      "eceksiniz": 4622,
      "ĠkÄ±sÄ±m": 4623,
      "Ġtoz": 4624,
      "Ġtarihli": 4625,
      "ĠgeldiÄŁi": 4626,
      "Ġsunuyor": 4627,
      "ĠTat": 4628,
      "Ġbirbirinden": 4629,
      "Ġederken": 4630,
      "tansiy": 4631,
      "ĠaÃ§Ä±lÄ±ÅŁ": 4632,
      "Ġgitti": 4633,
      "Ġbenzeri": 4634,
      "Ġzorunlu": 4635,
      "Ġsevin": 4636,
      "ĠÄ°brahim": 4637,
      "ĠaldÄ±m": 4638,
      "ĠSonuÃ§": 4639,
      "ĠKir": 4640,
      "hane": 4641,
      "Ġdemir": 4642,
      "Ġvitam": 4643,
      "droid": 4644,
      "ĠmuhteÅŁem": 4645,
      "her": 4646,
      "ĠMac": 4647,
      "Ġyenil": 4648,
      "ĠÃ§iÃ§ek": 4649,
      "ĠIs": 4650,
      "biy": 4651,
      "Ġmemur": 4652,
      "ĠKoca": 4653,
      "ĠAll": 4654,
      "Ġroman": 4655,
      "indows": 4656,
      "Ġdekor": 4657,
      "Ġbilimsel": 4658,
      "Ġmuhal": 4659,
      "ĠCev": 4660,
      "Ġre": 4661,
      "ĠDÃ¼nyanÄ±n": 4662,
      "Ġkulak": 4663,
      "Ġyapabilirsiniz": 4664,
      "Ġyapma": 4665,
      "Ġdonan": 4666,
      "Ġmens": 4667,
      "ĠÃĸÄŁret": 4668,
      "ĠÃĩar": 4669,
      "Ġtakdirde": 4670,
      "Ġilave": 4671,
      "ĠBek": 4672,
      "ĠparÃ§a": 4673,
      "Ġincelem": 4674,
      "ĠiÅŁÃ§i": 4675,
      "Ġistiyoruz": 4676,
      "iki": 4677,
      "red": 4678,
      "ĠFacebook": 4679,
      "qu": 4680,
      "ĠServ": 4681,
      "ĠgÃ¼ndem": 4682,
      "ĠFETÃĸ": 4683,
      "ĠKÄ±lÄ±Ã§": 4684,
      "uluÄŁ": 4685,
      "mÃ¼ÅŁtÃ¼r": 4686,
      "Ġelektronik": 4687,
      "ner": 4688,
      "enizi": 4689,
      "Ġturizm": 4690,
      "ĠaÄŁz": 4691,
      "IR": 4692,
      "acaÄŁÄ±na": 4693,
      "ĠAltÄ±n": 4694,
      "Ġsabit": 4695,
      "mesinde": 4696,
      "ĠBilim": 4697,
      "Ġsizler": 4698,
      "Ġadeta": 4699,
      "tÄ±ÄŁÄ±mÄ±z": 4700,
      "liliÄŁi": 4701,
      "ordin": 4702,
      "Ġnoktada": 4703,
      "lamaya": 4704,
      "ĠbirleÅŁtir": 4705,
      "ĠNew": 4706,
      "ĠTasar": 4707,
      "ĠaÄŁÄ±rlÄ±k": 4708,
      "Ġkaydetti": 4709,
      "amaya": 4710,
      "ary": 4711,
      "ĠPr": 4712,
      "ĠmÃ¼l": 4713,
      "ĠgÃ¶rÃ¼nÃ¼m": 4714,
      "Ġizle": 4715,
      "Ġsigort": 4716,
      "Ä°Y": 4717,
      "itir": 4718,
      "ĠEtik": 4719,
      "Ġgelip": 4720,
      "Ġtepki": 4721,
      "ĠbÃ¶lgesinde": 4722,
      "ice": 4723,
      "ĠÄ°dar": 4724,
      "ĠteÅŁvik": 4725,
      "Ġbelediy": 4726,
      "Ġkamp": 4727,
      "oca": 4728,
      "sef": 4729,
      "Ġkayded": 4730,
      "emli": 4731,
      "yasal": 4732,
      "engi": 4733,
      "Ġsam": 4734,
      "Ġsahib": 4735,
      "ĠgeÃ§er": 4736,
      "ĠkÃ¼ltÃ¼rel": 4737,
      "ĠOf": 4738,
      "AB": 4739,
      "Ġtamamlan": 4740,
      "iyede": 4741,
      "ĠaÃ§Ä±lan": 4742,
      "ĠÃ§eki": 4743,
      "Ġkaps": 4744,
      "Ġelb": 4745,
      "ĠotobÃ¼s": 4746,
      "ĠErz": 4747,
      "ĠKendi": 4748,
      "Ġlik": 4749,
      "Ġfonksiyon": 4750,
      "ĠTarÄ±m": 4751,
      "Ġkere": 4752,
      "Ġbedel": 4753,
      "ĠFeder": 4754,
      "ahtar": 4755,
      "Ġverm": 4756,
      "Ġverilir": 4757,
      "Ġrestor": 4758,
      "Ġulusal": 4759,
      "Ġhissed": 4760,
      "ĠmaaÅŁ": 4761,
      "Ġbirini": 4762,
      "liyat": 4763,
      "ĠimkanÄ±": 4764,
      "ferans": 4765,
      "ĠÃĸmer": 4766,
      "ĠbiÃ§im": 4767,
      "Ġbe": 4768,
      "Ġsanki": 4769,
      "ĠilÃ§e": 4770,
      "iÅŁehir": 4771,
      "ĠalÄ±ndÄ±": 4772,
      "bon": 4773,
      "Ġtedbir": 4774,
      "ĠRum": 4775,
      "Ġust": 4776,
      "orta": 4777,
      "ĠilginÃ§": 4778,
      "Ġdarbe": 4779,
      "Ġse": 4780,
      "Ġiade": 4781,
      "Ġtit": 4782,
      "manlÄ±k": 4783,
      "ĠMat": 4784,
      "mos": 4785,
      "ĠGalatasaray": 4786,
      "ĠyÄ±lÄ±ndan": 4787,
      "deniz": 4788,
      "ĠistediÄŁi": 4789,
      "Ġharit": 4790,
      "and": 4791,
      "eceÄŁimiz": 4792,
      "ĠmÃ¼dah": 4793,
      "Ġburaya": 4794,
      "ĠgÃ¶steriyor": 4795,
      "Ġprojesi": 4796,
      "ĠÅŁef": 4797,
      "Ġsorunun": 4798,
      "ĠArkadaÅŁ": 4799,
      "ĠMÄ±sÄ±r": 4800,
      "Ġbakan": 4801,
      "ĠJapon": 4802,
      "ĠyapÄ±sÄ±": 4803,
      "Ġkoruma": 4804,
      "ori": 4805,
      "Ġdiler": 4806,
      "ĠGerek": 4807,
      "fÄ±": 4808,
      "ĠkayÄ±p": 4809,
      "ĠFÄ±r": 4810,
      "ular": 4811,
      "Ġpotansiy": 4812,
      "aÅŁÄ±k": 4813,
      "ĠKara": 4814,
      "ĠGer": 4815,
      "ĠEsk": 4816,
      "errah": 4817,
      "Ġayakk": 4818,
      "ht": 4819,
      "rop": 4820,
      "ĠÅŀampiyon": 4821,
      "aÄŁÄ±na": 4822,
      "ĠkaynaÄŁÄ±": 4823,
      "ĠolmalÄ±": 4824,
      "ĠbugÃ¼ne": 4825,
      "Ġumut": 4826,
      "ĠaÃ§Ä±dan": 4827,
      "sul": 4828,
      "ĠKaymak": 4829,
      "ell": 4830,
      "Ġgidi": 4831,
      "ĠEmniyet": 4832,
      "ĠbaÅŁkanÄ±": 4833,
      "ĠBoz": 4834,
      "Ä±ÄŁa": 4835,
      "ĠKomisyon": 4836,
      "Ä°S": 4837,
      "Ã¼lmesi": 4838,
      "ĠkaÃ§Ä±n": 4839,
      "ĠAmerikan": 4840,
      "amÄ±ÅŁ": 4841,
      "alesef": 4842,
      "oÄŁlunun": 4843,
      "ĠBirleÅŁ": 4844,
      "Ä±yÄ±m": 4845,
      "ĠsaÄŁlayacak": 4846,
      "ĠyÃ¼zÃ¼nden": 4847,
      "ĠSÃ¼per": 4848,
      "ĠyarÄ±m": 4849,
      "baÅŁÄ±": 4850,
      "ĠyapÄ±mÄ±": 4851,
      "ĠgeÃ§tiÄŁimiz": 4852,
      "lÄ±klar": 4853,
      "mÄ±": 4854,
      "lant": 4855,
      "bey": 4856,
      "altÄ±na": 4857,
      "ĠYÄ±ldÄ±rÄ±m": 4858,
      "Ġkolayca": 4859,
      "kel": 4860,
      "ĠendiÅŁ": 4861,
      "ĠAKP": 4862,
      "ĠyaklaÅŁÄ±m": 4863,
      "ĠMem": 4864,
      "ĠkÃ¼t": 4865,
      "lÄ±dÄ±r": 4866,
      "ĠiÅŁlev": 4867,
      "Ġdizi": 4868,
      "Ġetki": 4869,
      "ĠbirleÅŁ": 4870,
      "ĠÃ¶ÄŁrencilerin": 4871,
      "Ä±nday": 4872,
      "ĠaÄŁrÄ±": 4873,
      "ilmez": 4874,
      "ock": 4875,
      "Ġbuz": 4876,
      "Ġortamda": 4877,
      "ÄŁur": 4878,
      "lenir": 4879,
      "ilerden": 4880,
      "ĠStr": 4881,
      "Ġmodeli": 4882,
      "ĠÃĸÄŁrenc": 4883,
      "embe": 4884,
      "ĠkadÄ±nÄ±n": 4885,
      "Ġkullanan": 4886,
      "ĠYeÅŁil": 4887,
      "mail": 4888,
      "Ġincelen": 4889,
      "ayarak": 4890,
      "Ã¼mr": 4891,
      "ĠpaylaÅŁÄ±m": 4892,
      "Ġtabii": 4893,
      "ĠEnerj": 4894,
      "Ġbirinin": 4895,
      "Ġfatur": 4896,
      "ĠyaptÄ±klarÄ±": 4897,
      "mut": 4898,
      "ĠgÃ¶sterir": 4899,
      "malarÄ±nÄ±": 4900,
      "ĠYen": 4901,
      "ĠolduÄŁunuz": 4902,
      "Ġtakv": 4903,
      "Ġyoluyla": 4904,
      "Ġniyet": 4905,
      "ĠKil": 4906,
      "ĠcoÄŁraf": 4907,
      "ĠKarad": 4908,
      "ĠÄ°d": 4909,
      "ĠMuhammed": 4910,
      "ezerv": 4911,
      "Ġettim": 4912,
      "Ġsunan": 4913,
      "ĠTÄ±p": 4914,
      "nik": 4915,
      "ĠHukuk": 4916,
      "Ġmm": 4917,
      "Ġufak": 4918,
      "ĠKamu": 4919,
      "Ġherkese": 4920,
      "ĠfÄ±k": 4921,
      "ou": 4922,
      "Ġdoy": 4923,
      "ump": 4924,
      "Ġsinir": 4925,
      "ĠdÃ¶nemi": 4926,
      "ĠZaten": 4927,
      "Ġtarihleri": 4928,
      "iÄŁin": 4929,
      "Ġalak": 4930,
      "ĠkonuÅŁan": 4931,
      "Ġadalet": 4932,
      "ĠAmerika": 4933,
      "ĠGaz": 4934,
      "ĠgÃ¶ÄŁ": 4935,
      "ĠgÃ¼nÃ¼mÃ¼z": 4936,
      "ĠÃ¼yeleri": 4937,
      "ĠbÃ¶ylece": 4938,
      "ĠSÄ±nav": 4939,
      "ĠTurizm": 4940,
      "ĠHÃ¼seyin": 4941,
      "ĠSil": 4942,
      "ĠgÃ¶rÃ¼r": 4943,
      "ĠkarÅŁÄ±lan": 4944,
      "ĠgerekÃ§": 4945,
      "IM": 4946,
      "ĠTV": 4947,
      "ĠBaÅŁkanlÄ±ÄŁÄ±": 4948,
      "Ġbask": 4949,
      "acaksÄ±nÄ±z": 4950,
      "ĠsaÄŁlÄ±yor": 4951,
      "Ġelbette": 4952,
      "ĠFer": 4953,
      "ĠuÃ§uÅŁ": 4954,
      "Ġrefer": 4955,
      "Ġbiridir": 4956,
      "ĠinsanÄ±": 4957,
      "ĠkadÄ±nlarÄ±n": 4958,
      "Ġusul": 4959,
      "Ġgirdi": 4960,
      "Ġideal": 4961,
      "rika": 4962,
      "ĠBalÄ±k": 4963,
      "ĠAna": 4964,
      "ĠgeliÅŁmeler": 4965,
      "ĠgÃ¶l": 4966,
      "ĠFark": 4967,
      "ĠAraÅŁtÄ±rma": 4968,
      "Ġrej": 4969,
      "Ġsebebiyle": 4970,
      "ĠrÃ¼y": 4971,
      "mesiyle": 4972,
      "ĠgÃ¼Ã§lendir": 4973,
      "Ġnefes": 4974,
      "Ġinsanlara": 4975,
      "Ġaltyap": 4976,
      "ĠsonuÃ§larÄ±": 4977,
      "Ġbeklent": 4978,
      "laj": 4979,
      "Ġbirbirine": 4980,
      "ĠyÃ¼zey": 4981,
      "kÃ¶y": 4982,
      "Ġsergil": 4983,
      "irv": 4984,
      "ĠSe": 4985,
      "Ġsanayi": 4986,
      "ruf": 4987,
      "amadÄ±": 4988,
      "Ġkonak": 4989,
      "arbak": 4990,
      "ĠGrub": 4991,
      "Ġistedi": 4992,
      "Ġdip": 4993,
      "ĠgÃ¶revi": 4994,
      "ĠVat": 4995,
      "Ã¼mÃ¼ÅŁ": 4996,
      "Ä±lmasÄ±na": 4997,
      "Ġtor": 4998,
      "Ġmus": 4999,
      "Ġmaddi": 5000,
      "ĠdÃ¼zelt": 5001,
      "Ġyolcu": 5002,
      "lerken": 5003,
      "ĠtÄ±p": 5004,
      "ĠOÄŁ": 5005,
      "ĠTun": 5006,
      "anti": 5007,
      "ever": 5008,
      "Ġmekt": 5009,
      "ĠalbÃ¼m": 5010,
      "Ġkilomet": 5011,
      "ĠÃ§aÄŁÄ±r": 5012,
      "ĠGeÃ§en": 5013,
      "Ġdini": 5014,
      "ĠyanÄ±na": 5015,
      "Ġgenelinde": 5016,
      "ĠGÃ¶n": 5017,
      "ĠzamanÄ±": 5018,
      "manÄ±zÄ±": 5019,
      "Ġinci": 5020,
      "ĠFin": 5021,
      "ĠgeleceÄŁ": 5022,
      "vekil": 5023,
      "Ġkanser": 5024,
      "Ġondan": 5025,
      "Ġsayede": 5026,
      "Ġkonser": 5027,
      "ĠMalat": 5028,
      "adÄ±ÄŁÄ±nÄ±": 5029,
      "lanmÄ±ÅŁtÄ±r": 5030,
      "ĠÃ§aÄŁr": 5031,
      "Ġmakam": 5032,
      "ĠPlan": 5033,
      "ĠbÃ¼tÃ§": 5034,
      "ĠArab": 5035,
      "Ġanlatan": 5036,
      "ĠdeÄŁin": 5037,
      "tÄ±klarÄ±": 5038,
      "Ġayk": 5039,
      "ĠTB": 5040,
      "Ġzek": 5041,
      "ĠgÄ±da": 5042,
      "abiliriz": 5043,
      "ĠulaÅŁabilirsiniz": 5044,
      "acÄ±k": 5045,
      "ĠaraÅŁtÄ±rmalar": 5046,
      "ĠEd": 5047,
      "ert": 5048,
      "ĠBilgi": 5049,
      "ĠhalkÄ±n": 5050,
      "Ġanti": 5051,
      "Ġfalan": 5052,
      "ĠWindows": 5053,
      "ĠÃ¼stÃ¼ne": 5054,
      "ĠfiyatÄ±": 5055,
      "ĠDemokr": 5056,
      "Ġisterseniz": 5057,
      "ĠgereÄŁi": 5058,
      "ĠYurt": 5059,
      "stit": 5060,
      "ĠÃĸncelikle": 5061,
      "ĠgÃ¶k": 5062,
      "ĠErdoÄŁanÄ±n": 5063,
      "Ġgidip": 5064,
      "witter": 5065,
      "ĠgÃ¶rm": 5066,
      "Ġyerden": 5067,
      "ĠsorunlarÄ±": 5068,
      "ĠGrup": 5069,
      "Ä°Z": 5070,
      "ĠamaÃ§lÄ±": 5071,
      "aza": 5072,
      "arbakÄ±r": 5073,
      "tren": 5074,
      "ĠoÄŁlu": 5075,
      "ĠkalmÄ±ÅŁ": 5076,
      "yaj": 5077,
      "Ġtoplu": 5078,
      "ĠÄ±r": 5079,
      "afer": 5080,
      "abilirler": 5081,
      "ĠNeden": 5082,
      "Ġistey": 5083,
      "ĠDers": 5084,
      "Ġfutbolcu": 5085,
      "our": 5086,
      "land": 5087,
      "ĠVE": 5088,
      "ĠÃ¼lkemizde": 5089,
      "ĠmÃ¼hendis": 5090,
      "Ä±ntÄ±lÄ±": 5091,
      "ĠesnasÄ±nda": 5092,
      "lerimize": 5093,
      "ĠDest": 5094,
      "ĠÄ°ÅŁlet": 5095,
      "ĠAlmanya": 5096,
      "Ä±lÄ±ÄŁÄ±yla": 5097,
      "ĠoranÄ±nda": 5098,
      "Ġkimlik": 5099,
      "ĠyÃ¼rÃ¼r": 5100,
      "Ġgenelde": 5101,
      "Ġpl": 5102,
      "tÄ±lar": 5103,
      "ĠgÃ¶rdÃ¼k": 5104,
      "ĠBoy": 5105,
      "Ġada": 5106,
      "Ġbeklem": 5107,
      "Ġmutluluk": 5108,
      "Ġfiziksel": 5109,
      "ĠÅŁunlarÄ±": 5110,
      "Ġvermektedir": 5111,
      "ĠkanÄ±t": 5112,
      "ĠkÃ¼resel": 5113,
      "Ġedebiyat": 5114,
      "Ġcumhur": 5115,
      "ĠiÅŁbirliÄŁi": 5116,
      "ĠolduklarÄ±nÄ±": 5117,
      "melik": 5118,
      "ĠOdasÄ±": 5119,
      "Ġvir": 5120,
      "ĠSÃ¼ley": 5121,
      "Ġvermeye": 5122,
      "za": 5123,
      "irim": 5124,
      "ĠyÃ¼rÃ¼yÃ¼ÅŁ": 5125,
      "ĠolmadÄ±ÄŁ": 5126,
      "Ġyetkili": 5127,
      "Ġdevrim": 5128,
      "ĠOtel": 5129,
      "ĠFutbol": 5130,
      "Ġsevgil": 5131,
      "Ġbulmak": 5132,
      "ĠadlandÄ±r": 5133,
      "ĠdÃ¼ÅŁen": 5134,
      "duÄŁum": 5135,
      "Ġfayda": 5136,
      "istin": 5137,
      "ĠKO": 5138,
      "Ġsunu": 5139,
      "Ġmac": 5140,
      "ĠMen": 5141,
      "ĠKart": 5142,
      "ĠÄ°span": 5143,
      "ĠRamazan": 5144,
      "Ġdijital": 5145,
      "madÄ±ÄŁÄ±nÄ±": 5146,
      "Ġyenilen": 5147,
      "ĠGerÃ§ek": 5148,
      "meyecek": 5149,
      "Ġkaybol": 5150,
      "Ġkoc": 5151,
      "ĠaÅŁaÄŁÄ±da": 5152,
      "Ġkurs": 5153,
      "Ġnesil": 5154,
      "ĠeÅŁi": 5155,
      "isiklet": 5156,
      "ĠDanÄ±ÅŁ": 5157,
      "ĠKent": 5158,
      "Ġkuzey": 5159,
      "ĠGenÃ§lik": 5160,
      "diklerini": 5161,
      "ĠOnlar": 5162,
      "olog": 5163,
      "ĠbarÄ±ndÄ±r": 5164,
      "Ġdaim": 5165,
      "ĠAL": 5166,
      "ĠFar": 5167,
      "ĠaÄŁr": 5168,
      "Ġdava": 5169,
      "Ġbitk": 5170,
      "ĠSiv": 5171,
      "ĠKut": 5172,
      "Ġyoktu": 5173,
      "Ġsistemleri": 5174,
      "ĠÄ°liÅŁ": 5175,
      "ĠToplum": 5176,
      "ĠgÃ¼r": 5177,
      "Ġgidiyor": 5178,
      "Ġhit": 5179,
      "ĠCeza": 5180,
      "ĠYÄ±ldÄ±z": 5181,
      "ĠetmiÅŁtir": 5182,
      "Ġkalite": 5183,
      "ĠgÃ¶rÃ¼ÅŁmeler": 5184,
      "Ġmeydan": 5185,
      "ĠmÃ¼r": 5186,
      "Ġkimi": 5187,
      "siyet": 5188,
      "ĠgerektiÄŁi": 5189,
      "Ġgrubu": 5190,
      "Ġesk": 5191,
      "ĠbaÄŁÄ±r": 5192,
      "Ġhavuz": 5193,
      "ĠÃĸdÃ¼l": 5194,
      "ĠÃĸzg": 5195,
      "UN": 5196,
      "Ġvererek": 5197,
      "ebe": 5198,
      "ĠgÃ¼zellik": 5199,
      "lÄ±yoruz": 5200,
      "ĠyayÄ±nlanan": 5201,
      "leyerek": 5202,
      "ĠPhone": 5203,
      "ĠPl": 5204,
      "ĠyakÄ±ndan": 5205,
      "Ġsayfa": 5206,
      "ladÄ±m": 5207,
      "mit": 5208,
      "ĠmÃ¼dahale": 5209,
      "ĠÃ¼retimi": 5210,
      "Ã§uk": 5211,
      "Ã¼ce": 5212,
      "Ġistif": 5213,
      "ĠGar": 5214,
      "isyen": 5215,
      "ĠkartÄ±": 5216,
      "Ġob": 5217,
      "Ġsevk": 5218,
      "Ġmahall": 5219,
      "ĠyansÄ±t": 5220,
      "Ġkeyifli": 5221,
      "ĠÃĸÄŁren": 5222,
      "Ġtemizlik": 5223,
      "Ġfabrik": 5224,
      "Ġpratik": 5225,
      "Ġdevletin": 5226,
      "sÄ±zÄ±n": 5227,
      "Ġboyu": 5228,
      "ĠDiyarbakÄ±r": 5229,
      "Ġert": 5230,
      "Ġtutan": 5231,
      "ĠÄ±": 5232,
      "ahh": 5233,
      "lerdi": 5234,
      "Ġyerlerde": 5235,
      "mekten": 5236,
      "str": 5237,
      "ĠyarÄ±n": 5238,
      "gah": 5239,
      "ĠDik": 5240,
      "enn": 5241,
      "Ġkahraman": 5242,
      "ĠAllaha": 5243,
      "ĠgÃ¼ndeme": 5244,
      "Ġdiyet": 5245,
      "duÄŁunuz": 5246,
      "Ġduruma": 5247,
      "Ã¼ye": 5248,
      "Ġburadan": 5249,
      "lerindeki": 5250,
      "oft": 5251,
      "Ġmanz": 5252,
      "ĠbÃ¼nyesinde": 5253,
      "ĠÅŁehr": 5254,
      "aÄŁÄ±nda": 5255,
      "ĠfarklÄ±lÄ±k": 5256,
      "ĠCuma": 5257,
      "Ġnam": 5258,
      "ĠÅŁeyin": 5259,
      "ĠMobil": 5260,
      "Ġmakal": 5261,
      "masÄ±n": 5262,
      "Ġha": 5263,
      "otik": 5264,
      "isar": 5265,
      "ĠÃ¶lÃ§Ã¼de": 5266,
      "Ġnas": 5267,
      "Ġseyir": 5268,
      "Ġmimar": 5269,
      "ĠolacaÄŁÄ±": 5270,
      "amÄ±n": 5271,
      "tÃ¼rk": 5272,
      "ĠbaÅŁlangÄ±Ã§": 5273,
      "ĠTabi": 5274,
      "kon": 5275,
      "Ġbeyan": 5276,
      "ĠtuÅŁ": 5277,
      "dÃ¼ÄŁÃ¼nÃ¼": 5278,
      "Ġedilebilir": 5279,
      "Ġkusur": 5280,
      "ĠÃ§ocuÄŁun": 5281,
      "ĠyÃ¼kselt": 5282,
      "Ġifadelerini": 5283,
      "emeyen": 5284,
      "Ä±lmaktadÄ±r": 5285,
      "Ä±lmasÄ±nÄ±": 5286,
      "oto": 5287,
      "ĠdÃ¼ÅŁÃ¼nÃ¼l": 5288,
      "deb": 5289,
      "Ġyiyecek": 5290,
      "ĠÃ¶nde": 5291,
      "ĠulaÅŁtÄ±r": 5292,
      "usuz": 5293,
      "ĠGe": 5294,
      "Ġetkiley": 5295,
      "Ġizlen": 5296,
      "Ä±ldÄ±ÄŁÄ±nda": 5297,
      "ĠgÃ¼nÃ¼mÃ¼zde": 5298,
      "ĠgeÃ§ici": 5299,
      "imle": 5300,
      "Ġgalib": 5301,
      "Ġkorumak": 5302,
      "Ġmevzu": 5303,
      "aÄŁÄ±nÄ±n": 5304,
      "ĠyaÅŁadÄ±k": 5305,
      "oli": 5306,
      "ĠSaat": 5307,
      "ĠTO": 5308,
      "Ġdepr": 5309,
      "ĠsektÃ¶rÃ¼nde": 5310,
      "ĠgÃ¼nler": 5311,
      "parator": 5312,
      "gaz": 5313,
      "Ġbilgiye": 5314,
      "demir": 5315,
      "Ġalabilirsiniz": 5316,
      "ĠMon": 5317,
      "ĠÃ§am": 5318,
      "ĠCar": 5319,
      "deri": 5320,
      "ĠAndroid": 5321,
      "Ġest": 5322,
      "ĠEscort": 5323,
      "ĠkalÄ±r": 5324,
      "Ġmel": 5325,
      "ektÃ¶rÃ¼": 5326,
      "Ġtedavisi": 5327,
      "dÄ±ÄŁÄ±nÄ±z": 5328,
      "lendirme": 5329,
      "ĠPort": 5330,
      "alandÄ±r": 5331,
      "ĠUlusal": 5332,
      "insel": 5333,
      "ilip": 5334,
      "Ġzeytin": 5335,
      "ĠhaklarÄ±": 5336,
      "ĠBunlarÄ±n": 5337,
      "Ġacaba": 5338,
      "ĠMel": 5339,
      "lÃ¼ÄŁe": 5340,
      "Ġkonuk": 5341,
      "Ġker": 5342,
      "lor": 5343,
      "ĠMÃ¼ÅŁter": 5344,
      "Ġsever": 5345,
      "ĠÃ§Ä±kacak": 5346,
      "Ġop": 5347,
      "Ġtanesi": 5348,
      "Ġhapis": 5349,
      "ĠTurk": 5350,
      "ĠKaradeniz": 5351,
      "vel": 5352,
      "ĠFet": 5353,
      "Ġdenet": 5354,
      "div": 5355,
      "muyor": 5356,
      "Ġmutfak": 5357,
      "ĠtanÄ±tÄ±m": 5358,
      "eliÄŁi": 5359,
      "ĠÃ¼retic": 5360,
      "ĠyarÄ±": 5361,
      "Ġekipleri": 5362,
      "Ġacil": 5363,
      "Ġevet": 5364,
      "ĠdÃ¶nÃ¼ÅŁÃ¼m": 5365,
      "ebilirim": 5366,
      "Ġsevgi": 5367,
      "ĠBelki": 5368,
      "Ġbilen": 5369,
      "ĠalÄ±narak": 5370,
      "ĠÃĩanakk": 5371,
      "ĠedildiÄŁi": 5372,
      "ĠaracÄ±lÄ±ÄŁÄ±yla": 5373,
      "ĠÃĩelik": 5374,
      "Ġkup": 5375,
      "dev": 5376,
      "Ġmaruz": 5377,
      "ĠkarÅŁÄ±laÅŁtÄ±r": 5378,
      "Ġport": 5379,
      "ĠSem": 5380,
      "seri": 5381,
      "ĠÄ°Ã§in": 5382,
      "ĠCih": 5383,
      "Ġbiy": 5384,
      "Ġhediy": 5385,
      "SO": 5386,
      "ĠEx": 5387,
      "ĠDÃ¼ny": 5388,
      "lari": 5389,
      "Ġegz": 5390,
      "lav": 5391,
      "ĠKÄ±zÄ±l": 5392,
      "ilmesini": 5393,
      "Ġcem": 5394,
      "Ġkapan": 5395,
      "ker": 5396,
      "ĠkarÅŁÄ±ya": 5397,
      "leket": 5398,
      "Ġmesl": 5399,
      "Ġfar": 5400,
      "Ä±d": 5401,
      "ĠgÃ¶rÃ¼nÃ¼yor": 5402,
      "Ġdey": 5403,
      "Ġbelirlenen": 5404,
      "ani": 5405,
      "ĠyÃ¶nÃ¼nde": 5406,
      "ĠhanÄ±m": 5407,
      "ĠgÃ¶zaltÄ±na": 5408,
      "AZ": 5409,
      "Ġgeleneksel": 5410,
      "madÄ±ÄŁ": 5411,
      "Ġthe": 5412,
      "ĠkolaylaÅŁtÄ±r": 5413,
      "Ġinceley": 5414,
      "Ġrakip": 5415,
      "Ġkalb": 5416,
      "ĠaralarÄ±nda": 5417,
      "ĠyÃ¶ntemi": 5418,
      "ĠyaÅŁlÄ±": 5419,
      "ĠpiÅŁir": 5420,
      "Ġyeten": 5421,
      "Ġkonularda": 5422,
      "ĠulaÅŁÄ±m": 5423,
      "Ġbilet": 5424,
      "Ġtaraftar": 5425,
      "antep": 5426,
      "ĠÃ§alÄ±ÅŁmak": 5427,
      "ĠÃĸÄŁretmen": 5428,
      "eya": 5429,
      "ĠPartisi": 5430,
      "ĠolmayÄ±": 5431,
      "ĠÄ°r": 5432,
      "Ġedilmektedir": 5433,
      "Ġgetirmek": 5434,
      "ĠolduÄŁum": 5435,
      "ĠÃ¶ncesinde": 5436,
      "eral": 5437,
      "eÄŁine": 5438,
      "Ġverilecek": 5439,
      "Ġoldum": 5440,
      "tÄ±n": 5441,
      "ĠalanlarÄ±": 5442,
      "andar": 5443,
      "ĠHazÄ±r": 5444,
      "Ġmaddesi": 5445,
      "Ġklasik": 5446,
      "ĠPet": 5447,
      "uda": 5448,
      "ĠkazanÃ§": 5449,
      "ĠMÃ¼hendis": 5450,
      "ĠDE": 5451,
      "ĠyaptÄ±m": 5452,
      "Ġmevcuttur": 5453,
      "ĠRabb": 5454,
      "ĠbÃ¶lÃ¼mÃ¼nde": 5455,
      "ĠIÅŁ": 5456,
      "ĠyÃ¼kÃ¼m": 5457,
      "ĠFenerbahÃ§e": 5458,
      "Ġgitmek": 5459,
      "Ġplak": 5460,
      "ĠBoÄŁ": 5461,
      "Ġistihdam": 5462,
      "ĠZiy": 5463,
      "ĠSÃ¼leyman": 5464,
      "ox": 5465,
      "ĠTrump": 5466,
      "ĠaydÄ±nlat": 5467,
      "ĠOtom": 5468,
      "ediklerini": 5469,
      "ĠaralÄ±k": 5470,
      "Ġgerekse": 5471,
      "ĠolmadÄ±": 5472,
      "AH": 5473,
      "acaÄŁÄ±mÄ±z": 5474,
      "Ġverilmesi": 5475,
      "amayacak": 5476,
      "Ġkurumsal": 5477,
      "ĠBeyaz": 5478,
      "Ġelinde": 5479,
      "ĠuyarÄ±": 5480,
      "Ġhasar": 5481,
      "ĠApple": 5482,
      "ĠÃ§or": 5483,
      "ĠdÃ¼zeyde": 5484,
      "ĠkomÅŁ": 5485,
      "urta": 5486,
      "Ġeh": 5487,
      "Ġmalzeme": 5488,
      "ĠyapÄ±ldÄ±ÄŁÄ±": 5489,
      "Ġtablo": 5490,
      "Ġtasarruf": 5491,
      "ĠgÃ¼nden": 5492,
      "Ġhab": 5493,
      "ĠMesel": 5494,
      "ĠeÄŁlenceli": 5495,
      "ĠFiyat": 5496,
      "Ġgayet": 5497,
      "ĠDar": 5498,
      "Ġofis": 5499,
      "Ġaleyh": 5500,
      "ĠkonuÅŁma": 5501,
      "Ġdarb": 5502,
      "Ġlok": 5503,
      "enkul": 5504,
      "Ġkara": 5505,
      "ĠkÄ±v": 5506,
      "Ġkimsenin": 5507,
      "eyse": 5508,
      "Ġindirim": 5509,
      "ette": 5510,
      "Ġverim": 5511,
      "PS": 5512,
      "ĠÃ¼": 5513,
      "diniz": 5514,
      "ĠKaf": 5515,
      "ĠÃ¼stÃ¼nde": 5516,
      "rens": 5517,
      "Ġgazetec": 5518,
      "Ġkitl": 5519,
      "okol": 5520,
      "Ġbet": 5521,
      "ĠBana": 5522,
      "ĠfaydalÄ±": 5523,
      "ĠÄ°b": 5524,
      "Ġmuhab": 5525,
      "ĠSonr": 5526,
      "ity": 5527,
      "Ġderecede": 5528,
      "ĠÃ§ekti": 5529,
      "Ġyolunda": 5530,
      "Ġverimli": 5531,
      "Ġsiteleri": 5532,
      "Ä°D": 5533,
      "ansiyon": 5534,
      "Ġbelirtildi": 5535,
      "Ġanal": 5536,
      "tayÄ±z": 5537,
      "ĠyazÄ±k": 5538,
      "Ġkimyasal": 5539,
      "ĠinanÃ§": 5540,
      "ĠiÅŁleri": 5541,
      "Ġbulunmak": 5542,
      "ĠbabasÄ±": 5543,
      "ĠaldÄ±k": 5544,
      "ĠtaÅŁÄ±ma": 5545,
      "adÄ±ÄŁÄ±mÄ±z": 5546,
      "kur": 5547,
      "ĠyÃ¶r": 5548,
      "ĠOysa": 5549,
      "ĠTabii": 5550,
      "ĠsanÄ±rÄ±m": 5551,
      "ĠmaÄŁdur": 5552,
      "ĠmÃ¼mkÃ¼ndÃ¼r": 5553,
      "Ġuyumlu": 5554,
      "ĠTarihi": 5555,
      "Ġekibi": 5556,
      "ĠteÅŁekkÃ¼rler": 5557,
      "ĠgeliÅŁmiÅŁ": 5558,
      "Ã¶rÃ¼": 5559,
      "Ã¼ldÃ¼": 5560,
      "ĠÃĸrg": 5561,
      "ematik": 5562,
      "Ġsevg": 5563,
      "melidir": 5564,
      "Ġhayran": 5565,
      "ĠyapÄ±n": 5566,
      "iÄŁe": 5567,
      "ĠbaÅŁken": 5568,
      "ĠYaklaÅŁ": 5569,
      "ĠAvust": 5570,
      "melerin": 5571,
      "mis": 5572,
      "ĠBurs": 5573,
      "Ġpor": 5574,
      "Ġgeril": 5575,
      "Ġgurur": 5576,
      "ĠAkdeniz": 5577,
      "ĠAdana": 5578,
      "osya": 5579,
      "ĠyangÄ±n": 5580,
      "ĠOrt": 5581,
      "Ġtoplumun": 5582,
      "ĠAÅŁaÄŁÄ±": 5583,
      "ĠÃĩevre": 5584,
      "ĠoyunlarÄ±": 5585,
      "Ġokur": 5586,
      "Ġbulabilirsiniz": 5587,
      "ĠKulÃ¼b": 5588,
      "Ġselam": 5589,
      "Ã¼mrÃ¼k": 5590,
      "Ġkonfor": 5591,
      "ĠKamp": 5592,
      "ĠkÃ¶pr": 5593,
      "anlarÄ±n": 5594,
      "madÄ±k": 5595,
      "Ġgayret": 5596,
      "ann": 5597,
      "ĠBaz": 5598,
      "rag": 5599,
      "ĠÃĩalÄ±ÅŁma": 5600,
      "ĠCon": 5601,
      "Ġbahsed": 5602,
      "Ġkalem": 5603,
      "Ġorman": 5604,
      "ĠDe": 5605,
      "Ġhata": 5606,
      "Ġyitir": 5607,
      "Ã¼str": 5608,
      "Ġhalen": 5609,
      "lÃ¢m": 5610,
      "ĠCumhuriyeti": 5611,
      "ĠiÅŁgal": 5612,
      "lÄ±klarÄ±": 5613,
      "ĠKup": 5614,
      "Ġyolda": 5615,
      "arÄ±n": 5616,
      "ĠEtiketler": 5617,
      "Ġand": 5618,
      "ĠYaÄŁ": 5619,
      "ĠsÃ¼reÃ§te": 5620,
      "ĠgÃ¼nÃ¼n": 5621,
      "ĠcivarÄ±nda": 5622,
      "Ġsl": 5623,
      "Ġesnaf": 5624,
      "ĠÃ¼m": 5625,
      "ĠgÃ¼ne": 5626,
      "leÄŁ": 5627,
      "ĠÅŁirketi": 5628,
      "ĠkÃ¢": 5629,
      "Ġzorluk": 5630,
      "eÄŁinin": 5631,
      "Ġbez": 5632,
      "kÄ±r": 5633,
      "diye": 5634,
      "ĠhayÄ±rlÄ±": 5635,
      "Ġbanka": 5636,
      "ĠÃ§atÄ±ÅŁ": 5637,
      "abor": 5638,
      "Ġlig": 5639,
      "ĠrÃ¼z": 5640,
      "ĠDeÄŁiÅŁ": 5641,
      "ĠNet": 5642,
      "ĠDon": 5643,
      "ĠTÃ¼rkiyedeki": 5644,
      "ĠGaziantep": 5645,
      "ĠDÃ¼zen": 5646,
      "ĠAN": 5647,
      "Ä±klÄ±": 5648,
      "satÄ±": 5649,
      "ĠAile": 5650,
      "Ġdom": 5651,
      "ĠÃ¼lkeler": 5652,
      "Ġrezerv": 5653,
      "Ġbeyin": 5654,
      "elal": 5655,
      "ĠsÃ¼redir": 5656,
      "ende": 5657,
      "ĠalÄ±ÅŁkan": 5658,
      "ĠBod": 5659,
      "Ġkendimi": 5660,
      "ug": 5661,
      "ĠKaynak": 5662,
      "ĠyapÄ±p": 5663,
      "rom": 5664,
      "Ġkoltuk": 5665,
      "ĠBankasÄ±": 5666,
      "ĠkÄ±zÄ±": 5667,
      "led": 5668,
      "ĠKoÃ§": 5669,
      "Ġyetersiz": 5670,
      "ograf": 5671,
      "ĠzamanÄ±nda": 5672,
      "ĠOrgan": 5673,
      "Ġparmak": 5674,
      "ĠsonuÃ§lar": 5675,
      "ĠÃ§Ä±kmÄ±ÅŁ": 5676,
      "isiz": 5677,
      "Ġpah": 5678,
      "ly": 5679,
      "Ġanahtar": 5680,
      "tion": 5681,
      "yalÄ±": 5682,
      "ĠÄ°sv": 5683,
      "malarÄ±n": 5684,
      "ĠgÃ¼ney": 5685,
      "ĠÃĸyle": 5686,
      "Ġkalab": 5687,
      "ĠEskiÅŁehir": 5688,
      "Ġrahmet": 5689,
      "ĠhalkÄ±": 5690,
      "ĠÃ¶nÃ¼mÃ¼zdeki": 5691,
      "Ġmensup": 5692,
      "ĠbileÅŁ": 5693,
      "ĠÄ±n": 5694,
      "zat": 5695,
      "ĠNer": 5696,
      "ĠkaÄŁÄ±t": 5697,
      "ĠKuran": 5698,
      "Ġmor": 5699,
      "ĠYÃ¼r": 5700,
      "ilerinden": 5701,
      "tt": 5702,
      "ĠeriÅŁim": 5703,
      "Ġzamanlar": 5704,
      "Ġevlilik": 5705,
      "ĠhastalÄ±ÄŁÄ±": 5706,
      "ĠyaÄŁmur": 5707,
      "ĠgerÃ§ekleÅŁen": 5708,
      "ĠbaÄŁÄ±ÅŁ": 5709,
      "Ġmeyv": 5710,
      "ĠkumaÅŁ": 5711,
      "ray": 5712,
      "Ġartan": 5713,
      "Ġbozul": 5714,
      "ĠayakkabÄ±": 5715,
      "ĠgÃ¶sterdi": 5716,
      "Ġdalg": 5717,
      "Ġolunca": 5718,
      "anÄ±zÄ±": 5719,
      "adÄ±ÄŁÄ±nÄ±z": 5720,
      "ĠnÃ¼fus": 5721,
      "ĠÃ§alÄ±ÅŁmalarÄ±nÄ±": 5722,
      "ral": 5723,
      "ry": 5724,
      "Ġmiktarda": 5725,
      "Ġyetenek": 5726,
      "elerek": 5727,
      "lemesi": 5728,
      "Ġhali": 5729,
      "ĠaykÄ±rÄ±": 5730,
      "ilmesine": 5731,
      "ĠDÄ±ÅŁiÅŁleri": 5732,
      "elendir": 5733,
      "mediÄŁi": 5734,
      "yol": 5735,
      "ĠSiyas": 5736,
      "Ġkred": 5737,
      "ĠYukarÄ±": 5738,
      "ĠaltÄ±nÄ±": 5739,
      "Ġyav": 5740,
      "ĠgÃ¶m": 5741,
      "Ġfen": 5742,
      "ĠTal": 5743,
      "ĠlÃ¼k": 5744,
      "Ġseven": 5745,
      "ĠÃ§Ã¶k": 5746,
      "ĠdeÄŁildi": 5747,
      "ĠadayÄ±": 5748,
      "Ġfinal": 5749,
      "Ġkenar": 5750,
      "ĠZira": 5751,
      "ĠdÃ¼ÅŁÃ¼nce": 5752,
      "Ġdenk": 5753,
      "Ġinc": 5754,
      "nÄ±n": 5755,
      "ĠolaÄŁan": 5756,
      "Ġevlen": 5757,
      "Ġkrem": 5758,
      "ĠOrdu": 5759,
      "ĠEnerji": 5760,
      "ĠÃĩÄ±k": 5761,
      "ĠHemen": 5762,
      "Ġsorunlar": 5763,
      "rat": 5764,
      "Ġgittik": 5765,
      "Ġbaba": 5766,
      "ĠRad": 5767,
      "ĠbaÅŁlÄ±klÄ±": 5768,
      "Ġyurtd": 5769,
      "ĠÄ°smail": 5770,
      "Ã¼rken": 5771,
      "Ġsunulan": 5772,
      "ĠÃľzer": 5773,
      "Ġsertif": 5774,
      "layacak": 5775,
      "MM": 5776,
      "Ġrekabet": 5777,
      "mr": 5778,
      "SK": 5779,
      "ĠOlay": 5780,
      "Ġkomisyon": 5781,
      "ĠyÄ±llardÄ±r": 5782,
      "Ã¶p": 5783,
      "ĠkÄ±sÄ±t": 5784,
      "ĠgerektiÄŁ": 5785,
      "ĠBirÃ§ok": 5786,
      "ĠyapmanÄ±z": 5787,
      "Ġserg": 5788,
      "aylÄ±": 5789,
      "ĠMek": 5790,
      "ĠSaÃ§": 5791,
      "Ġtiyatro": 5792,
      "Ġyel": 5793,
      "omp": 5794,
      "ĠAbdullah": 5795,
      "Ġistis": 5796,
      "Ġmuhtem": 5797,
      "Ġyolculuk": 5798,
      "Ġlink": 5799,
      "stagram": 5800,
      "to": 5801,
      "ĠbÃ¼yÃ¼me": 5802,
      "ĠErkek": 5803,
      "ĠyoÄŁ": 5804,
      "Ġederiz": 5805,
      "tifak": 5806,
      "ĠSes": 5807,
      "atistik": 5808,
      "ĠanÄ±nda": 5809,
      "Ġsaha": 5810,
      "Ġkomut": 5811,
      "ĠsarÄ±": 5812,
      "Ġsi": 5813,
      "Ġicin": 5814,
      "Ġdenir": 5815,
      "Ġvad": 5816,
      "ĠkÄ±ymet": 5817,
      "ail": 5818,
      "ĠkalÄ±cÄ±": 5819,
      "Ġhisse": 5820,
      "ĠBununla": 5821,
      "ĠgeldiÄŁini": 5822,
      "kal": 5823,
      "Ġitiraz": 5824,
      "ĠÃ¶ncelik": 5825,
      "ĠKav": 5826,
      "menizi": 5827,
      "Ġtok": 5828,
      "ĠkulÃ¼p": 5829,
      "Ġdikkatli": 5830,
      "ĠHayÄ±r": 5831,
      "meyin": 5832,
      "ĠTR": 5833,
      "umuzun": 5834,
      "Ġmetal": 5835,
      "ĠkulÃ¼b": 5836,
      "ebilen": 5837,
      "ĠmaÃ§Ä±": 5838,
      "Ġbireysel": 5839,
      "ĠdayalÄ±": 5840,
      "memesi": 5841,
      "ĠHayvan": 5842,
      "out": 5843,
      "Ġalanlarda": 5844,
      "ĠÃ§ekici": 5845,
      "Ġmetrek": 5846,
      "Ġolabilirsiniz": 5847,
      "unma": 5848,
      "bek": 5849,
      "ĠdaÄŁÄ±": 5850,
      "leyin": 5851,
      "ĠEfend": 5852,
      "ĠNak": 5853,
      "ĠcezasÄ±": 5854,
      "Ġdepol": 5855,
      "ĠsÃ¼rece": 5856,
      "larÄ±mÄ±": 5857,
      "Ġsebeple": 5858,
      "landa": 5859,
      "ĠDoÃ§": 5860,
      "ĠkullanÄ±lmasÄ±": 5861,
      "ĠtakÄ±mÄ±": 5862,
      "Ġkazanan": 5863,
      "ĠÃ¶zgÃ¼rlÃ¼k": 5864,
      "Ġhayatta": 5865,
      "Ġsizleri": 5866,
      "Ġgecik": 5867,
      "ĠÃ§ocuklarÄ±": 5868,
      "yiz": 5869,
      "ĠolmamasÄ±": 5870,
      "ĠalÄ±nÄ±r": 5871,
      "los": 5872,
      "OL": 5873,
      "Ġgelmesi": 5874,
      "Ġtap": 5875,
      "ĠKarar": 5876,
      "ĠazÄ±ndan": 5877,
      "ĠHÄ±r": 5878,
      "Ġiman": 5879,
      "ĠtÃ¼ketim": 5880,
      "landÄ±ÄŁÄ±": 5881,
      "osk": 5882,
      "ilerle": 5883,
      "ĠÅŀube": 5884,
      "Ġmuay": 5885,
      "Ġaraba": 5886,
      "ĠSun": 5887,
      "Ġtalim": 5888,
      "Ġsuretiyle": 5889,
      "elle": 5890,
      "ĠÄ°let": 5891,
      "ĠAraÃ§": 5892,
      "oo": 5893,
      "Ġrehber": 5894,
      "tein": 5895,
      "ĠbÃ¶yl": 5896,
      "ĠAR": 5897,
      "ikol": 5898,
      "ĠTemel": 5899,
      "ĠalmasÄ±": 5900,
      "Ġbulan": 5901,
      "Ġmeyve": 5902,
      "lasyon": 5903,
      "ĠgÃ¼nah": 5904,
      "itesi": 5905,
      "Ġmir": 5906,
      "Ġtazmin": 5907,
      "ĠEnd": 5908,
      "Ġbeslenme": 5909,
      "ĠÃĸte": 5910,
      "ĠyaptÄ±ÄŁÄ±mÄ±z": 5911,
      "likte": 5912,
      "ĠSÄ±nÄ±f": 5913,
      "ĠÄ°mam": 5914,
      "Ġdemokratik": 5915,
      "ÃľN": 5916,
      "Ġfelsef": 5917,
      "ĠÄ°ngiltere": 5918,
      "ĠsÃ¶": 5919,
      "Ġtaban": 5920,
      "Ġpetrol": 5921,
      "Ä±sÄ±yla": 5922,
      "likler": 5923,
      "ĠÄ±sÄ±": 5924,
      "ĠLi": 5925,
      "ĠgÃ¼venliÄŁi": 5926,
      "ĠyÃ¶nel": 5927,
      "ĠAnkarada": 5928,
      "ĠsÄ±z": 5929,
      "ilerde": 5930,
      "ĠcÃ¼ml": 5931,
      "ĠÃĩek": 5932,
      "ĠArdÄ±ndan": 5933,
      "ĠKonya": 5934,
      "adir": 5935,
      "Ġmuhaf": 5936,
      "Ġkendinizi": 5937,
      "ĠsÃ¼n": 5938,
      "Ġbeslen": 5939,
      "ilme": 5940,
      "cÄ±lÄ±ÄŁ": 5941,
      "ĠMHP": 5942,
      "ĠVol": 5943,
      "ÅŁiv": 5944,
      "Ġnetic": 5945,
      "Ġavukat": 5946,
      "ĠuygulamalarÄ±": 5947,
      "ĠsÄ±nÄ±rlÄ±": 5948,
      "ÅŁap": 5949,
      "Ã¼kle": 5950,
      "ĠÄ°ÅŁleri": 5951,
      "ĠTelefon": 5952,
      "ĠGÃ¼nÃ¼": 5953,
      "Ġvesil": 5954,
      "ĠaÄŁÄ±z": 5955,
      "ĠProje": 5956,
      "ĠÃĸl": 5957,
      "amadÄ±m": 5958,
      "ĠVali": 5959,
      "Ġuygulanan": 5960,
      "Ġfet": 5961,
      "ĠbaÅŁladÄ±k": 5962,
      "ĠCadde": 5963,
      "ĠsaÄŁlÄ±ÄŁÄ±": 5964,
      "Ä±ldÄ±ÄŁÄ±nÄ±": 5965,
      "ĠanÄ±": 5966,
      "ĠyanÄ±n": 5967,
      "ĠbaÅŁlayacak": 5968,
      "Ġanay": 5969,
      "ĠfarkÄ±": 5970,
      "yadan": 5971,
      "ĠTor": 5972,
      "Ġmakyaj": 5973,
      "les": 5974,
      "ĠGÃ¶rev": 5975,
      "ĠsÄ±rt": 5976,
      "uyordu": 5977,
      "ĠBet": 5978,
      "Ġmaalesef": 5979,
      "ĠadamÄ±": 5980,
      "Ġprojeler": 5981,
      "ĠHÄ±z": 5982,
      "Ġdurumun": 5983,
      "ĠkullandÄ±ÄŁÄ±": 5984,
      "ceÄŁi": 5985,
      "ĠAT": 5986,
      "ĠkÃ¶p": 5987,
      "Ã¢t": 5988,
      "ĠHoc": 5989,
      "Ġkullanabilirsiniz": 5990,
      "ĠÅŀim": 5991,
      "ĠbÃ¼yÃ¼": 5992,
      "ĠyÄ±lÄ±nÄ±n": 5993,
      "Ġmetin": 5994,
      "IL": 5995,
      "fat": 5996,
      "ĠYazÄ±": 5997,
      "ĠbaÅŁÄ±": 5998,
      "ĠgÃ¶zÃ¼k": 5999,
      "ĠGÃ¼nÃ¼mÃ¼zde": 6000,
      "ĠÃ¼rÃ¼nlerin": 6001,
      "ĠBÃ¶lge": 6002,
      "illi": 6003,
      "arya": 6004,
      "lerdeki": 6005,
      "makla": 6006,
      "ĠsÃ¼rÃ¼cÃ¼": 6007,
      "ĠnoktasÄ±": 6008,
      "ĠOrman": 6009,
      "Ġekmek": 6010,
      "leyecek": 6011,
      "Ġzemin": 6012,
      "Ġmemleket": 6013,
      "ĠoluÅŁturul": 6014,
      "Ġoynan": 6015,
      "Ġdans": 6016,
      "Ġolmaktan": 6017,
      "Ġmeclis": 6018,
      "ĠiyileÅŁtir": 6019,
      "ĠsÃ¶ylemek": 6020,
      "Ġverme": 6021,
      "ĠÃĸnce": 6022,
      "cÄ±nÄ±n": 6023,
      "ĠMez": 6024,
      "ĠterÃ¶rist": 6025,
      "ĠsÄ±fÄ±r": 6026,
      "ĠKÄ±sa": 6027,
      "unuzun": 6028,
      "ĠgÃ¶rdÃ¼m": 6029,
      "Ġkorku": 6030,
      "ibe": 6031,
      "Ġnem": 6032,
      "araj": 6033,
      "ĠbaktÄ±ÄŁ": 6034,
      "ĠPan": 6035,
      "lemiÅŁ": 6036,
      "ĠsÃ¼per": 6037,
      "Ġharekete": 6038,
      "EB": 6039,
      "ĠÃ§alÄ±ÅŁÄ±r": 6040,
      "ĠMu": 6041,
      "uyum": 6042,
      "Ġverici": 6043,
      "Ġolamaz": 6044,
      "usuf": 6045,
      "ĠDep": 6046,
      "ĠkullanÄ±labilir": 6047,
      "Ġsessiz": 6048,
      "ĠGeÃ§tiÄŁimiz": 6049,
      "ĠbaÅŁladÄ±m": 6050,
      "ĠDeÄŁer": 6051,
      "aborat": 6052,
      "Ġhusus": 6053,
      "Ġgelmektedir": 6054,
      "ĠbaÄŁlam": 6055,
      "Ġsk": 6056,
      "Ġkadros": 6057,
      "eydi": 6058,
      "ĠLim": 6059,
      "eceÄŁine": 6060,
      "ĠyapÄ±lÄ±yor": 6061,
      "Ġsunum": 6062,
      "itler": 6063,
      "Ġgelince": 6064,
      "Ġunutul": 6065,
      "ris": 6066,
      "ĠgÃ¶stermektedir": 6067,
      "Ġku": 6068,
      "ĠBe": 6069,
      "Ġaran": 6070,
      "ĠÅŁifr": 6071,
      "ĠUzman": 6072,
      "tÄ±cÄ±": 6073,
      "ĠAlev": 6074,
      "ĠkatÄ±lÄ±mcÄ±": 6075,
      "ĠulaÅŁmak": 6076,
      "var": 6077,
      "ĠTÃ¼rkÃ§": 6078,
      "ĠVan": 6079,
      "denin": 6080,
      "ĠsÄ±vÄ±": 6081,
      "kÄ±nma": 6082,
      "Ġsporcu": 6083,
      "ife": 6084,
      "ĠMin": 6085,
      "dayÄ±z": 6086,
      "ĠDevam": 6087,
      "ĠTemiz": 6088,
      "ĠmÃ¼dahal": 6089,
      "Ġzinc": 6090,
      "larÄ±nÄ±za": 6091,
      "ĠyÃ¶nde": 6092,
      "andarma": 6093,
      "ĠrahatlÄ±kla": 6094,
      "Ġharf": 6095,
      "Ġaram": 6096,
      "danÄ±n": 6097,
      "tuÄŁu": 6098,
      "ĠbulunmasÄ±": 6099,
      "Ġtepk": 6100,
      "Ġgarant": 6101,
      "ĠSabah": 6102,
      "nan": 6103,
      "Ġtopr": 6104,
      "ĠNot": 6105,
      "ĠBaÅŁvur": 6106,
      "ĠedildiÄŁ": 6107,
      "ĠOS": 6108,
      "Ġyedek": 6109,
      "tikten": 6110,
      "ĠÃĩift": 6111,
      "ĠÄ°t": 6112,
      "Ġbelgesi": 6113,
      "Ã§isi": 6114,
      "ĠÅŁeyleri": 6115,
      "Ġedilerek": 6116,
      "Ġdilek": 6117,
      "ĠKuÅŁ": 6118,
      "ĠbazÄ±larÄ±": 6119,
      "Ġoyunun": 6120,
      "Ġsavunma": 6121,
      "itli": 6122,
      "ĠatÄ±k": 6123,
      "Ġdili": 6124,
      "Ġayda": 6125,
      "ĠgÃ¶rÃ¼yoruz": 6126,
      "ĠMAD": 6127,
      "ĠakÄ±ÅŁ": 6128,
      "Ġolabilecek": 6129,
      "lanacak": 6130,
      "ĠanlamÄ±": 6131,
      "iyetini": 6132,
      "Ġbizlere": 6133,
      "Ġsizlerle": 6134,
      "ĠfirmamÄ±z": 6135,
      "ĠÃ¶rgÃ¼tÃ¼": 6136,
      "ĠiÃ§inden": 6137,
      "Ġmasraf": 6138,
      "Ã¢m": 6139,
      "Ġtemas": 6140,
      "ĠPolis": 6141,
      "ĠAdalet": 6142,
      "UM": 6143,
      "Ġtaraftan": 6144,
      "Ġvah": 6145,
      "unuza": 6146,
      "fik": 6147,
      "Ġturist": 6148,
      "lukla": 6149,
      "Ġparlak": 6150,
      "ĠmÃ¼s": 6151,
      "ĠseÃ§enekleri": 6152,
      "isindeki": 6153,
      "ĠTakÄ±m": 6154,
      "ĠFotoÄŁraf": 6155,
      "ĠanlattÄ±": 6156,
      "ĠdÃ¼ÄŁÃ¼n": 6157,
      "Ġuygulamalar": 6158,
      "ĠLa": 6159,
      "ĠdonanÄ±m": 6160,
      "ketbol": 6161,
      "ĠÃ¼retilen": 6162,
      "ĠFransa": 6163,
      "Ġyedi": 6164,
      "ĠÃ§ey": 6165,
      "bil": 6166,
      "Ġsendik": 6167,
      "ĠEnstit": 6168,
      "ĠgÃ¼z": 6169,
      "ĠBM": 6170,
      "ĠkÃ¶pek": 6171,
      "Ġemekli": 6172,
      "ĠKÃ¼t": 6173,
      "oter": 6174,
      "Ġkelime": 6175,
      "Ġmay": 6176,
      "ĠÅŀen": 6177,
      "ĠÃ§ekiyor": 6178,
      "tiy": 6179,
      "ĠHik": 6180,
      "Ġtelefonu": 6181,
      "ĠhariÃ§": 6182,
      "Ġettiler": 6183,
      "ĠsÃ¼recinde": 6184,
      "Ġsonsuz": 6185,
      "iÃ§i": 6186,
      "ĠTeknoloji": 6187,
      "ĠElektrik": 6188,
      "iplin": 6189,
      "ĠSE": 6190,
      "Ġderken": 6191,
      "ĠbirÅŁey": 6192,
      "ĠRek": 6193,
      "ĠBilgisayar": 6194,
      "Ġkemik": 6195,
      "ĠnÄ±n": 6196,
      "ĠoluÅŁturan": 6197,
      "ĠyÃ¶netmen": 6198,
      "ĠGÄ±da": 6199,
      "ĠYazar": 6200,
      "ĠÅŁahÄ±s": 6201,
      "ĠsÃ¶zÃ¼": 6202,
      "ĠkarÅŁÄ±mÄ±za": 6203,
      "ĠKuvvet": 6204,
      "mamaktadÄ±r": 6205,
      "ĠÃĸzgÃ¼r": 6206,
      "Ġversiyon": 6207,
      "ĠimkÃ¢n": 6208,
      "ĠPay": 6209,
      "ĠvasÄ±": 6210,
      "Ġantren": 6211,
      "Ġcami": 6212,
      "jen": 6213,
      "ĠfÄ±kr": 6214,
      "Ġadresi": 6215,
      "ĠResmi": 6216,
      "maktÄ±r": 6217,
      "nuv": 6218,
      "ĠÃ§alÄ±ÅŁmaya": 6219,
      "ĠPek": 6220,
      "ĠyÄ±llarÄ±": 6221,
      "ĠdÃ¼k": 6222,
      "ĠYatÄ±rÄ±m": 6223,
      "Ġkov": 6224,
      "ĠÃĩeÅŁ": 6225,
      "ĠTh": 6226,
      "ĠdeÄŁerlendirme": 6227,
      "ĠSol": 6228,
      "ĠHareket": 6229,
      "ĠArt": 6230,
      "ĠyapÄ±yoruz": 6231,
      "ĠÃľyesi": 6232,
      "dol": 6233,
      "ĠÃ¼creti": 6234,
      "larÄ±nÄ±zÄ±n": 6235,
      "ĠÃ§ekim": 6236,
      "ĠolayÄ±": 6237,
      "ĠÃľstelik": 6238,
      "Ġsayg": 6239,
      "Ã¢l": 6240,
      "AC": 6241,
      "ĠyapmasÄ±": 6242,
      "Ġhekim": 6243,
      "ĠolduÄŁunda": 6244,
      "ĠKaÃ§": 6245,
      "ĠUS": 6246,
      "Ġvade": 6247,
      "tih": 6248,
      "ĠÄ°slÃ¢m": 6249,
      "tum": 6250,
      "Ġmali": 6251,
      "Ä±mdan": 6252,
      "ekte": 6253,
      "ĠgÃ¶rÃ¼ntÃ¼l": 6254,
      "Ġmilletvekili": 6255,
      "otel": 6256,
      "Ġkahve": 6257,
      "ĠgeÃ§iyor": 6258,
      "ĠSok": 6259,
      "lÄ±ÄŁÄ±ndan": 6260,
      "ĠYusuf": 6261,
      "ĠtaÅŁÄ±mak": 6262,
      "Ġkeyf": 6263,
      "azer": 6264,
      "ĠedeceÄŁiz": 6265,
      "ĠHakkÄ±nda": 6266,
      "amÄ±zda": 6267,
      "Ġisterim": 6268,
      "Ġtev": 6269,
      "ĠkazandÄ±": 6270,
      "ĠtasarÄ±mÄ±": 6271,
      "Ġreng": 6272,
      "ĠdÃ¼r": 6273,
      "Ġdedik": 6274,
      "Ġolmasa": 6275,
      "Ġaraz": 6276,
      "yet": 6277,
      "ĠNec": 6278,
      "ĠHavalim": 6279,
      "gat": 6280,
      "ĠyargÄ±": 6281,
      "ĠyapÄ±lmaktadÄ±r": 6282,
      "Ġrengi": 6283,
      "ĠYarÄ±ÅŁ": 6284,
      "istanÄ±n": 6285,
      "ĠÅŁehrin": 6286,
      "Ġuyku": 6287,
      "Ġyerler": 6288,
      "Ġpu": 6289,
      "ĠfirmasÄ±": 6290,
      "ĠyazÄ±l": 6291,
      "ĠmÃ¼n": 6292,
      "ĠÃ§ocuÄŁu": 6293,
      "ĠmantÄ±k": 6294,
      "Ġtarihinden": 6295,
      "Ġbuldu": 6296,
      "ĠÅŁÃ¼k": 6297,
      "cret": 6298,
      "ĠDig": 6299,
      "ĠyapmayÄ±": 6300,
      "priz": 6301,
      "ĠolmanÄ±n": 6302,
      "Ġtavsiy": 6303,
      "bat": 6304,
      "Ġbeklenen": 6305,
      "irli": 6306,
      "ĠÃ¼stÃ¼": 6307,
      "ĠTwitter": 6308,
      "ĠgelmiÅŁtir": 6309,
      "uzu": 6310,
      "ĠiÃ§eri": 6311,
      "ĠEmek": 6312,
      "ecik": 6313,
      "ĠPaÅŁa": 6314,
      "ĠSekret": 6315,
      "Ġahlak": 6316,
      "Ġistedim": 6317,
      "muÅŁtu": 6318,
      "Ã¼lÃ¼r": 6319,
      "Ġsisteminin": 6320,
      "Ġdakikada": 6321,
      "ĠOnu": 6322,
      "azartesi": 6323,
      "ĠMesela": 6324,
      "mÃ¼yor": 6325,
      "larken": 6326,
      "ĠYaklaÅŁÄ±k": 6327,
      "Ġvatan": 6328,
      "ĠyaÅŁÄ±yor": 6329,
      "Ġpanel": 6330,
      "Ġyaprak": 6331,
      "Ġteor": 6332,
      "Ġstat": 6333,
      "ĠyukarÄ±da": 6334,
      "ĠarasÄ±ndan": 6335,
      "ĠoluÅŁur": 6336,
      "Ġdenem": 6337,
      "ĠGÃ¼Ã§": 6338,
      "ĠPas": 6339,
      "ĠiÃ§eriÄŁ": 6340,
      "mekteyiz": 6341,
      "ĠgÃ¶rmÃ¼ÅŁ": 6342,
      "melerini": 6343,
      "Ġlan": 6344,
      "Ġakr": 6345,
      "ĠkÃ¼Ã§": 6346,
      "isa": 6347,
      "gÃ¼": 6348,
      "umun": 6349,
      "Ġgelerek": 6350,
      "lanÄ±n": 6351,
      "ĠdoÄŁrul": 6352,
      "ĠÃ¼stlen": 6353,
      "Ġbilgisi": 6354,
      "ĠDoÄŁan": 6355,
      "Ġyumurta": 6356,
      "Ġdamar": 6357,
      "ĠyumuÅŁak": 6358,
      "Ġhalka": 6359,
      "ebi": 6360,
      "Ġnih": 6361,
      "ĠEdeb": 6362,
      "ĠdÃ¶viz": 6363,
      "umuzu": 6364,
      "eÄŁinde": 6365,
      "ĠAdam": 6366,
      "ĠÄ°Ã§er": 6367,
      "Ġegemen": 6368,
      "Ġmikro": 6369,
      "Ġpsikolojik": 6370,
      "ĠarasÄ±na": 6371,
      "Ġenfeksiyon": 6372,
      "ĠDoktor": 6373,
      "Ġoranda": 6374,
      "Ġderi": 6375,
      "Ġpotansiyel": 6376,
      "ĠbÄ±": 6377,
      "ĠDestek": 6378,
      "diy": 6379,
      "Ġbitki": 6380,
      "ĠFa": 6381,
      "Ġbisiklet": 6382,
      "Ġonunla": 6383,
      "daÄŁÄ±": 6384,
      "eleriyle": 6385,
      "Ġmini": 6386,
      "ĠdÃ¼ÅŁÃ¼ÅŁ": 6387,
      "tÄ±ktan": 6388,
      "Ġyur": 6389,
      "ĠbaÅŁlÄ±": 6390,
      "ĠolmalarÄ±": 6391,
      "iyel": 6392,
      "ĠKral": 6393,
      "ĠRapor": 6394,
      "lom": 6395,
      "Ġgeb": 6396,
      "inda": 6397,
      "ĠÅŁunu": 6398,
      "ĠhÃ¼km": 6399,
      "ĠaylarÄ±nda": 6400,
      "mesinden": 6401,
      "imizle": 6402,
      "lanarak": 6403,
      "ĠsatÄ±ÅŁa": 6404,
      "Ġmilletvekil": 6405,
      "Ġka": 6406,
      "ĠsabÄ±r": 6407,
      "ĠfÄ±rsatÄ±": 6408,
      "ĠSaray": 6409,
      "ĠhayatÄ±n": 6410,
      "udak": 6411,
      "ĠSarÄ±": 6412,
      "Ġcennet": 6413,
      "ĠKarak": 6414,
      "Ġprim": 6415,
      "ĠLond": 6416,
      "Ġoynay": 6417,
      "Ġonur": 6418,
      "ĠnumaralÄ±": 6419,
      "ĠKons": 6420,
      "ĠsÃ¶zleÅŁme": 6421,
      "Ä°Åŀ": 6422,
      "tiÄŁim": 6423,
      "ĠsÃ¼reli": 6424,
      "ĠStan": 6425,
      "eÄŁiyle": 6426,
      "ĠBayan": 6427,
      "tÃ¼ÄŁÃ¼": 6428,
      "ĠEc": 6429,
      "Ġmuk": 6430,
      "ie": 6431,
      "ĠodasÄ±": 6432,
      "ĠYalnÄ±z": 6433,
      "ĠTÃ¼rkiyeyi": 6434,
      "arik": 6435,
      "Ġkamera": 6436,
      "ĠMADDE": 6437,
      "Ġbina": 6438,
      "Ġsilin": 6439,
      "ĠSÄ±": 6440,
      "alel": 6441,
      "Ġmuhalef": 6442,
      "ĠKredi": 6443,
      "Ġbilmiyorum": 6444,
      "okulu": 6445,
      "ĠolasÄ±": 6446,
      "ĠÅŀahin": 6447,
      "Ġtoh": 6448,
      "ĠFi": 6449,
      "ĠÄ°nÅŁaat": 6450,
      "ĠtÃ¼rÃ¼": 6451,
      "Ġpeygamber": 6452,
      "ĠhakkÄ±nÄ±": 6453,
      "ĠEuro": 6454,
      "ĠTav": 6455,
      "sesuar": 6456,
      "ĠÄ°stanbulun": 6457,
      "ĠOp": 6458,
      "RK": 6459,
      "ĠDoÄŁru": 6460,
      "ĠÃľcret": 6461,
      "ĠalanÄ±n": 6462,
      "Ġevden": 6463,
      "ĠkÄ±yas": 6464,
      "ĠÃ¶ÄŁrencileri": 6465,
      "ĠSoy": 6466,
      "Ġcerrah": 6467,
      "ĠkatÄ±": 6468,
      "ĠZor": 6469,
      "ĠÃĸÄŁretim": 6470,
      "ĠMeydan": 6471,
      "ĠÃ¶nemi": 6472,
      "Ġdua": 6473,
      "ĠGelen": 6474,
      "ĠrÃ¶": 6475,
      "ĠattÄ±": 6476,
      "Ġmezar": 6477,
      "ĠÄ°letiÅŁim": 6478,
      "Ã¼ÄŁÃ¼": 6479,
      "ĠyÃ¼zlerce": 6480,
      "duktan": 6481,
      "ĠgÃ¶rÃ¼lÃ¼r": 6482,
      "ĠTerÃ¶r": 6483,
      "Ġservisi": 6484,
      "esidir": 6485,
      "Ġvel": 6486,
      "Ġsanay": 6487,
      "cÄ±k": 6488,
      "ona": 6489,
      "ĠdÃ¼zenleme": 6490,
      "Ä±sal": 6491,
      "ĠkaranlÄ±k": 6492,
      "Ġalana": 6493,
      "Ġsaatlerinde": 6494,
      "ĠNit": 6495,
      "lob": 6496,
      "Ġikram": 6497,
      "ĠÃ§elik": 6498,
      "Ġkariyer": 6499,
      "Ġsinema": 6500,
      "ĠBarÄ±ÅŁ": 6501,
      "ĠkaÃ§ak": 6502,
      "Ġfuar": 6503,
      "ĠFrans": 6504,
      "ĠKÄ±lÄ±Ã§dar": 6505,
      "ĠDaÄŁ": 6506,
      "ĠyÄ±la": 6507,
      "Ġettikleri": 6508,
      "SY": 6509,
      "Ġtipi": 6510,
      "ĠadÄ±yla": 6511,
      "ĠmiktarÄ±": 6512,
      "ĠEge": 6513,
      "ĠKanunu": 6514,
      "ĠAil": 6515,
      "AV": 6516,
      "ĠÃ¶rt": 6517,
      "ĠToplam": 6518,
      "KT": 6519,
      "Ġalkol": 6520,
      "Ä±nan": 6521,
      "ĠkarÅŁÄ±n": 6522,
      "elli": 6523,
      "Ġente": 6524,
      "ĠhaklÄ±": 6525,
      "ĠBodrum": 6526,
      "Ġanlar": 6527,
      "ĠFilistin": 6528,
      "Ġhadis": 6529,
      "ĠsÄ±ÄŁÄ±n": 6530,
      "Ġirade": 6531,
      "ĠTut": 6532,
      "Ġmevsim": 6533,
      "ĠSizin": 6534,
      "ĠHey": 6535,
      "ĠbÃ¶lÃ¼n": 6536,
      "ĠKurumu": 6537,
      "Ġkonuyu": 6538,
      "Ġhorm": 6539,
      "ĠBÃ¼l": 6540,
      "Ġemniyet": 6541,
      "ĠHizmetleri": 6542,
      "ĠgeldiÄŁinde": 6543,
      "ektif": 6544,
      "ĠÅŀer": 6545,
      "Ġinceleme": 6546,
      "ĠkeÅŁf": 6547,
      "ĠÄ°stanbula": 6548,
      "ĠÅŁeye": 6549,
      "Ġihal": 6550,
      "ĠÃ¶mr": 6551,
      "ĠBeni": 6552,
      "ĠDuy": 6553,
      "Ġdeprem": 6554,
      "Ġizl": 6555,
      "ĠHind": 6556,
      "ĠBazen": 6557,
      "ĠÅŁekli": 6558,
      "rip": 6559,
      "ĠRÃ¼y": 6560,
      "ĠÃ¶mÃ¼r": 6561,
      "Ġpen": 6562,
      "ĠbakÄ±n": 6563,
      "Ġsigara": 6564,
      "ĠTok": 6565,
      "ĠGÃ¶l": 6566,
      "ĠGÃ¶rÃ¼n": 6567,
      "istanda": 6568,
      "Ġgeride": 6569,
      "TÃľ": 6570,
      "dÃ¼n": 6571,
      "Ġevren": 6572,
      "ĠkalÄ±p": 6573,
      "ĠMÃ¼zik": 6574,
      "ĠniteliÄŁ": 6575,
      "DA": 6576,
      "sar": 6577,
      "ĠsunduÄŁu": 6578,
      "Ġval": 6579,
      "kim": 6580,
      "Ġsahne": 6581,
      "Ġmerkezinde": 6582,
      "Ġerkekler": 6583,
      "Ġsanal": 6584,
      "Ġtraf": 6585,
      "ĠBaÅŁka": 6586,
      "Ġzirv": 6587,
      "ĠeÅŁliÄŁinde": 6588,
      "ĠseÃ§imi": 6589,
      "ĠSeÃ§im": 6590,
      "Ġverdim": 6591,
      "lup": 6592,
      "Ġimzalan": 6593,
      "ĠOna": 6594,
      "emem": 6595,
      "otos": 6596,
      "atlar": 6597,
      "ĠsÄ±kÄ±": 6598,
      "Ġeklem": 6599,
      "Ġtehlikeli": 6600,
      "ĠtanÄ±k": 6601,
      "Ġisteyenler": 6602,
      "we": 6603,
      "Ġbunlara": 6604,
      "ĠkatÄ±ldÄ±ÄŁÄ±": 6605,
      "ĠolmuÅŁtu": 6606,
      "iti": 6607,
      "ĠsunmaktadÄ±r": 6608,
      "Ġrom": 6609,
      "ĠDoÄŁal": 6610,
      "Ġetmez": 6611,
      "ĠiÅŁyer": 6612,
      "ĠFik": 6613,
      "itif": 6614,
      "ĠKarab": 6615,
      "ĠHerkes": 6616,
      "Ġyorgun": 6617,
      "ebileceÄŁi": 6618,
      "alog": 6619,
      "ester": 6620,
      "Ġsevgili": 6621,
      "ĠYaÅŁam": 6622,
      "ĠReh": 6623,
      "Ġdosya": 6624,
      "Ġhitap": 6625,
      "ĠsÃ¶zleri": 6626,
      "adÄ±ÄŁÄ±m": 6627,
      "ĠgeniÅŁlet": 6628,
      "ĠdÄ±ÅŁÄ±na": 6629,
      "ĠEtkin": 6630,
      "bu": 6631,
      "ĠFarklÄ±": 6632,
      "tÄ±ÄŁÄ±m": 6633,
      "ilde": 6634,
      "ĠbÃ¼yÃ¼y": 6635,
      "lÄ±kta": 6636,
      "soy": 6637,
      "ĠÃ¶ÄŁrenmek": 6638,
      "Ġmanevi": 6639,
      "lantÄ±": 6640,
      "ukur": 6641,
      "ĠiÅŁletme": 6642,
      "kun": 6643,
      "ĠAjans": 6644,
      "Ġec": 6645,
      "ĠsoruÅŁturma": 6646,
      "ĠKullanÄ±cÄ±": 6647,
      "ami": 6648,
      "Ġdenilen": 6649,
      "ĠgÃ¶rdÃ¼": 6650,
      "Ġkabil": 6651,
      "aÅŁÄ±": 6652,
      "Ġbelge": 6653,
      "lÄ±yorum": 6654,
      "ĠPKK": 6655,
      "Ġicra": 6656,
      "ress": 6657,
      "ĠMo": 6658,
      "ĠzararlÄ±": 6659,
      "ĠCumartesi": 6660,
      "zi": 6661,
      "Ġaksine": 6662,
      "Ġris": 6663,
      "ĠkiÅŁiyi": 6664,
      "leyip": 6665,
      "Ġedici": 6666,
      "ĠdÃ¼zenlediÄŁi": 6667,
      "ĠÃ§Ã¶p": 6668,
      "uÅŁturucu": 6669,
      "Ġbekleniyor": 6670,
      "Ġailen": 6671,
      "Ġolaylar": 6672,
      "EF": 6673,
      "ĠSize": 6674,
      "Ġtay": 6675,
      "Ġsunmak": 6676,
      "ull": 6677,
      "ĠÃĩay": 6678,
      "ĠRob": 6679,
      "tral": 6680,
      "lerinize": 6681,
      "ĠkÄ±rÄ±k": 6682,
      "ĠdÃ¼ÅŁÃ¼nÃ¼r": 6683,
      "Ġmol": 6684,
      "ĠÃ§aÄŁrÄ±": 6685,
      "ĠgetirdiÄŁi": 6686,
      "esince": 6687,
      "Ġsigorta": 6688,
      "Ġdefter": 6689,
      "ĠÃ¼lkelerin": 6690,
      "ĠMaÃ§": 6691,
      "Ġseviyorum": 6692,
      "Ġpencer": 6693,
      "ĠCo": 6694,
      "ĠÄ±rk": 6695,
      "ate": 6696,
      "Ġinsana": 6697,
      "Ġmasa": 6698,
      "ĠYapÄ±": 6699,
      "ayol": 6700,
      "Ġyasa": 6701,
      "ĠÃ¼s": 6702,
      "etle": 6703,
      "Ġklim": 6704,
      "Ã¶ly": 6705,
      "Ġhip": 6706,
      "dÄ±lar": 6707,
      "ĠAÅŁk": 6708,
      "ick": 6709,
      "Ġetken": 6710,
      "ĠhalÄ±": 6711,
      "iyorsunuz": 6712,
      "ĠcanlandÄ±r": 6713,
      "Ä±bbi": 6714,
      "Ġyerleri": 6715,
      "ĠsÃ¼rpriz": 6716,
      "ĠsÄ±kÄ±nt": 6717,
      "Ġhatt": 6718,
      "halat": 6719,
      "ĠÃ§ekir": 6720,
      "car": 6721,
      "Ġbacak": 6722,
      "Ġplana": 6723,
      "memek": 6724,
      "ĠalmÄ±ÅŁtÄ±r": 6725,
      "ĠÃĤ": 6726,
      "Ġmoda": 6727,
      "Ġkalitesi": 6728,
      "ĠKocaeli": 6729,
      "Ġfestival": 6730,
      "malÄ±sÄ±nÄ±z": 6731,
      "ĠoluÅŁum": 6732,
      "ezil": 6733,
      "Ġkilit": 6734,
      "amuk": 6735,
      "ĠAdan": 6736,
      "ĠalÄ±nacak": 6737,
      "Ġdiyorum": 6738,
      "Ġkurmak": 6739,
      "veya": 6740,
      "ĠdÃ¶nemin": 6741,
      "Ġvizyon": 6742,
      "ĠÄ±sÄ±t": 6743,
      "Ġetmeyi": 6744,
      "ilmelidir": 6745,
      "ĠYÃ¶netmel": 6746,
      "ĠHakan": 6747,
      "Ġtablet": 6748,
      "ebilmesi": 6749,
      "Ġkoleksiyon": 6750,
      "ĠkaybÄ±": 6751,
      "ding": 6752,
      "va": 6753,
      "Ġveriler": 6754,
      "ong": 6755,
      "ĠkatkÄ±da": 6756,
      "Ġmekaniz": 6757,
      "Ġsermaye": 6758,
      "Ġkarm": 6759,
      "Ġbirine": 6760,
      "ĠgÃ¶rdÃ¼ÄŁÃ¼": 6761,
      "Ġgaranti": 6762,
      "ĠolasÄ±l": 6763,
      "ment": 6764,
      "Ġbenden": 6765,
      "ĠgÃ¶rÃ¼nce": 6766,
      "ĠaÅŁkÄ±n": 6767,
      "ĠSivas": 6768,
      "ĠkalabalÄ±k": 6769,
      "ĠalÄ±rken": 6770,
      "ĠTaraf": 6771,
      "Ġdernek": 6772,
      "ĠiÅŁlemler": 6773,
      "aa": 6774,
      "ĠiÅŁletim": 6775,
      "ĠbÃ¶lgeye": 6776,
      "Ġelbis": 6777,
      "Ġyumurt": 6778,
      "ĠgÃ¶stermek": 6779,
      "ĠGal": 6780,
      "des": 6781,
      "Ġevr": 6782,
      "Ã¼nce": 6783,
      "ttp": 6784,
      "ĠsayÄ±sÄ±nÄ±n": 6785,
      "Ã¼rr": 6786,
      "ĠMeslek": 6787,
      "Ġgib": 6788,
      "Ġaktivit": 6789,
      "ĠBoÄŁaz": 6790,
      "amanÄ±n": 6791,
      "Ġsembol": 6792,
      "sis": 6793,
      "Ġkonular": 6794,
      "Ġprens": 6795,
      "ĠyaÄŁÄ±": 6796,
      "ĠsaÄŁlanmasÄ±": 6797,
      "aydÄ±": 6798,
      "gari": 6799,
      "onik": 6800,
      "ĠKonuÅŁ": 6801,
      "Ġmail": 6802,
      "Ġanlamak": 6803,
      "ĠÃĩanakkale": 6804,
      "Ġpeyn": 6805,
      "ĠMahallesi": 6806,
      "ĠgeliÅŁen": 6807,
      "Ġevinde": 6808,
      "bank": 6809,
      "ĠÅŁartlarÄ±": 6810,
      "ĠanlaÅŁÄ±l": 6811,
      "cÃ¼sÃ¼": 6812,
      "ĠkullanÄ±c": 6813,
      "Ġsir": 6814,
      "rimenkul": 6815,
      "ĠYemek": 6816,
      "paÅŁa": 6817,
      "ĠbaÅŁladÄ±ÄŁÄ±": 6818,
      "ĠgÃ¶ÄŁÃ¼s": 6819,
      "Ġsitesinde": 6820,
      "ĠnÃ¶": 6821,
      "ĠarkadaÅŁÄ±": 6822,
      "ĠUygulama": 6823,
      "Ġprotokol": 6824,
      "ĠbirliÄŁi": 6825,
      "andÄ±r": 6826,
      "ĠÃ¼yelik": 6827,
      "ĠEdebiyat": 6828,
      "Ġcesaret": 6829,
      "ĠgÃ¶revl": 6830,
      "EC": 6831,
      "ĠTamam": 6832,
      "ĠÅŁehri": 6833,
      "liÄŁiyle": 6834,
      "Ġyah": 6835,
      "Ġaral": 6836,
      "atlarÄ±": 6837,
      "Ġkarbon": 6838,
      "Ġokuma": 6839,
      "Ġkamuoy": 6840,
      "udu": 6841,
      "ĠBol": 6842,
      "ĠkÃ¶r": 6843,
      "ESÄ°": 6844,
      "uman": 6845,
      "ĠgÃ¶zden": 6846,
      "ĠÃ§alÄ±ÅŁmalarÄ±na": 6847,
      "Ġbiliyorum": 6848,
      "ĠDevamÄ±": 6849,
      "Ġengelli": 6850,
      "ach": 6851,
      "balaj": 6852,
      "ĠKayseri": 6853,
      "Ġtl": 6854,
      "suzluk": 6855,
      "Ġiklim": 6856,
      "Ġmerh": 6857,
      "ĠeÅŁlik": 6858,
      "Ġlideri": 6859,
      "abalar": 6860,
      "slan": 6861,
      "Ġveveya": 6862,
      "Ġefsan": 6863,
      "Ġkiralama": 6864,
      "Ġmacer": 6865,
      "ĠTasarÄ±m": 6866,
      "Ġhaftada": 6867,
      "ĠOrtak": 6868,
      "ĠAkadem": 6869,
      "ĠRuh": 6870,
      "zan": 6871,
      "Ġarayan": 6872,
      "pat": 6873,
      "ĠOrtad": 6874,
      "Ġhizmetler": 6875,
      "Ã¢nÄ±": 6876,
      "ĠProgramÄ±": 6877,
      "IK": 6878,
      "ĠVakfÄ±": 6879,
      "ĠÃ¶rneÄŁin": 6880,
      "Ġolmayacak": 6881,
      "ĠMersin": 6882,
      "Ġsom": 6883,
      "ĠmaÃ§ta": 6884,
      "Ġgrafik": 6885,
      "ĠOrhan": 6886,
      "Ġakademik": 6887,
      "ĠErzurum": 6888,
      "asino": 6889,
      "ĠÃ¶ÄŁrencilere": 6890,
      "ĠsÃ¼rÃ¼m": 6891,
      "ĠÃĩak": 6892,
      "Ġestetik": 6893,
      "ĠbÃ¼yÃ¼t": 6894,
      "ĠtarzÄ±": 6895,
      "Ġnesn": 6896,
      "Ġto": 6897,
      "ĠEÄŁit": 6898,
      "ĠKes": 6899,
      "ĠPiyas": 6900,
      "Ġkurban": 6901,
      "ĠaÃ§an": 6902,
      "ĠÃ¶lÃ¼": 6903,
      "Ġegzersiz": 6904,
      "ĠkÄ±smÄ±nÄ±": 6905,
      "Ġokumak": 6906,
      "Ġbeklet": 6907,
      "Ġgidecek": 6908,
      "Ä±ÅŁtÄ±": 6909,
      "Ġmavi": 6910,
      "ĠgÃ¶revlendir": 6911,
      "imini": 6912,
      "ĠÃ§Ä±kmasÄ±": 6913,
      "edeniyet": 6914,
      "Ġasit": 6915,
      "Ġayakta": 6916,
      "und": 6917,
      "oper": 6918,
      "ĠkullanÄ±lmaktadÄ±r": 6919,
      "ĠgeliÅŁme": 6920,
      "ĠrahatsÄ±zlÄ±k": 6921,
      "ĠmaÃ§Ä±nda": 6922,
      "lanmaktadÄ±r": 6923,
      "ĠÃ§Ä±kÄ±p": 6924,
      "Ġdemokrasi": 6925,
      "alÄ±n": 6926,
      "Ġolmuyor": 6927,
      "ĠMimar": 6928,
      "ĠdoÄŁur": 6929,
      "ĠmÃ¼lk": 6930,
      "Ġdevreye": 6931,
      "madÄ±m": 6932,
      "Ġgereksin": 6933,
      "Ġkendisinin": 6934,
      "ube": 6935,
      "Ġikin": 6936,
      "ĠyÄ±lÄ±na": 6937,
      "Ġbiliyoruz": 6938,
      "ĠvatandaÅŁlar": 6939,
      "ĠaracÄ±n": 6940,
      "Ġveril": 6941,
      "ĠYÃ¶netimi": 6942,
      "ĠBiraz": 6943,
      "Ġolmakla": 6944,
      "ĠHac": 6945,
      "ĠkaÅŁÄ±ÄŁÄ±": 6946,
      "ĠdÃ¶nemlerde": 6947,
      "Ġsesi": 6948,
      "ĠiÅŁver": 6949,
      "ĠKÄ±ÅŁ": 6950,
      "paz": 6951,
      "Ġmit": 6952,
      "Ġzul": 6953,
      "inizden": 6954,
      "Ġekonomi": 6955,
      "ĠMerkezinde": 6956,
      "ĠBirinci": 6957,
      "ĠÅŀehit": 6958,
      "ĠkapsamlÄ±": 6959,
      "Ġhttp": 6960,
      "Ġnci": 6961,
      "ĠfarkÄ±nda": 6962,
      "Ġkaza": 6963,
      "Ġnez": 6964,
      "rosoft": 6965,
      "ĠdeÄŁilim": 6966,
      "ĠolduÄŁunun": 6967,
      "ĠHiÃ§bir": 6968,
      "Ġbomb": 6969,
      "ĠHaft": 6970,
      "Ġidari": 6971,
      "ĠdoÄŁan": 6972,
      "ĠSuudi": 6973,
      "ĠsÃ¼rÃ¼yor": 6974,
      "Ġsof": 6975,
      "ĠalÄ±cÄ±": 6976,
      "ĠhayatÄ±na": 6977,
      "Ġbulur": 6978,
      "Ġcenaz": 6979,
      "Ä±lma": 6980,
      "ĠEg": 6981,
      "ĠRas": 6982,
      "Ġbilgilere": 6983,
      "ĠÅŀanlÄ±": 6984,
      "ĠbuluÅŁtur": 6985,
      "ĠnoktasÄ±nda": 6986,
      "Ä±laÅŁ": 6987,
      "ĠPsik": 6988,
      "ijinal": 6989,
      "ĠyaptÄ±ÄŁÄ±nÄ±": 6990,
      "Ġfinansal": 6991,
      "Ġbizler": 6992,
      "Ġbildirdi": 6993,
      "ĠÃ§Ä±ktÄ±ÄŁÄ±": 6994,
      "Ġran": 6995,
      "Ġlek": 6996,
      "ĠdoÄŁa": 6997,
      "ruk": 6998,
      "ĠbaÅŁarÄ±sÄ±z": 6999,
      "Ġpiyasaya": 7000,
      "ĠKahraman": 7001,
      "Ġbenimle": 7002,
      "ĠsÃ¼rÃ¼k": 7003,
      "Ġmasaj": 7004,
      "ĠPerson": 7005,
      "ĠyapÄ±labilir": 7006,
      "ĠSistemi": 7007,
      "ĠiletiÅŁime": 7008,
      "Ã¢b": 7009,
      "Ã¼phan": 7010,
      "Ġbizzat": 7011,
      "cÃ¼k": 7012,
      "Ġortada": 7013,
      "ect": 7014,
      "Ġbekleyen": 7015,
      "raz": 7016,
      "Ġbonus": 7017,
      "Ġboya": 7018,
      "tip": 7019,
      "ĠTC": 7020,
      "imet": 7021,
      "ĠendÃ¼str": 7022,
      "leÅŁtirme": 7023,
      "Ġkoordin": 7024,
      "ang": 7025,
      "ole": 7026,
      "Ã§Ä±lÄ±k": 7027,
      "ĠaÃ§Ä±kÃ§a": 7028,
      "ebilmektedir": 7029,
      "ste": 7030,
      "ĠgeldiÄŁ": 7031,
      "illa": 7032,
      "Ġnakliyat": 7033,
      "ĠsektÃ¶rÃ¼": 7034,
      "ĠsÄ±nÄ±rlarÄ±": 7035,
      "ĠtÃ¶r": 7036,
      "lerimi": 7037,
      "Ġsiyasal": 7038,
      "Ġzehir": 7039,
      "Ġkendileri": 7040,
      "malarÄ±na": 7041,
      "ĠAnne": 7042,
      "Ġevine": 7043,
      "ĠTÃ¼r": 7044,
      "linik": 7045,
      "ĠFaz": 7046,
      "Ġbanyo": 7047,
      "ĠinÅŁallah": 7048,
      "ĠlÃ¼ks": 7049,
      "ĠgÃ¶sterdiÄŁi": 7050,
      "Ġedebil": 7051,
      "ĠaÅŁaÄŁ": 7052,
      "ĠKoc": 7053,
      "ill": 7054,
      "MA": 7055,
      "Ġenflasyon": 7056,
      "Ġduygusal": 7057,
      "sh": 7058,
      "Ġailesi": 7059,
      "Ġmide": 7060,
      "ĠbakalÄ±m": 7061,
      "Ġgeldik": 7062,
      "Ġsorular": 7063,
      "ĠanlamlÄ±": 7064,
      "Ġkalmak": 7065,
      "ĠdÃ¼ÅŁtÃ¼": 7066,
      "dun": 7067,
      "icdan": 7068,
      "ĠkullanÄ±larak": 7069,
      "ĠyÄ±ld": 7070,
      "ĠhemÅŁ": 7071,
      "bahar": 7072,
      "ĠAzer": 7073,
      "ĠÅŁimdiden": 7074,
      "bÃ¼s": 7075,
      "Ġtutum": 7076,
      "ĠkeÅŁfet": 7077,
      "ĠkahvaltÄ±": 7078,
      "ĠarkasÄ±nda": 7079,
      "ĠFestival": 7080,
      "Ġihtimal": 7081,
      "ĠPen": 7082,
      "Ġdelil": 7083,
      "ĠÄ°ÅŁlem": 7084,
      "Ġhid": 7085,
      "urun": 7086,
      "ĠÃ§izgi": 7087,
      "Ã»l": 7088,
      "sever": 7089,
      "ĠSch": 7090,
      "ĠgÄ±d": 7091,
      "ĠNev": 7092,
      "ĠÅŁair": 7093,
      "andum": 7094,
      "Ġkapak": 7095,
      "ĠtarafÄ±nda": 7096,
      "ĠdÃ¼zgÃ¼n": 7097,
      "Ġslog": 7098,
      "Ġbahar": 7099,
      "Ġkiral": 7100,
      "ĠgÃ¶rÃ¼lmektedir": 7101,
      "Ġhaberleri": 7102,
      "Ã¼kleer": 7103,
      "ÅŁamba": 7104,
      "emiyor": 7105,
      "ĠSoÄŁ": 7106,
      "ĠMÃ¼cad": 7107,
      "ĠuzaklaÅŁ": 7108,
      "ĠDiÅŁ": 7109,
      "Ä±yorsunuz": 7110,
      "ÅŁembe": 7111,
      "ĠaÃ§tÄ±": 7112,
      "sk": 7113,
      "Ġkons": 7114,
      "Ġmim": 7115,
      "ĠMaÄŁ": 7116,
      "Ġistenen": 7117,
      "ĠyolculuÄŁ": 7118,
      "ularÄ±": 7119,
      "ĠkiÅŁilere": 7120,
      "Ġolsay": 7121,
      "ĠOper": 7122,
      "Ġhaberi": 7123,
      "Ġsaati": 7124,
      "rist": 7125,
      "Ġcinayet": 7126,
      "ĠkÄ±smÄ±nda": 7127,
      "uyorlar": 7128,
      "lanabilir": 7129,
      "Ġprotein": 7130,
      "ash": 7131,
      "ĠgÃ¼nleri": 7132,
      "Ġmektup": 7133,
      "Ġalanlar": 7134,
      "ĠeÅŁya": 7135,
      "Ġibadet": 7136,
      "mara": 7137,
      "ica": 7138,
      "lÄ±lÄ±ÄŁÄ±": 7139,
      "ĠHes": 7140,
      "Ġgeriye": 7141,
      "Ġradyo": 7142,
      "ace": 7143,
      "ĠAvrupada": 7144,
      "Ġkargo": 7145,
      "ĠUlu": 7146,
      "Ã§Ä±n": 7147,
      "Ã¼lmÃ¼ÅŁ": 7148,
      "ĠprogramlarÄ±": 7149,
      "lamalar": 7150,
      "ĠKontrol": 7151,
      "ĠniÅŁ": 7152,
      "ĠÃ§ak": 7153,
      "ĠaraÃ§larÄ±": 7154,
      "ĠÃ§abuk": 7155,
      "ĠLisans": 7156,
      "utma": 7157,
      "ĠNih": 7158,
      "ĠCE": 7159,
      "ÅŁe": 7160,
      "Ã¼lÃ¼yor": 7161,
      "bel": 7162,
      "Ġderg": 7163,
      "Ġtebrik": 7164,
      "ĠGerÃ§ekten": 7165,
      "Ã¼lecek": 7166,
      "ĠEngel": 7167,
      "Ä±mÄ±zdan": 7168,
      "usundaki": 7169,
      "ĠHÃ¼kÃ¼met": 7170,
      "Ġannesi": 7171,
      "Ġevin": 7172,
      "yim": 7173,
      "ĠkarÅŁÄ±lÄ±klÄ±": 7174,
      "Ġgram": 7175,
      "ĠÃ¼rÃ¼nÃ¼n": 7176,
      "ĠgÃ¶revini": 7177,
      "ww": 7178,
      "Ġbr": 7179,
      "ĠanlatÄ±yor": 7180,
      "ĠKaymakam": 7181,
      "cÄ±lÄ±ÄŁÄ±": 7182,
      "ĠFuar": 7183,
      "Ġsertifik": 7184,
      "mini": 7185,
      "Ġkatk": 7186,
      "api": 7187,
      "ĠÅŀek": 7188,
      "ĠdeÄŁerleri": 7189,
      "ĠkaldÄ±ÄŁÄ±": 7190,
      "ĠYakÄ±n": 7191,
      "ĠSalon": 7192,
      "tiÄŁiniz": 7193,
      "ĠyÃ¼rÃ¼rlÃ¼ÄŁe": 7194,
      "ĠaltÄ±ndaki": 7195,
      "ĠBirleÅŁik": 7196,
      "ood": 7197,
      "tic": 7198,
      "ĠgeÃ§irmek": 7199,
      "Ġtaze": 7200,
      "Ġkonul": 7201,
      "ĠAnayasa": 7202,
      "amÄ±yorum": 7203,
      "Ġrekor": 7204,
      "Ä±lmak": 7205,
      "Ġederler": 7206,
      "ĠSÃ¶zleÅŁ": 7207,
      "Ġkilometre": 7208,
      "ĠdÄ±ÅŁÄ±ndaki": 7209,
      "Ġpazarlama": 7210,
      "LU": 7211,
      "Ġsistemin": 7212,
      "Ġkonferans": 7213,
      "ĠST": 7214,
      "ĠoluÅŁturmak": 7215,
      "ĠÃ§ocuklara": 7216,
      "ĠinanÄ±lmaz": 7217,
      "luÄŁunu": 7218,
      "ĠAD": 7219,
      "Ġfilmin": 7220,
      "ĠdeÄŁiÅŁen": 7221,
      "ĠÃ§izg": 7222,
      "dular": 7223,
      "amaktadÄ±r": 7224,
      "ĠÃ¶rneÄŁi": 7225,
      "ĠZeytin": 7226,
      "ĠÃ¶dey": 7227,
      "ura": 7228,
      "Ġseksi": 7229,
      "Ġparalel": 7230,
      "lÄ±nÄ±n": 7231,
      "anÄ±p": 7232,
      "ĠyakÄ±ÅŁ": 7233,
      "ĠCil": 7234,
      "ĠsaÄŁlamaktadÄ±r": 7235,
      "Ã¼man": 7236,
      "ĠDi": 7237,
      "ĠÃ¼ncÃ¼": 7238,
      "Ġmahalle": 7239,
      "ĠyakÄ±t": 7240,
      "ĠAÄŁÄ±r": 7241,
      "Ġmesela": 7242,
      "ĠiyileÅŁ": 7243,
      "ĠYabancÄ±": 7244,
      "memiz": 7245,
      "liÄŁinden": 7246,
      "Ġkazanmak": 7247,
      "ĠalanÄ±na": 7248,
      "leniyor": 7249,
      "Ġgerekirse": 7250,
      "luÄŁa": 7251,
      "amÄ±za": 7252,
      "ĠÃ§el": 7253,
      "Ġtren": 7254,
      "ĠDeÄŁiÅŁik": 7255,
      "ektaÅŁ": 7256,
      "raÃ§": 7257,
      "ĠgeliÅŁtirme": 7258,
      "Ġteknolojik": 7259,
      "ĠayrÄ±ntÄ±": 7260,
      "ĠsÃ¶yler": 7261,
      "ĠVÃ¼c": 7262,
      "ĠeÅŁsiz": 7263,
      "Ġzamanla": 7264,
      "ĠnumarasÄ±": 7265,
      "enize": 7266,
      "ĠtarafÄ±": 7267,
      "ĠÃ¼lkemizin": 7268,
      "ĠGeÃ§miÅŁ": 7269,
      "Ġizlem": 7270,
      "umuza": 7271,
      "ĠiÃ§ecek": 7272,
      "ĠyaÅŁama": 7273,
      "Ġalabilir": 7274,
      "ĠMetin": 7275,
      "ĠProjesi": 7276,
      "Ġtarihine": 7277,
      "lÃ®": 7278,
      "Ġsad": 7279,
      "ĠÃĸrnek": 7280,
      "LE": 7281,
      "ĠUk": 7282,
      "Ġceph": 7283,
      "Ġfant": 7284,
      "Ġprotest": 7285,
      "ĠÃ§ekin": 7286,
      "Ġseri": 7287,
      "Ġsizden": 7288,
      "ĠdeÄŁiÅŁikliÄŁi": 7289,
      "ĠÄ±srar": 7290,
      "Ġyerlere": 7291,
      "ĠTesis": 7292,
      "ĠDal": 7293,
      "ersiniz": 7294,
      "Ġmalzemeleri": 7295,
      "abildiÄŁ": 7296,
      "Ġorganize": 7297,
      "xy": 7298,
      "Ġistanbul": 7299,
      "Ġikisi": 7300,
      "Ġdinamik": 7301,
      "uÅŁu": 7302,
      "tÄ±ÄŁÄ±nÄ±z": 7303,
      "ĠFen": 7304,
      "Ġsaatleri": 7305,
      "ĠVide": 7306,
      "ĠahÅŁap": 7307,
      "ĠmÃ¼h": 7308,
      "Ġharcam": 7309,
      "Ġkullanma": 7310,
      "Ġbirinc": 7311,
      "ĠTeb": 7312,
      "ĠTÃ¼k": 7313,
      "diven": 7314,
      "Ġmahkeme": 7315,
      "Ġyeterince": 7316,
      "abilme": 7317,
      "Ġsunar": 7318,
      "ĠbaÅŁlamÄ±ÅŁtÄ±r": 7319,
      "abak": 7320,
      "Ġkaybeden": 7321,
      "ĠAbdÃ¼l": 7322,
      "ĠYork": 7323,
      "Ġcaz": 7324,
      "Ġvermesi": 7325,
      "ĠKem": 7326,
      "mu": 7327,
      "ĠÄ°nsanlar": 7328,
      "Ġaksesuar": 7329,
      "Ġdekorasyon": 7330,
      "tÄ±klarÄ±nÄ±": 7331,
      "ee": 7332,
      "Ġuygulamaya": 7333,
      "Ã¼yÃ¼": 7334,
      "ĠSatÄ±ÅŁ": 7335,
      "ĠÃ¶p": 7336,
      "ĠanlamÄ±nda": 7337,
      "Ġbizimle": 7338,
      "ĠkontrolÃ¼": 7339,
      "ĠBulgar": 7340,
      "Ġlezzetli": 7341,
      "ĠsÃ¼rÃ¼": 7342,
      "ĠÃ§aba": 7343,
      "ĠDiz": 7344,
      "Ġtey": 7345,
      "ĠBebek": 7346,
      "ĠÃ¶rgÃ¼tÃ¼n": 7347,
      "liyoruz": 7348,
      "ĠverilmiÅŁ": 7349,
      "lÄ±ktan": 7350,
      "Ġsistemine": 7351,
      "ĠÅŁirketin": 7352,
      "lÄ±lar": 7353,
      "Ġetkileri": 7354,
      "ĠAsya": 7355,
      "iÄŁeri": 7356,
      "Ġoyunlar": 7357,
      "Ġkonuya": 7358,
      "idin": 7359,
      "ĠalakalÄ±": 7360,
      "ĠGec": 7361,
      "ĠdediÄŁi": 7362,
      "ĠyemeÄŁi": 7363,
      "Ġplastik": 7364,
      "Ġteker": 7365,
      "ĠaÃ§Ä±klamasÄ±": 7366,
      "Ġdevir": 7367,
      "ĠÃ§alÄ±ÅŁÄ±yoruz": 7368,
      "ĠKomutan": 7369,
      "ĠÃ¼lkeye": 7370,
      "Ġmerhaba": 7371,
      "ĠbulunduÄŁunu": 7372,
      "ĠÃ¼lkemiz": 7373,
      "ĠyollarÄ±": 7374,
      "Ġbilinc": 7375,
      "ĠyazdÄ±ÄŁÄ±": 7376,
      "ĠdÃ¼zenlenecek": 7377,
      "amadÄ±k": 7378,
      "ĠarÅŁiv": 7379,
      "ĠgÃ¼ndÃ¼z": 7380,
      "ĠÃ§apÄ±nda": 7381,
      "Ġoraya": 7382,
      "ĠyapÄ±lmÄ±ÅŁtÄ±r": 7383,
      "iÅŁe": 7384,
      "Ġsistemini": 7385,
      "ĠDigit": 7386,
      "ĠFu": 7387,
      "Ġbunlardan": 7388,
      "ks": 7389,
      "ĠCumhurbaÅŁkanlÄ±ÄŁÄ±": 7390,
      "ĠsÄ±ÄŁ": 7391,
      "ĠDÃ¼nyada": 7392,
      "ĠdÃ¶r": 7393,
      "Ġkatli": 7394,
      "Ġcevab": 7395,
      "Ġtef": 7396,
      "ĠÃ¼lkelerde": 7397,
      "ĠBÃ¶yl": 7398,
      "Ġtescil": 7399,
      "Ġolgun": 7400,
      "ĠElbette": 7401,
      "Ġnis": 7402,
      "ÅŁi": 7403,
      "ĠMir": 7404,
      "Ġeline": 7405,
      "Ġkalacak": 7406,
      "Ġelinden": 7407,
      "ider": 7408,
      "ĠÃĩÃ¶z": 7409,
      "ĠRom": 7410,
      "Ã¶v": 7411,
      "Ã§ilik": 7412,
      "ĠDde": 7413,
      "ĠbÃ¶lÃ¼mde": 7414,
      "simum": 7415,
      "amadÄ±ÄŁÄ±": 7416,
      "ĠAtatÃ¼rkÃ¼n": 7417,
      "Ġkutsal": 7418,
      "ĠdÃ¼ÅŁÃ¼ndÃ¼ÄŁ": 7419,
      "Ġatmos": 7420,
      "Ġdemokras": 7421,
      "Ġevi": 7422,
      "ĠGÃ¼nde": 7423,
      "malara": 7424,
      "ĠPa": 7425,
      "ĠVatandaÅŁ": 7426,
      "Ġolmazsa": 7427,
      "ive": 7428,
      "Ġbekliyoruz": 7429,
      "ĠolmasÄ±nÄ±n": 7430,
      "own": 7431,
      "Ġkoyun": 7432,
      "ĠErmen": 7433,
      "Ġbakter": 7434,
      "Ġistikrar": 7435,
      "Ġemir": 7436,
      "ĠÃ¶v": 7437,
      "ĠTeknoloj": 7438,
      "ĠtamamÄ±": 7439,
      "ĠkÃ¼f": 7440,
      "ĠÅŀanlÄ±ur": 7441,
      "ĠverilmiÅŁtir": 7442,
      "yeni": 7443,
      "ĠkalÄ±yor": 7444,
      "ĠgÃ¶ze": 7445,
      "ĠÃ§ekmek": 7446,
      "ĠKud": 7447,
      "dÄ±klarÄ±nÄ±": 7448,
      "OS": 7449,
      "mÄ±yorum": 7450,
      "Ġcemaat": 7451,
      "Ġdiliyorum": 7452,
      "ĠyaÄŁÄ±ÅŁ": 7453,
      "lobal": 7454,
      "Ġedecektir": 7455,
      "ĠiliÅŁkileri": 7456,
      "ĠHaberleri": 7457,
      "ĠistediÄŁini": 7458,
      "ĠSorum": 7459,
      "ĠteÅŁh": 7460,
      "ĠÅŁarj": 7461,
      "ĠgÃ¼nÃ¼nde": 7462,
      "ĠAzerbay": 7463,
      "ĠCom": 7464,
      "iraat": 7465,
      "ĠsÃ¶n": 7466,
      "Ġrob": 7467,
      "Ġyuvar": 7468,
      "ildiÄŁinde": 7469,
      "Ġdudak": 7470,
      "ĠÃ¶zgÃ¼": 7471,
      "Ġpost": 7472,
      "Ġgetiriyor": 7473,
      "ĠGrubu": 7474,
      "Ġmakine": 7475,
      "Ġverg": 7476,
      "ĠYunanistan": 7477,
      "Ġriv": 7478,
      "Ġuyk": 7479,
      "larÄ±mÄ±zla": 7480,
      "ĠtanÄ±y": 7481,
      "Ġstres": 7482,
      "ĠiÃ§erisine": 7483,
      "ĠaÃ§Ä±ldÄ±": 7484,
      "ĠkonularÄ±": 7485,
      "lÃ¼ÄŁÃ¼nÃ¼": 7486,
      "ĠyargÄ±lan": 7487,
      "Ġeleman": 7488,
      "Ġlaf": 7489,
      "ĠcoÅŁ": 7490,
      "Ġdelik": 7491,
      "ĠgÃ¶revli": 7492,
      "ĠSinem": 7493,
      "ĠadamÄ±n": 7494,
      "ĠRoman": 7495,
      "Ġredde": 7496,
      "ĠyerleÅŁim": 7497,
      "pa": 7498,
      "ĠMalatya": 7499,
      "ĠLev": 7500,
      "ĠrÃ¼zgar": 7501,
      "ĠeÄŁlence": 7502,
      "ĠiÃ§eriÄŁi": 7503,
      "itika": 7504,
      "ĠhakkÄ±ndaki": 7505,
      "Ġeposta": 7506,
      "Ġittifak": 7507,
      "ĠAkÄ±l": 7508,
      "ebileceÄŁiniz": 7509,
      "ĠyardÄ±mÄ±": 7510,
      "ĠÄ°mparator": 7511,
      "Ġburun": 7512,
      "ĠAnd": 7513,
      "Ġforum": 7514,
      "Ġsuyun": 7515,
      "Ġsizlerin": 7516,
      "Ġblok": 7517,
      "ĠPlay": 7518,
      "ĠyayÄ±mlanan": 7519,
      "Ġdaima": 7520,
      "ĠTemsil": 7521,
      "Ġlay": 7522,
      "ĠHastanesi": 7523,
      "ĠkÄ±yafet": 7524,
      "ĠkÃ¶ken": 7525,
      "ĠkolaylÄ±kla": 7526,
      "uvalet": 7527,
      "ĠyÃ¼rÃ¼tÃ¼len": 7528,
      "ĠKayÄ±": 7529,
      "ĠakÄ±m": 7530,
      "Ġihlal": 7531,
      "ĠalgÄ±l": 7532,
      "ĠMicrosoft": 7533,
      "ĠarkadaÅŁÄ±m": 7534,
      "ĠSilah": 7535,
      "Ġekipman": 7536,
      "yaspor": 7537,
      "Ġdoktora": 7538,
      "ucusu": 7539,
      "Ġhukuki": 7540,
      "ĠfarkÄ±n": 7541,
      "Ġarzu": 7542,
      "ĠbaÅŁtan": 7543,
      "ĠYoksa": 7544,
      "ĠDÃ¶nem": 7545,
      "ĠBaÅŁar": 7546,
      "Ġhepsini": 7547,
      "Ġtabak": 7548,
      "Ġdi": 7549,
      "ĠPara": 7550,
      "ĠAda": 7551,
      "ĠpayÄ±": 7552,
      "alarÄ±yla": 7553,
      "avuÅŁ": 7554,
      "ĠÃ¶ÄŁrenildi": 7555,
      "ĠYÃĸ": 7556,
      "ĠBunlardan": 7557,
      "ilecektir": 7558,
      "Ġkuy": 7559,
      "osun": 7560,
      "ĠKa": 7561,
      "medik": 7562,
      "Ġbakar": 7563,
      "Ġverilmektedir": 7564,
      "ĠgerÃ§ekleÅŁti": 7565,
      "Ġdondur": 7566,
      "Ġkafa": 7567,
      "ĠUÄŁur": 7568,
      "Ġyolunu": 7569,
      "ĠgeliÅŁtirmek": 7570,
      "Ġverdik": 7571,
      "Ġdog": 7572,
      "ĠgÃ¼cÃ¼nÃ¼": 7573,
      "Ġbulut": 7574,
      "ĠkÃ¶tÃ¼l": 7575,
      "umuzda": 7576,
      "Ġduruyor": 7577,
      "mamÄ±ÅŁtÄ±r": 7578,
      "ĠDel": 7579,
      "ĠMeclisi": 7580,
      "ĠÃ§Ä±r": 7581,
      "ĠParis": 7582,
      "Ġmater": 7583,
      "Ġbildirildi": 7584,
      "do": 7585,
      "ĠCol": 7586,
      "ĠgeleceÄŁi": 7587,
      "ĠgÃ¶rÃ¼ÅŁme": 7588,
      "espor": 7589,
      "ĠNaz": 7590,
      "ĠÃ¶nemlisi": 7591,
      "Ġlog": 7592,
      "Ġgirer": 7593,
      "OT": 7594,
      "Ġoradan": 7595,
      "abileceÄŁ": 7596,
      "lon": 7597,
      "ĠMor": 7598,
      "ĠÃľnlÃ¼": 7599,
      "ĠÃĩiÃ§": 7600,
      "ĠSn": 7601,
      "ĠTim": 7602,
      "Ġistatistik": 7603,
      "Ġetmey": 7604,
      "ĠkayÄ±tlÄ±": 7605,
      "Ġbudur": 7606,
      "Ġbelirgin": 7607,
      "ĠÃ¶f": 7608,
      "ĠayrÄ±ntÄ±lÄ±": 7609,
      "nda": 7610,
      "ĠkaynaklarÄ±": 7611,
      "mec": 7612,
      "Ġismini": 7613,
      "ĠModel": 7614,
      "Ä±ÅŁÄ±klÄ±k": 7615,
      "Ã§ilerin": 7616,
      "Ä±kÃ¶y": 7617,
      "ĠSaf": 7618,
      "ĠEkonomi": 7619,
      "ĠKanununun": 7620,
      "tÃ¼rÃ¼": 7621,
      "Ġikili": 7622,
      "ĠÃ§Ä±karak": 7623,
      "ĠAnadol": 7624,
      "Ã©": 7625,
      "ĠEmre": 7626,
      "ĠtaÅŁÄ±yor": 7627,
      "Ġkaybetti": 7628,
      "ĠKuranÄ±": 7629,
      "ĠSavunma": 7630,
      "cal": 7631,
      "ĠyapmaktadÄ±r": 7632,
      "Ġokula": 7633,
      "ĠpaylaÅŁmak": 7634,
      "ĠsÃ¶mÃ¼r": 7635,
      "ĠAA": 7636,
      "laÃ§": 7637,
      "ĠyÃ¶ntemleri": 7638,
      "Ġmecbur": 7639,
      "duÄŁunda": 7640,
      "ĠKongr": 7641,
      "oid": 7642,
      "Ġdisiplin": 7643,
      "Ãĥ": 7644,
      "Ġedenler": 7645,
      "Ġbirlikt": 7646,
      "Ġefend": 7647,
      "ĠhalkÄ±nÄ±n": 7648,
      "ĠHangi": 7649,
      "Ġsemin": 7650,
      "ĠGÃ¶rÃ¼ÅŁ": 7651,
      "dÄ±ÄŁÄ±na": 7652,
      "ĠBasÄ±n": 7653,
      "Ã¼min": 7654,
      "ĠkarÅŁÄ±sÄ±na": 7655,
      "ĠForm": 7656,
      "ĠYorum": 7657,
      "Ġvurgulayan": 7658,
      "Ġkriter": 7659,
      "Ġihale": 7660,
      "ME": 7661,
      "ĠsakÄ±n": 7662,
      "ĠErmeni": 7663,
      "ĠkurulmuÅŁ": 7664,
      "idir": 7665,
      "ĠhaÅŁ": 7666,
      "ĠtÃ¼ketic": 7667,
      "IZ": 7668,
      "umda": 7669,
      "Ġhizmete": 7670,
      "ko": 7671,
      "Ä±lÄ±ÅŁ": 7672,
      "ĠKulÃ¼bÃ¼": 7673,
      "ĠbÃ¶lgenin": 7674,
      "laÅŁtÄ±rma": 7675,
      "Ġfaaliyetleri": 7676,
      "Ġkek": 7677,
      "ĠPak": 7678,
      "Ġvitamin": 7679,
      "ĠTÃ¼rkmen": 7680,
      "ĠetrafÄ±nda": 7681,
      "Ġistasyon": 7682,
      "ĠalanlarÄ±nda": 7683,
      "Ġmontaj": 7684,
      "Ġmilletin": 7685,
      "Ġtahsil": 7686,
      "ĠtoplantÄ±sÄ±nda": 7687,
      "Ġobj": 7688,
      "Ġdiplom": 7689,
      "ĠFinans": 7690,
      "Ġkg": 7691,
      "ĠAnayas": 7692,
      "Ġliste": 7693,
      "oks": 7694,
      "lÃ¼lÃ¼k": 7695,
      "ĠPazartesi": 7696,
      "ĠÃĩoc": 7697,
      "Ġvefat": 7698,
      "Ġdediler": 7699,
      "ĠkullanÄ±yor": 7700,
      "ĠanlaÅŁma": 7701,
      "ĠYay": 7702,
      "Ġbuton": 7703,
      "ĠAziz": 7704,
      "ĠolanÄ±": 7705,
      "ĠBÃ¶lÃ¼mÃ¼": 7706,
      "Ġmutf": 7707,
      "Ġsekiz": 7708,
      "ladÄ±ÄŁÄ±mÄ±z": 7709,
      "ĠiÅŁini": 7710,
      "OÄŀ": 7711,
      "ĠKÃ¶r": 7712,
      "ĠseÃ§eneÄŁi": 7713,
      "Ġetiket": 7714,
      "Ġpozitif": 7715,
      "Ġolurdu": 7716,
      "Ġbizleri": 7717,
      "Ġutan": 7718,
      "ĠaÅŁamasÄ±nda": 7719,
      "lament": 7720,
      "ĠyatÄ±rÄ±mcÄ±": 7721,
      "sÃ¼": 7722,
      "ĠuyarÄ±nca": 7723,
      "ehr": 7724,
      "ĠOnline": 7725,
      "ĠyansÄ±": 7726,
      "ĠzamandÄ±r": 7727,
      "ĠMotor": 7728,
      "Ã¼yoruz": 7729,
      "Ġpak": 7730,
      "Ġvicdan": 7731,
      "Ġmakinesi": 7732,
      "ĠsahipliÄŁi": 7733,
      "ĠOb": 7734,
      "Ġgetirir": 7735,
      "ĠÃ§ant": 7736,
      "ĠÃ§ikol": 7737,
      "ĠgÃ¶zet": 7738,
      "Ġetmeniz": 7739,
      "ĠBaÅŁk": 7740,
      "caya": 7741,
      "ĠkarÅŁÄ±lÄ±ÄŁÄ±nda": 7742,
      "ĠTrans": 7743,
      "resyon": 7744,
      "ĠplanÄ±": 7745,
      "ĠHanÄ±m": 7746,
      "ĠmÃ¼slÃ¼m": 7747,
      "ilin": 7748,
      "Ġmerkezine": 7749,
      "ĠbaÅŁkenti": 7750,
      "Ġgibidir": 7751,
      "ĠIÅŀ": 7752,
      "ĠÃ¶zellikler": 7753,
      "ĠunutmayÄ±n": 7754,
      "Ġtamir": 7755,
      "ĠMik": 7756,
      "Ġsonradan": 7757,
      "lasman": 7758,
      "Ġgiyim": 7759,
      "ĠÃľlkemizde": 7760,
      "Ġkoruyucu": 7761,
      "ĠJoh": 7762,
      "ĠbastÄ±r": 7763,
      "Ġocak": 7764,
      "ĠÃ¶zet": 7765,
      "Ġevrak": 7766,
      "ĠdÃ¶ndÃ¼": 7767,
      "Ġperde": 7768,
      "Ġtutun": 7769,
      "ĠbugÃ¼nkÃ¼": 7770,
      "reti": 7771,
      "luÄŁun": 7772,
      "ĠKadÄ±nlar": 7773,
      "ĠanlayÄ±ÅŁÄ±": 7774,
      "ĠEmin": 7775,
      "ĠilÃ§esi": 7776,
      "Ġanket": 7777,
      "Ġseviyede": 7778,
      "ĠIÅŁÄ±k": 7779,
      "IS": 7780,
      "Ġkarn": 7781,
      "ĠyardÄ±mÄ±yla": 7782,
      "eyt": 7783,
      "ĠalÄ±nmÄ±ÅŁ": 7784,
      "Ġkombin": 7785,
      "ĠodaklÄ±": 7786,
      "Ġyoksul": 7787,
      "Ġprojenin": 7788,
      "Ġithal": 7789,
      "ĠBÃ¼lent": 7790,
      "ĠyurtdÄ±ÅŁ": 7791,
      "Ġekst": 7792,
      "Ġdirekt": 7793,
      "mamalÄ±dÄ±r": 7794,
      "Ġimam": 7795,
      "ĠÃĸÄŁrenci": 7796,
      "ĠhayatÄ±nda": 7797,
      "Ġeks": 7798,
      "Ã¼rriyet": 7799,
      "Ġomuz": 7800,
      "ĠkarÅŁÄ±lÄ±ÄŁÄ±": 7801,
      "Ġriski": 7802,
      "Ġolmas": 7803,
      "Ġkendime": 7804,
      "ydi": 7805,
      "Ġbedeli": 7806,
      "mus": 7807,
      "Ã¼sÃ¼nÃ¼": 7808,
      "Ġlise": 7809,
      "LÄ°": 7810,
      "Ġmesleki": 7811,
      "ĠÃ¼zeri": 7812,
      "ĠTedav": 7813,
      "ĠhazÄ±rlanmÄ±ÅŁ": 7814,
      "ĠÃ§alÄ±ÅŁtÄ±ÄŁÄ±": 7815,
      "Ġkodu": 7816,
      "Ġkayd": 7817,
      "Ġtopluluk": 7818,
      "amÄ±zÄ±": 7819,
      "ĠuyuÅŁturucu": 7820,
      "Ġtedarik": 7821,
      "ĠdeÄŁiÅŁiklikler": 7822,
      "Ġilah": 7823,
      "Ġdert": 7824,
      "Ġesnek": 7825,
      "ĠGiriÅŁ": 7826,
      "Ġdirek": 7827,
      "MS": 7828,
      "ĠyÄ±llarÄ±nda": 7829,
      "Ġetkiler": 7830,
      "Ġsamimi": 7831,
      "lit": 7832,
      "ĠBize": 7833,
      "ĠyaÅŁamÄ±nÄ±": 7834,
      "Ä±ndÄ±k": 7835,
      "ĠcanÄ±m": 7836,
      "ĠTrabzonspor": 7837,
      "ĠTep": 7838,
      "emiyorum": 7839,
      "ĠDek": 7840,
      "ĠToplant": 7841,
      "Ġvadeli": 7842,
      "ĠDet": 7843,
      "Ġtaahh": 7844,
      "linin": 7845,
      "Ġfit": 7846,
      "Ġyuv": 7847,
      "ĠNormal": 7848,
      "Ġithalat": 7849,
      "Ġirti": 7850,
      "ĠAV": 7851,
      "uydu": 7852,
      "asÄ±dÄ±r": 7853,
      "Ġuzan": 7854,
      "tek": 7855,
      "otiv": 7856,
      "Ġrezervasyon": 7857,
      "nn": 7858,
      "Ġskor": 7859,
      "Ġsakat": 7860,
      "lamalarÄ±": 7861,
      "ĠhÄ±zlandÄ±r": 7862,
      "Ġistedik": 7863,
      "Ġseyr": 7864,
      "Ġinf": 7865,
      "ĠkÃ¼l": 7866,
      "Ġkamyon": 7867,
      "ĠSim": 7868,
      "ĠJandarma": 7869,
      "Ã§u": 7870,
      "Ġoynanan": 7871,
      "ĠsektÃ¶rÃ¼nÃ¼n": 7872,
      "ĠboÅŁan": 7873,
      "Ġzamana": 7874,
      "ĠAllahtan": 7875,
      "ĠKÄ±y": 7876,
      "ĠTÃ¼rkiyeden": 7877,
      "ĠÄ°nan": 7878,
      "Ġkalma": 7879,
      "tre": 7880,
      "Ġkral": 7881,
      "salar": 7882,
      "ĠortamÄ±": 7883,
      "Ġhormon": 7884,
      "Ġtutmak": 7885,
      "sed": 7886,
      "ĠsÄ±radan": 7887,
      "ĠgÃ¶nÃ¼llÃ¼": 7888,
      "Ġmisiniz": 7889,
      "Ġsitemiz": 7890,
      "sav": 7891,
      "Ġmedyada": 7892,
      "Ġkaydeden": 7893,
      "ekom": 7894,
      "ĠZiyaret": 7895,
      "enlerin": 7896,
      "ĠEdir": 7897,
      "Ġmanzar": 7898,
      "Ġihmal": 7899,
      "Ġbizden": 7900,
      "Ġsul": 7901,
      "ĠGeliÅŁ": 7902,
      "Ġboyun": 7903,
      "ĠÅŁeyden": 7904,
      "ĠSokak": 7905,
      "ĠRenk": 7906,
      "ĠAday": 7907,
      "ĠÅŁahit": 7908,
      "ĠalÄ±mÄ±": 7909,
      "Ġidare": 7910,
      "ĠolaylarÄ±": 7911,
      "ĠTanrÄ±": 7912,
      "ĠGiz": 7913,
      "Ġakla": 7914,
      "Ġkoz": 7915,
      "ĠolmanÄ±z": 7916,
      "Ġizni": 7917,
      "ĠGez": 7918,
      "Ġolurken": 7919,
      "ĠDef": 7920,
      "Ġlaborat": 7921,
      "ĠhikÃ¢y": 7922,
      "Ä±sÄ±n": 7923,
      "Ã¼tÃ¼": 7924,
      "Ġyoluna": 7925,
      "ĠsÃ¶ylemiÅŁ": 7926,
      "ĠKardeÅŁ": 7927,
      "ĠÅŁaÅŁ": 7928,
      "ĠtavÄ±r": 7929,
      "ĠAfrika": 7930,
      "Ġtatmin": 7931,
      "Ã§asÄ±": 7932,
      "ĠyÃ¼klen": 7933,
      "Ġset": 7934,
      "ĠHa": 7935,
      "ilirken": 7936,
      "ĠUkray": 7937,
      "ĠÃ¶zgÃ¼n": 7938,
      "ĠsÄ±caklÄ±k": 7939,
      "ĠMis": 7940,
      "ĠÃľret": 7941,
      "ĠayrÄ±m": 7942,
      "Ġprofil": 7943,
      "Ġtaksit": 7944,
      "ĠulaÅŁtÄ±": 7945,
      "Ġtohum": 7946,
      "Ġsahipleri": 7947,
      "ĠHastalÄ±k": 7948,
      "Ġimzal": 7949,
      "dÃ¼ncÃ¼": 7950,
      "ĠbÃ¶lgesi": 7951,
      "yayÄ±": 7952,
      "ĠhaftalÄ±k": 7953,
      "amamÄ±ÅŁ": 7954,
      "ĠgeÃ§mek": 7955,
      "ĠolmasÄ±n": 7956,
      "ĠOda": 7957,
      "Ġprojeleri": 7958,
      "ĠoÄŁlum": 7959,
      "ĠVen": 7960,
      "ĠKayÄ±t": 7961,
      "dirim": 7962,
      "Ġetmem": 7963,
      "Ġmaddeler": 7964,
      "itasyon": 7965,
      "Ġdinlen": 7966,
      "ĠiÃ§erir": 7967,
      "Ġpir": 7968,
      "ĠGeliÅŁtir": 7969,
      "ĠvatandaÅŁlarÄ±n": 7970,
      "ĠFederasyonu": 7971,
      "ĠKurtul": 7972,
      "ĠbaÅŁÄ±ndan": 7973,
      "ĠSeb": 7974,
      "Ġimalat": 7975,
      "ĠsilahlÄ±": 7976,
      "yadaki": 7977,
      "Ġsahil": 7978,
      "tÄ±ÄŁÄ±nda": 7979,
      "dava": 7980,
      "ĠcumhurbaÅŁ": 7981,
      "ayolu": 7982,
      "ĠTanr": 7983,
      "ĠkorunmasÄ±": 7984,
      "ĠgerÃ§ekleÅŁtirildi": 7985,
      "ĠTS": 7986,
      "ubu": 7987,
      "amÄ±zÄ±n": 7988,
      "ĠÄ°lgili": 7989,
      "ĠDok": 7990,
      "ĠNitekim": 7991,
      "hiÅŁ": 7992,
      "Ġdaire": 7993,
      "ĠBi": 7994,
      "ĠdanÄ±ÅŁman": 7995,
      "Ġtarifi": 7996,
      "ĠKnÄ±n": 7997,
      "Ġalet": 7998,
      "ĠMarmara": 7999,
      "Ġniye": 8000,
      "ikal": 8001,
      "Ġsub": 8002,
      "ĠmÃ¼sa": 8003,
      "eciler": 8004,
      "Ã§Ä±lar": 8005,
      "ĠBakanlÄ±k": 8006,
      "Ġayet": 8007,
      "opark": 8008,
      "ĠbakÄ±mÄ±": 8009,
      "ĠgÃ¶rme": 8010,
      "Ġmaddesinin": 8011,
      "ĠdÃ¼nyayÄ±": 8012,
      "ĠServis": 8013,
      "ĠÃ§Ä±karmak": 8014,
      "Ġkaybed": 8015,
      "Ġziyade": 8016,
      "LAN": 8017,
      "ĠÃĸZ": 8018,
      "ĠDenizli": 8019,
      "ĠAvrupanÄ±n": 8020,
      "ĠÄ°talyan": 8021,
      "ĠalmayÄ±": 8022,
      "ĠsÃ¼nnet": 8023,
      "ĠDoÄŁum": 8024,
      "ĠGÃ¼nlÃ¼k": 8025,
      "Ã¼mÃ¼ze": 8026,
      "ĠCevap": 8027,
      "ĠdevamÄ±": 8028,
      "ĠbulaÅŁ": 8029,
      "ĠyazarÄ±": 8030,
      "ĠÃ§an": 8031,
      "ĠBakanlÄ±ÄŁÄ±nÄ±n": 8032,
      "Ġsisteme": 8033,
      "ĠCep": 8034,
      "Ġsenar": 8035,
      "ĠdolarlÄ±k": 8036,
      "Ġkonse": 8037,
      "ĠeÅŁyalar": 8038,
      "ĠKorum": 8039,
      "Ġizlemek": 8040,
      "Ġgereklidir": 8041,
      "Ġtalebi": 8042,
      "Ġmedeniyet": 8043,
      "ĠvurguladÄ±": 8044,
      "Ġneticesinde": 8045,
      "US": 8046,
      "ĠRoma": 8047,
      "iya": 8048,
      "ĠSektÃ¶r": 8049,
      "Ġmatematik": 8050,
      "Ġsizinle": 8051,
      "yasÄ±": 8052,
      "Ġgirmek": 8053,
      "ĠihraÃ§": 8054,
      "Ġsus": 8055,
      "ĠsanÄ±k": 8056,
      "ĠMuÄŁ": 8057,
      "tÃ¼k": 8058,
      "ĠÄ±sÄ±n": 8059,
      "lÄ±lÄ±ÄŁ": 8060,
      "Ġdevleti": 8061,
      "ĠÃ¶tÃ¼rÃ¼": 8062,
      "ĠGol": 8063,
      "Ġdoz": 8064,
      "ĠÃ¶lÃ§Ã¼m": 8065,
      "Ġgalibiyet": 8066,
      "ĠgÃ¶rebilirsiniz": 8067,
      "Ġeseri": 8068,
      "Ġbilgilerin": 8069,
      "Ġbardak": 8070,
      "mat": 8071,
      "amda": 8072,
      "ĠkoÅŁullarÄ±": 8073,
      "Ġtrend": 8074,
      "Ġilerleyen": 8075,
      "Ġlit": 8076,
      "ĠÃ¶ÄŁrenme": 8077,
      "aklÄ±": 8078,
      "ĠTBMM": 8079,
      "HA": 8080,
      "Ã¢z": 8081,
      "Ġendek": 8082,
      "ĠÃĩarÅŁamba": 8083,
      "ĠsatÄ±r": 8084,
      "ĠolmasÄ±dÄ±r": 8085,
      "ĠtakÄ±mÄ±n": 8086,
      "Ġmaz": 8087,
      "ĠBes": 8088,
      "inizle": 8089,
      "ĠmekÃ¢n": 8090,
      "Ġplanda": 8091,
      "elisiniz": 8092,
      "ĠHacÄ±": 8093,
      "ĠoluÅŁturur": 8094,
      "Ä±lÄ±ÄŁÄ±nÄ±": 8095,
      "ĠolaÄŁanÃ¼stÃ¼": 8096,
      "ĠaraÃ§lar": 8097,
      "ĠÃ¶zÃ¼r": 8098,
      "portaj": 8099,
      "Ġisimler": 8100,
      "ĠgeÃ§erek": 8101,
      "Ã§ileri": 8102,
      "ĠtÃ¼y": 8103,
      "beri": 8104,
      "IC": 8105,
      "ĠsanatÃ§": 8106,
      "Ġraporu": 8107,
      "ĠettiÄŁiniz": 8108,
      "ĠettiÄŁimiz": 8109,
      "no": 8110,
      "ĠYavuz": 8111,
      "ĠhÃ¢l": 8112,
      "ĠSÃ¼n": 8113,
      "artman": 8114,
      "ĠSelÃ§uk": 8115,
      "lip": 8116,
      "ĠtÄ±kan": 8117,
      "ĠaldÄ±ÄŁÄ±nÄ±": 8118,
      "ĠAteÅŁ": 8119,
      "ĠÄ°stik": 8120,
      "akar": 8121,
      "Ġrandev": 8122,
      "ĠKalkÄ±nma": 8123,
      "Ġbiber": 8124,
      "ĠKÃ¶pr": 8125,
      "ĠpahalÄ±": 8126,
      "ĠHedef": 8127,
      "Ġbozukluk": 8128,
      "ĠneÅŁ": 8129,
      "ĠkaynaklÄ±": 8130,
      "Ġsorunsuz": 8131,
      "ĠKazan": 8132,
      "Ġkel": 8133,
      "ĠhesabÄ±": 8134,
      "ĠUr": 8135,
      "ĠÃ§evresinde": 8136,
      "Ġevvel": 8137,
      "Ġzorlu": 8138,
      "ĠYerel": 8139,
      "sÃ¼n": 8140,
      "ĠfÄ±": 8141,
      "ĠdaÄŁÄ±tÄ±m": 8142,
      "lÃ¼ÄŁÃ¼ne": 8143,
      "Ġseyret": 8144,
      "ĠSenin": 8145,
      "lub": 8146,
      "ph": 8147,
      "ĠGr": 8148,
      "Ġsa": 8149,
      "ĠKÃ¼rd": 8150,
      "ĠUnut": 8151,
      "dinde": 8152,
      "Ġpis": 8153,
      "ĠFenerbahÃ§": 8154,
      "Ġstratejik": 8155,
      "Ġhamur": 8156,
      "ĠBelediyesinin": 8157,
      "ĠgÃ¶v": 8158,
      "ĠSelam": 8159,
      "Ġvol": 8160,
      "Ġorijinal": 8161,
      "ĠOrtadoÄŁu": 8162,
      "Ġdenen": 8163,
      "ĠkÄ±saca": 8164,
      "Ġasgari": 8165,
      "Ġuydur": 8166,
      "ĠÃ§Ã¶zÃ¼mler": 8167,
      "ĠolacaÄŁÄ±z": 8168,
      "ĠhaksÄ±z": 8169,
      "ĠÃ§aÄŁdaÅŁ": 8170,
      "ĠÃľniversite": 8171,
      "Ġreferans": 8172,
      "ĠrÄ±z": 8173,
      "ĠgÃ¶zler": 8174,
      "ĠMuhar": 8175,
      "ĠdeÄŁiÅŁken": 8176,
      "ena": 8177,
      "ĠLisesi": 8178,
      "malÄ±yÄ±z": 8179,
      "engiz": 8180,
      "ĠiÅŁlen": 8181,
      "ĠÃ¼yeler": 8182,
      "ĠgÃ¶reve": 8183,
      "ĠyetiÅŁkin": 8184,
      "kÃ¢r": 8185,
      "ĠzorundadÄ±r": 8186,
      "ino": 8187,
      "ĠPerÅŁembe": 8188,
      "ĠÃ§Ã¶zÃ¼mÃ¼": 8189,
      "ĠyapÄ±larak": 8190,
      "Ġdoku": 8191,
      "Ġsunucu": 8192,
      "ĠbatÄ±": 8193,
      "Ġnoktaya": 8194,
      "ĠoluÅŁturduÄŁu": 8195,
      "ideki": 8196,
      "ĠForum": 8197,
      "ĠyÄ±ldan": 8198,
      "ĠÃ§Ä±kardÄ±": 8199,
      "Ġpiyasa": 8200,
      "ĠfirmalarÄ±": 8201,
      "ĠSayfa": 8202,
      "Ã¢hil": 8203,
      "ĠvasÄ±t": 8204,
      "ĠetkileÅŁ": 8205,
      "Ã¼lerek": 8206,
      "ĠGÃ¼ncel": 8207,
      "ĠÃ§il": 8208,
      "Ġbag": 8209,
      "alarca": 8210,
      "ĠmeÅŁhur": 8211,
      "ĠGeb": 8212,
      "ĠQu": 8213,
      "Ä±lmaya": 8214,
      "ĠyararlÄ±": 8215,
      "Ġkapsamda": 8216,
      "ifi": 8217,
      "ĠolanlarÄ±n": 8218,
      "ĠmÃ¼ÅŁ": 8219,
      "ĠsÄ±klÄ±kla": 8220,
      "has": 8221,
      "ĠYargÄ±": 8222,
      "stil": 8223,
      "ĠkarÄ±n": 8224,
      "ĠGB": 8225,
      "ji": 8226,
      "ĠAY": 8227,
      "nu": 8228,
      "use": 8229,
      "ĠIÅŀÄ°D": 8230,
      "ĠgirmiÅŁ": 8231,
      "Ġkonaklama": 8232,
      "ĠBenz": 8233,
      "ÅŁet": 8234,
      "ĠHotel": 8235,
      "onsor": 8236,
      "ĠyapÄ±landÄ±r": 8237,
      "Ġkanat": 8238,
      "Ġlen": 8239,
      "Ġturnuv": 8240,
      "Ġhemde": 8241,
      "ĠolmasÄ±ndan": 8242,
      "Ġsaatte": 8243,
      "ĠaÅŁÄ±k": 8244,
      "likten": 8245,
      "alÄ±lar": 8246,
      "tiÄŁinde": 8247,
      "ĠÃ¶nlemek": 8248,
      "ĠgÃ¶rÃ¼lÃ¼yor": 8249,
      "ĠJo": 8250,
      "ĠDis": 8251,
      "ĠHollanda": 8252,
      "Ġhamil": 8253,
      "ĠGece": 8254,
      "ĠKonu": 8255,
      "ĠkullanÄ±cÄ±larÄ±n": 8256,
      "Ġmetr": 8257,
      "amanÄ±z": 8258,
      "Ġnefret": 8259,
      "Ġhakaret": 8260,
      "ĠmÃ¼st": 8261,
      "ĠMaliye": 8262,
      "ame": 8263,
      "lex": 8264,
      "ĠÃ§Ä±kmak": 8265,
      "Ġnereye": 8266,
      "Ġhayli": 8267,
      "ĠgidiÅŁ": 8268,
      "ĠBalÄ±kes": 8269,
      "Ġkendinize": 8270,
      "Ġzincir": 8271,
      "ĠsorularÄ±": 8272,
      "ĠPli": 8273,
      "Ġmaksimum": 8274,
      "Ġyazan": 8275,
      "Ġibaret": 8276,
      "Ġdesen": 8277,
      "uki": 8278,
      "ĠHe": 8279,
      "ĠSamsung": 8280,
      "mekle": 8281,
      "EY": 8282,
      "Ġoyuncak": 8283,
      "ĠEÄŁitimi": 8284,
      "ĠsatÄ±ÅŁÄ±": 8285,
      "ĠortamÄ±nda": 8286,
      "Ġemr": 8287,
      "Ġizleyen": 8288,
      "Ġistemez": 8289,
      "ĠinsanlÄ±k": 8290,
      "ĠkadÄ±nÄ±": 8291,
      "Ġmotiv": 8292,
      "Ġkonuyla": 8293,
      "ĠKesin": 8294,
      "Ġhocam": 8295,
      "Ġkullanmaya": 8296,
      "Ġonlarca": 8297,
      "ĠuyandÄ±r": 8298,
      "urk": 8299,
      "ĠmesleÄŁ": 8300,
      "Ġambalaj": 8301,
      "Ä±lÄ±rken": 8302,
      "Ġminik": 8303,
      "Ä±sÄ±ndaki": 8304,
      "ĠKKT": 8305,
      "ĠortasÄ±nda": 8306,
      "Ġduran": 8307,
      "manÄ±za": 8308,
      "Ġverileri": 8309,
      "ĠboÅŁluk": 8310,
      "ĠCanlÄ±": 8311,
      "ĠtoplantÄ±sÄ±": 8312,
      "ĠSk": 8313,
      "ĠEmir": 8314,
      "odu": 8315,
      "ĠinanÄ±yorum": 8316,
      "Ġdurumlar": 8317,
      "Ġborc": 8318,
      "ĠaÃ§Ä±klamalarda": 8319,
      "ĠÃĸnemli": 8320,
      "ĠKum": 8321,
      "Ġmevzuat": 8322,
      "Ġvitamini": 8323,
      "ĠOku": 8324,
      "ĠvarlÄ±ÄŁÄ±": 8325,
      "ebilirler": 8326,
      "Ġistenilen": 8327,
      "Ġgetirilen": 8328,
      "Ġkritik": 8329,
      "Ġkimseye": 8330,
      "ĠyapacaÄŁÄ±": 8331,
      "ĠsÃ¶k": 8332,
      "ĠMahallesinde": 8333,
      "ĠKadÄ±kÃ¶y": 8334,
      "Ġorganik": 8335,
      "Ġoynayan": 8336,
      "ĠbÄ±rakÄ±n": 8337,
      "ĠUÃ§": 8338,
      "ĠAS": 8339,
      "ĠBalkan": 8340,
      "zem": 8341,
      "Ġraf": 8342,
      "ĠarayÄ±ÅŁ": 8343,
      "ĠiÅŁten": 8344,
      "ĠÅŀark": 8345,
      "LÃľ": 8346,
      "adiÅŁ": 8347,
      "ĠaÃ§ma": 8348,
      "estivali": 8349,
      "ĠStar": 8350,
      "ĠOnlarÄ±n": 8351,
      "Ġmemnuniyet": 8352,
      "Ġard": 8353,
      "Ġdeneyimi": 8354,
      "luÄŁunda": 8355,
      "mm": 8356,
      "ĠkiralÄ±k": 8357,
      "ĠÃ§Ä±l": 8358,
      "Ġberaberinde": 8359,
      "ĠaÃ§Ä±klandÄ±": 8360,
      "ĠgÃ¼v": 8361,
      "Ġtoplamda": 8362,
      "ĠiÅŁletmeler": 8363,
      "Ġgiderken": 8364,
      "Ġtazminat": 8365,
      "ĠfazlasÄ±": 8366,
      "Ġfikr": 8367,
      "Ġkampanya": 8368,
      "ĠbaÅŁlamak": 8369,
      "ĠdÃ¼zenlendi": 8370,
      "onya": 8371,
      "ledim": 8372,
      "ĠihtiyaÃ§larÄ±nÄ±": 8373,
      "Ġbununla": 8374,
      "Ġmateryal": 8375,
      "ĠgÃ¶sterilen": 8376,
      "Ġzem": 8377,
      "ĠBoÅŁ": 8378,
      "Ġverin": 8379,
      "name": 8380,
      "ĠPolitik": 8381,
      "ĠtamamladÄ±": 8382,
      "ĠsÃ¶zler": 8383,
      "Ġnik": 8384,
      "Ġediyorlar": 8385,
      "ĠÃ§alÄ±ÅŁmalarÄ±n": 8386,
      "ehenn": 8387,
      "ĠGÃ¼mÃ¼ÅŁ": 8388,
      "pe": 8389,
      "Ġlam": 8390,
      "ĠoluÅŁturulan": 8391,
      "ĠDan": 8392,
      "Ġbizde": 8393,
      "ĠanlatÄ±m": 8394,
      "Ġantik": 8395,
      "ĠyansÄ±m": 8396,
      "deÄŁ": 8397,
      "Ġdilim": 8398,
      "ux": 8399,
      "ĠkullanÄ±cÄ±lar": 8400,
      "ĠÅŁok": 8401,
      "ĠResul": 8402,
      "Ġyi": 8403,
      "ĠyaratÄ±cÄ±": 8404,
      "ĠuygulanÄ±r": 8405,
      "Ã¼lasyon": 8406,
      "eyince": 8407,
      "indan": 8408,
      "Ġgittim": 8409,
      "OM": 8410,
      "Ġrejim": 8411,
      "ĠkÃ¶prÃ¼": 8412,
      "irt": 8413,
      "Ġmuc": 8414,
      "Ġfot": 8415,
      "Ġpilot": 8416,
      "ĠSÄ±k": 8417,
      "Ġvermeden": 8418,
      "Ġgirecek": 8419,
      "Ġhakem": 8420,
      "ĠmÃ¼zak": 8421,
      "ĠSelim": 8422,
      "Ġsemt": 8423,
      "Ġbekliyorum": 8424,
      "lilerin": 8425,
      "ĠlayÄ±k": 8426,
      "Ġgirip": 8427,
      "azz": 8428,
      "Ä±ÄŁÄ±na": 8429,
      "gÃ¼l": 8430,
      "ĠiÄŁ": 8431,
      "ĠgerÃ§eÄŁi": 8432,
      "ĠyaptÄ±ÄŁÄ±m": 8433,
      "Ä±ÄŁÄ±nÄ±n": 8434,
      "ĠbÄ±Ã§ak": 8435,
      "tel": 8436,
      "Ġsergilen": 8437,
      "ĠgÃ¶rÃ¼nen": 8438,
      "bo": 8439,
      "ĠBos": 8440,
      "Ġistifa": 8441,
      "Ġverip": 8442,
      "ĠGala": 8443,
      "ĠarkadaÅŁlarÄ±": 8444,
      "mediÄŁini": 8445,
      "tihar": 8446,
      "ĠiÅŁit": 8447,
      "ĠgeÃ§tik": 8448,
      "ĠBizler": 8449,
      "Ġeur": 8450,
      "ĠdÃ¶ner": 8451,
      "ĠÄ°nÅŁallah": 8452,
      "Ġbirinde": 8453,
      "ĠdÃ¶ÅŁ": 8454,
      "lÄ±ÄŁÄ±yla": 8455,
      "ĠBayramÄ±": 8456,
      "acaat": 8457,
      "Ġbayr": 8458,
      "ĠyarattÄ±ÄŁÄ±": 8459,
      "lidir": 8460,
      "ĠdÃ¼zel": 8461,
      "Ġsag": 8462,
      "ĠcevabÄ±": 8463,
      "ĠÃĩocuÄŁ": 8464,
      "Ġtitiz": 8465,
      "ĠÃĩam": 8466,
      "ĠreÃ§": 8467,
      "UT": 8468,
      "uel": 8469,
      "ĠyÃ¼rÃ¼m": 8470,
      "adas": 8471,
      "Ġsizde": 8472,
      "Ġolursunuz": 8473,
      "ĠkarmaÅŁÄ±k": 8474,
      "ĠÄ°Ã§iÅŁleri": 8475,
      "Ġuzay": 8476,
      "ĠbebeÄŁ": 8477,
      "ĠCin": 8478,
      "ĠÅŁirketleri": 8479,
      "ĠInstagram": 8480,
      "ĠitibarÄ±yla": 8481,
      "Ã¼ÄŁÃ¼n": 8482,
      "ĠsÃ¼rdÃ¼rÃ¼lebilir": 8483,
      "ĠÃ¼reten": 8484,
      "Ġreferandum": 8485,
      "Ġteknolojisi": 8486,
      "ĠKeÅŁ": 8487,
      "Ġplaj": 8488,
      "ĠaltyapÄ±": 8489,
      "brek": 8490,
      "cusu": 8491,
      "ĠduyduÄŁu": 8492,
      "ĠEkonomik": 8493,
      "Ġmilyonlarca": 8494,
      "Ġyaban": 8495,
      "Ġrot": 8496,
      "ĠValisi": 8497,
      "ĠÃľniversitesinde": 8498,
      "kent": 8499,
      "Ġmusunuz": 8500,
      "Ġikna": 8501,
      "elif": 8502,
      "ĠseÃ§ilen": 8503,
      "Ġdenize": 8504,
      "Ã¼sÃ¼nde": 8505,
      "ĠyapÄ±yorum": 8506,
      "Ġiktid": 8507,
      "Ġkaynaklanan": 8508,
      "Ã§ek": 8509,
      "ĠHerhangi": 8510,
      "ĠboÄŁaz": 8511,
      "ĠKD": 8512,
      "Ġonlardan": 8513,
      "ĠaÃ§mak": 8514,
      "Ġisimleri": 8515,
      "lamada": 8516,
      "ekili": 8517,
      "ilmeye": 8518,
      "Ġkurulum": 8519,
      "ebir": 8520,
      "ĠÃĸztÃ¼rk": 8521,
      "ĠSc": 8522,
      "Ġtabl": 8523,
      "ĠYum": 8524,
      "ĠKaya": 8525,
      "ĠdoÄŁrusu": 8526,
      "Ġkoyu": 8527,
      "ĠKanal": 8528,
      "Ġgergin": 8529,
      "ĠyazmÄ±ÅŁ": 8530,
      "Ġkonulu": 8531,
      "ĠgenÃ§ler": 8532,
      "ĠUygulam": 8533,
      "ĠÃľretim": 8534,
      "Ġbayrak": 8535,
      "ĠkomÅŁu": 8536,
      "ĠbaÅŁarÄ±lar": 8537,
      "ĠkÃ¶t": 8538,
      "ĠGenellikle": 8539,
      "acaklar": 8540,
      "ĠsÃ¼rÃ¼c": 8541,
      "ĠistediÄŁim": 8542,
      "Ġolabiliyor": 8543,
      "antol": 8544,
      "ĠdiÄŁeri": 8545,
      "orit": 8546,
      "Ġlak": 8547,
      "Ġkavg": 8548,
      "ĠvirÃ¼s": 8549,
      "Ġfazlas": 8550,
      "ĠÅŁeref": 8551,
      "Ã¼nÃ¼r": 8552,
      "Ġsaniye": 8553,
      "Ġsandal": 8554,
      "ĠDaire": 8555,
      "Ġhareketi": 8556,
      "ĠzamanÄ±n": 8557,
      "Ġminim": 8558,
      "Ġbilgilerini": 8559,
      "ĠyapacaÄŁÄ±z": 8560,
      "Ġmilliyet": 8561,
      "larÄ±mÄ±zda": 8562,
      "ĠÃ§alÄ±ÅŁtÄ±": 8563,
      "ĠoÄŁl": 8564,
      "acÄ±n": 8565,
      "ĠyaÅŁÄ±nday": 8566,
      "ladÄ±ÄŁÄ±nÄ±": 8567,
      "ĠyaptÄ±ÄŁÄ±nÄ±z": 8568,
      "Ġatmosfer": 8569,
      "ĠTeÅŁkil": 8570,
      "ĠSakarya": 8571,
      "ĠKork": 8572,
      "ĠZiraat": 8573,
      "sanÄ±n": 8574,
      "ĠmarkasÄ±": 8575,
      "Ġbayanlar": 8576,
      "ĠSevgili": 8577,
      "ĠiÅŁleme": 8578,
      "ĠÃ§Ä±rp": 8579,
      "Ġtarihte": 8580,
      "ĠuzaklaÅŁtÄ±r": 8581,
      "ĠYÃ¶netmelik": 8582,
      "AÄŀ": 8583,
      "Ġzeytiny": 8584,
      "Ġdeplasman": 8585,
      "Ġprotesto": 8586,
      "pÄ±nar": 8587,
      "ĠBence": 8588,
      "Ġtarihten": 8589,
      "LARI": 8590,
      "Ġsomut": 8591,
      "layÄ±nÄ±z": 8592,
      "poz": 8593,
      "ĠSP": 8594,
      "Ġabon": 8595,
      "ĠSalih": 8596,
      "dukÃ§a": 8597,
      "ĠSalÄ±": 8598,
      "Ġlastik": 8599,
      "ĠBilin": 8600,
      "ĠJohn": 8601,
      "ĠOÄŁuz": 8602,
      "Ġikamet": 8603,
      "yeri": 8604,
      "ĠsÃ¶zlerine": 8605,
      "itÃ¶r": 8606,
      "ĠyapÄ±ldÄ±ÄŁÄ±nÄ±": 8607,
      "Ġlimon": 8608,
      "Ġajans": 8609,
      "olik": 8610,
      "ĠsÃ¼z": 8611,
      "aport": 8612,
      "ĠbuÄŁ": 8613,
      "ĠBeyin": 8614,
      "ĠÃ§ekil": 8615,
      "Ġrobot": 8616,
      "Ġduyurdu": 8617,
      "layabilirsiniz": 8618,
      "ĠtÄ±klayÄ±n": 8619,
      "ĠLigi": 8620,
      "ĠSup": 8621,
      "ÅŁek": 8622,
      "ĠAyr": 8623,
      "ĠBÃ¼yÃ¼kel": 8624,
      "ĠÃĩocuklar": 8625,
      "LERÄ°": 8626,
      "ĠÃľs": 8627,
      "ĠÅŁiddetli": 8628,
      "Ã¼lÃ¼k": 8629,
      "Ġhic": 8630,
      "amin": 8631,
      "ĠsektÃ¶rde": 8632,
      "ÅŁÄ±": 8633,
      "unum": 8634,
      "Ġpolitika": 8635,
      "ĠÃ§atÄ±": 8636,
      "ĠDavut": 8637,
      "ĠKomisyonu": 8638,
      "iret": 8639,
      "ĠPo": 8640,
      "ĠÅŁansÄ±": 8641,
      "ĠgerekÃ§esiyle": 8642,
      "kas": 8643,
      "iral": 8644,
      "ĠsÃ¼resince": 8645,
      "Ġduyul": 8646,
      "ĠModern": 8647,
      "ĠaÃ§Ä±klan": 8648,
      "ĠkaÄŁÄ±": 8649,
      "ĠgÃ¶nderilen": 8650,
      "Ġyuk": 8651,
      "ĠyazÄ±n": 8652,
      "Ġhissettir": 8653,
      "ĠÃ§oÄŁunlukla": 8654,
      "Ġdisk": 8655,
      "Ġyapay": 8656,
      "ĠtÄ±bbi": 8657,
      "ĠKoordin": 8658,
      "ĠMÃ¼f": 8659,
      "IÅŀ": 8660,
      "ĠtadÄ±nÄ±": 8661,
      "Ġsahte": 8662,
      "ĠolayÄ±n": 8663,
      "Ġgelmez": 8664,
      "ĠyÃ¼zÃ¼": 8665,
      "Ġonlarla": 8666,
      "ĠhastanÄ±n": 8667,
      "ĠtÃ¼p": 8668,
      "fendi": 8669,
      "ĠUzmanÄ±": 8670,
      "ĠAkÅŁam": 8671,
      "Ġtuvalet": 8672,
      "ĠTanÄ±": 8673,
      "incan": 8674,
      "ĠdÃ¼kkan": 8675,
      "lusu": 8676,
      "Ġgereksiz": 8677,
      "ĠdÃ¼nyasÄ±nda": 8678,
      "Ġsinyal": 8679,
      "Ġgebelik": 8680,
      "Ġtavuk": 8681,
      "ĠSohbet": 8682,
      "Ġiftar": 8683,
      "ĠfirmalarÄ±n": 8684,
      "Ġveriyoruz": 8685,
      "ĠvazgeÃ§ilmez": 8686,
      "ĠsayÄ±sÄ±nÄ±": 8687,
      "ĠdÃ¢hil": 8688,
      "ĠÅŀekil": 8689,
      "Ġinanc": 8690,
      "Ġsuya": 8691,
      "ĠTuz": 8692,
      "ilerinde": 8693,
      "ĠGit": 8694,
      "ĠAir": 8695,
      "ĠKiÅŁisel": 8696,
      "Ġyerinden": 8697,
      "ĠbÃ¼tÃ§e": 8698,
      "Ġzorlan": 8699,
      "Ġkurumlar": 8700,
      "Ġyir": 8701,
      "Ġch": 8702,
      "ĠTiyatro": 8703,
      "ĠHalil": 8704,
      "Ġetmekte": 8705,
      "ĠdÃ¼rÃ¼st": 8706,
      "Ġdahilinde": 8707,
      "Ġgezeg": 8708,
      "ĠToplantÄ±": 8709,
      "aseb": 8710,
      "ĠElaz": 8711,
      "emeyecek": 8712,
      "mesin": 8713,
      "Ġgetirerek": 8714,
      "ĠÄ°Åŀ": 8715,
      "Ġhastane": 8716,
      "ald": 8717,
      "Ġmalzemeler": 8718,
      "ĠTurg": 8719,
      "ranÄ±n": 8720,
      "ĠAsk": 8721,
      "Ä±nÄ±zdan": 8722,
      "Ġmuhafaza": 8723,
      "Ġtutuklu": 8724,
      "ĠaldÄ±ÄŁÄ±m": 8725,
      "ĠbakÄ±ldÄ±ÄŁÄ±nda": 8726,
      "Ġharic": 8727,
      "ĠMay": 8728,
      "Ġkesi": 8729,
      "Ġgo": 8730,
      "ĠsorunlarÄ±n": 8731,
      "Ġilham": 8732,
      "ĠaldÄ±klarÄ±": 8733,
      "ĠBolu": 8734,
      "Ġmaden": 8735,
      "ĠDost": 8736,
      "ĠkullanÄ±r": 8737,
      "ĠSÄ±cak": 8738,
      "ĠHad": 8739,
      "Ġdurumuna": 8740,
      "cuk": 8741,
      "ĠKoruma": 8742,
      "ĠPaÅŁ": 8743,
      "luÄŁunun": 8744,
      "ĠER": 8745,
      "Ġgarip": 8746,
      "ĠzamanlÄ±": 8747,
      "ĠgÃ¼nÃ¼mÃ¼ze": 8748,
      "Ġrivayet": 8749,
      "Ġmenf": 8750,
      "akal": 8751,
      "ĠBaba": 8752,
      "Ġilgilendir": 8753,
      "ich": 8754,
      "ĠdayanÄ±klÄ±": 8755,
      "ld": 8756,
      "Ġhastaneye": 8757,
      "Ġfikri": 8758,
      "elinin": 8759,
      "ĠdÃ¶nÃ¼m": 8760,
      "Ġalerj": 8761,
      "Ġpersoneli": 8762,
      "ĠHafta": 8763,
      "ĠsayÄ±l": 8764,
      "ĠcezalandÄ±r": 8765,
      "ĠGalaxy": 8766,
      "ĠFor": 8767,
      "ĠtartÄ±ÅŁma": 8768,
      "eleme": 8769,
      "Ġzik": 8770,
      "cin": 8771,
      "gur": 8772,
      "otosiklet": 8773,
      "dil": 8774,
      "ĠgÃ¼lÃ¼m": 8775,
      "ĠoranlarÄ±": 8776,
      "ĠSÄ±nÄ±r": 8777,
      "Ġmuhalefet": 8778,
      "Ġailenin": 8779,
      "ĠayrÄ±lan": 8780,
      "Ġvize": 8781,
      "ĠBrezil": 8782,
      "ĠaÄŁÄ±rlÄ±klÄ±": 8783,
      "Ġtac": 8784,
      "mes": 8785,
      "Ġbilmek": 8786,
      "ĠdÃ¼nyadaki": 8787,
      "ĠbaÅŁlÄ±ÄŁÄ±": 8788,
      "iliÄŁin": 8789,
      "Ġuzaktan": 8790,
      "culuk": 8791,
      "ĠKonferans": 8792,
      "KÄ°": 8793,
      "Ġtopar": 8794,
      "igÃ¼r": 8795,
      "ĠHindistan": 8796,
      "ĠDayan": 8797,
      "Ġtarafta": 8798,
      "Ġcasino": 8799,
      "ĠgeliÅŁimi": 8800,
      "ĠnÃ¼kleer": 8801,
      "Ä±ysa": 8802,
      "ĠZar": 8803,
      "ularak": 8804,
      "ĠAnÄ±n": 8805,
      "ĠÃ¶ykÃ¼": 8806,
      "ĠBakÄ±m": 8807,
      "Ġhaberler": 8808,
      "Ġmask": 8809,
      "ĠAvustur": 8810,
      "uncu": 8811,
      "Ġbeton": 8812,
      "Ġispat": 8813,
      "desi": 8814,
      "ĠMahmut": 8815,
      "ĠDikkat": 8816,
      "Ġheyet": 8817,
      "ĠyazdÄ±": 8818,
      "ĠSuÃ§": 8819,
      "Ġtalimat": 8820,
      "edin": 8821,
      "ĠkarÄ±ÅŁÄ±k": 8822,
      "ĠNAT": 8823,
      "Ã¢lÃ¢": 8824,
      "ĠMÃ¼n": 8825,
      "ĠhafÄ±z": 8826,
      "ĠhastalÄ±klarÄ±": 8827,
      "Ġkimin": 8828,
      "isti": 8829,
      "unÃ§": 8830,
      "halde": 8831,
      "ĠatÄ±lan": 8832,
      "ĠarÄ±z": 8833,
      "ĠTev": 8834,
      "ĠgirdiÄŁi": 8835,
      "acasÄ±": 8836,
      "Ġhavalim": 8837,
      "ĠsayÄ±lÄ±r": 8838,
      "ĠUmar": 8839,
      "Ġsh": 8840,
      "ĠBon": 8841,
      "ĠÅŀeyh": 8842,
      "ĠTip": 8843,
      "ĠAslan": 8844,
      "laÅŁmasÄ±": 8845,
      "ebileceÄŁini": 8846,
      "ĠKonut": 8847,
      "Ġleh": 8848,
      "Ġkasab": 8849,
      "ĠmÃ¼thiÅŁ": 8850,
      "ĠvarmÄ±ÅŁ": 8851,
      "dilik": 8852,
      "ĠMÃ¼ÅŁteri": 8853,
      "Ġsade": 8854,
      "arda": 8855,
      "Ġelini": 8856,
      "Ġyaratan": 8857,
      "ĠDam": 8858,
      "utin": 8859,
      "Ġdizisi": 8860,
      "ĠTeÅŁekkÃ¼r": 8861,
      "Ġorganiz": 8862,
      "ĠKÄ±rmÄ±zÄ±": 8863,
      "set": 8864,
      "Ġvekil": 8865,
      "Ġkonusundaki": 8866,
      "ĠSavaÅŁÄ±": 8867,
      "Ġisyan": 8868,
      "ĠAkÄ±n": 8869,
      "ĠmesajÄ±": 8870,
      "Ġforma": 8871,
      "ĠaÃ§ar": 8872,
      "Ä±ÅŁlÄ±": 8873,
      "Ġgazete": 8874,
      "ĠSiyah": 8875,
      "Ġedilmelidir": 8876,
      "ĠHDP": 8877,
      "uluÄŁu": 8878,
      "ĠKadir": 8879,
      "ĠkitabÄ±n": 8880,
      "Ã¼ldÃ¼ÄŁÃ¼": 8881,
      "Ġtarihinin": 8882,
      "ĠÃ¶nder": 8883,
      "Ä±mlar": 8884,
      "Ġgerektiren": 8885,
      "Ġgecesi": 8886,
      "ĠisteÄŁi": 8887,
      "Ġstok": 8888,
      "Ġcinsiyet": 8889,
      "Ġyetki": 8890,
      "ĠattÄ±ÄŁÄ±": 8891,
      "aÄŁÄ±ndan": 8892,
      "ĠKonseyi": 8893,
      "ĠsaÄŁladÄ±ÄŁÄ±": 8894,
      "Ġokuyan": 8895,
      "tikleri": 8896,
      "ĠtaahhÃ¼t": 8897,
      "Ġherkesi": 8898,
      "ĠyeryÃ¼z": 8899,
      "ĠÃ§alÄ±ÅŁÄ±rken": 8900,
      "rah": 8901,
      "ĠHÄ±zlÄ±": 8902,
      "ĠhÄ±zÄ±": 8903,
      "ĠverdiÄŁini": 8904,
      "Ġfiz": 8905,
      "ĠSuriyede": 8906,
      "ĠMerh": 8907,
      "ĠDa": 8908,
      "ĠuÄŁur": 8909,
      "ĠPR": 8910,
      "Ã¼mde": 8911,
      "ĠÃ¼lkeleri": 8912,
      "ĠartmasÄ±": 8913,
      "ola": 8914,
      "ĠAlmanyada": 8915,
      "ĠTÃľRK": 8916,
      "ĠdediÄŁ": 8917,
      "Ġbitti": 8918,
      "ĠGeri": 8919,
      "Ġgor": 8920,
      "ĠdÃ¶ndÃ¼r": 8921,
      "ĠsÃ¶zcÃ¼k": 8922,
[...]
