#version: 0.2 - Trained by `huggingface/tokenizers`
Ä ±
a r
e r
Ã ¼
a n
i n
Å Ł
Ġ b
Ġ .
e n
Ä± n
i l
i r
Ġ k
Ä Ł
Ġ d
Ã §
Ġ s
Ġ ,
Ġ y
a l
a k
Ġ g
l ar
Ã ¶
e k
e l
Ġ o
Ġ v
a y
e t
Ġ t
Ġ i
a m
u n
d e
a s
d a
l er
Ġv e
Ġ h
o r
a t
e s
i y
i m
i z
Ġb ir
e m
i k
Ä± r
Ġ B
Ġ m
o n
Ġo l
a ÅŁ
u r
Ä± l
u l
e d
a d
Ã¼ n
Ġ Ã§
Ġ A
Ä± k
Ã¼ r
e y
Ä± m
a z
i s
a p
a h
Ġ K
Ä± ÅŁ
i ÅŁ
Ġd e
l e
Ġ Ã¶
u m
a b
Ġ S
Ġ il
i t
Ä± z
Ġ T
Ġ p
a ÄŁ
l i
Ġ M
Ġi Ã§
o l
Ä °
lar Ä±n
Ġ f
a c
Ġg Ã¶
Ġ al
Ã¼ z
d an
o k
s t
Ä± ÄŁ
l an
in i
in de
Ä±n da
Ġ D
Ġ ÅŁ
in e
Ġ n
Ġy ap
d i
e v
Ä± y
d u
Ġ ar
e c
Ġb u
Ġ Ä°
Ġ E
l a
d en
Ġ Ã
Ġ H
u y
lar Ä±
Ã¼ k
as Ä±
u z
Ġ Y
Ġ G
Ġd a
ĠiÃ§ in
il er
a Ã§
Ã¼ m
es i
el er
al ar
ler i
iy or
t i
in in
Ä±n Ä±
Ġil e
Ġ z
a f
l Ä±
m ak
Ġ r
ĠgÃ¶ r
e ÄŁ
Ġb aÅŁ
Ġ ed
Ġ et
Ã¼ l
u ÅŁ
Ġ P
l ik
Ä± s
Ä±n a
Ġ an
d ir
o ÄŁ
u t
Ġs on
e Ã§
t ir
Ġg el
Ġ c
il ir
Ġk ar
Ġv er
il m
Ġg er
Ġ O
e b
m a
ĠÃ¶ n
l am
e z
Ã¶ n
u k
Ã¼ y
d Ä±r
in iz
lar ak
u s
a v
Ã¼ ÅŁ
Ġol du
Ġ in
y a
l en
Ġk on
iy e
Ġo larak
e ÅŁ
t Ä±r
c e
Ġ ay
i b
Ä±ÄŁ Ä±
Ġ en
ay a
ĠB u
i p
t a
Ġ C
i ÄŁ
Ġb il
Ġt ar
Ä±y or
Ġi ÅŁ
ac ak
Ġde ÄŁ
Ä±n dan
Ġ F
r o
t e
m ek
ĠÃ§ ok
Ġol an
Ġol m
Ġb ul
Ġy er
ah a
l Ä±k
Ä±n Ä±n
l em
an Ä±
Ã¼r k
s e
Ġk ul
im iz
un u
ay Ä±
Ġk al
Ġk ad
an Ä±n
Ġo r
Ġi st
o p
e de
d Ä±
Ġy Ä±l
ib i
a da
Ġg Ã¼n
Ã¶ y
o m
Ġ aÃ§
Ġd aha
Ġ ad
t an
ĠÃ ĩ
en i
Ġkul lan
Ġ R
Ġh er
i h
Ġoldu ÄŁ
Ġk ur
m Ä±ÅŁ
Ġs Ã¼r
ÄŁ i
t Ä±
ĠT Ã¼rk
Ã¶ r
ler in
l u
al Ä±ÅŁ
Ġv ar
Ġ N
y on
Ġ uy
ec ek
ak i
ek i
ar k
Ġb el
Ġg ibi
Å ŀ
Ġg eÃ§
r a
Ġy aÅŁ
Ġk en
k i
ĠÃ§ Ä±k
ĠÃ§ alÄ±ÅŁ
ĠÃ ĸ
Ä±m Ä±z
am an
is i
m an
Ġy ar
c a
ey e
ed en
Ġ Ã¼z
il en
m e
am a
m asÄ±
i c
s an
ay an
Ġger ek
k en
Ġbul un
ab ilir
Ġyap Ä±l
ĠÃ¼z er
Ã¼ t
ÄŁ r
is t
e h
Ġ el
Ġo n
un da
as Ä±nda
e p
ĠÃ¶ z
Ġ Åŀ
il i
le ÅŁ
Ġs aÄŁ
m iÅŁ
ĠA n
Ġ V
al Ä±
c Ä±
in den
Ġkad ar
l et
ek t
o s
o y
l aÅŁ
Ġ ek
un un
er s
Ġ L
r u
m et
iy le
iy et
en in
Ä±n Ä±z
t er
Ã¶ z
Ġz aman
Ã ¢
Ġy az
l Ã¼
Ġy Ã¶n
s a
Ġd Ã¼ÅŁ
Ġs or
Ä±y la
Ġd ur
a de
t ur
d aki
Ġt ek
Ġkar ÅŁ
el i
g i
Ġ l
Ġh al
Ġy an
Ġde v
lar a
ar ak
ed i
Ġp ro
e f
i d
Ġb Ã¼y
Ã¶ l
Ġtar af
Ġ ak
Ġt op
Ã¼ c
Ġd oÄŁ
Ġo y
Ġson ra
ed ir
i f
larÄ±n Ä±
Ġb en
Ġk at
Ġ U
Ġs ah
ĠB aÅŁ
o c
Ġuy g
ĠÅŁ ek
Ġi se
Ġ Ã¼r
Ġs ay
Ġd Ã¶n
ac aÄŁ
o t
Ã¼ Ã§
i Ã§
er i
ĠB ir
Ġp ar
m as
an s
Ġk ap
Ġh ay
m alar
ĠA l
uy or
ler ini
t ad
er k
Ġbel ir
im i
ec eÄŁ
er ek
Ġk ay
es t
es inde
d eki
c ak
Ġs iz
ĠÃ ľ
Ġy ak
Ġ at
ĠÃ¶z el
Ġh ak
l ad
s iniz
Ġ ev
ĠÃ¶ ÄŁr
ĠA r
Ġve ya
Ġy eni
Ġger Ã§
Ġi y
Ġy ol
Ġken d
Ġd en
lar da
l ey
un a
Ġs ev
Ã¼ s
l at
Ġk iÅŁ
Ġal an
el ik
ĠbÃ¼y Ã¼k
Ġ uz
Ġy Ã¼z
Ġn e
ar t
d Ã¼r
ler e
ar Ä±
Ġd Ã¼z
s el
Ġg en
Ġt ak
k in
Ġg ir
eler i
il di
Ġor t
Ġb ak
l ay
ĠÃ¶n em
Ġil g
ed iÄŁ
r am
i v
Ġb iz
Ä±s Ä±
Ġh em
st er
tad Ä±r
ĠdeÄŁ il
k an
Ġil k
iÅŁ tir
Ä±l an
ey i
c i
Ġ es
Ġin san
Ġdur um
ĠaÃ§ Ä±k
Ġo k
m en
Ġs Ã¶y
Ġ a
t en
Ġb Ã¶l
u Ã§
ad an
o d
Ġtaraf Ä±ndan
Ġk i
Ġt em
Ġb aÄŁ
et im
as yon
Ġy Ã¼k
c u
ĠÅŁek il
ĠgÃ¶r e
Ġ as
Ġf ark
iz met
Ġ eÄŁ
Ġ I
d Ä±m
Ġh ar
Ġiy i
t Ä±k
ĠolduÄŁ u
m aya
Ġt am
ĠgÃ¶ ster
ĠgerÃ§ ek
eb ilir
a at
Ġol uÅŁ
s un
u h
larÄ±n Ä±n
ab il
Ġs eÃ§
ÄŁ u
Ġd er
aÄŁ Ä±
t r
iy at
Ġy ok
Ġtar ih
o z
Ġy et
Ġs an
Ä±l Ä±
Ä±ÄŁ Ä±nÄ±
m esi
et ir
ĠA y
r Ä±
as t
ĠÅŁekil de
ay Ä±n
Ġm il
Ġ ul
Ġi h
Ġal t
Ġ ama
Ġt Ã¼m
Ġy a
Ġs er
Ġuyg ul
d ur
Ġh izmet
Ã¼ st
Ġg etir
Ã¼z el
iler i
Ġ Ã¼l
ar et
Ġ Z
u p
b ir
ĠE r
ĠgÃ¶ z
o ÅŁ
Ġn eden
mak tadÄ±r
li ÄŁ
Ġd Ã¼n
Ġs Ä±r
iÄŁ er
Ġ aÅŁ
Ã¼ v
ĠÃ¶ÄŁr en
ĠÃ§ ek
Ġ am
es ine
Ġi z
larÄ±n a
r an
ĠÄ° n
ler de
Ä±m Ä±
ĠÅŁ ey
li ÄŁi
m am
Ġd ol
d Ä±ÄŁÄ±
n Ä±
ist em
ĠdÃ¼ÅŁ Ã¼n
Ġ az
Ġsah ip
Ġk az
Ġbil g
Ġdev am
leÅŁ tir
Ġt ut
Ġilg ili
ĠK ur
ĠiÃ§ er
ĠTÃ¼rk iye
Ã¼y or
it im
al Ä±k
oc uk
ĠÃ¶nem li
k anÄ±
ab er
iyor um
ĠolduÄŁ unu
t ar
r af
Ġs Ã¶z
ĠdeÄŁ er
Ġal Ä±n
Ä± p
r et
Ġt er
Ġf az
Ġet ti
ĠÄ° l
o j
Ġh az
alar Ä±
ler inin
es ini
ĠÃ¼l k
k a
t Ã¼r
Ġb in
Ġ aÄŁ
Ġd uy
em ek
Ġ ede
ĠdÃ¼z en
Ã¼v en
Ġg Ã¼zel
Ġbir lik
mek t
Ġt an
ler ine
Ã¶y le
len dir
Ġk ol
Ġk Ä±s
Ġhay at
em iz
d Ã¼
ĠiÃ§ inde
az Ä±
Ġi s
es in
Ã¼n de
Ġol ur
larÄ±n da
Ġi ki
Ġs un
r e
ĠÃ¶n ce
en iz
l Ä±ÄŁÄ±
Ġt aÅŁ
us u
d er
Ġb as
s iz
ĠÄ° st
lik le
Ġh iÃ§
Ġz or
Ġar asÄ±nda
il ik
h an
s Ä±z
Ġk or
ĠB el
erk ez
s ek
l Ä±ÄŁ
p or
di ÄŁ
o b
lar dan
ul u
l ah
Ġd Ä±ÅŁ
ar a
Ġs at
Ġs istem
ol oj
Ã¼n Ã¼
ĠÃĸ z
d ik
al an
Ġhaz Ä±r
Ġh at
mekt edir
Ġb ek
di ÄŁi
ĠÃ¶ l
i de
g Ã¼n
ĠG en
Ġd iÄŁer
iÅŁ im
Ġet k
Ġs it
Ã§ a
ey en
Ġkon uÅŁ
Ä±n daki
Ġt es
as Ä±l
b ul
Ġgel en
Ġar k
t Ä±ÄŁÄ±
Ġi m
ade ce
ĠdÃ¶n em
m eye
Ġbirlik te
ĠA k
t u
i g
t ik
Ġb oy
Ġoy un
Ġol mak
s i
Ġay nÄ±
ĠB ak
Ġk ab
ilm esi
Ġd iye
Ġhak k
o g
Ġfaz la
Ġkaz an
Ä± cÄ±
ĠÃ¶ r
Ġk im
Ġd ik
Ġol acak
Ġk Ã¶
eh ir
ĠK ar
Ġb ur
ru p
ĠÄ° ÅŁ
m uÅŁ
ĠE n
Ġed en
Ã§ e
m az
Ġ u
ĠÃ§ ocuk
g ram
Ġm es
Ã¼t Ã¼n
Ġd il
ĠÃ¼r Ã¼n
ĠyapÄ±l an
t Ã¼
as ar
lam a
iler in
os y
an a
Ġul aÅŁ
Ã¼ p
abilir siniz
Ġkon u
Ä±l Ä±k
an bul
es inin
lar la
or m
Ġi f
ler inde
Ġ eÅŁ
ĠÄ° s
as Ä±na
Ġg Ã¼ven
Ġy at
Ġkur ul
Ġs aat
Ġd est
u b
Ġ Ã¼st
Ġo t
k Ã¼
Ġk an
u v
ac Ä±
Ġken di
eÄŁ i
iy on
ĠiÅŁ lem
ĠÃ§Ä±k ar
c el
ti ÄŁ
Ġs en
iyor uz
b et
ĠB en
ĠgÃ¶r Ã¼n
ĠbÃ¶l g
ĠkarÅŁ Ä±
Ġfark lÄ±
Ġtam am
ĠgÃ¶r ev
Ġh af
ĠE ÄŁ
ĠÃ¶n c
k et
Ġil iÅŁ
lar Ä±mÄ±z
Ã¼n e
Ġ W
ĠO r
Ġs adece
Ġs Ä±k
is inde
d Ä±ÄŁ
ĠdoÄŁ ru
Ġt Ã¼r
l uk
d ar
Ġk it
Ġm ut
ĠÄ°st anbul
Ġan lam
Ġm od
Ġm al
k at
ada ÅŁ
iy as
d Ä±k
ĠdeÄŁ iÅŁ
Ġih t
lad Ä±
Ġ er
Ġk r
ek et
Ġtek n
ic i
ĠC um
Ġkar ar
h ur
iv ers
mÄ±ÅŁ tÄ±r
ĠA v
Ġda v
Ġt ab
Ġk am
Ġt el
aÅŁ tÄ±r
ĠP ro
Ġb un
as Ä±nÄ±
ivers it
Ã¼ dÃ¼r
Ġs al
ah at
Ġar t
Ġn asÄ±l
ler den
e g
Ġyar dÄ±m
Ä±z Ä±
Ġ J
ĠBaÅŁ kanÄ±
Ġbulun an
Ġ em
Ġm ad
an da
ĠK on
Ġkat Ä±l
Ġet m
Ġed er
Ġbelir t
Ġs av
Ġg it
Ġd edi
n et
ĠeÄŁ itim
Ã ®
ĠO n
ĠyÃ¼k sek
Ä±r ak
Ġolm asÄ±
Ġkullan Ä±l
ĠTÃ¼rk iy
Ġoldu k
l ak
ĠS on
Ġh av
us unda
Ġuyg un
Ġg id
r ak
ĠoluÅŁ tur
ĠyaÅŁ am
l ayan
Ġb it
Ġm ak
lÃ¼ ÄŁ
en d
Ġb ah
Ġg Ã¼Ã§
un uz
Ġt e
s am
Ġan lat
ĠÃ§ ev
m ad
ĠBel ed
Ġpro j
Ġdik kat
ok t
em e
Ġi k
l Ã¼k
ekt Ã¶r
ĠÃ§alÄ±ÅŁ malar
Ġark adaÅŁ
ec e
or t
l um
Ġy Ã¼r
Ġb Ä±rak
at Ä±
Ġs u
Ġbil e
lerin den
Ġbir i
ik a
il ecek
ĠsÃ¶y l
ĠgÃ¶ n
ler le
ĠÃ¼zer e
iniz i
Ġgen el
ĠH er
Ġh ast
larÄ±n dan
lan an
Ġkad Ä±n
ĠB il
g il
Ã¼m Ã¼z
ĠÃ¼zer ine
du ÄŁu
ĠB ur
eler in
ĠdÃ¼n y
ĠgerÃ§ek leÅŁtir
ĠkarÅŁ Ä±l
o st
en k
ĠM il
ĠGen el
ĠB iz
Ġp ay
Ġkay n
rÄ± ca
Ġdest ek
um uz
Ġpro gram
ĠG Ã¼n
ĠyÄ±l Ä±nda
m i
Ġed ilm
an t
ĠÃ¼r et
Ġsor un
osy al
Ã ľ
Ġk aÃ§
b ar
ir ket
Ġb Ã¼tÃ¼n
ed ik
or um
ĠÃ¼zer inde
Ġson r
ĠgeÃ§ ir
Ġh Ä±z
k Ä±
am az
ĠbaÅŁ ar
s al
ĠÃ§ Ã¶z
Ã¼n kÃ¼
Ġd in
Ä±r Ä±m
Ġm uh
ĠCum hur
Ġ Ã¼n
Ġuz un
Ġf iyat
Ġiht iy
ler imiz
in g
Ġkol ay
Ġb azÄ±
Ġk oy
Ġhar eket
t Ä±ÄŁ
g el
Ġm Ã¼
len en
Ġt eÅŁ
r ar
Ġ Ã¼y
ĠÃľ n
ak at
Ġoy n
on om
m ayÄ±
Ġd em
Ġs eb
Ġm erkez
ĠgÃ¶r Ã¼ÅŁ
Ġf ir
el im
Ġ un
Ġort aya
ĠbaÅŁ ka
o v
ab a
t Ä±m
Ġf ilm
Ġd iy
Ġuygul am
et i
iÄŁ i
s in
Ġh ep
Ġs Ä±
Ä±yor um
ĠyÃ¶n et
ĠE k
as Ä±nÄ±n
ĠAl lah
Ġ Ã¼Ã§
Ġt asar
en t
lam ak
lem e
Ġgel iÅŁ
mas Ä±nÄ±
Ġif ade
Ġc an
dÃ¼ ÄŁ
m ay
g an
ĠbÃ¶l Ã¼m
Ġkab ul
Ã§ ok
in deki
Ġhakk Ä±nda
r i
u cu
a j
Ġolm ad
an k
ĠD ev
ĠA B
Ġet mek
ekt edir
ĠA m
Ġm et
Ġk Ä±z
Ġben im
b aÅŁ
b ol
ediÄŁ i
ĠE v
Ġed iyor
Ġk es
Ġb ey
ĠAn cak
c ek
Ġk om
Ä±y a
ĠE s
ĠA t
ĠE l
r ik
d Ä±ndan
Ã¼Ã§ Ã¼k
Ġm ev
ĠÃ¶ÄŁren c
ĠA s
ĠD Ã¼n
s uz
Ġay r
Ã¼l tÃ¼r
is ini
Ġm i
Ġp lan
Ġf a
Ġy ay
Ġyak laÅŁ
ur t
ĠT ek
ĠM Ã¼dÃ¼r
m eler
Ã§ i
Ġr es
at ik
d um
s iyon
ef on
Ġb Ã¶yle
ĠÃ§ eÅŁ
ĠA d
Ġr ahat
Ġp ol
ĠBaÅŁ kan
ĠÅŁ u
Ġyak Ä±n
Ġy as
g Ä±
Ġh aber
acaÄŁ Ä±
du ÄŁ
Ġan cak
ĠsaÄŁ lÄ±k
Ġt al
is ine
un dan
Ä±yor uz
Ġh as
az ar
ĠyÃ¼z de
Ġpay laÅŁ
g e
Ä±ÅŁ tÄ±r
san Ä±z
n e
ĠkiÅŁ i
Ġz iy
ĠK an
Ã¼n Ã¼n
t em
Ġter c
g in
miÅŁ tir
oÄŁ raf
Ġh an
Ġbil in
Ġt ah
mas Ä±na
Ġy ayÄ±n
Ġyer ine
Ã¶ k
eceÄŁ i
u c
v ur
t al
ĠS an
Ġed ilen
Ġbil gi
Ġk av
ti f
m in
tr ol
ede f
m ez
Ġm ah
ĠiÃ§er isinde
ĠY ar
Ä±m a
da v
ĠBak an
l im
Ġh es
Ġdev let
v er
ab ilm
Ġkon usunda
ĠÅŁ irket
ol u
b er
acak tÄ±r
im di
Ġyap an
Ġk Ä±r
Ġvar dÄ±r
ĠgÃ¶n der
ĠY Ä±l
n in
g ul
Ġkur um
d im
Ġbir Ã§ok
m adan
ya da
Ġa il
Ġm er
Ä±n Ä±r
Ġmil yon
Ġson uÃ§
el e
Ġin an
Ä±l masÄ±
Ġar tÄ±k
ley en
ĠÃľn iversit
ĠÃ§eÅŁ it
y e
Ġar aÃ§
il iyor
ĠB Ã¼y
oÄŁ lu
Ġkal it
Ġar dÄ±ndan
Ġkap sam
E R
Ġt ur
Ġede b
ĠY Ã¶n
un ca
Ã¼k Ã¼m
Ġtop lum
v an
iler e
ĠaÃ§Ä±k lam
Ã¼ÅŁ ter
p er
Ġbu gÃ¼n
ĠAv rup
Ġyar at
s ik
ek k
ĠD oÄŁ
Ġm aÃ§
Ġtel efon
Ġterc ih
m anÄ±n
uÅŁ tur
ĠdeÄŁer lendir
ter net
ul uk
s il
Ġm an
ĠgÃ¶r Ã¼l
Ä±l Ä±r
Ġol abilir
n ek
iy i
Ġ Ã¼c
er j
Ġh is
Ġgel iÅŁtir
ĠÃĸz el
ĠH al
ĠA ma
k Ã¼n
Ġb er
ek li
r es
Ġy ine
oÄŁ un
m alÄ±
ĠÃĸ n
ĠÃ¼c ret
A R
Ġgel ir
Ġt at
ĠT ar
Ġh edef
Ġs es
a g
Ġol sun
Ġm ey
A N
al i
Ġy en
Ġt av
Ġ erk
Ġm Ã¼m
u st
d et
an an
Ġis im
al t
Ġziy aret
f a
Ä± t
u d
Ġi d
Ġv at
Ġk ez
Ġ li
al e
Ġi ti
Ġs ektÃ¶r
Ġd ah
ĠP ar
ĠBÃ¼y Ã¼k
is inin
ĠÃ¶ de
ĠY ap
sun uz
Ġyap tÄ±ÄŁÄ±
Ġad am
az et
Ġkon trol
ilm iÅŁ
Ġar aÅŁtÄ±r
Ġhem en
Ġgen Ã§
Ġmod el
Ġyap mak
ar asÄ±
Ä±ÅŁ Ä±
Ġok ul
ĠgeÃ§ en
ey in
ĠseÃ§ im
er li
Ã¼c ad
ĠbaÅŁ vur
l as
Ġv ur
Ġy aÄŁ
d oÄŁ
Ġm em
Ġb unu
ay et
Ġt r
Ã¼ b
Ġzaman da
Ġs osyal
Ġol ay
ĠhiÃ§ bir
Ġtop lan
Ġkayn ak
Ġek onom
Ġb ar
iz e
is tan
ad Ä±
Ġher k
m em
g u
Ġben z
Ġm as
ĠB unun
Ġy anÄ±
Ġf Ä±r
du k
Ġk Ã¼Ã§Ã¼k
Ġm Ä±
Ġk il
Ġol up
Ġiti bar
Ġp ek
ĠbaÄŁ lÄ±
Ġalt Ä±nda
Ġd iz
ĠT op
ed im
abil ecek
Ġz ar
Ä±l dÄ±
kin ci
Ġo d
Ġolduk Ã§a
Ġin cel
Ġsiz e
ab Ä±
Ġ av
al iyet
alar Ä±n
ĠAy rÄ±ca
lan dÄ±r
t im
Ä±l mÄ±ÅŁ
ĠgÃ¼n Ã¼
Ġkit ap
Ġon un
o h
Ġhal k
Ġr enk
am ak
Ã§ Ä±
ĠdÃ¶n Ã¼ÅŁ
d Ä±ÄŁÄ±nÄ±
ti ÄŁi
Ġ uÃ§
ot oÄŁraf
ebilir siniz
Ġ ac
ĠsÃ¼r e
Ġgerek en
Ġc ev
ĠÃ§alÄ±ÅŁ an
im de
Ġs Ä±nÄ±r
acaÄŁ Ä±nÄ±
ĠkÄ±s a
ĠmÃ¼m kÃ¼n
ĠD er
ĠAn k
Ġs ab
lem ek
m ir
anda ÅŁ
ĠM erkez
Ġ w
Ġs iyas
ĠTÃ¼rkiy enin
Ġbir az
imiz in
us lar
Ġm Ã¼z
Ġa it
ĠD r
ĠH ay
ĠY eni
ob il
Ã¼ f
Ġtak Ä±m
ĠT em
ay Ä±s
Ġtem iz
Ġm Ã¼ÅŁter
Ġd ir
Ġte dav
ti v
uy la
Ġk ir
ĠÄ° z
Ġ e
Ġp er
Ġtek rar
Ġan laÅŁ
ĠÃ¼zer inden
ĠD aha
ĠS er
Ġol uyor
g Ä±n
ĠN e
m Ã¼ÅŁ
Ġbiz im
han gi
Ġger i
ĠdeÄŁiÅŁ ik
es inden
Ġpar a
Ġin dir
eÄŁ in
Ġet kin
ab an
Ġver en
Ġm Ã¼cad
Ġd ers
ĠiliÅŁ k
ekt en
u ÄŁ
Ġsav aÅŁ
Ġber aber
um lu
ĠO s
t in
Ä±s Ä±nda
Ġm ark
ĠÃ¶zel likle
Ġes ki
ĠM ah
Ġil et
Ġgel di
Ġb ilm
Ġad et
is yon
Ġn okt
Ġd ak
Ġbir bir
ĠEÄŁ itim
Ġtekn oloj
el en
Ġk oÅŁ
ĠK ad
ĠO k
ĠsÃ¶yl edi
Ġb unun
Ġen gel
ĠÅŁ eh
ĠdeÄŁ iÅŁtir
ĠÃ¶zel lik
imiz i
Ġh Ã¼kÃ¼m
ĠÃĩ Ã¼nkÃ¼
Ġbil dir
Ġt Ã¼k
Ġk ayÄ±
b r
ak k
Ġerk ek
Ġhaf ta
im e
ĠaÄŁ Ä±r
o lar
Ġuz ak
ĠÃ§Ã¶z Ã¼m
ĠE y
Ġb ana
Ġs ar
um u
al Ä±m
ĠH az
ekk Ã¼r
ĠyÃ¶n tem
Ġas k
Ġs ak
Ġsan at
Ġyan i
Ġel de
ĠK al
Ġfa aliyet
Ġmil let
Ġm ik
ĠÄ°l k
ar i
c Ã¼
Ġtak ip
Ġist em
f or
ĠÃ§ev r
ĠY an
eler e
lar Ä±yla
Ġs ey
Ġtem el
Ä±nÄ± f
Ã¼n den
ĠB Ã¶l
eler ini
iniz e
Ġc ez
eceÄŁ ini
Ġon u
ĠT ur
al at
lar dÄ±r
Ġk esin
ĠyÃ¶n elik
ĠK ay
o f
ĠÃ¶ÄŁr et
Ġs in
Ġkal dÄ±r
Ġo tur
am p
Ġk Ä±y
Ġyat Ä±rÄ±m
ĠBeled iy
Ġil Ã§
Ġf ay
de ÅŁ
ĠÄ° Ã§
Ġb oz
Ġgerek ir
ĠA K
eler de
Ġb oÅŁ
uy u
Ġvat andaÅŁ
ul an
ĠÃ¶l Ã§
ad aki
Ġneden iyle
Ġk Ã¼ltÃ¼r
Ġy orum
b ak
ĠbaÅŁ ladÄ±
ĠÃ§ aÄŁ
iler ini
Ġr aÄŁ
Ġs por
in ce
Ġmad de
Ġk ut
h e
Ġgen iÅŁ
Ġkon usu
it ik
ĠT r
ĠdeÄŁil dir
Ġher hangi
Ġg ez
Ã¼s Ã¼
ĠV e
Ġf otoÄŁraf
Ġolm ayan
Ġb or
Ġm u
ĠO y
ĠEÄŁ er
imiz e
l Ä±nda
malar Ä±
alar da
at en
Ġpar Ã§
y le
ler iyle
s Ä±n
Ġin ternet
s Ä±nÄ±z
Ġal mak
ey im
iler ine
Ġort am
Ä±na v
Ġyeni den
ĠÅŁek l
ĠÄ°n gil
er Ã§
ĠraÄŁ men
Ġed ildi
ĠDev let
um a
ĠK ul
m eden
Ä±s Ä±ndan
m el
al et
d Ä±n
Ġdol ayÄ±
Ġs il
Ġgerek li
ĠA h
Ġb ay
ĠTÃ¼rkiye de
ĠÃ§Ä±k an
Ġr ek
Ġn er
m eyi
Ġsor u
av aÅŁ
f er
Ġihtiy aÃ§
ta j
c ut
ĠBeled iye
ĠÃ§alÄ±ÅŁ ma
am Ä±z
p r
Ġser v
Ġy al
ĠyÃ¼k sel
l Ä±yor
ĠyÃ¶n etim
es el
d Ã¼l
Ġort ak
d in
ĠH as
Ġk ah
y anÄ±n
iz m
Ã ĸ
uslar arasÄ±
Ä±r ken
ĠU z
o w
Ġu ÄŁr
Ġhis s
Ġgir iÅŁ
Ġal Ä±ÅŁ
ĠS aÄŁ
r on
as Ä±ndan
ĠÃ¶r g
Ã¼ ÄŁ
ĠdÄ±ÅŁ Ä±nda
ĠEr doÄŁ
ĠÅŁ art
Ġor an
ĠÃ§ iz
Ġtan Ä±m
Ġs aÃ§
Ġy emek
Ġsiz in
Ġm ed
ĠhÄ±z lÄ±
Ġs uÃ§
l ek
ĠOs man
Ġda ir
ĠS iz
ic aret
ĠM er
es iyle
ĠteÅŁ ekkÃ¼r
uk uk
Ġd ok
Ġg rup
ĠbaÄŁ lan
Ġc ih
ok r
ĠsÃ¼r dÃ¼r
ĠÃĸ ÄŁr
lu ÄŁ
as Ä±ndaki
ĠS ur
ef er
ĠiliÅŁ kin
ĠB ey
larÄ±n Ä±z
Ġin ÅŁ
Ġbak Ä±m
en ek
Ġg ec
d ay
ĠdoÄŁ r
ĠÃ¶n er
Ġay rÄ±
s at
ĠM uh
Ġist eyen
ĠA b
ĠT L
ĠCumhur iyet
Ġam ac
m uz
Ġsay f
Ġs ayÄ±
Ġi kinci
Ġs ok
ĠkÄ±s m
Ġen erj
Ġol sa
ĠÅŁ ehir
p an
ĠgerÃ§ek leÅŁ
ĠK om
n Ä±z
l Ã¼l
Ġboy unca
Ġam aÃ§
Ġist ediÄŁ
Ġsal dÄ±r
ĠaÃ§ Ä±l
ĠAvrup a
if t
acaÄŁ Ä±z
ĠÃ§eÅŁit li
Ġid di
r im
Ġc in
Ġgid er
lÃ¼ÄŁ Ã¼
ĠB un
Ġsay esinde
ĠsÄ±r a
Ġim z
af a
Ġyar ar
c h
al l
Ġyap Ä±
Ġad ay
Ġun ut
Ġor gan
Ġist er
Ġel ekt
il iÄŁ
Ġtop lam
Ġm ek
man Ä±z
Ġd ayan
ÅŁ am
ĠÃ¼r etim
ĠG Ã¶r
Ġbur ada
ec i
E T
laÅŁ tÄ±r
Ġh ey
an lar
ĠB ay
Ġy oÄŁun
ĠG el
Ġs ek
is ay
k il
dan a
Ġsat Ä±ÅŁ
ĠR us
r en
ĠAm er
ru b
ĠyardÄ±m cÄ±
ĠM ar
Ġt anÄ±
k Ä±n
Ã »
ark en
ap or
Ġhes ap
ĠÃĩ ok
Ġl is
ĠM eh
ut bol
ĠU y
Ã¶r t
Ġgel ecek
Ġkurul uÅŁ
ĠgÃ¼n de
is k
Ġt eh
tiÄŁ ini
ez on
Ġkor k
Ä±m da
Ġs Ä±nÄ±f
l uluk
ĠD em
Ġmev cut
Ġed in
Ġzar ar
Ã¢ n
Ã¼c Ã¼
Ġhal inde
ĠdÃ¼n ya
m esini
ed eki
Ġk as
Ġ ey
lan dÄ±
ĠtÃ¼r lÃ¼
Ġbiz e
ĠyaklaÅŁ Ä±k
Ġed il
Ġb eni
ĠCumhur baÅŁ
en c
Ġuygul an
Ġb iÃ§
Ġseb ep
Ġkapsam Ä±nda
Ġed erek
ĠH ar
ers on
er e
ĠaÅŁ aÄŁÄ±
Ġek ip
ĠÃľniversit esi
Ġv ak
Ġbel g
et in
ĠO l
p it
em in
Ġsah ibi
Ġm ez
ĠE m
ĠÃ§ ar
l Ã¼m
ĠsÄ± cak
Ä±ÅŁ Ä±k
Ġede cek
ĠU l
Ġolacak tÄ±r
ĠAl man
Ġist iyor
ĠÃĸ r
Ġk Ã¶y
Ä±y Ä±
ad Ä±ÄŁÄ±
Ġ ab
in c
ĠkayÄ± t
b e
Ġmal z
ĠK as
Ġhal e
ĠH at
Ġg iy
uy a
Ġan da
Ä±n tÄ±
Ġd ar
Ġtekn ik
ĠiÅŁ let
l ilik
ĠO t
az i
Ġb eb
Ġyaz Ä±
m ey
ĠkarÅŁÄ±l aÅŁ
eler inin
Ġbek l
Ġtarih i
ĠK o
Ġyan Ä±nda
iler inin
Ġil er
Ġb ab
l o
Ġ le
Ġhat Ä±r
ĠsaÄŁ lay
Ġt ep
s ak
Ġdurum da
ĠG eÃ§
Ä±nÄ±z Ä±
Ġkar deÅŁ
alar Ä±nda
isay ar
ĠdoÄŁ al
Ġd et
Ġad Ä±m
v ek
y i
ĠH av
Ġkullan Ä±cÄ±
Ġg azet
Ġar ac
lan mÄ±ÅŁ
Ġver ilen
Ġal dÄ±
ĠsÃ¼r ekli
m ayan
v et
Ġv Ã¼c
diÄŁ ini
Ġan n
Ã¼ ler
ĠA li
c Ä±sÄ±
Ġan lay
Ġm en
t ay
Ġetti ÄŁi
Ġetti ÄŁ
k aÃ§
Ġot om
Ġdah il
Ġf ik
n a
ĠÄ°n san
Ġyap tÄ±
Ġtal ep
Ġdav ran
il e
l is
ĠÅŁ Ã¶yle
ĠÃ¶z g
Ġh am
Ġolm uÅŁ
ĠÃ¶r nek
ĠyÃ¼r Ã¼t
Ġn um
uv ar
mas Ä±nÄ±n
Ġgerek iyor
ĠyaÅŁ an
Ġkonu da
al ama
eÅŁ tir
Ġfay d
Ġt Ä±k
oÄŁ u
Ã¼l t
it e
Ã¼ le
Ġin s
ĠaÃ§ Ä±sÄ±ndan
Ġy Ä±k
okt or
ayÄ± p
Ġad Ä±
Ġp azar
Ġgel iyor
ĠTek n
m eyen
Ġad Ä±na
e j
ad Ä±k
Ġv ide
g un
m esine
ÅŁ ehir
Ġbil im
u an
Ġver di
Ġon a
m al
ĠÅŁ imdi
ad Ä±ÄŁ
aban cÄ±
ĠbaÅŁ lad
eli dir
Ġhan gi
ĠÅŁekl inde
Ġp at
Ġm aÄŁ
Ġtes pit
ĠkonuÅŁ tu
Ġr ak
Ä±r Ä±
ĠbaÅŁ lam
Ġneden le
alar Ä±nÄ±
Ġn it
ĠDÃ¼n ya
eb il
alar a
Ġs ezon
ĠAB D
Ġcev ap
orm al
Ġbek len
ir a
Ä±s Ä±nÄ±
Ġtem sil
iz i
Ä±n ca
Ġs ol
us al
ĠS en
Ġc id
Ġherk es
Ġd iyor
an lÄ±
Ã¼l en
ĠK Ã¼r
eceÄŁ iniz
Ġvar dÄ±
Ġter Ã¶r
Ġ ah
Ġtasar Ä±m
ĠAnk ara
Ġd emek
Ġpar t
asyon u
am Ä±
Ġtab i
at if
eler ine
ĠÃ§ oc
Ġs Ä±nav
ĠT Ã¼m
Ġbel li
ĠMeh met
in ci
Ġr uh
Ġcih az
Ġtar t
Ġuz man
ĠY Ã¼k
Ġkal an
Ġan a
Ġtarih inde
Ġar tÄ±r
ĠkÃ¶ tÃ¼
ildi ÄŁ
n i
Ġi p
t aÅŁ
ĠAn ad
m enin
ĠtÃ¼k et
Ġhav a
Ġbilg iler
i j
ĠMil let
E N
Ã¼m Ã¼
Ġyar Ä±ÅŁ
Ġ j
ĠÃ¼n iversit
v e
ĠÃĩ ocuk
ĠsÄ±r asÄ±nda
Ġy urt
Ġb az
ĠbaÅŁar Ä±lÄ±
y ar
ĠA Ã§
ĠkiÅŁ inin
as a
ĠsaÄŁ lan
iler ek
ĠbaÅŁ kan
Ġyap tÄ±r
Ġinsan lar
Ġsev iy
Ġyal nÄ±z
Ġy um
an Ä±ÅŁ
ĠR es
ĠÅŀ ub
h al
emiz de
Ä±l Ä±ÄŁ
Ġs t
elik le
Ġoyun cu
ĠT ab
Ġkullan Ä±m
ed er
ĠA f
em i
l Ä±ÅŁ
s Ä±
ay acak
ĠH ak
ĠÄ°z mir
Ġn et
ĠgeÃ§ miÅŁ
ĠyapÄ±l acak
oloj i
Ġb es
Ä±mÄ±z a
Ġkap at
li f
Ġm a
te p
Ġkullan Ä±lan
Ġver ilm
A L
Ä±l Ä±m
Ġh ik
Ġsistem i
ĠB Ã¶yle
ĠH an
c eÄŁ
ĠS ev
ĠY aÅŁ
ĠÃ§ Ã¼nkÃ¼
ĠBu gÃ¼n
Ġ Ä±s
Ġp iyas
ĠyÃ¼z den
ĠK ap
n un
ĠPro f
ĠS Ã¶z
ade m
ecek tir
Ġdet ay
Ġak tar
Ġhast alÄ±k
Ġyap tÄ±k
Ġolm az
y o
liÄŁ ini
Ġson unda
abil iyor
Ġk ey
ĠsÃ¼r eÃ§
ot or
ĠI n
Ġder ece
Ġk o
Ġetk il
Ä±mÄ±z Ä±
Ġi t
ĠÃ¶ yle
Ġd al
en er
ĠÅŁ ah
Ġb ayan
Ġilet iÅŁim
ler ce
Ã¼s lÃ¼m
Ġmes aj
Ġtart Ä±ÅŁ
Ġy em
eler inde
ĠF akat
ĠM ust
Ġd on
i den
mak ta
ĠB ar
im in
Ġkam u
s iy
as Ä±yla
il iÄŁi
Ġitibar en
Ġg ece
eb ilm
Ġo f
Ġtamam en
Ġson ucu
iyet i
ĠMil li
Ġz aten
ĠsaÄŁ lamak
ĠdÃ¼ÅŁÃ¼n Ã¼yor
ad de
Ġr apor
Ġh oÅŁ
er n
ir i
ĠK r
ĠbaÅŁ lat
ed iye
Ġm is
Ġh ukuk
Ġf akat
ĠD eÄŁ
ay i
ĠÃ¶rg Ã¼t
Ġo per
imiz de
am asÄ±
ĠÄ°ÅŁ te
Ġcan lÄ±
Ġbulun duÄŁu
oloj ik
ĠS u
Ġbir kaÃ§
t ul
Ä± da
is el
l Ã¢
Ġseb eb
Ġk elim
Ġk af
ĠK at
ĠgÃ¼Ã§ lÃ¼
Ġtes lim
Ä±s Ä±na
Ġkay bet
ĠÄ°s lam
ĠTem muz
ĠC H
k em
Ġyer de
dÃ¼ÄŁ Ã¼
Ä ŀ
Ġs ig
l in
m eleri
Ġhal ine
u ar
ĠYan i
b i
c ort
em ez
ler dir
ĠyÄ±l lÄ±k
Ġf orm
ĠÃ§Ä±k tÄ±
Ġay rÄ±ca
Ġmut lak
ĠiÅŁ aret
ĠdÃ¼zen lenen
Ġkend ini
ĠKur ulu
ĠÃĸzel likle
Ġp erson
Ġvar sa
ĠT er
Ġc am
b lem
on un
Ġor ta
Ġas lÄ±nda
Ġekonom ik
Ġbelir len
Ġpol itik
d Ã¼k
oh bet
Ġsay Ä±lÄ±
Ġver mek
ĠgÃ¼ven lik
Ġserv is
ĠH em
Ġpro f
at Ã¶r
ĠS el
Ġes er
Ġay ak
Ġhat ta
ĠD eniz
ĠoluÅŁ an
g am
in d
Ã¼n Ã¼z
Ġk Ä±l
Ġed ilir
Ġkay b
ĠÃ¶ÄŁret men
Ġiz in
et ler
Ġs oÄŁ
Ġist en
ĠS por
Ġkat kÄ±
ĠB ah
iz yon
ĠbaÅŁ lay
ĠA ÅŁ
malÄ± dÄ±r
en gin
ĠMust afa
Ġs tr
Ġyok tur
s er
Ġde p
Ġver ir
Ġel e
Ġsav un
Ä±mÄ±z da
alar Ä±nÄ±n
Ġver diÄŁi
Ġar asÄ±ndaki
A T
Ġi c
Ġamac Ä±yla
em al
ĠS ar
lu ÄŁu
ĠM es
ĠT ak
Ġyan lÄ±ÅŁ
l k
Ġmey dana
Ġg iz
ro s
Ä±yor lar
ĠYar dÄ±m
Ġf utbol
ĠgerÃ§ ekten
Ġal dÄ±ÄŁÄ±
b ah
ac a
ĠsaÄŁ lam
Ġhay van
ĠGen Ã§
raf ik
lÄ±k la
mam Ä±z
ĠdÃ¼zen len
Ġ um
Ġ X
ĠÅŁ ark
Ä±nÄ±z a
Ġsor um
ildi ÄŁi
Ġak Ä±l
Ġv az
Ġf in
ĠY az
ĠYÃ¶n et
Ġask er
uk arÄ±
Ġl ist
Ġn ak
Ġw eb
m iyor
aÄŁ a
st a
ĠM an
lar Ä±m
ĠBelediy esi
Ġbilg isayar
Ġb i
ĠkiÅŁ iler
ĠPar ti
for man
Ġcid di
at Ã¼rk
Ġen d
a ir
ĠÃ¼lk e
ĠkoÅŁ ul
eÅŁ il
d Ä±z
tiÄŁ imiz
Ġt ip
ĠÃ§ ift
b a
Ġist iyorum
y um
Ġd ost
l ulu
Ġmut lu
Ġyap ar
f ak
ĠE t
ĠKur ul
Ġg rub
ĠEy lÃ¼l
ĠÄ°ngil iz
Ġmalz em
Ġt ec
Ġot el
Ä° N
ver iÅŁ
iniz in
ĠÃ¶l Ã¼m
ĠdÃ¼ny anÄ±n
ĠM ec
ĠSaÄŁ lÄ±k
ĠM al
Ġyer e
iniz de
Ġek sik
ĠK or
Ġinsan larÄ±n
ĠS am
Ġsiz i
E L
Ġet miÅŁ
E S
Ġkim s
ĠdÃ¼z ey
Ġpro blem
ĠAmer ik
Ġd Ã¶rt
az Ä±m
Ġkar ak
Ġboy ut
Ġok uy
ev i
ĠK end
Ġmik tar
Ġc il
ĠY ak
ĠkatÄ±l Ä±m
Ġ emek
ĠErdoÄŁ an
Ġs tan
Ġedeb ilir
t Ä±ÄŁÄ±nÄ±
ĠÃĩ alÄ±ÅŁ
Ġsat Ä±n
ĠgÃ¼n cel
en ler
et ik
Ġsil ah
ĠdÃ¼ÅŁ Ã¼k
ĠH aber
ĠAt atÃ¼rk
Ã ĩ
ers iz
ĠÃ¶l dÃ¼r
ĠdÃ¶nem de
Ġd olar
Ġmer ak
Ġd oktor
i ir
ĠbaÄŁ Ä±m
Ġo ÄŁ
y an
Ġk uÅŁ
Ġar ada
ĠbaÅŁvur u
Ġdak ika
ĠP ol
Ġil aÃ§
Ġol un
Ġsonr asÄ±
al iz
ĠyaÅŁ ayan
ĠÅŀ imdi
Ġak ÅŁam
ĠeÄŁ len
Ġb l
Ġtar z
Ġb al
Ġb una
Ġbas Ä±n
Ã¼n cÃ¼
Ġek ran
os u
Ġbah is
Ġden iz
ĠAnad olu
m er
ĠbaÅŁ Ä±na
ĠgÃ¼n lÃ¼k
Ġyet erli
ĠsÃ¶z leÅŁ
ĠbaÅŁ layan
in Ã§
Ġzor unda
im leri
Ä±mÄ±z Ä±n
Ġbulun maktadÄ±r
A K
Ġkar t
uv vet
Ġkal k
ĠyÄ±l Ä±
Ġken t
ed iy
ĠYÃ¶n etim
ĠBaÅŁ bak
alar Ä±na
Ġmem nun
Ġyaz ar
alÄ± dÄ±r
Ġ ir
on e
mÄ±ÅŁ tÄ±
o da
dÄ±ÄŁ Ä±nda
Ġb eÅŁ
Ġn ef
ĠiÃ§ ine
aÄŁÄ± t
ĠP art
Ġn ok
Ġyap tÄ±ÄŁ
Ġat eÅŁ
ĠC h
ĠsÃ¼r ec
eb ilecek
Ġtop rak
l Ä±lÄ±k
ĠHaz ir
acaÄŁ Ä±m
Ġpol is
muÅŁ tur
Ä±l Ä±ÄŁÄ±
Ġad lÄ±
ĠB ul
ĠsÃ¶y lem
Ġb eÄŁ
ĠgÃ¶ tÃ¼r
ĠG Ã¼ven
Ġon lar
Ä±yor du
Ġyan a
Ġg ar
Ġson uc
Ġed iyorum
n eÄŁin
as Ä±n
ĠV er
ey gam
g a
ĠdÃ¼ÅŁÃ¼n c
ĠM art
Ġy abancÄ±
im li
I N
Ġsiz lere
f en
am am
g r
in a
ĠK Ä±
ĠPro j
Ġbulun du
Ġmutlak a
ĠmÃ¼z ik
m ayÄ±n
ĠN is
ĠS osyal
Ġalt Ä±na
Ä± c
ĠKad Ä±n
Ã¼m e
Ġd iÅŁ
erÃ§ ev
ĠAy nÄ±
Ġet tik
m anÄ±
Ġmil yar
Ġb ank
ek siyon
Ġbah s
ĠÃľ r
A D
ĠA z
Ġkalit eli
Ġn ormal
c an
Ġd am
t aki
ĠS al
Ġar aya
ak et
an Ä±z
m asÄ±nda
Ġok um
ĠÃ¶nc eki
da ÄŁ
ayÄ±s Ä±yla
Ġder ec
en g
ĠAh met
Ġper forman
l ine
ĠT an
Ġz engin
Ġtar if
ĠalÄ±n an
at i
ĠmÃ¼cad el
en e
Ġm in
abilm ek
Ġp uan
ĠAl t
s iye
ĠmÃ¼cad ele
Ġbel ki
l Ä±ÄŁÄ±nÄ±
Ġf ak
ĠM Ã¼slÃ¼m
Ġtes is
ĠÃ§oc uÄŁ
Ġetkin lik
vek ili
ĠKas Ä±m
Ġs ur
t Ã¶r
ĠS ay
amp iyon
ĠYÃ¼k sek
im ler
as i
Ġhay al
ĠbaÅŁ arÄ±
t eki
Ġhas tan
uz ur
Ġuy ar
Ġbulun uyor
b ilir
r ol
g isi
s eniz
Ġb an
lad Ä±ÄŁÄ±
ĠbaÅŁ lan
eygam ber
Ġal Ä±yor
id det
Ġtedav i
Ä±s Ä±nÄ±n
Ġkarak ter
Ġsay Ä±sÄ±
iy di
ĠBak anÄ±
ĠOsman lÄ±
Ġdurum u
Ġdil e
uz ey
Ġd aÄŁ
ĠÃ¶zg Ã¼r
Ġd ek
Ä±ÄŁ Ä±n
ĠdeÄŁiÅŁik lik
Ġetk ili
ĠÃ¶ dÃ¼l
d ak
Ġz am
at a
o ok
ĠK Ä±r
ĠCumhurbaÅŁ kanÄ±
Ġhizmet i
A S
ĠA ÄŁ
Ġb eri
Ã¢ r
Ġyol u
ĠK it
mad Ä±
lÄ±ÄŁ Ä±na
Ġmak in
ilen dir
Ä±n t
Ä±nÄ±z da
Ġs ohbet
ĠK im
Ġhaf t
Ġsiyas i
Ġdev r
ĠT el
Ġed ilmesi
Ġbir ey
ĠsÃ¶y ley
Ġm Ã¼k
m ed
Ġal Ä±r
Ġr ol
Ġk um
Ġhal de
Ġs oy
ĠsaÄŁlÄ±k lÄ±
r ac
Ġbiz i
Ġd Ã¶k
ĠÃ§ erÃ§ev
ma da
on u
mam Ä±ÅŁ
Ġil eri
et e
ĠF r
iz ik
ĠK Ã¼ltÃ¼r
n eÄŁi
ĠD iÄŁer
ĠÃľ lk
en Ã¼z
Ġi dar
Ġd Ã¶
Ġay Ä±nda
ĠB ank
Ġm otor
Ġden eyim
ĠtaÅŁ Ä±m
Ġsen e
ĠbaÅŁ Ä±nda
Ġes n
m ar
eler den
ĠÃ§ at
Ġner ede
Ġgir iÅŁim
ĠsaÄŁ lar
eceÄŁ iz
Ġyan dan
Ġul uslararasÄ±
Ġenerj i
Ġzor un
esin deki
ĠÃ¶ÄŁrenc iler
eg or
Ġt est
ĠeÄŁ er
men iz
ĠseÃ§ enek
Ġr isk
Ġmek an
it al
ĠfÄ±r sat
len me
h end
Ġil an
Ã¼mÃ¼z de
ĠTar ih
ĠÅŁey ler
Ġkend isine
ul t
Ġay Ä±r
ĠS Ã¼r
ĠyapÄ±l masÄ±
Ġsun ul
ĠK Ä±z
Ġn es
Ġsonr asÄ±nda
Ġolmad Ä±ÄŁÄ±nÄ±
Ġkr edi
Ġgerek tiÄŁini
y Ä±l
ĠB eÅŁ
ul lah
Ġay ar
r ek
Ġs efer
Ġar z
ĠS t
Ġ eg
Ġdem okr
Ġolmad Ä±ÄŁÄ±
Ġsab ah
Ġon larÄ±n
ĠBÃ¼yÃ¼k ÅŁehir
Ġtr ans
Ġduy ur
f orm
Ã¼y le
Ġbenz er
Ġtek lif
Ġb at
ĠhazÄ±r lan
ĠyaÅŁ anan
Ġbelir ten
A M
mam ak
ĠsayÄ± da
ist ik
Ġperson el
Ġbey az
Ġdol u
ĠMÃ¼dÃ¼r Ã¼
ediÄŁ ini
le v
Ġs em
ey n
Ġad res
ĠtaÅŁ Ä±y
ĠÃ¶n Ã¼nde
Ġy ada
Ġd osy
es yon
Ġalan Ä±nda
ĠY un
mek te
um suz
ĠL is
ĠBur ada
Ġdurum unda
Ġp oz
Ġyet k
Ġart Ä±ÅŁ
d art
Ġbul uÅŁ
Ġder in
ĠDem ir
m Ä±yor
Ġk ok
Ġkur tul
ĠÃ¼n lÃ¼
ilm iÅŁtir
ĠM ayÄ±s
Ġnum ar
ĠeÄŁ it
el iÄŁ
s por
ĠOn un
Ġh uzur
us un
Ġmerkez i
ĠaÅŁ am
ĠÃ§ev ir
Ġyap Ä±yor
g ar
Ġkur al
Ġteh lik
Ġp iÅŁ
s en
Ġres mi
Ġes as
ĠM ak
g eÃ§
Ġfik ir
Ġs Ã¼t
Ġdol dur
ay la
Ġil gi
ĠG Ã¼l
Ä° R
Ġm ar
sÄ±z lÄ±k
ĠBen im
Ġy avaÅŁ
ĠBakan lÄ±ÄŁÄ±
Ġvide o
Ġuygul ama
Ġp r
Ã¼p h
ĠÅŁ ans
ĠF ak
ey le
s u
Ġg ay
f i
Ġl azÄ±m
Ġyer i
Ġhal a
Ġon larÄ±
ĠdeÄŁer li
Ġyap arak
ĠK emal
ĠÃ¼cret siz
Ġrek lam
Ġyer leÅŁ
esyon el
acaÄŁ Ä±nÄ±z
ĠEk im
ĠÃ§ ab
ĠK am
n iyet
Ã¶r en
Ġm obil
Ġay lÄ±k
ĠH izmet
miÅŁ ti
Ġaz al
Ġde fa
ab et
Ġak l
ans Ä±z
Ġvur gul
Ġalan da
ĠKul lan
Ġg Ã¼l
ĠHazir an
ek ler
al am
ĠH z
Ġk eÅŁ
ev k
ad Ä±m
Ġkam pan
ĠO cak
ĠG ir
Ġbit ir
Ġon ay
uyor um
ĠÃ§ar p
Ġhey ec
ĠPro gram
E M
Ġoper asyon
Ġh Ã¢
Ġhast al
Ä±m Ä±n
Ġver iyor
Ġal acak
es iz
ĠÃ§alÄ±ÅŁmalar Ä±
Ġfir malar
Ġgerek mektedir
ĠG o
ĠL ig
tad an
ĠÅŁ eyi
liÄŁ inde
larÄ±n Ä±zÄ±
ĠÃ§ al
ken in
y al
ĠF at
am et
Ä±l Ä±yor
ĠB aÄŁ
Ġu c
i di
Ġelekt rik
ĠÅŁ iddet
ĠO d
ĠalÄ±ÅŁ veriÅŁ
ĠiÅŁ i
Ġart tÄ±r
ĠK Ã¶
Ġyarar lan
aÅŁ Ä±r
de m
duÄŁ unu
Ġey lem
ĠD iy
ĠA p
Ġdak ik
Ġolur sa
Ġproj e
l isi
ĠbaÅŁ ta
ĠAn tal
Ġyap acak
an lÄ±k
Ġb ol
Ġhik ay
ĠD ol
Ġnok ta
Ġdav et
Ä° L
len mesi
Ġhay Ä±r
Ġ ef
Ġeder im
ĠS istem
ĠOy un
ĠiÅŁ Ã§
ĠB azÄ±
r Ã¼b
ĠMÃ¼dÃ¼r lÃ¼ÄŁÃ¼
ĠG azet
al lah
Ġh Ã¼c
ĠY er
lÄ±ÄŁ a
l iyor
iy im
Ġde f
ĠgÃ¶rÃ¼n tÃ¼
ĠM Ã¼z
dik leri
Ġkor um
Ġhiss et
Ġif ad
t Ã¼l
Ġhar c
Ä±l maz
Ġal arak
Ã¢ h
Ġmad d
ĠÃ ¢
Ġkar arÄ±
Ġm ec
ĠsaÄŁ layan
ĠgÃ¼n eÅŁ
Ġyap mÄ±ÅŁ
Ġg ide
Ġs el
Ġle z
Ġtav siye
Ä±l acak
s im
Ġb ed
Ġk op
ĠÃ¶ ÄŁ
d al
ter n
ĠgÃ¶ster en
ĠmÃ¼ da
Ġtoplan t
Ġkav ram
ĠS in
t on
Ġli der
al tÄ±
Ġg ol
Ġolm uÅŁtur
y en
lÄ±ÄŁ Ä±n
ĠgÃ¶r Ã¼yor
o ya
Ġg Ã¼c
Ġc ep
an taj
Ä± larak
Ġel eÅŁtir
ĠsÄ±r ada
dÄ±k tan
ĠB unu
ĠKÃ¼r t
Ġkan al
Ä±l dÄ±ÄŁÄ±
Ġbir isi
k e
iÅŁ i
d iler
larÄ±mÄ±z Ä±n
ĠF ilm
n ak
lat form
A Y
ĠÅŀ u
iv il
Ġkur tar
Ġp an
k u
Ġhaf if
Ġh enÃ¼z
c Ä±lÄ±k
ĠHal k
ĠbeÄŁ en
at ej
y as
Ġkor un
ĠyapÄ±l Ä±r
Ġk Ã¼r
Ä° K
hend is
ĠT ay
Ġik ti
ĠÃĸn c
Ġkullan arak
Ġmes el
ĠbaÅŁ k
Ġf on
b est
E K
t iler
Ġkay de
ĠS or
ĠAÃ§ Ä±k
am ay
d Ã¼m
Ġet tir
Ġkon um
Ġn ot
Ġs ap
aÅŁ a
Ġbun dan
ĠtaÅŁ Ä±n
Ġy iy
Ġkim se
om an
uyor uz
Ġyan s
Ġyer leÅŁtir
Ġail e
ĠC an
ĠH am
ĠS ayÄ±n
U R
ĠP er
Ġt icaret
Ġok u
ast ik
es tiv
Ġiz ley
Ġhayat a
Ġkend ine
Ġihtiy ac
r in
Ġn eler
m Ã¼r
Ġes cort
ĠNis an
ĠD Ä±ÅŁ
t uk
ĠK en
ĠÅŁ iir
Ġg al
Ġkar Ä±ÅŁ
c il
ac k
ĠdÃ¼n yada
ĠyÄ±l larda
ĠSan at
ter ek
ĠkarÅŁ Ä±sÄ±nda
da ÅŁ
ad Ä±r
Ġed iyoruz
ĠbaÅŁ lÄ±k
Ġsit esi
Ġduy gu
ĠMerkez i
Ġd el
Ġt az
m Ä±zÄ±
og le
ĠD ur
g ili
ĠA ÄŁu
Ġal anÄ±
Ġtoplan tÄ±
ĠAr aÅŁtÄ±r
ĠyÄ±l dÄ±r
ek im
Ġkap Ä±
ĠB r
ĠÃ¶n Ã¼ne
Ġtak dir
Ġd u
Ġol umsuz
ĠÄ° yi
liÄŁ e
ev izyon
ĠdÄ±ÅŁ Ä±
ĠM Ã¼
Ġins anÄ±n
Ġedilm iÅŁ
Ġol ma
ĠbaÅŁ lar
Ġk Ä±
lad Ä±k
ĠdÃ¶nem inde
Ġbor Ã§
diÄŁ imiz
Ã¼p er
ĠB or
ĠgÃ¶r mek
Ġek len
em mel
Ġtec rÃ¼b
Ġbas it
Ġkesin likle
eler inden
dÄ±k larÄ±
ĠG Ã¶k
ĠiÅŁ e
Ġyok sa
h a
i i
Ġkey if
Ġbun lar
Ġt on
Ġf il
ĠG Ã¶z
b ur
ĠAr alÄ±k
l edi
eler le
liÄŁ ine
Ġkazan dÄ±r
Ġy ukarÄ±
Ġk em
h ar
Ġm at
s ine
ĠAÄŁu st
ĠÄ° h
ĠkarÅŁ Ä±lÄ±k
ed iler
y se
g esi
ĠB al
Ġkam er
er in
ĠÃ§ oÄŁu
Ġtat il
ĠS avaÅŁ
Ġanlam da
ĠD av
ip ar
er ler
ĠÅŁ ik
ĠUl uslararasÄ±
s as
Ġbeb ek
ĠiÅŁ te
il ebilir
Ġn Ã¼f
Ġmuh t
Ġtut ul
ĠS eÃ§
ĠdoÄŁ um
Ġ Ä±ÅŁ
ĠÃľ st
l ediÄŁi
ĠT aÅŁ
ĠiÃ§ i
at Ä±n
Ġs enin
ĠKÄ± br
Ġede ceÄŁ
ĠS adece
z et
Ġsonuc unda
lay arak
Ġar asÄ±
Ġyol c
Ġem in
Ġad r
liÄŁ in
h aba
Ġan ne
iy ah
p ar
g Ã¶r
ĠÃĩ ev
ĠyÃ¶net ic
Ġas la
Ġyer inde
mas Ä±yla
ĠMÃ¼slÃ¼m an
ĠaÅŁ k
Ġsahip tir
d am
Ġtemsil c
ĠOk ul
Ġam el
ĠK ol
Ġyay Ä±m
ĠB una
ĠÃ¶de me
Ġal mÄ±ÅŁ
ra il
Ġi b
Ġm eÅŁ
is inden
ĠK az
ĠHas tan
Ġz evk
Ġvaz geÃ§
Ġf el
abil eceÄŁi
ĠÃ¼rÃ¼n leri
Ġt ed
ĠKÄ±br Ä±s
Ġp sik
al im
ĠÃ¶ÄŁren ci
Ġet mektedir
lan masÄ±
ayÄ± cÄ±
lar dÄ±
ĠCH P
Ġstan dart
Ġh ad
Ġdavran Ä±ÅŁ
Ġperforman s
Ġbaz en
iÅŁ leri
Ġg az
Ġp o
el t
Ġcez a
uk lu
ĠAnk ar
Ġsonr aki
mam asÄ±
ĠAllah Ä±n
Ġon lara
lÄ±ÄŁ Ä±nÄ±n
Ġtal eb
Ġal Ä±p
er r
or e
ler inizi
ĠT es
Ġbelirt ti
m eli
Ġbilg ileri
ĠSon ra
ĠaÃ§Ä±klam ada
ĠT icaret
Ġk uvvet
emiz in
Ġyaz Ä±lÄ±
ur u
Ġkar Ä±ÅŁtÄ±r
Ġyet iÅŁtir
Ġbu y
ĠY ine
aÄŁ an
ĠdÃ¼ÅŁ Ã¼r
larÄ±mÄ±z Ä±
Ġsok ak
s ay
ĠsÄ±k Ä±ntÄ±
Ã¼n deki
Ġ la
ĠB as
ĠKur um
ĠM ed
ayÄ± f
Ġh ap
ron ik
Ġer ken
ah im
lad Ä±ÄŁ
Ġay dÄ±n
ul tan
ĠÃ¶ den
Ġgenel likle
Ġt as
ĠY ol
Ġ ez
Ġprof esyonel
Ġyer el
ĠgÃ¶r en
ĠiÅŁ bir
is e
ĠBiz im
ĠS it
d ro
Ä±s Ä±r
Ġal dÄ±ÄŁ
ĠG Ã¶
Ġkat egor
Ġyet iÅŁ
ĠY Ã¼z
Ġp ark
ey h
Ġ af
Ġn in
ĠdÃ¼zen lem
ĠE ÅŁ
ĠY et
Ġp op
Ġl im
Ġk aÅŁ
n am
Ġkit ab
ĠSur iye
Ġn edir
oÄŁ l
Ġod ak
da t
d it
ĠÅŁ er
p ek
Ġar ay
Ġbun larÄ±n
ut an
Ġolm asÄ±na
ĠsÃ¼r ede
g en
diÄŁ im
Ġd ay
Ġf izik
dik ten
ĠG erÃ§
ĠD Ã¶n
Ã¼t fen
ĠOr ta
ĠgÃ¼n lerde
ĠkiÅŁ isel
i a
lar ca
Ġyay gÄ±n
lan Ä±r
eceÄŁ im
ĠBaÅŁbak an
ĠS ab
ĠC am
Ġisim li
af ir
em iÅŁ
Ġbelir terek
Ġar a
Ġd Ã¼ÄŁ
Ġdah i
g o
Ġr ad
Ġlis ans
Ġalt Ä±n
h at
Ġkend isini
m edi
ĠÃ¶n e
Ġmod ern
ĠÄ° ki
Ä° M
ĠÃ§ iÃ§
Ġen f
ĠM ev
ĠiÃ§er ik
ĠdeÄŁ iÅŁim
ers eniz
s ini
Ġoy unu
ĠFak Ã¼lt
Ġmed ya
Ġm Ã¼dÃ¼r
Ä±y dÄ±
em ey
ĠP h
ĠB Ã¼tÃ¼n
ĠTÃ¼rk Ã§e
bet te
Ġtut ar
Ġ Ä±ÅŁÄ±k
Ġhes ab
Ġpro t
Ġi de
Ġd uvar
Ġg iden
Ġhayat Ä±nÄ±
in al
eÄŁ ini
ĠD Ã¼z
Ġv b
ir ken
l ayÄ±p
O N
Ġed ip
siz lik
ĠÅŁ Ã¼ph
Ġkend isi
ĠÄ° k
Ġtan e
ĠM ur
ĠmÃ¼ÅŁter i
y aya
iyor du
Ġy or
ĠBÃ¶yle ce
Ã¶y l
im ar
ĠK Ä±s
ĠÃĸr neÄŁin
ĠV al
Ġ ep
Ä±l mÄ±ÅŁtÄ±r
ĠG azi
ĠE f
Ġprogram Ä±
Ġk ans
ĠsaldÄ±r Ä±
om et
Ġyol a
Ġd anÄ±ÅŁ
ĠH ol
Ġtah min
Ġbun larÄ±
Ġkil o
Ġcin sel
ĠP eygamber
ov a
ĠistediÄŁ iniz
Ġsan a
Ġ ap
ĠY al
ĠyapÄ±l dÄ±
ĠeÅŁ it
Ġbilin en
Ġor ada
Ã Ħ
Ġkay det
Ġser t
ĠV ak
ĠF il
Ġb ilir
in k
ĠK ah
Ġbir inci
ĠÃ§ ap
Ġyaz Ä±lÄ±m
iz asyon
Ġtan Ä±ÅŁ
ab z
Ġp as
ĠbiÃ§ imde
ed eni
oy u
er ken
Ġb Ã¼t
ĠyanÄ± t
Ġ x
diÄŁ inde
ĠmÃ¼k emmel
Ġkal p
Ġgerek tir
Ä° T
ĠyÄ±l da
art esi
ĠÃ¶zel liÄŁi
ĠÄ° ran
ĠaÅŁaÄŁÄ± daki
ĠGo ogle
r aman
Ġimz a
ĠAÄŁust os
eb ook
Ġd o
ĠDoÄŁ u
ost a
ĠGÃ¼n ey
ĠyÃ¼r Ã¼y
Ã¼n y
lerimiz i
ĠÄ°l Ã§e
Ġp aket
Ġh oc
rac at
is iyle
Ġk Ä±ÅŁ
Ġiddi a
Ġol umlu
ĠUy gul
Ġim k
ĠYardÄ±m cÄ±sÄ±
Ġf or
ĠF ir
Ġar ab
Ġh us
Ġim kan
Ġson a
ĠÅŁ if
ĠÅŀub at
ediÄŁ iniz
A Åŀ
ĠH af
l iler
ĠuÃ§ ak
m ur
Ġsor unu
ĠÄ°stanbul da
r em
Ġal tÄ±
ĠÄ°ngil ter
Ġy e
us unu
Ġav antaj
Ġyap maya
Ġson u
ey tin
ĠÃ§ ay
ĠÃ¶nemli dir
alar dan
ĠaraÅŁtÄ±r ma
m eni
Ġdiy erek
Ġhar ika
im den
ĠS ah
ĠÅŁ ar
ĠBir liÄŁi
Ġet meye
Ġel em
ĠyÃ¼z yÄ±l
ĠolduÄŁ una
ur ken
ĠG Ã¼zel
mad Ä±ÄŁÄ±
ĠÃ¼l kenin
Ġl ira
ac Ä±lÄ±k
D E
O R
ĠR ec
Ġg r
ĠUz un
ĠgÃ¶n Ã¼l
Ġet raf
t arÄ±
ĠÃ§Ä±k Ä±ÅŁ
un larÄ±
Ġt a
ĠkÃ¶ ÅŁ
ĠÃ¼Ã§ Ã¼ncÃ¼
ĠÃ§ek en
ĠB in
Ġkah v
ĠT e
Ġanlay Ä±ÅŁ
Ġyas ak
ĠH ep
ĠEs ki
ĠsÃ¶yl Ã¼yor
ik taÅŁ
Ġet me
L AR
Ġyet er
Ġev de
edik leri
ĠsÃ¶y len
Ġser best
s inin
g iler
ĠP eki
eÄŁ e
ĠM od
Ġv it
ĠG alat
Ġb alÄ±k
Ġbelirt ilen
Ã§ ak
ĠB er
Ġgir en
Ġkal dÄ±
ĠAr tÄ±k
Ġt uz
Ä±sÄ± t
Ġkor uy
liÄŁ inin
ul masÄ±
ar e
ĠB at
Ġres im
Ġs p
ĠÃ¼y e
Ġ us
t ak
ediÄŁ imiz
ĠF ener
ĠBay ram
Ġd es
Ġaz alt
ĠÄ° m
ĠYun an
ĠdÃ¶ v
ĠH iÃ§
Ã¼st Ã¼
mem iÅŁ
ĠK Ã¼Ã§Ã¼k
ĠT Ãľ
ĠyaÅŁ Ä±ndaki
Ġb eden
g al
ĠkiÅŁ ilerin
ĠÃ§Ä±k art
Ġsah n
ĠÃ§ocuk lar
may acak
Ã¶ ÄŁr
Ġek ley
Ġs ivil
ipar iÅŁ
Ġbir ik
b an
Ġkon ut
ĠI rak
ĠÄ°s rail
Ġhakk Ä±
ĠAr ap
Ġfa iz
ib er
Ġdok un
Ġstr atej
Ġgel iÅŁim
Ġmes lek
Ġor tadan
Ġkap as
Ġmil li
s Ã¼z
Ġyap Ä±m
ĠinÅŁ a
Ġbas kÄ±
Ġb ec
s es
ĠDer neÄŁi
l iye
Ġgetir en
ĠU n
Ġayr Ä±l
Ġor anÄ±
Ġn edeni
ĠS h
ĠMah all
Ġc en
ĠÅŀ ah
Ä±ÄŁ Ä±nda
f et
ĠÃ¶nc esi
g er
k ar
ebilir iz
b ay
ĠÃĩ in
ĠkatÄ±l dÄ±
ĠA lan
Ä±s Ä±nÄ±z
ĠTekn ik
Ġyet kil
ĠM ut
ĠdÃ¼ÅŁÃ¼nÃ¼yor um
ĠEv et
ĠÃ¶lÃ§ Ã¼
ab ilen
ĠÅŁark Ä±
Ä±s Ä±z
t is
Ġp latform
ĠP azar
Ġas Ä±l
abil eceÄŁiniz
ĠtanÄ± t
Ġb Ã¶
Ġden ey
Ġvak it
diÄŁ iniz
Ġetk isi
ĠSam sun
on s
ĠBeÅŁ iktaÅŁ
Ġolm asÄ±nÄ±
ĠÅŀ eh
ĠiÅŁlem i
ĠÃľ y
Ġar ama
Ġy eÅŁil
ĠvÃ¼c ut
ĠbaÄŁÄ±m sÄ±z
ĠgeÃ§ erli
ĠyalnÄ±z ca
ĠgÃ¶ Ã§
Ġgel in
Ä±n dÄ±r
ĠkiÅŁ ilik
ĠÅŁeh it
Ġc Ã¼m
ĠÃ¶ÄŁr etim
ac ebook
Ġt Ã¼rk
Ġak tif
ĠkÄ±sm Ä±
Ġn amaz
Ġuy um
ĠaÃ§ Ä±
ĠAr k
Ġolm am
Ġp eÅŁ
Ġsal on
ĠaÅŁ Ä±rÄ±
ĠgÃ¶r dÃ¼ÄŁ
ĠF ran
Ġben de
Ġnit elik
ĠV ar
Ġheyec an
Ġotom obil
Ġal g
ĠÃ¼zer indeki
Ġot ob
iy er
Ġduy g
ĠD air
s ur
ĠinÅŁ aat
ĠyaÅŁ Ä±nda
ik let
Ġc iv
ĠdoÄŁr ult
ic ari
Ã§ iler
et leri
Ġ acÄ±
Ġtat lÄ±
Ġz ayÄ±f
Ġmal iyet
Ġev e
ĠD il
y ap
ĠM adde
ĠdoÄŁru dan
iyor lar
al a
Ġs uyu
Ġsor umlu
ĠÃ¼rÃ¼n ler
h am
ĠÅŀ irket
Ġist ih
is in
ĠKan unun
ĠMillet vekili
ĠY at
Ġis m
ĠdÄ±ÅŁ arÄ±
Ġtem in
at ur
Ġpar ti
ĠBÃ¶l g
Ä±z a
lam asÄ±
ilm ektedir
ĠhatÄ±r lat
gÄ± Ã§
Ġt en
Ġteknoloj i
E D
ĠgÃ¼ven li
ĠAy dÄ±n
Ġet mesi
ĠhazÄ±r lÄ±k
Ġgel miÅŁ
Ġk od
aÄŁ Ä±n
ab rik
ĠsÃ¼r esi
eb iliyor
ĠH akk
Ġal ma
Ġcil t
ĠM a
ĠT he
ĠTÃ¼rkiy eye
ĠTr abz
em en
Ġhizmet leri
Ġbelir li
Ġb Ã¼ny
ĠS ultan
Ġuy an
Ġsin em
ĠÃ¶n lem
ĠS ak
ez i
Ġtrans fer
ĠFener bah
tern atif
ĠK Ã¶y
Ġiy il
ĠaÃ§Ä±k lama
Ġk m
or k
Ġamel iyat
ĠyÄ±l dÄ±z
ĠGalat asar
Ġask eri
ĠdÃ¼ÅŁ man
lay Ä±n
Ġt eb
Ġin ce
ĠÃ§ oÄŁ
ĠA c
Ġkur ulu
ĠS at
ĠN ur
Ġmes af
ĠKar ÅŁ
Ġikti dar
ah met
lam Ä±ÅŁ
Ġolm adan
mas Ä±ndan
Ã¢ y
alar Ä±ndan
ÅŁ ey
Ġs eni
Ġg ur
ĠG Ã¼r
Ġolm aya
Ġz ih
Ä±r lar
ĠRus ya
Ġoyun c
Ġal b
Ġkullan Ä±mÄ±
Ġherk esin
ĠH Ã¼s
ĠolduÄŁ umuz
Ġanlam Ä±na
ĠakÄ±l lÄ±
L ER
Ġkad ro
Ġkend ilerine
Ġo da
ĠEr k
ĠD o
mak tan
ĠÃ§Ä±k Ä±yor
ĠhÃ¼kÃ¼m et
ĠD en
ĠiÃ§er en
m acÄ±
ĠB it
Ġyer ini
Ġdiy en
m esinin
ĠyapÄ±l mÄ±ÅŁ
Ġed ilecek
ir ler
leÅŁ me
Ġt Ã¶ren
ĠR ab
abilm ektedir
Ġb on
Ġsey ahat
ĠY ayÄ±n
Ġkap alÄ±
ĠH D
ĠyÄ±l Ä±n
ĠsoÄŁ uk
Ġyap arken
Ä±lÄ± Ã§
Ġyat Ä±r
a i
Ġd an
Ä± b
ĠYÄ±l maz
ĠgeÃ§ ti
ĠÄ° tal
ĠuÄŁr aÅŁ
Ġlez zet
Ġk las
Ġkan un
S T
l iy
Ġyar g
Ġm o
ay Ä±m
L I
ĠSan ayi
ĠdoÄŁrult usunda
Ġam acÄ±
Ġdir en
Ġt ad
z e
Ġfin ans
tÃ¼ ÄŁ
ok ul
Ġd edim
as in
ĠH erk
s on
Ġbak Ä±ÅŁ
ĠBun lar
p t
ĠP ark
Ġmark a
ĠolduÄŁ undan
ediÄŁ im
cÄ± lar
am ayan
c ilik
an e
ĠHat ta
Ġyak al
ĠT am
ĠÃ¼y esi
ĠEl ekt
Ġc m
Ġal Ä±m
Ġkullan dÄ±
Ġk anÄ±
ĠAp p
ĠSur iy
k iler
Ġsiyas et
ey iz
Ġm on
ĠÃ¶zellik leri
Ġc es
ĠdÃ¼zen li
l iliÄŁ
Ä± f
ar d
Ä±l abilir
ĠeÅŁ y
Ġolan lar
ĠAs lÄ±nda
ij ital
Ġc om
ar Ä±m
ĠS ek
ler iniz
lar daki
Ġc ok
ab ilmesi
eÅŁ em
d ek
ĠÃ§ oÄŁun
ĠsÃ¶y leyen
Ġl ir
Ġs uy
est or
Ġolan ak
ĠRec ep
em esi
ĠkÄ±r mÄ±zÄ±
ler im
ĠMÃ¼dÃ¼r lÃ¼ÄŁ
Ġolm ay
Ġbah Ã§
Ġfir ma
ĠMec lis
Ġmis afir
ĠmaÄŁ az
an et
Ġr ed
lulu ÄŁ
Ġkampan y
len miÅŁ
ĠGÃ¼ven lik
unuz u
ĠM ark
ar Ä±nda
z u
ĠsÄ± f
larÄ±mÄ±z a
ak a
Ġver ecek
ĠC em
Ġtel evizyon
Ġfaz l
y ip
ĠYÄ±l dÄ±r
ĠEk onom
Ġhas ta
Ã¶ÄŁr etim
ĠC en
Ġan aliz
ati on
v ik
Ġnerede yse
Ġgelen ek
ĠTrabz on
Ġsay gÄ±
ĠÃ¼st Ã¼n
ĠgeÃ§ iÅŁ
Ġmez un
ĠÃ¶nc eden
Ã¼mÃ¼z deki
ĠI I
Ġort alama
Ġt anÄ±n
ĠMuh am
Ġrak am
Ġat an
Ġm Ã¼t
ĠÃ§erÃ§ev esinde
is iniz
ĠÃ¼lk ede
Ġok un
ĠdÃ¼ny aya
lÄ±ÄŁ Ä±nda
Ġbl og
Ġk us
ĠS Ä±r
ĠHay at
Ġf er
iy an
ĠÅŁik ayet
Ġyar alan
ĠP K
ĠÄ°n ÅŁ
ĠeÄŁit imi
Ġbir den
ĠE b
Ã¼le bilir
ĠÅŁ Ä±k
tu ÄŁ
ĠaÃ§Ä±k ladÄ±
ĠÃľr Ã¼n
al le
ĠeÄŁlen c
Ġs ik
Ġbay ram
Ġor du
Ġtoplum sal
u di
Ġh ac
Ġihtiy acÄ±
lik leri
ĠK uzey
Ġuc uz
ĠC ez
av i
Ġfiyat larÄ±
Ġbir im
ĠyÃ¶net imi
r um
ĠaÄŁ aÃ§
Ġer iÅŁ
Ġkal Ä±n
Ġiht im
Ġi tir
A P
Ġt ers
Ä±nÄ±z Ä±n
emiz e
ez er
ĠK ab
Ġyat ak
ar lar
Ġr eh
ilm ek
Ġt Ä±r
at or
iyat ro
us una
ĠÃ¶ y
Ġs im
b in
Ġkat Ä±lan
ĠM as
ĠÄ° br
Ġgiz li
at es
Ġil av
Ġsor uÅŁtur
Ġad Ä±nÄ±
Ġr ast
ĠyaÅŁ at
ĠyaÅŁam ak
Ġsorum luluk
Ġkapas it
ĠR e
Ġedebilir siniz
Ġpoz isyon
ĠÅŁek er
or d
il im
Ġbel ediye
Ä±y Ä±z
ĠsÃ¼r eci
Ġver ildi
ĠB ab
ĠCumhurbaÅŁ kan
ĠdÃ¶nÃ¼ÅŁ tÃ¼r
Ġdol aÅŁ
ĠÅŁ iÅŁ
Ġver miÅŁ
ĠD ir
Ġs iyah
Ġrahat sÄ±z
Ġkurul an
ĠbÃ¶lg ede
ĠmÃ¼ÅŁter iler
estiv al
Ġotom atik
Ġkom p
y Ã¼z
Ġc um
ĠiÃ§in deki
ĠÃ§ocuk larÄ±n
Ġmodel leri
ĠgÃ¼ven ilir
s em
ĠN asÄ±l
ĠD Ã¼ÅŁ
Ġzaman larda
Ġd aÄŁÄ±t
Ġbar Ä±ÅŁ
ĠT ah
ĠÃľ Ã§
Ġbil iyor
Ġver i
ĠS av
ĠKan un
Ġbin lerce
Ġbec er
Ġtar Ä±m
Ġinsan larÄ±
ĠÃ¶ t
ĠbaÄŁlan tÄ±
Ġdetay lÄ±
Ġh ediye
iy iz
ĠyÃ¶n lendir
ĠsÄ± v
u f
Ġi ken
ek il
ĠÄ°ngiliz ce
Ġolduk larÄ±
Ġs ipariÅŁ
Ġgid erek
Ġsit e
es ef
Ġon line
ĠÅŁ ampiyon
Ġay Ä±
ĠHav a
ĠTay yip
Ġi di
ĠkÃ¶ k
Ġdemek tir
ĠÅŀ ehir
Ġip tal
ĠM ad
Ġb oÄŁ
Ġfilm i
ĠBil g
larÄ±n daki
ir in
Ġ Q
enc er
Ġal maktadÄ±r
Ġek ib
Ġt ez
Ġkullan mak
el in
ĠM et
ĠS p
Ġed iliyor
Ġtut uk
es e
ad i
ĠÃ¶z en
ĠFat ih
Ġp il
es s
Ġs af
m ede
ĠvÃ¼c ud
Ġdikkat e
Ġy alan
Ġal ternatif
Ġbulun dur
ĠtaÅŁÄ±y an
ĠM H
ĠÄ°n ternet
as Ä±z
Ġhas sas
Ġbahs et
ĠB an
ĠilÃ§ esinde
Ġyas al
on d
Ġboz uk
Ġson una
ĠkaÃ§ Ä±r
ĠE ur
ĠS ey
ĠÃ§ev re
Ġver gi
tep e
U L
ĠKit ap
ĠkiÅŁ iye
ad et
h i
ĠY ok
Ġhak im
ĠhÃ¼c r
Ġteh dit
ĠyÄ±l lar
Ġl Ã¼tfen
ĠteÅŁ kil
ĠgÃ¶r sel
d Ã¼z
ĠÄ° kinci
Ġyap abilir
duÄŁ umuz
ul du
ĠarkadaÅŁ lar
Ġvar lÄ±k
k siyon
ĠgÃ¶rÃ¼l en
Ġmah k
Ġilg ilen
Ġkr iz
in t
ul ur
Ä±n ar
Ä±lÄ± p
Ġhep si
ĠbaÄŁlan t
ĠbÃ¼y Ã¼m
ĠGÃ¼n eÅŁ
ĠiÅŁlem leri
Ġden etim
ĠÃľ z
Ġist ek
Ġdur dur
Ġdur uÅŁ
Ġduy ar
ic iler
ow s
Ã¼l Ã¼
ĠP nin
ĠbÃ¶lg e
ley ici
ĠÅŁ ub
Ġr ef
ĠMur at
Ã¼l ey
ĠÃ§alÄ±ÅŁ tÄ±r
ĠHas an
Ġdol ayÄ±sÄ±yla
eb ek
ĠY a
c o
Ġben ce
Ġun sur
ĠM us
l edik
ĠYap Ä±lan
imiz den
ĠÃ§alÄ±ÅŁ Ä±yor
len di
Ġuz at
Ġdem iÅŁ
ĠAb d
ĠÃ¶nc elikle
Ġar acÄ±
ĠseÃ§ en
ĠN o
Ġis mi
l iyet
ĠhÄ±z la
Ġs Ã¼s
b al
Ġol acaÄŁÄ±nÄ±
Ġbulun ur
ĠiÅŁ in
Ġh Ã¼k
ĠhazÄ±r lanan
Ġgetir di
it er
ĠK er
ĠgerÃ§ekleÅŁtir ilen
ĠettiÄŁ ini
Ġay n
Ġg Ã¼cÃ¼
Ġmah kem
an larÄ±
Ġkav uÅŁ
Ġet ik
ĠB l
ĠMah kem
Ġv s
ĠH ast
Ġsek s
lan ma
u ÄŁu
Ġetk ilen
ĠkullanÄ±l Ä±r
lerimiz in
Ġt erk
Ġih racat
Ġsebeb i
c isi
Ġak tiv
ĠT eÅŁ
abil eceÄŁini
Ġser may
Ġist ik
Ġdest eÄŁi
Ġ eb
ĠÅŁ im
ĠkadÄ±n lar
ĠÃ¶n gÃ¶r
lulu ÄŁu
ĠbaÅŁlam Ä±ÅŁ
Ä±ÅŁ ma
Ġden g
Ġbilin Ã§
Ġg em
ĠMer haba
Ġt rafik
Ġt icari
ĠÃ¼r Ã¼nÃ¼
Ġfayd alan
ĠÃĩ aÄŁ
ĠAn ay
Ġyer li
ĠB undan
ebilm ek
ĠH Ã¼kÃ¼m
ĠyaÅŁ ay
av uz
Ġbilg ilendir
alar la
ĠY ah
ĠiliÅŁk iler
ĠM ic
dÄ±ÄŁ Ä±mÄ±z
Ġd is
ĠZ aman
Ġyak alan
aÄŁ Ä±nÄ±
ĠK iÅŁ
ĠD in
ĠBur sa
am ik
ĠBÃ¶l Ã¼m
s it
ĠiÅŁ ler
ĠdeÄŁ eri
ap on
w it
ul muÅŁ
Ġkit abÄ±
am Ä±yor
Ġkur u
Ġedilm iÅŁtir
y er
s inde
et iyle
ĠtaÅŁ Ä±
lem eye
Ġb om
ir e
Ġak adem
ĠY as
Ġkes im
Ġpop Ã¼ler
ĠalÄ±n masÄ±
Ġkend ilerini
Ġbir er
ĠFr ansÄ±z
Ġf i
ĠÅŁ aÅŁÄ±r
ĠgÃ¶rÃ¼n t
un daki
ĠDol ayÄ±sÄ±yla
Ġitibar iyle
laÅŁ ma
Ġdurum larda
ĠP at
j ans
ĠAntal ya
ĠS a
Ġal k
ĠbÃ¶lÃ¼m Ã¼
ildiÄŁ ini
duk larÄ±
ĠR amaz
Ġbekl iyor
ĠBah Ã§
ed ek
ĠsÃ¼r en
ers in
ĠW eb
Ġal maya
Ġsanat Ã§Ä±
s ey
us unun
ĠkÄ±y af
Ġrenk li
ĠFakÃ¼lt esi
Ġol maktadÄ±r
Ġhayat Ä±
Ġh Ä±r
ĠS ig
ĠÃ§alÄ±ÅŁ masÄ±
lan Ä±yor
Ġolm alÄ±dÄ±r
Ġb Ã¼r
ĠbakÄ±m Ä±ndan
ĠyaÅŁ adÄ±ÄŁÄ±
ĠÃĩ an
ik at
Ġsor gul
ĠB atÄ±
Ġp et
ĠL e
ur um
ĠD nin
Ġar ka
c iler
Ġbuy ur
Ġfak tÃ¶r
Ġiyi ce
uk at
Ġyum uÅŁ
ĠÄ°l Ã§
ĠbaÅŁ lÄ±yor
ĠÃ¼niversit e
Ġb esin
Ġuygulam asÄ±
ĠR o
ĠparÃ§ asÄ±
ĠF ET
emiz i
l al
dÄ±ÄŁ Ä±m
l ayÄ±cÄ±
Ġistiyor sanÄ±z
Ġyen ilik
Ġorgan izasyon
g re
Ġsak in
Ġmet re
ĠgÃ¶z lem
ĠiliÅŁ ki
ĠAn n
ĠM ey
ecek siniz
ĠkÄ±s Ä±m
Ġt oz
Ġtarih li
Ġgel diÄŁi
Ġsun uyor
ĠT at
Ġbirbir inden
Ġeder ken
tan siy
ĠaÃ§Ä±l Ä±ÅŁ
Ġgit ti
Ġbenz eri
Ġzorun lu
Ġsev in
ĠÄ°br ahim
Ġal dÄ±m
ĠSon uÃ§
ĠK ir
han e
Ġdem ir
Ġvit am
dro id
Ġmuht eÅŁem
h er
ĠM ac
Ġyen il
ĠÃ§iÃ§ ek
ĠI s
b iy
Ġmem ur
ĠKo ca
ĠAl l
Ġr oman
ind ows
Ġdek or
Ġbilim sel
Ġmuh al
ĠC ev
Ġr e
ĠDÃ¼n yanÄ±n
Ġkul ak
Ġyap abilirsiniz
Ġyap ma
Ġdon an
Ġmen s
ĠÃĸÄŁr et
ĠÃĩ ar
Ġtakdir de
Ġilav e
ĠB ek
Ġpar Ã§a
Ġincel em
ĠiÅŁ Ã§i
Ġist iyoruz
ik i
r ed
ĠF acebook
q u
ĠSer v
ĠgÃ¼nde m
ĠFET Ãĸ
ĠK Ä±lÄ±Ã§
ulu ÄŁ
mÃ¼ÅŁ tÃ¼r
Ġelekt ronik
n er
eniz i
Ġtur izm
ĠaÄŁ z
I R
acaÄŁ Ä±na
ĠAlt Ä±n
Ġsab it
m esinde
ĠBil im
Ġsiz ler
Ġadet a
tÄ±ÄŁ Ä±mÄ±z
l iliÄŁi
or din
Ġnokta da
lam aya
Ġbir leÅŁtir
ĠNe w
ĠT asar
ĠaÄŁÄ±r lÄ±k
Ġkaydet ti
am aya
ar y
ĠP r
Ġm Ã¼l
ĠgÃ¶rÃ¼n Ã¼m
Ġiz le
Ġsig ort
Ä° Y
it ir
ĠE tik
Ġgel ip
Ġtep ki
ĠbÃ¶lg esinde
i ce
ĠÄ° dar
ĠteÅŁ vik
Ġbel ediy
Ġkam p
o ca
se f
Ġkayde d
em li
yas al
en gi
Ġs am
Ġsah ib
ĠgeÃ§ er
ĠkÃ¼ltÃ¼r el
ĠO f
A B
Ġtamam lan
iye de
ĠaÃ§ Ä±lan
ĠÃ§ eki
Ġkap s
Ġel b
Ġotob Ã¼s
ĠEr z
ĠKen di
Ġ lik
Ġfon ksiyon
ĠTar Ä±m
Ġk ere
Ġbed el
ĠF eder
ah tar
Ġver m
Ġver ilir
Ġr estor
Ġul usal
Ġhiss ed
Ġma aÅŁ
Ġbir ini
l iyat
Ġim kanÄ±
fer ans
ĠÃĸ mer
ĠbiÃ§ im
Ġb e
Ġsan ki
Ġil Ã§e
iÅŁ ehir
ĠalÄ±n dÄ±
b on
Ġted bir
ĠR um
Ġu st
or ta
Ġilg inÃ§
Ġdar be
Ġs e
Ġi ade
Ġt it
man lÄ±k
ĠM at
m os
ĠGalatasar ay
ĠyÄ±l Ä±ndan
den iz
Ġist ediÄŁi
Ġhar it
an d
eceÄŁ imiz
ĠmÃ¼da h
Ġbur aya
ĠgÃ¶ster iyor
Ġproj esi
ĠÅŁ ef
Ġsor unun
ĠArk adaÅŁ
ĠM Ä±sÄ±r
Ġbak an
ĠJ apon
Ġyap Ä±sÄ±
Ġkor uma
or i
Ġd iler
ĠG erek
f Ä±
ĠkayÄ± p
ĠF Ä±r
u lar
Ġpo tansiy
aÅŁ Ä±k
ĠK ara
ĠG er
ĠEs k
err ah
Ġay akk
h t
ro p
ĠÅŀ ampiyon
aÄŁ Ä±na
Ġkayn aÄŁÄ±
Ġolm alÄ±
ĠbugÃ¼n e
Ġum ut
ĠaÃ§Ä± dan
s ul
ĠKay mak
el l
Ġg idi
ĠEm niyet
ĠbaÅŁ kanÄ±
ĠB oz
Ä±ÄŁ a
ĠKom isyon
Ä° S
Ã¼l mesi
ĠkaÃ§ Ä±n
ĠAmerik an
am Ä±ÅŁ
al esef
oÄŁl unun
ĠBir leÅŁ
Ä±y Ä±m
ĠsaÄŁlay acak
ĠyÃ¼z Ã¼nden
ĠS Ã¼per
Ġyar Ä±m
baÅŁ Ä±
Ġyap Ä±mÄ±
ĠgeÃ§ tiÄŁimiz
lÄ±k lar
m Ä±
lan t
b ey
alt Ä±na
ĠYÄ±ldÄ±r Ä±m
Ġkolay ca
k el
Ġend iÅŁ
ĠAK P
ĠyaklaÅŁ Ä±m
ĠM em
Ġk Ã¼t
lÄ± dÄ±r
ĠiÅŁ lev
Ġdiz i
Ġet ki
Ġbir leÅŁ
ĠÃ¶ÄŁrenc ilerin
Ä±n day
ĠaÄŁ rÄ±
ilm ez
oc k
Ġbu z
Ġortam da
ÄŁ ur
len ir
iler den
ĠS tr
Ġmod eli
ĠÃĸÄŁr enc
em be
Ġkad Ä±nÄ±n
Ġkullan an
ĠY eÅŁil
ma il
Ġincel en
ay arak
Ã¼m r
ĠpaylaÅŁ Ä±m
Ġtabi i
ĠEn erj
Ġbir inin
Ġf atur
ĠyaptÄ±k larÄ±
m ut
ĠgÃ¶ster ir
malar Ä±nÄ±
ĠY en
ĠolduÄŁ unuz
Ġtak v
Ġyol uyla
Ġn iyet
ĠK il
Ġc oÄŁraf
ĠKar ad
ĠÄ° d
ĠMuham med
ezer v
Ġet tim
Ġsun an
ĠT Ä±p
n ik
ĠH ukuk
Ġm m
Ġu fak
ĠKam u
Ġherkes e
Ġf Ä±k
o u
Ġd oy
um p
Ġsin ir
ĠdÃ¶nem i
ĠZ aten
Ġtarih leri
iÄŁ in
Ġal ak
ĠkonuÅŁ an
Ġad alet
ĠAmer ika
ĠG az
ĠgÃ¶ ÄŁ
ĠgÃ¼n Ã¼mÃ¼z
ĠÃ¼y eleri
ĠbÃ¶yle ce
ĠS Ä±nav
ĠTur izm
ĠHÃ¼s eyin
ĠS il
ĠgÃ¶r Ã¼r
ĠkarÅŁ Ä±lan
Ġgerek Ã§
I M
ĠT V
ĠBaÅŁkan lÄ±ÄŁÄ±
Ġbas k
acak sÄ±nÄ±z
ĠsaÄŁ lÄ±yor
Ġel bette
ĠF er
ĠuÃ§ uÅŁ
Ġr efer
Ġbiri dir
Ġins anÄ±
ĠkadÄ±n larÄ±n
Ġus ul
Ġgir di
Ġide al
r ika
ĠB alÄ±k
ĠAn a
ĠgeliÅŁ meler
ĠgÃ¶ l
ĠF ark
ĠAraÅŁtÄ±r ma
Ġr ej
Ġsebeb iyle
Ġr Ã¼y
m esiyle
ĠgÃ¼Ã§ lendir
Ġnef es
Ġinsan lara
Ġalt yap
ĠsonuÃ§ larÄ±
Ġbeklen t
la j
Ġbirbir ine
ĠyÃ¼z ey
k Ã¶y
Ġser gil
ir v
ĠS e
Ġsan ayi
ru f
am adÄ±
Ġkon ak
ar bak
ĠG rub
Ġist edi
Ġd ip
ĠgÃ¶rev i
ĠV at
Ã¼m Ã¼ÅŁ
Ä±l masÄ±na
Ġt or
Ġm us
Ġmad di
ĠdÃ¼z elt
Ġyol cu
ler ken
Ġt Ä±p
ĠO ÄŁ
ĠT un
an ti
ev er
Ġm ekt
Ġalb Ã¼m
Ġkil omet
ĠÃ§aÄŁ Ä±r
ĠGeÃ§ en
Ġd ini
Ġyan Ä±na
Ġgenel inde
ĠG Ã¶n
Ġzam anÄ±
man Ä±zÄ±
Ġin ci
ĠF in
Ġgel eceÄŁ
vek il
Ġkans er
Ġon dan
Ġsay ede
Ġkon ser
ĠM alat
ad Ä±ÄŁÄ±nÄ±
lan mÄ±ÅŁtÄ±r
ĠÃ§aÄŁ r
Ġmak am
ĠP lan
ĠbÃ¼t Ã§
ĠAr ab
Ġanlat an
ĠdeÄŁ in
tÄ±k larÄ±
Ġay k
ĠT B
Ġz ek
Ġg Ä±da
abilir iz
ĠulaÅŁ abilirsiniz
ac Ä±k
ĠaraÅŁtÄ±r malar
ĠE d
er t
ĠBil gi
Ġhalk Ä±n
Ġan ti
Ġf alan
ĠW indows
ĠÃ¼st Ã¼ne
Ġfiyat Ä±
ĠDem okr
Ġist erseniz
Ġger eÄŁi
ĠY urt
st it
ĠÃĸnc elikle
ĠgÃ¶ k
ĠErdoÄŁ anÄ±n
Ġgidi p
wit ter
ĠgÃ¶r m
Ġyer den
Ġsorun larÄ±
ĠG rup
Ä° Z
ĠamaÃ§ lÄ±
az a
arbak Ä±r
tr en
ĠoÄŁ lu
Ġkal mÄ±ÅŁ
ya j
Ġtop lu
Ġ Ä±r
af er
abilir ler
ĠN eden
Ġist ey
ĠD ers
Ġfutbol cu
o ur
lan d
ĠV E
ĠÃ¼lk emizde
ĠmÃ¼ hendis
Ä±nt Ä±lÄ±
Ġesn asÄ±nda
lerimiz e
ĠD est
ĠÄ°ÅŁ let
ĠAlman ya
Ä±lÄ±ÄŁ Ä±yla
Ġoran Ä±nda
Ġkim lik
ĠyÃ¼r Ã¼r
Ġgenel de
Ġp l
tÄ± lar
ĠgÃ¶r dÃ¼k
ĠB oy
Ġ ada
Ġbek lem
Ġmut luluk
Ġfizik sel
ĠÅŁ unlarÄ±
Ġver mektedir
ĠkanÄ± t
ĠkÃ¼r esel
Ġedeb iyat
Ġcum hur
ĠiÅŁbir liÄŁi
Ġolduk larÄ±nÄ±
m elik
ĠOd asÄ±
Ġv ir
ĠS Ã¼ley
Ġver meye
z a
ir im
ĠyÃ¼rÃ¼y Ã¼ÅŁ
Ġolmad Ä±ÄŁ
Ġyetk ili
Ġdev rim
ĠOt el
ĠF utbol
Ġsev gil
Ġbul mak
Ġad landÄ±r
ĠdÃ¼ÅŁ en
duÄŁ um
Ġfay da
ist in
ĠK O
Ġs unu
Ġm ac
ĠM en
ĠK art
ĠÄ°s pan
ĠRamaz an
Ġd ijital
mad Ä±ÄŁÄ±nÄ±
Ġyen ilen
ĠGerÃ§ ek
mey ecek
Ġkay bol
Ġk oc
ĠaÅŁaÄŁÄ± da
Ġkur s
Ġnes il
ĠeÅŁ i
is iklet
ĠD anÄ±ÅŁ
ĠK ent
Ġk uzey
ĠGenÃ§ lik
dik lerini
ĠOn lar
ol og
Ġbar Ä±ndÄ±r
Ġda im
ĠA L
ĠF ar
ĠaÄŁ r
Ġdav a
Ġbit k
ĠS iv
ĠK ut
Ġyok tu
Ġsistem leri
ĠÄ°l iÅŁ
ĠTop lum
Ġg Ã¼r
Ġgid iyor
Ġh it
ĠCez a
ĠYÄ±l dÄ±z
Ġet miÅŁtir
Ġkalit e
ĠgÃ¶rÃ¼ÅŁ meler
Ġmey dan
Ġm Ã¼r
Ġk imi
s iyet
Ġgerek tiÄŁi
Ġgrub u
Ġes k
ĠbaÄŁ Ä±r
Ġhav uz
ĠÃĸ dÃ¼l
ĠÃĸz g
U N
Ġver erek
eb e
ĠgÃ¼zel lik
l Ä±yoruz
ĠyayÄ±n lanan
ley erek
ĠPh one
ĠP l
Ġyak Ä±ndan
Ġsay fa
lad Ä±m
m it
ĠmÃ¼dah ale
ĠÃ¼ret imi
Ã§ uk
Ã¼ ce
Ġist if
ĠG ar
is yen
Ġkar tÄ±
Ġo b
Ġsev k
Ġmah all
Ġyans Ä±t
Ġkeyif li
ĠÃĸÄŁr en
Ġtemiz lik
Ġf abrik
Ġpr atik
Ġdevlet in
sÄ±z Ä±n
Ġboy u
ĠDiy arbakÄ±r
Ġer t
Ġtut an
Ġ Ä±
ah h
ler di
Ġyer lerde
mek ten
st r
Ġyar Ä±n
g ah
ĠD ik
en n
Ġkah raman
ĠAll aha
ĠgÃ¼nde me
Ġd iyet
duÄŁ unuz
Ġdurum a
Ã¼y e
Ġbur adan
lerin deki
of t
Ġman z
ĠbÃ¼ny esinde
ĠÅŁeh r
aÄŁ Ä±nda
Ġfark lÄ±lÄ±k
ĠCum a
Ġn am
ĠÅŁey in
ĠM obil
Ġmak al
mas Ä±n
Ġh a
ot ik
is ar
ĠÃ¶lÃ§Ã¼ de
Ġn as
Ġsey ir
Ġm imar
Ġol acaÄŁÄ±
am Ä±n
t Ã¼rk
ĠbaÅŁlan gÄ±Ã§
ĠTab i
k on
Ġbey an
Ġt uÅŁ
dÃ¼ÄŁ Ã¼nÃ¼
Ġedil ebilir
Ġkus ur
ĠÃ§ocuÄŁ un
ĠyÃ¼ksel t
Ġifad elerini
em eyen
Ä±l maktadÄ±r
Ä±l masÄ±nÄ±
ot o
ĠdÃ¼ÅŁÃ¼n Ã¼l
de b
Ġyiy ecek
ĠÃ¶n de
ĠulaÅŁ tÄ±r
us uz
ĠG e
Ġetkil ey
Ġiz len
Ä±l dÄ±ÄŁÄ±nda
ĠgÃ¼n Ã¼mÃ¼zde
ĠgeÃ§ ici
im le
Ġgal ib
Ġkorum ak
Ġmev zu
aÄŁ Ä±nÄ±n
ĠyaÅŁ adÄ±k
o li
ĠS aat
ĠT O
Ġde pr
ĠsektÃ¶r Ã¼nde
ĠgÃ¼n ler
par ator
g az
Ġbilg iye
de mir
Ġal abilirsiniz
ĠM on
ĠÃ§ am
ĠC ar
d eri
ĠAn droid
Ġ est
ĠEs cort
Ġkal Ä±r
Ġm el
ektÃ¶r Ã¼
Ġtedav isi
dÄ±ÄŁ Ä±nÄ±z
lendir me
ĠP ort
alan dÄ±r
ĠUl usal
in sel
il ip
Ġz eytin
Ġhak larÄ±
ĠBun larÄ±n
Ġac aba
ĠM el
lÃ¼ÄŁ e
Ġkon uk
Ġk er
l or
ĠM Ã¼ÅŁter
Ġsev er
ĠÃ§Ä±k acak
Ġo p
Ġtan esi
Ġhap is
ĠTur k
ĠKarad eniz
v el
ĠF et
Ġden et
di v
m uyor
Ġmut fak
ĠtanÄ± tÄ±m
el iÄŁi
ĠÃ¼ret ic
Ġyar Ä±
Ġekip leri
Ġac il
Ġev et
ĠdÃ¶nÃ¼ÅŁ Ã¼m
ebilir im
Ġsev gi
ĠBel ki
Ġbil en
ĠalÄ±n arak
ĠÃĩan akk
Ġedildi ÄŁi
Ġarac Ä±lÄ±ÄŁÄ±yla
ĠÃĩ elik
Ġk up
de v
Ġmar uz
ĠkarÅŁÄ±l aÅŁtÄ±r
Ġp ort
ĠS em
s eri
ĠÄ°Ã§ in
ĠC ih
Ġb iy
Ġh ediy
S O
ĠE x
ĠDÃ¼n y
lar i
Ġeg z
la v
ĠKÄ±z Ä±l
ilm esini
Ġc em
Ġkap an
k er
ĠkarÅŁ Ä±ya
l eket
Ġmes l
Ġf ar
Ä± d
ĠgÃ¶rÃ¼n Ã¼yor
Ġd ey
Ġbelir lenen
an i
ĠyÃ¶n Ã¼nde
Ġhan Ä±m
ĠgÃ¶z altÄ±na
A Z
Ġgelenek sel
mad Ä±ÄŁ
Ġt he
Ġkolay laÅŁtÄ±r
Ġincel ey
Ġrak ip
Ġkal b
Ġar alarÄ±nda
ĠyÃ¶ntem i
ĠyaÅŁ lÄ±
ĠpiÅŁ ir
Ġyet en
Ġkonu larda
ĠulaÅŁ Ä±m
Ġbil et
Ġtaraf tar
an tep
ĠÃ§alÄ±ÅŁ mak
ĠÃĸÄŁret men
ey a
ĠPart isi
Ġolm ayÄ±
ĠÄ° r
Ġedilm ektedir
Ġgetir mek
ĠolduÄŁ um
ĠÃ¶nc esinde
er al
eÄŁ ine
Ġver ilecek
Ġol dum
t Ä±n
Ġalan larÄ±
an dar
ĠHaz Ä±r
Ġmadde si
Ġklas ik
ĠP et
u da
Ġkazan Ã§
ĠMÃ¼ hendis
ĠD E
Ġyap tÄ±m
Ġmevcut tur
ĠRab b
ĠbÃ¶lÃ¼m Ã¼nde
ĠI ÅŁ
ĠyÃ¼k Ã¼m
ĠFenerbah Ã§e
Ġgit mek
Ġp lak
ĠB oÄŁ
Ġistih dam
ĠZ iy
ĠSÃ¼ley man
o x
ĠTr ump
ĠaydÄ±n lat
ĠOt om
edik lerini
Ġar alÄ±k
Ġgerek se
Ġolmad Ä±
A H
acaÄŁ Ä±mÄ±z
Ġver ilmesi
am ayacak
Ġkurum sal
ĠBey az
Ġel inde
Ġuy arÄ±
Ġh asar
ĠApp le
ĠÃ§ or
ĠdÃ¼zey de
Ġkom ÅŁ
ur ta
Ġ eh
Ġmalz eme
ĠyapÄ±l dÄ±ÄŁÄ±
Ġtab lo
Ġtasar ruf
ĠgÃ¼n den
Ġh ab
ĠM esel
ĠeÄŁlenc eli
ĠF iyat
Ġg ayet
ĠD ar
Ġof is
Ġal eyh
ĠkonuÅŁ ma
Ġdar b
Ġl ok
enk ul
Ġkar a
ĠkÄ± v
Ġkims enin
ey se
Ġindir im
et te
Ġver im
P S
Ġ Ã¼
d iniz
ĠK af
ĠÃ¼st Ã¼nde
ren s
Ġgazet ec
Ġkit l
ok ol
Ġb et
ĠB ana
Ġfayd alÄ±
ĠÄ° b
Ġmuh ab
ĠSon r
it y
Ġderec ede
ĠÃ§ek ti
Ġyol unda
Ġver imli
Ġsit eleri
Ä° D
ans iyon
Ġbelirt ildi
Ġan al
tay Ä±z
Ġyaz Ä±k
Ġkim yasal
Ġinan Ã§
ĠiÅŁ leri
Ġbulun mak
Ġbab asÄ±
Ġal dÄ±k
ĠtaÅŁ Ä±ma
adÄ±ÄŁ Ä±mÄ±z
k ur
Ġy Ã¶r
ĠOy sa
ĠTab ii
Ġsan Ä±rÄ±m
ĠmaÄŁ dur
ĠmÃ¼mkÃ¼n dÃ¼r
Ġuy umlu
ĠTarih i
Ġek ibi
ĠteÅŁekkÃ¼r ler
ĠgeliÅŁ miÅŁ
Ã¶r Ã¼
Ã¼l dÃ¼
ĠÃĸr g
em atik
Ġsev g
m elidir
Ġhay ran
Ġyap Ä±n
iÄŁ e
ĠbaÅŁ ken
ĠYak laÅŁ
ĠAv ust
m elerin
m is
ĠBur s
Ġp or
Ġger il
Ġgur ur
ĠAk deniz
ĠA dana
os ya
Ġyan gÄ±n
ĠOr t
Ġtoplum un
ĠAÅŁ aÄŁÄ±
ĠÃĩev re
Ġoyun larÄ±
Ġok ur
Ġbul abilirsiniz
ĠKul Ã¼b
Ġsel am
Ã¼mr Ã¼k
Ġkon for
ĠK amp
ĠkÃ¶ pr
an larÄ±n
mad Ä±k
Ġgay ret
an n
ĠB az
ra g
ĠÃĩalÄ±ÅŁ ma
ĠC on
Ġbahs ed
Ġkal em
Ġor man
ĠD e
Ġhat a
Ġy itir
Ã¼st r
Ġhal en
lÃ¢ m
ĠCumhuriyet i
ĠiÅŁ gal
lÄ±k larÄ±
ĠK up
Ġyol da
ar Ä±n
ĠEtik etler
Ġan d
ĠY aÄŁ
ĠsÃ¼reÃ§ te
ĠgÃ¼n Ã¼n
Ġciv arÄ±nda
Ġs l
Ġesn af
Ġ Ã¼m
ĠgÃ¼n e
le ÄŁ
ĠÅŁirket i
Ġk Ã¢
Ġzor luk
eÄŁ inin
Ġb ez
k Ä±r
d iye
ĠhayÄ±r lÄ±
Ġban ka
ĠÃ§at Ä±ÅŁ
ab or
Ġli g
Ġr Ã¼z
ĠDeÄŁ iÅŁ
ĠN et
ĠD on
ĠTÃ¼rkiy edeki
ĠGazi antep
ĠDÃ¼z en
ĠA N
Ä±k lÄ±
s atÄ±
ĠA ile
Ġd om
ĠÃ¼lk eler
Ġr ezerv
Ġbey in
el al
ĠsÃ¼r edir
en de
ĠalÄ±ÅŁ kan
ĠB od
Ġkend imi
u g
ĠKay nak
Ġyap Ä±p
ro m
Ġkol tuk
ĠBank asÄ±
Ġk Ä±zÄ±
l ed
ĠKo Ã§
Ġyet ersiz
og raf
Ġzaman Ä±nda
ĠOr gan
Ġpar mak
ĠsonuÃ§ lar
ĠÃ§Ä±k mÄ±ÅŁ
is iz
Ġp ah
l y
Ġan ahtar
ti on
y alÄ±
ĠÄ°s v
malar Ä±n
ĠgÃ¼n ey
ĠÃĸ yle
Ġkal ab
ĠEsk iÅŁehir
Ġr ahmet
Ġhal kÄ±
ĠÃ¶n Ã¼mÃ¼zdeki
Ġmens up
Ġbil eÅŁ
Ġ Ä±n
z at
ĠN er
Ġk aÄŁÄ±t
ĠKur an
Ġm or
ĠY Ã¼r
iler inden
t t
Ġer iÅŁim
Ġzaman lar
Ġev lilik
Ġhastal Ä±ÄŁÄ±
ĠyaÄŁ mur
ĠgerÃ§ekleÅŁ en
ĠbaÄŁ Ä±ÅŁ
Ġmey v
Ġkum aÅŁ
r ay
Ġar tan
Ġboz ul
Ġayakk abÄ±
ĠgÃ¶ster di
Ġdal g
Ġol unca
an Ä±zÄ±
adÄ±ÄŁ Ä±nÄ±z
ĠnÃ¼f us
ĠÃ§alÄ±ÅŁmalar Ä±nÄ±
r al
r y
Ġmiktar da
Ġyet enek
eler ek
lem esi
Ġhal i
Ġayk Ä±rÄ±
ilm esine
ĠDÄ±ÅŁ iÅŁleri
elen dir
m ediÄŁi
y ol
ĠS iyas
Ġkr ed
ĠY ukarÄ±
Ġalt Ä±nÄ±
Ġy av
ĠgÃ¶ m
Ġf en
ĠT al
Ġl Ã¼k
Ġsev en
ĠÃ§ Ã¶k
ĠdeÄŁ ildi
Ġad ayÄ±
Ġfin al
Ġken ar
ĠZ ira
ĠdÃ¼ÅŁÃ¼n ce
Ġden k
Ġin c
n Ä±n
Ġol aÄŁan
Ġev len
Ġkr em
ĠOr du
ĠEnerj i
ĠÃĩ Ä±k
ĠHem en
Ġsorun lar
r at
Ġgit tik
Ġb aba
ĠR ad
ĠbaÅŁlÄ±k lÄ±
Ġyurt d
ĠÄ°s mail
Ã¼rk en
Ġsun ulan
ĠÃľz er
Ġser tif
lay acak
M M
Ġrek abet
m r
S K
ĠO lay
Ġkom isyon
ĠyÄ±l lardÄ±r
Ã¶ p
Ġk Ä±sÄ±t
Ġgerek tiÄŁ
ĠBir Ã§ok
Ġyap manÄ±z
Ġser g
ay lÄ±
ĠM ek
ĠS aÃ§
Ġt iyatro
Ġy el
om p
ĠAbd ullah
Ġist is
Ġmuh tem
Ġyolc uluk
Ġl ink
sta gram
t o
ĠbÃ¼y Ã¼me
ĠErk ek
Ġy oÄŁ
Ġeder iz
tif ak
ĠS es
at istik
Ġan Ä±nda
Ġs aha
Ġkom ut
Ġs arÄ±
Ġs i
Ġic in
Ġden ir
Ġv ad
ĠkÄ±y met
a il
Ġkal Ä±cÄ±
Ġhis se
ĠBunun la
Ġgel diÄŁini
k al
Ġitir az
ĠÃ¶nc elik
ĠK av
men izi
Ġt ok
Ġkul Ã¼p
Ġdikkat li
ĠHay Ä±r
m eyin
ĠT R
umuz un
Ġmet al
Ġkul Ã¼b
eb ilen
ĠmaÃ§ Ä±
Ġbirey sel
Ġday alÄ±
mem esi
ĠHay van
o ut
Ġalan larda
ĠÃ§eki ci
Ġmet rek
Ġol abilirsiniz
un ma
b ek
Ġd aÄŁÄ±
ley in
ĠEf end
ĠN ak
Ġcez asÄ±
Ġdep ol
ĠsÃ¼r ece
lar Ä±mÄ±
Ġsebep le
lan da
ĠDo Ã§
ĠkullanÄ±l masÄ±
Ġtak Ä±mÄ±
Ġkazan an
ĠÃ¶zgÃ¼r lÃ¼k
Ġhayat ta
Ġsiz leri
Ġgec ik
ĠÃ§ocuk larÄ±
y iz
Ġolm amasÄ±
ĠalÄ±n Ä±r
l os
O L
Ġgel mesi
Ġt ap
ĠKar ar
Ġaz Ä±ndan
ĠH Ä±r
Ġi man
ĠtÃ¼k etim
lan dÄ±ÄŁÄ±
os k
iler le
ĠÅŀub e
Ġmu ay
Ġar aba
ĠS un
Ġtal im
Ġsur etiyle
el le
ĠÄ° let
ĠAr aÃ§
o o
Ġreh ber
te in
Ġb Ã¶yl
ĠA R
ik ol
ĠTem el
Ġal masÄ±
Ġbul an
Ġmey ve
l asyon
ĠgÃ¼n ah
it esi
Ġm ir
Ġtaz min
ĠEn d
Ġbes lenme
ĠÃĸ te
ĠyaptÄ±ÄŁ Ä±mÄ±z
lik te
ĠS Ä±nÄ±f
ĠÄ° mam
Ġdemokr atik
Ãľ N
Ġfel sef
ĠÄ°ngilter e
Ġs Ã¶
Ġtab an
Ġpet rol
Ä±s Ä±yla
lik ler
Ġ Ä±sÄ±
ĠL i
ĠgÃ¼ven liÄŁi
ĠyÃ¶n el
ĠAnkar ada
Ġs Ä±z
iler de
ĠcÃ¼m l
ĠÃĩ ek
ĠAr dÄ±ndan
ĠKon ya
ad ir
Ġmuh af
Ġkend inizi
Ġs Ã¼n
Ġbes len
ilm e
c Ä±lÄ±ÄŁ
ĠMH P
ĠV ol
ÅŁ iv
Ġnet ic
Ġav ukat
Ġuygulam alarÄ±
ĠsÄ±nÄ±r lÄ±
ÅŁ ap
Ã¼k le
ĠÄ°ÅŁ leri
ĠTel efon
ĠG Ã¼nÃ¼
Ġve sil
ĠaÄŁ Ä±z
ĠProj e
ĠÃĸ l
am adÄ±m
ĠV ali
Ġuygul anan
Ġf et
ĠbaÅŁlad Ä±k
ĠC adde
ĠsaÄŁ lÄ±ÄŁÄ±
Ä±l dÄ±ÄŁÄ±nÄ±
Ġan Ä±
Ġy anÄ±n
ĠbaÅŁlay acak
Ġan ay
Ġfark Ä±
y adan
ĠT or
Ġmak yaj
l es
ĠGÃ¶r ev
ĠsÄ±r t
uyor du
ĠB et
Ġma alesef
Ġadam Ä±
Ġproj eler
ĠH Ä±z
Ġdurum un
Ġkullan dÄ±ÄŁÄ±
c eÄŁi
ĠA T
ĠkÃ¶ p
Ã¢ t
ĠH oc
Ġkullan abilirsiniz
ĠÅŀ im
ĠbÃ¼y Ã¼
ĠyÄ±l Ä±nÄ±n
Ġmet in
I L
f at
ĠY azÄ±
ĠbaÅŁ Ä±
ĠgÃ¶z Ã¼k
ĠGÃ¼n Ã¼mÃ¼zde
ĠÃ¼rÃ¼n lerin
ĠBÃ¶l ge
il li
ar ya
ler deki
mak la
ĠsÃ¼r Ã¼cÃ¼
Ġnokt asÄ±
ĠOr man
Ġek mek
ley ecek
Ġz emin
Ġmem leket
ĠoluÅŁtur ul
Ġoyn an
Ġd ans
Ġolmak tan
Ġmec lis
Ġiyil eÅŁtir
ĠsÃ¶y lemek
Ġver me
ĠÃĸn ce
c Ä±nÄ±n
ĠM ez
ĠterÃ¶r ist
ĠsÄ±f Ä±r
ĠKÄ±s a
unuz un
ĠgÃ¶r dÃ¼m
Ġkork u
ib e
Ġn em
ara j
Ġbak tÄ±ÄŁ
ĠP an
lem iÅŁ
Ġs Ã¼per
Ġhareket e
E B
ĠÃ§alÄ±ÅŁ Ä±r
ĠM u
uy um
Ġver ici
Ġol amaz
usu f
ĠD ep
ĠkullanÄ±l abilir
Ġses siz
ĠGeÃ§ tiÄŁimiz
ĠbaÅŁlad Ä±m
ĠDeÄŁ er
abor at
Ġhus us
Ġgel mektedir
ĠbaÄŁ lam
Ġs k
Ġkad ros
ey di
ĠL im
eceÄŁ ine
ĠyapÄ±l Ä±yor
Ġsun um
it ler
Ġgel ince
Ġunut ul
r is
ĠgÃ¶ster mektedir
Ġk u
ĠB e
Ġar an
ĠÅŁif r
ĠUz man
tÄ± cÄ±
ĠA lev
ĠkatÄ±lÄ±m cÄ±
ĠulaÅŁ mak
v ar
ĠTÃ¼rk Ã§
ĠV an
den in
ĠsÄ±v Ä±
kÄ±n ma
Ġspor cu
if e
ĠM in
day Ä±z
ĠDev am
ĠT emiz
ĠmÃ¼da hal
Ġz inc
larÄ±nÄ±z a
ĠyÃ¶n de
andar ma
Ġrahat lÄ±kla
Ġhar f
Ġar am
dan Ä±n
tu ÄŁu
Ġbulun masÄ±
Ġtep k
Ġgar ant
ĠSab ah
n an
Ġtop r
ĠN ot
ĠBaÅŁ vur
Ġedildi ÄŁ
ĠO S
Ġy edek
tik ten
ĠÃĩ ift
ĠÄ° t
Ġbelg esi
Ã§ isi
ĠÅŁey leri
Ġed ilerek
Ġdil ek
ĠK uÅŁ
ĠbazÄ± larÄ±
Ġoy unun
Ġsavun ma
it li
Ġat Ä±k
Ġd ili
Ġay da
ĠgÃ¶rÃ¼yor uz
ĠM AD
Ġak Ä±ÅŁ
Ġol abilecek
lan acak
Ġanlam Ä±
iyet ini
Ġbiz lere
Ġsiz lerle
Ġfir mamÄ±z
ĠÃ¶rgÃ¼t Ã¼
ĠiÃ§in den
Ġmas raf
Ã¢ m
Ġtem as
ĠPol is
ĠAd alet
U M
Ġtaraf tan
Ġv ah
unuz a
f ik
Ġtur ist
luk la
Ġpar lak
Ġm Ã¼s
ĠseÃ§enek leri
is indeki
ĠTak Ä±m
ĠF otoÄŁraf
Ġanlat tÄ±
ĠdÃ¼ÄŁ Ã¼n
Ġuygulam alar
ĠL a
Ġdonan Ä±m
ket bol
ĠÃ¼ret ilen
ĠFran sa
Ġy edi
ĠÃ§ ey
b il
Ġsen dik
ĠEn stit
Ġg Ã¼z
ĠB M
ĠkÃ¶ pek
Ġemek li
ĠK Ã¼t
o ter
Ġkelim e
Ġm ay
ĠÅŀ en
ĠÃ§ek iyor
t iy
ĠH ik
Ġtelefon u
Ġhar iÃ§
Ġet tiler
ĠsÃ¼rec inde
Ġson suz
iÃ§ i
ĠTekn oloji
ĠElekt rik
ip lin
ĠS E
Ġder ken
Ġbir ÅŁey
ĠR ek
ĠBilg isayar
Ġkem ik
Ġn Ä±n
ĠoluÅŁtur an
ĠyÃ¶net men
ĠG Ä±da
ĠY azar
ĠÅŁah Ä±s
ĠsÃ¶z Ã¼
ĠkarÅŁ Ä±mÄ±za
ĠK uvvet
mamak tadÄ±r
ĠÃĸzg Ã¼r
Ġver siyon
Ġimk Ã¢n
ĠP ay
Ġv asÄ±
Ġan tren
Ġcam i
j en
ĠfÄ±k r
Ġadr esi
ĠRes mi
mak tÄ±r
n uv
ĠÃ§alÄ±ÅŁ maya
ĠP ek
ĠyÄ±l larÄ±
Ġd Ã¼k
ĠYat Ä±rÄ±m
Ġk ov
ĠÃĩ eÅŁ
ĠT h
ĠdeÄŁerlendir me
ĠS ol
ĠHar eket
ĠAr t
Ġyap Ä±yoruz
ĠÃľy esi
d ol
ĠÃ¼cret i
larÄ±nÄ±z Ä±n
ĠÃ§ek im
Ġol ayÄ±
ĠÃľst elik
Ġsay g
Ã¢ l
A C
Ġyap masÄ±
Ġh ekim
ĠolduÄŁ unda
ĠK aÃ§
ĠU S
Ġv ade
ti h
ĠÄ°s lÃ¢m
t um
Ġmal i
Ä±m dan
ek te
ĠgÃ¶rÃ¼n tÃ¼l
Ġmillet vekili
ot el
Ġkah ve
ĠgeÃ§ iyor
ĠS ok
lÄ±ÄŁ Ä±ndan
ĠY usuf
ĠtaÅŁÄ±m ak
Ġkey f
az er
ĠedeceÄŁ iz
ĠHakk Ä±nda
amÄ±z da
Ġister im
Ġt ev
Ġkazan dÄ±
Ġtasar Ä±mÄ±
Ġr eng
Ġd Ã¼r
Ġd edik
Ġolm asa
Ġar az
y et
ĠN ec
ĠHav alim
g at
Ġyar gÄ±
ĠyapÄ±l maktadÄ±r
Ġr engi
ĠYar Ä±ÅŁ
ist anÄ±n
ĠÅŁeh rin
Ġuy ku
Ġyer ler
Ġp u
Ġfir masÄ±
Ġyaz Ä±l
Ġm Ã¼n
ĠÃ§oc uÄŁu
Ġman tÄ±k
Ġtarih inden
Ġbul du
ĠÅŁ Ã¼k
c ret
ĠD ig
Ġyap mayÄ±
pr iz
Ġolm anÄ±n
Ġtav siy
b at
Ġbek lenen
ir li
ĠÃ¼st Ã¼
ĠT witter
Ġgel miÅŁtir
uz u
ĠiÃ§ eri
ĠE mek
ec ik
ĠP aÅŁa
ĠSek ret
Ġah lak
Ġist edim
muÅŁ tu
Ã¼l Ã¼r
Ġsistem inin
Ġdakik ada
ĠOn u
az artesi
ĠMesel a
m Ã¼yor
lar ken
ĠYaklaÅŁ Ä±k
Ġvat an
ĠyaÅŁ Ä±yor
Ġpan el
Ġyap rak
Ġte or
Ġst at
ĠyukarÄ± da
Ġar asÄ±ndan
ĠoluÅŁ ur
Ġden em
ĠG Ã¼Ã§
ĠP as
ĠiÃ§er iÄŁ
mekt eyiz
ĠgÃ¶r mÃ¼ÅŁ
meler ini
Ġ lan
Ġak r
Ġk Ã¼Ã§
is a
g Ã¼
um un
Ġg elerek
lan Ä±n
ĠdoÄŁr ul
ĠÃ¼st len
Ġbilg isi
ĠDoÄŁ an
Ġyum urta
Ġdam ar
ĠyumuÅŁ ak
Ġhal ka
eb i
Ġn ih
ĠE deb
ĠdÃ¶v iz
umuz u
eÄŁ inde
ĠAd am
ĠÄ°Ã§ er
Ġeg emen
Ġmik ro
Ġpsik olojik
Ġar asÄ±na
Ġenf eksiyon
ĠD oktor
Ġor anda
Ġd eri
Ġpotansiy el
Ġb Ä±
ĠDest ek
d iy
Ġbit ki
ĠF a
Ġb isiklet
Ġonun la
daÄŁ Ä±
eler iyle
Ġm ini
ĠdÃ¼ÅŁ Ã¼ÅŁ
tÄ±k tan
Ġy ur
ĠbaÅŁ lÄ±
Ġolm alarÄ±
iy el
ĠKr al
ĠR apor
l om
Ġg eb
in da
ĠÅŁ unu
ĠhÃ¼k m
Ġay larÄ±nda
m esinden
imiz le
lan arak
ĠsatÄ±ÅŁ a
Ġmillet vekil
Ġk a
Ġsab Ä±r
ĠfÄ±r satÄ±
ĠSar ay
Ġhayat Ä±n
ud ak
ĠS arÄ±
Ġcen net
ĠK arak
Ġp rim
ĠL ond
Ġoyn ay
Ġon ur
Ġnumar alÄ±
ĠKon s
ĠsÃ¶zleÅŁ me
Ä° Åŀ
tiÄŁ im
ĠsÃ¼r eli
ĠS tan
eÄŁ iyle
ĠB ayan
tÃ¼ÄŁ Ã¼
ĠE c
Ġm uk
i e
Ġod asÄ±
ĠYal nÄ±z
ĠTÃ¼rkiy eyi
ar ik
Ġkamer a
ĠMAD DE
Ġbin a
Ġsil in
ĠS Ä±
al el
Ġmuhal ef
ĠKr edi
Ġbilm iyorum
ok ulu
Ġol asÄ±
ĠÅŀah in
Ġt oh
ĠF i
ĠÄ°nÅŁ aat
ĠtÃ¼r Ã¼
Ġp eygamber
Ġhakk Ä±nÄ±
ĠEur o
ĠT av
ses uar
ĠÄ°stanbul un
ĠO p
R K
ĠDoÄŁ ru
ĠÃľ cret
Ġal anÄ±n
Ġev den
ĠkÄ±y as
ĠÃ¶ÄŁrenc ileri
ĠS oy
Ġc errah
Ġkat Ä±
ĠZ or
ĠÃĸÄŁr etim
ĠMey dan
ĠÃ¶nem i
Ġdu a
ĠG elen
Ġr Ã¶
Ġat tÄ±
Ġmez ar
ĠÄ°let iÅŁim
Ã¼ÄŁ Ã¼
ĠyÃ¼z lerce
duk tan
ĠgÃ¶rÃ¼l Ã¼r
ĠTer Ã¶r
Ġserv isi
esi dir
Ġv el
Ġsan ay
c Ä±k
on a
ĠdÃ¼zen leme
Ä±s al
Ġkar anlÄ±k
Ġalan a
Ġsaat lerinde
ĠN it
l ob
Ġik ram
ĠÃ§ elik
Ġkar iyer
Ġsinem a
ĠBar Ä±ÅŁ
ĠkaÃ§ ak
Ġf uar
ĠFr ans
ĠKÄ±lÄ±Ã§ dar
ĠD aÄŁ
ĠyÄ±l a
Ġettik leri
S Y
Ġtip i
Ġad Ä±yla
Ġmik tarÄ±
ĠE ge
ĠKan unu
ĠA il
A V
ĠÃ¶r t
ĠTop lam
K T
Ġalk ol
Ä±n an
ĠkarÅŁ Ä±n
el li
Ġen te
Ġhak lÄ±
ĠBod rum
Ġan lar
ĠFil istin
Ġhad is
Ġs Ä±ÄŁÄ±n
Ġir ade
ĠT ut
Ġmev sim
ĠSiz in
ĠH ey
ĠbÃ¶l Ã¼n
ĠKur umu
Ġkon uyu
Ġh orm
ĠB Ã¼l
Ġem niyet
ĠHizmet leri
Ġgel diÄŁinde
ek tif
ĠÅŀ er
Ġincel eme
ĠkeÅŁ f
ĠÄ°stanbul a
ĠÅŁ eye
Ġih al
ĠÃ¶ mr
ĠB eni
ĠD uy
Ġdepr em
Ġiz l
ĠH ind
ĠBaz en
ĠÅŁek li
r ip
ĠR Ã¼y
ĠÃ¶ mÃ¼r
Ġp en
Ġbak Ä±n
Ġsig ara
ĠT ok
ĠG Ã¶l
ĠGÃ¶r Ã¼n
istan da
Ġger ide
T Ãľ
d Ã¼n
Ġev ren
Ġkal Ä±p
ĠMÃ¼z ik
Ġnit eliÄŁ
D A
s ar
Ġsun duÄŁu
Ġv al
k im
Ġsah ne
Ġmerkez inde
Ġerkek ler
Ġsan al
Ġt raf
ĠBaÅŁ ka
Ġz irv
ĠeÅŁ liÄŁinde
ĠseÃ§ imi
ĠSeÃ§ im
Ġver dim
lu p
Ġimz alan
ĠOn a
em em
ot os
at lar
ĠsÄ±k Ä±
Ġek lem
Ġtehlik eli
Ġtan Ä±k
Ġisteyen ler
w e
Ġbun lara
ĠkatÄ±l dÄ±ÄŁÄ±
ĠolmuÅŁ tu
it i
Ġsun maktadÄ±r
Ġr om
ĠDoÄŁ al
Ġetm ez
ĠiÅŁ yer
ĠF ik
it if
ĠKar ab
ĠHerk es
Ġyor gun
ebil eceÄŁi
al og
es ter
Ġsev gili
ĠYaÅŁ am
ĠR eh
Ġd osya
Ġhit ap
ĠsÃ¶z leri
adÄ±ÄŁ Ä±m
ĠgeniÅŁ let
ĠdÄ±ÅŁ Ä±na
ĠEt kin
b u
ĠFark lÄ±
tÄ±ÄŁ Ä±m
il de
ĠbÃ¼y Ã¼y
lÄ±k ta
s oy
ĠÃ¶ÄŁren mek
Ġman evi
lan tÄ±
uk ur
ĠiÅŁlet me
k un
ĠA jans
Ġ ec
ĠsoruÅŁtur ma
ĠKullan Ä±cÄ±
am i
Ġden ilen
ĠgÃ¶r dÃ¼
Ġk abil
aÅŁ Ä±
Ġbel ge
l Ä±yorum
ĠPK K
Ġic ra
res s
ĠM o
Ġzarar lÄ±
ĠCum artesi
z i
Ġak sine
Ġr is
ĠkiÅŁ iyi
ley ip
Ġed ici
ĠdÃ¼zen lediÄŁi
ĠÃ§ Ã¶p
uÅŁtur ucu
Ġbeklen iyor
Ġa ilen
Ġolay lar
E F
ĠS ize
Ġt ay
Ġsun mak
ul l
ĠÃĩ ay
ĠR ob
tr al
ler inize
ĠkÄ±r Ä±k
ĠdÃ¼ÅŁÃ¼n Ã¼r
Ġm ol
ĠÃ§aÄŁ rÄ±
Ġgetir diÄŁi
esin ce
Ġsig orta
Ġdef ter
ĠÃ¼lk elerin
ĠM aÃ§
Ġsev iyorum
Ġp encer
ĠC o
ĠÄ±r k
at e
Ġinsan a
Ġmas a
ĠYap Ä±
ay ol
Ġyas a
Ġ Ã¼s
et le
Ġk lim
Ã¶l y
Ġh ip
dÄ± lar
ĠAÅŁ k
ic k
Ġet ken
Ġh alÄ±
iyor sunuz
Ġcan landÄ±r
Ä±b bi
Ġyer leri
ĠsÃ¼r priz
ĠsÄ±k Ä±nt
Ġhat t
h alat
ĠÃ§ek ir
c ar
Ġb acak
Ġplan a
m emek
Ġal mÄ±ÅŁtÄ±r
ĠÃ Ĥ
Ġm oda
Ġkalit esi
ĠKoca eli
Ġf estival
mal Ä±sÄ±nÄ±z
ĠoluÅŁ um
ez il
Ġkil it
am uk
ĠA dan
ĠalÄ±n acak
Ġd iyorum
Ġkur mak
v eya
ĠdÃ¶nem in
Ġv izyon
Ġ Ä±sÄ±t
Ġetm eyi
ilm elidir
ĠYÃ¶net mel
ĠHak an
Ġtab let
eb ilmesi
Ġkol eksiyon
Ġkayb Ä±
d ing
v a
Ġver iler
on g
ĠkatkÄ± da
Ġmekan iz
Ġsermay e
Ġkar m
Ġbir ine
ĠgÃ¶r dÃ¼ÄŁÃ¼
Ġgar anti
Ġol asÄ±l
men t
Ġben den
ĠgÃ¶rÃ¼n ce
ĠaÅŁ kÄ±n
ĠSiv as
Ġkalab alÄ±k
Ġal Ä±rken
ĠTar af
Ġder nek
ĠiÅŁlem ler
a a
ĠiÅŁlet im
ĠbÃ¶lg eye
Ġelb is
Ġyum urt
ĠgÃ¶ster mek
ĠG al
de s
Ġev r
Ã¼n ce
tt p
Ġsay Ä±sÄ±nÄ±n
Ã¼r r
ĠMes lek
Ġg ib
Ġaktiv it
ĠBoÄŁ az
am anÄ±n
Ġsem bol
s is
Ġkonu lar
Ġp rens
Ġy aÄŁÄ±
ĠsaÄŁlan masÄ±
ay dÄ±
g ari
on ik
ĠKon uÅŁ
Ġma il
Ġanlam ak
ĠÃĩanakk ale
Ġp eyn
ĠMahall esi
ĠgeliÅŁ en
Ġev inde
b ank
ĠÅŁart larÄ±
ĠanlaÅŁ Ä±l
c Ã¼sÃ¼
Ġkullan Ä±c
Ġs ir
rim enkul
ĠY emek
p aÅŁa
ĠbaÅŁlad Ä±ÄŁÄ±
ĠgÃ¶ÄŁ Ã¼s
Ġsit esinde
Ġn Ã¶
ĠarkadaÅŁ Ä±
ĠUygul ama
Ġprot okol
Ġbir liÄŁi
an dÄ±r
ĠÃ¼y elik
ĠEdeb iyat
Ġces aret
ĠgÃ¶rev l
E C
ĠT amam
ĠÅŁeh ri
liÄŁ iyle
Ġy ah
Ġar al
at larÄ±
Ġkar bon
Ġok uma
Ġkamu oy
u du
ĠB ol
Ġk Ã¶r
ES Ä°
um an
ĠgÃ¶z den
ĠÃ§alÄ±ÅŁmalar Ä±na
Ġbil iyorum
ĠDev amÄ±
Ġengel li
ac h
bal aj
ĠKay seri
Ġt l
suz luk
Ġik lim
Ġmer h
ĠeÅŁ lik
Ġli deri
ab alar
s lan
Ġve veya
Ġef san
Ġkir alama
Ġmac er
ĠTasar Ä±m
Ġhafta da
ĠOr tak
ĠAk adem
ĠR uh
z an
Ġar ayan
p at
ĠOr tad
Ġhizmet ler
Ã¢ nÄ±
ĠProgram Ä±
I K
ĠVak fÄ±
ĠÃ¶r neÄŁin
Ġolm ayacak
ĠM ersin
Ġs om
ĠmaÃ§ ta
Ġg rafik
ĠOr han
Ġakadem ik
ĠErz urum
asin o
ĠÃ¶ÄŁrenc ilere
ĠsÃ¼r Ã¼m
ĠÃĩ ak
Ġest etik
ĠbÃ¼y Ã¼t
Ġtarz Ä±
Ġnes n
Ġt o
ĠEÄŁ it
ĠK es
ĠP iyas
Ġkur ban
ĠaÃ§ an
ĠÃ¶ lÃ¼
Ġegz ersiz
ĠkÄ±sm Ä±nÄ±
Ġokum ak
Ġbek let
Ġgide cek
Ä±ÅŁ tÄ±
Ġm avi
ĠgÃ¶rev lendir
im ini
ĠÃ§Ä±k masÄ±
eden iyet
Ġas it
Ġayak ta
un d
op er
ĠkullanÄ±l maktadÄ±r
ĠgeliÅŁ me
Ġrahat sÄ±zlÄ±k
ĠmaÃ§ Ä±nda
lan maktadÄ±r
ĠÃ§Ä±k Ä±p
Ġdemokr asi
al Ä±n
Ġolm uyor
ĠM imar
ĠdoÄŁ ur
ĠmÃ¼l k
Ġdevr eye
mad Ä±m
Ġgerek sin
Ġkend isinin
ub e
Ġi kin
ĠyÄ±l Ä±na
Ġbil iyoruz
ĠvatandaÅŁ lar
Ġarac Ä±n
Ġver il
ĠYÃ¶net imi
ĠBir az
Ġolmak la
ĠH ac
ĠkaÅŁ Ä±ÄŁÄ±
ĠdÃ¶nem lerde
Ġs esi
ĠiÅŁ ver
ĠK Ä±ÅŁ
p az
Ġm it
Ġz ul
iniz den
Ġekonom i
ĠMerkez inde
ĠBir inci
ĠÅŀeh it
Ġkapsam lÄ±
Ġh ttp
Ġn ci
Ġfark Ä±nda
Ġkaz a
Ġn ez
ros oft
ĠdeÄŁil im
ĠolduÄŁ unun
ĠHiÃ§ bir
Ġbom b
ĠHaf t
Ġidar i
ĠdoÄŁ an
ĠSu udi
ĠsÃ¼r Ã¼yor
Ġs of
Ġal Ä±cÄ±
Ġhayat Ä±na
Ġbul ur
Ġcen az
Ä±l ma
ĠE g
ĠR as
Ġbilg ilere
ĠÅŀ anlÄ±
Ġbul uÅŁtur
Ġnokt asÄ±nda
Ä±l aÅŁ
ĠP sik
ij inal
Ġyap tÄ±ÄŁÄ±nÄ±
Ġfinans al
Ġbiz ler
Ġbildir di
ĠÃ§Ä±k tÄ±ÄŁÄ±
Ġr an
Ġl ek
ĠdoÄŁ a
r uk
ĠbaÅŁar Ä±sÄ±z
Ġpiyas aya
ĠKah raman
Ġbenim le
ĠsÃ¼r Ã¼k
Ġmas aj
ĠP erson
ĠyapÄ±l abilir
ĠSistem i
ĠiletiÅŁim e
Ã¢ b
Ã¼p han
Ġbiz zat
c Ã¼k
Ġorta da
ec t
Ġbek leyen
r az
Ġbon us
Ġb oya
ti p
ĠT C
im et
Ġend Ã¼str
leÅŁtir me
Ġko ordin
an g
o le
Ã§ Ä±lÄ±k
ĠaÃ§Ä±k Ã§a
ebilm ektedir
st e
Ġgel diÄŁ
il la
Ġnak liyat
ĠsektÃ¶r Ã¼
ĠsÄ±nÄ±r larÄ±
Ġt Ã¶r
ler imi
Ġsiyas al
Ġz ehir
Ġkend ileri
malar Ä±na
ĠAn ne
Ġev ine
ĠT Ã¼r
lin ik
ĠF az
Ġban yo
ĠinÅŁ allah
ĠlÃ¼k s
ĠgÃ¶ster diÄŁi
Ġedeb il
ĠaÅŁ aÄŁ
ĠK oc
il l
M A
Ġenf lasyon
Ġduyg usal
s h
Ġail esi
Ġm ide
Ġbak alÄ±m
Ġgel dik
Ġsoru lar
Ġanlam lÄ±
Ġkal mak
ĠdÃ¼ÅŁ tÃ¼
d un
ic dan
Ġkullan Ä±larak
ĠyÄ±l d
Ġhem ÅŁ
bah ar
ĠAz er
ĠÅŁimdi den
b Ã¼s
Ġtut um
ĠkeÅŁ fet
Ġkahv altÄ±
Ġark asÄ±nda
ĠF estival
Ġihtim al
ĠP en
Ġdel il
ĠÄ°ÅŁ lem
Ġh id
ur un
ĠÃ§iz gi
Ã» l
s ever
ĠS ch
Ġg Ä±d
ĠN ev
ĠÅŁ air
an dum
Ġkap ak
Ġtaraf Ä±nda
ĠdÃ¼z gÃ¼n
Ġsl og
Ġbah ar
Ġkir al
ĠgÃ¶rÃ¼l mektedir
Ġhaber leri
Ã¼kle er
ÅŁam ba
em iyor
ĠS oÄŁ
ĠM Ã¼cad
Ġuzak laÅŁ
ĠD iÅŁ
Ä±yor sunuz
ÅŁ embe
ĠaÃ§ tÄ±
s k
Ġkon s
Ġm im
ĠM aÄŁ
Ġisten en
Ġyolc uluÄŁ
u larÄ±
ĠkiÅŁ ilere
Ġol say
ĠO per
Ġhab eri
Ġsaat i
r ist
Ġcin ayet
ĠkÄ±sm Ä±nda
uyor lar
lan abilir
Ġpro tein
as h
ĠgÃ¼n leri
Ġmekt up
Ġalan lar
ĠeÅŁ ya
Ġib adet
m ara
i ca
l Ä±lÄ±ÄŁÄ±
ĠH es
Ġger iye
Ġrad yo
ac e
ĠAvrup ada
Ġkar go
ĠU lu
Ã§ Ä±n
Ã¼l mÃ¼ÅŁ
Ġprogram larÄ±
lam alar
ĠKon trol
Ġn iÅŁ
ĠÃ§ ak
ĠaraÃ§ larÄ±
ĠÃ§ab uk
ĠLis ans
ut ma
ĠN ih
ĠC E
ÅŁ e
Ã¼l Ã¼yor
b el
Ġder g
Ġteb rik
ĠGerÃ§ ekten
Ã¼le cek
ĠEn gel
Ä±mÄ±z dan
usun daki
ĠHÃ¼kÃ¼m et
Ġann esi
Ġev in
y im
ĠkarÅŁÄ±lÄ±k lÄ±
Ġg ram
ĠÃ¼rÃ¼n Ã¼n
ĠgÃ¶rev ini
w w
Ġb r
Ġanlat Ä±yor
ĠKaymak am
c Ä±lÄ±ÄŁÄ±
ĠF uar
Ġsertif ik
m ini
Ġkat k
ap i
ĠÅŀ ek
ĠdeÄŁer leri
Ġkal dÄ±ÄŁÄ±
ĠYak Ä±n
ĠSal on
tiÄŁ iniz
ĠyÃ¼rÃ¼r lÃ¼ÄŁe
Ġalt Ä±ndaki
ĠBirleÅŁ ik
o od
ti c
ĠgeÃ§ir mek
Ġtaz e
Ġkon ul
ĠAnay asa
am Ä±yorum
Ġrek or
Ä±l mak
Ġeder ler
ĠSÃ¶z leÅŁ
Ġkilomet re
ĠdÄ±ÅŁ Ä±ndaki
Ġpazar lama
L U
Ġsistem in
Ġkon ferans
ĠS T
ĠoluÅŁtur mak
ĠÃ§ocuk lara
Ġinan Ä±lmaz
luÄŁ unu
ĠA D
Ġfilm in
ĠdeÄŁiÅŁ en
ĠÃ§iz g
du lar
amak tadÄ±r
ĠÃ¶r neÄŁi
ĠZ eytin
ĠÃ¶de y
ur a
Ġsek si
Ġpar alel
l Ä±nÄ±n
anÄ± p
Ġyak Ä±ÅŁ
ĠC il
ĠsaÄŁlamak tadÄ±r
Ã¼m an
ĠD i
ĠÃ¼n cÃ¼
Ġmah alle
Ġyak Ä±t
ĠAÄŁ Ä±r
Ġmesel a
Ġiyil eÅŁ
ĠY abancÄ±
m emiz
liÄŁ inden
Ġkazan mak
Ġalan Ä±na
len iyor
Ġgerekir se
luÄŁ a
amÄ±z a
ĠÃ§ el
Ġtr en
ĠDeÄŁiÅŁ ik
ekt aÅŁ
r aÃ§
ĠgeliÅŁtir me
Ġteknoloj ik
Ġayr Ä±ntÄ±
ĠsÃ¶y ler
ĠV Ã¼c
ĠeÅŁ siz
Ġzaman la
Ġnum arasÄ±
eniz e
Ġtaraf Ä±
ĠÃ¼lk emizin
ĠGeÃ§ miÅŁ
Ġiz lem
umuz a
ĠiÃ§ ecek
ĠyaÅŁ ama
Ġal abilir
ĠM etin
ĠProj esi
Ġtarih ine
l Ã®
Ġs ad
ĠÃĸr nek
L E
ĠU k
Ġcep h
Ġf ant
Ġprot est
ĠÃ§ek in
Ġs eri
Ġsiz den
ĠdeÄŁiÅŁik liÄŁi
ĠÄ±s rar
Ġyer lere
ĠTes is
ĠD al
ers iniz
Ġmalzem eleri
ab ildiÄŁ
Ġorgan ize
x y
Ġist anbul
Ġik isi
Ġdin amik
uÅŁ u
tÄ±ÄŁ Ä±nÄ±z
ĠF en
Ġsaat leri
ĠV ide
Ġah ÅŁap
ĠmÃ¼ h
Ġharc am
Ġkullan ma
Ġbir inc
ĠT eb
ĠT Ã¼k
div en
Ġmahk eme
Ġyeter ince
abilm e
Ġsun ar
ĠbaÅŁlam Ä±ÅŁtÄ±r
ab ak
Ġkayb eden
ĠAb dÃ¼l
ĠY ork
Ġc az
Ġver mesi
ĠK em
m u
ĠÄ°nsan lar
Ġak sesuar
Ġdekor asyon
tÄ±k larÄ±nÄ±
e e
Ġuygulam aya
Ã¼y Ã¼
ĠSat Ä±ÅŁ
ĠÃ¶ p
Ġanlam Ä±nda
Ġbizim le
Ġkontrol Ã¼
ĠBul gar
Ġlezzet li
ĠsÃ¼r Ã¼
ĠÃ§ aba
ĠD iz
Ġt ey
ĠB ebek
ĠÃ¶rg Ã¼tÃ¼n
l iyoruz
Ġver ilmiÅŁ
lÄ±k tan
Ġsistem ine
ĠÅŁirket in
lÄ± lar
Ġetk ileri
ĠAs ya
iÄŁ eri
Ġoyun lar
Ġkon uya
id in
Ġalak alÄ±
ĠG ec
Ġd ediÄŁi
Ġyem eÄŁi
Ġpl astik
Ġtek er
ĠaÃ§Ä±klam asÄ±
Ġdev ir
ĠÃ§alÄ±ÅŁ Ä±yoruz
ĠKom utan
ĠÃ¼lk eye
Ġmer haba
Ġbulun duÄŁunu
ĠÃ¼lk emiz
Ġyol larÄ±
Ġbilin c
Ġyaz dÄ±ÄŁÄ±
ĠdÃ¼zenlen ecek
am adÄ±k
Ġar ÅŁiv
ĠgÃ¼n dÃ¼z
ĠÃ§ap Ä±nda
Ġor aya
ĠyapÄ±l mÄ±ÅŁtÄ±r
iÅŁ e
Ġsistem ini
ĠDig it
ĠF u
Ġbun lardan
k s
ĠCumhurbaÅŁkan lÄ±ÄŁÄ±
Ġs Ä±ÄŁ
ĠDÃ¼n yada
Ġd Ã¶r
Ġkat li
Ġcev ab
Ġt ef
ĠÃ¼lk elerde
ĠB Ã¶yl
Ġtes cil
Ġol gun
ĠEl bette
Ġn is
ÅŁ i
ĠM ir
Ġel ine
Ġkal acak
Ġel inden
id er
ĠÃĩ Ã¶z
ĠR om
Ã¶ v
Ã§ ilik
ĠD de
ĠbÃ¶lÃ¼m de
sim um
am adÄ±ÄŁÄ±
ĠAtatÃ¼rk Ã¼n
Ġkut sal
ĠdÃ¼ÅŁÃ¼n dÃ¼ÄŁ
Ġat mos
Ġdemokr as
Ġev i
ĠG Ã¼nde
malar a
ĠP a
ĠVat andaÅŁ
Ġolmaz sa
iv e
Ġbekl iyoruz
Ġolm asÄ±nÄ±n
ow n
Ġkoy un
ĠEr men
Ġbak ter
Ġistik rar
Ġem ir
ĠÃ¶ v
ĠTekn oloj
Ġtamam Ä±
Ġk Ã¼f
ĠÅŀanlÄ± ur
Ġverilm iÅŁtir
y eni
Ġkal Ä±yor
ĠgÃ¶z e
ĠÃ§ek mek
ĠK ud
dÄ±k larÄ±nÄ±
O S
m Ä±yorum
Ġcem aat
Ġdil iyorum
ĠyaÄŁ Ä±ÅŁ
lob al
Ġedecek tir
ĠiliÅŁk ileri
ĠHaber leri
ĠistediÄŁ ini
ĠS orum
ĠteÅŁ h
ĠÅŁar j
ĠgÃ¼n Ã¼nde
ĠAzer bay
ĠC om
ir aat
Ġs Ã¶n
Ġr ob
Ġy uvar
ildiÄŁ inde
Ġd udak
ĠÃ¶zg Ã¼
Ġp ost
Ġgetir iyor
ĠGrub u
Ġmak ine
Ġver g
ĠYunan istan
Ġr iv
Ġuy k
larÄ±mÄ±z la
Ġtan Ä±y
Ġstr es
ĠiÃ§er isine
ĠaÃ§ Ä±ldÄ±
Ġkonu larÄ±
lÃ¼ÄŁ Ã¼nÃ¼
Ġyarg Ä±lan
Ġelem an
Ġla f
Ġc oÅŁ
Ġd elik
ĠgÃ¶rev li
ĠSin em
Ġadam Ä±n
ĠR oman
Ġred de
ĠyerleÅŁ im
p a
ĠMalat ya
ĠL ev
ĠrÃ¼z gar
ĠeÄŁlen ce
ĠiÃ§er iÄŁi
it ika
Ġhakk Ä±ndaki
Ġep osta
Ġit tifak
ĠAk Ä±l
ebil eceÄŁiniz
ĠyardÄ±m Ä±
ĠÄ°m parator
Ġbur un
ĠAn d
Ġf orum
Ġsuy un
Ġsiz lerin
Ġbl ok
ĠP lay
ĠyayÄ±m lanan
Ġdaim a
ĠTem sil
Ġl ay
ĠHastan esi
ĠkÄ±yaf et
ĠkÃ¶ ken
Ġkolay lÄ±kla
uv alet
ĠyÃ¼rÃ¼t Ã¼len
ĠK ayÄ±
Ġak Ä±m
Ġih lal
Ġalg Ä±l
ĠMic rosoft
ĠarkadaÅŁ Ä±m
ĠSil ah
Ġekip man
yas por
Ġdoktor a
uc usu
Ġhukuk i
Ġfark Ä±n
Ġarz u
ĠbaÅŁ tan
ĠYok sa
ĠDÃ¶n em
ĠBaÅŁ ar
Ġhep sini
Ġtab ak
Ġd i
ĠP ara
ĠA da
Ġp ayÄ±
alar Ä±yla
av uÅŁ
ĠÃ¶ÄŁren ildi
ĠY Ãĸ
ĠBun lardan
ilecek tir
Ġk uy
os un
ĠK a
m edik
Ġbak ar
Ġverilm ektedir
ĠgerÃ§ekleÅŁ ti
Ġdon dur
Ġk afa
ĠU ÄŁur
Ġyol unu
ĠgeliÅŁtir mek
Ġver dik
Ġd og
ĠgÃ¼c Ã¼nÃ¼
Ġbul ut
ĠkÃ¶ tÃ¼l
umuz da
Ġdur uyor
mam Ä±ÅŁtÄ±r
ĠD el
ĠMec lisi
ĠÃ§ Ä±r
ĠPar is
Ġmat er
Ġbildir ildi
d o
ĠC ol
Ġgel eceÄŁi
ĠgÃ¶rÃ¼ÅŁ me
es por
ĠN az
ĠÃ¶nem lisi
Ġl og
Ġgir er
O T
Ġor adan
abil eceÄŁ
l on
ĠM or
ĠÃľn lÃ¼
ĠÃĩ iÃ§
ĠS n
ĠT im
Ġist atistik
Ġetm ey
ĠkayÄ±t lÄ±
Ġbu dur
Ġbelir gin
ĠÃ¶ f
Ġayr Ä±ntÄ±lÄ±
n da
Ġkaynak larÄ±
m ec
Ġism ini
ĠMod el
Ä±ÅŁÄ±k lÄ±k
Ã§ ilerin
Ä±k Ã¶y
ĠS af
ĠEkonom i
ĠKanunun un
tÃ¼r Ã¼
Ġik ili
ĠÃ§Ä±k arak
ĠAnad ol
Ã ©
ĠEm re
ĠtaÅŁ Ä±yor
Ġkaybet ti
ĠKur anÄ±
ĠSav unma
c al
Ġyap maktadÄ±r
Ġokul a
ĠpaylaÅŁ mak
ĠsÃ¶ mÃ¼r
ĠA A
la Ã§
ĠyÃ¶ntem leri
Ġmec bur
duÄŁ unda
ĠKon gr
o id
Ġdis iplin
Ã ĥ
Ġeden ler
Ġbirlik t
Ġef end
Ġhalk Ä±nÄ±n
ĠHan gi
Ġs emin
ĠGÃ¶r Ã¼ÅŁ
dÄ±ÄŁ Ä±na
ĠB asÄ±n
Ã¼m in
ĠkarÅŁ Ä±sÄ±na
ĠF orm
ĠY orum
Ġvurgul ayan
Ġkr iter
Ġih ale
M E
Ġsak Ä±n
ĠEr meni
Ġkurul muÅŁ
i dir
Ġh aÅŁ
ĠtÃ¼ket ic
I Z
um da
Ġhizmet e
k o
Ä±l Ä±ÅŁ
ĠKulÃ¼b Ã¼
ĠbÃ¶lg enin
laÅŁtÄ±r ma
Ġfaaliyet leri
Ġk ek
ĠP ak
Ġvitam in
ĠTÃ¼rk men
Ġetraf Ä±nda
Ġist asyon
Ġalan larÄ±nda
Ġmon taj
Ġmillet in
Ġtah sil
Ġtoplant Ä±sÄ±nda
Ġob j
Ġdip lom
ĠFin ans
Ġk g
ĠAnay as
Ġlis te
ok s
lÃ¼l Ã¼k
ĠP azartesi
ĠÃĩ oc
Ġve fat
Ġd ediler
Ġkullan Ä±yor
ĠanlaÅŁ ma
ĠY ay
Ġbu ton
ĠAz iz
Ġolan Ä±
ĠBÃ¶l Ã¼mÃ¼
Ġmut f
Ġsek iz
ladÄ±ÄŁ Ä±mÄ±z
ĠiÅŁ ini
O Äŀ
ĠK Ã¶r
ĠseÃ§en eÄŁi
Ġetik et
Ġpoz itif
Ġolur du
Ġbiz leri
Ġ utan
ĠaÅŁam asÄ±nda
lam ent
ĠyatÄ±rÄ±m cÄ±
s Ã¼
Ġuyar Ä±nca
eh r
ĠOn line
Ġyan sÄ±
Ġzaman dÄ±r
ĠM otor
Ã¼yor uz
Ġp ak
Ġv icdan
Ġmakin esi
Ġsahip liÄŁi
ĠO b
Ġgetir ir
ĠÃ§ ant
ĠÃ§ ikol
ĠgÃ¶z et
Ġet meniz
ĠBaÅŁ k
c aya
ĠkarÅŁÄ±l Ä±ÄŁÄ±nda
ĠTr ans
res yon
Ġplan Ä±
ĠHan Ä±m
Ġm Ã¼slÃ¼m
il in
Ġmerkez ine
ĠbaÅŁken ti
Ġgibi dir
ĠI Åŀ
ĠÃ¶zellik ler
Ġunut mayÄ±n
Ġtam ir
ĠM ik
Ġsonr adan
las man
Ġgiy im
ĠÃľlk emizde
Ġkoruy ucu
ĠJ oh
Ġbas tÄ±r
Ġo cak
ĠÃ¶z et
Ġev rak
ĠdÃ¶n dÃ¼
Ġper de
Ġtut un
ĠbugÃ¼n kÃ¼
ret i
luÄŁ un
ĠKadÄ±n lar
Ġanlay Ä±ÅŁÄ±
ĠE min
ĠilÃ§ esi
Ġan ket
Ġsev iyede
ĠIÅŁ Ä±k
I S
Ġkar n
ĠyardÄ±m Ä±yla
ey t
ĠalÄ±n mÄ±ÅŁ
Ġkom bin
Ġodak lÄ±
Ġyok sul
Ġproj enin
Ġit hal
ĠBÃ¼l ent
Ġyurtd Ä±ÅŁ
Ġek st
Ġdir ekt
mam alÄ±dÄ±r
Ġi mam
ĠÃĸÄŁren ci
Ġhayat Ä±nda
Ġek s
Ã¼rr iyet
Ġo muz
ĠkarÅŁÄ±l Ä±ÄŁÄ±
Ġris ki
Ġolm as
Ġkend ime
y di
Ġbed eli
m us
Ã¼s Ã¼nÃ¼
Ġlis e
L Ä°
Ġmesl eki
ĠÃ¼zer i
ĠTe dav
ĠhazÄ±r lanmÄ±ÅŁ
ĠÃ§alÄ±ÅŁ tÄ±ÄŁÄ±
Ġko du
Ġkay d
Ġtop luluk
am Ä±zÄ±
Ġuy uÅŁturucu
Ġted arik
ĠdeÄŁiÅŁiklik ler
Ġil ah
Ġder t
Ġes nek
ĠGir iÅŁ
Ġdir ek
M S
ĠyÄ±l larÄ±nda
Ġetk iler
Ġsam imi
l it
ĠBiz e
ĠyaÅŁam Ä±nÄ±
Ä±n dÄ±k
Ġcan Ä±m
ĠTrabzon spor
ĠT ep
em iyorum
ĠD ek
ĠTop lant
Ġvad eli
ĠD et
Ġta ahh
l inin
Ġf it
Ġy uv
ĠN ormal
Ġit halat
Ġir ti
ĠA V
uy du
asÄ± dÄ±r
Ġuz an
t ek
o tiv
Ġrezerv asyon
n n
Ġsk or
Ġs akat
lam alarÄ±
ĠhÄ±z landÄ±r
Ġist edik
Ġsey r
Ġin f
Ġk Ã¼l
Ġkam yon
ĠS im
ĠJ andarma
Ã§ u
Ġoyn anan
ĠsektÃ¶r Ã¼nÃ¼n
ĠboÅŁ an
Ġzaman a
ĠAllah tan
ĠK Ä±y
ĠTÃ¼rkiy eden
ĠÄ°n an
Ġkal ma
tr e
Ġkr al
s alar
Ġortam Ä±
Ġhorm on
Ġtut mak
s ed
ĠsÄ±r adan
ĠgÃ¶nÃ¼l lÃ¼
Ġmis iniz
Ġsit emiz
s av
Ġmed yada
Ġkayde den
ek om
ĠZiy aret
en lerin
ĠE dir
Ġmanz ar
Ġih mal
Ġbiz den
Ġs ul
ĠGel iÅŁ
Ġboy un
ĠÅŁey den
ĠSok ak
ĠR enk
ĠAd ay
ĠÅŁah it
Ġal Ä±mÄ±
Ġidar e
Ġolay larÄ±
ĠTan rÄ±
ĠG iz
Ġak la
Ġk oz
Ġolm anÄ±z
Ġiz ni
ĠG ez
Ġolur ken
ĠD ef
Ġl aborat
Ġhik Ã¢y
Ä±s Ä±n
Ã¼t Ã¼
Ġyol una
ĠsÃ¶ylem iÅŁ
ĠKar deÅŁ
ĠÅŁ aÅŁ
Ġtav Ä±r
ĠAf rika
Ġtat min
Ã§ asÄ±
ĠyÃ¼k len
Ġs et
ĠH a
ilir ken
ĠUk ray
ĠÃ¶z gÃ¼n
ĠsÄ±cak lÄ±k
ĠM is
ĠÃľ ret
Ġayr Ä±m
Ġprof il
Ġtak sit
ĠulaÅŁ tÄ±
Ġtoh um
Ġsahip leri
ĠHast alÄ±k
Ġimz al
d Ã¼ncÃ¼
ĠbÃ¶lg esi
y ayÄ±
Ġhaft alÄ±k
amam Ä±ÅŁ
ĠgeÃ§ mek
Ġolm asÄ±n
ĠO da
Ġproj eleri
ĠoÄŁ lum
ĠV en
ĠKayÄ± t
dir im
Ġetm em
Ġmadd eler
it asyon
Ġdin len
ĠiÃ§er ir
Ġp ir
ĠGel iÅŁtir
ĠvatandaÅŁ larÄ±n
ĠFeder asyonu
ĠKur tul
ĠbaÅŁ Ä±ndan
ĠS eb
Ġim alat
Ġsilah lÄ±
y adaki
Ġsah il
tÄ±ÄŁ Ä±nda
dav a
Ġcumhur baÅŁ
ay olu
ĠTan r
Ġkorun masÄ±
ĠgerÃ§ekleÅŁtir ildi
ĠT S
ub u
amÄ±z Ä±n
ĠÄ°l gili
ĠD ok
ĠNit ekim
h iÅŁ
Ġdair e
ĠB i
ĠdanÄ±ÅŁ man
Ġtarif i
ĠK nÄ±n
Ġal et
ĠMar mara
Ġn iye
ik al
Ġs ub
ĠmÃ¼ sa
ec iler
Ã§Ä± lar
ĠBakan lÄ±k
Ġay et
op ark
Ġbak Ä±mÄ±
ĠgÃ¶r me
Ġmadde sinin
ĠdÃ¼ny ayÄ±
ĠServ is
ĠÃ§Ä±kar mak
Ġkayb ed
Ġziy ade
L AN
ĠÃĸ Z
ĠDeniz li
ĠAvrup anÄ±n
ĠÄ°tal yan
Ġal mayÄ±
ĠsÃ¼n net
ĠDoÄŁ um
ĠGÃ¼n lÃ¼k
Ã¼mÃ¼z e
ĠCev ap
Ġdevam Ä±
Ġbul aÅŁ
Ġyaz arÄ±
ĠÃ§ an
ĠBakan lÄ±ÄŁÄ±nÄ±n
Ġsistem e
ĠC ep
Ġsen ar
Ġdolar lÄ±k
Ġkon se
ĠeÅŁy alar
ĠK orum
Ġiz lemek
Ġgerekli dir
Ġtaleb i
Ġm edeniyet
Ġvurgul adÄ±
Ġnetic esinde
U S
ĠRo ma
iy a
ĠS ektÃ¶r
Ġmat ematik
Ġsizin le
y asÄ±
Ġgir mek
Ġih raÃ§
Ġs us
Ġsan Ä±k
ĠM uÄŁ
t Ã¼k
ĠÄ±s Ä±n
l Ä±lÄ±ÄŁ
Ġdevlet i
ĠÃ¶ tÃ¼rÃ¼
ĠG ol
Ġd oz
ĠÃ¶lÃ§ Ã¼m
Ġgalib iyet
ĠgÃ¶r ebilirsiniz
Ġes eri
Ġbilg ilerin
Ġbar dak
m at
am da
ĠkoÅŁul larÄ±
Ġtr end
Ġiler leyen
Ġl it
ĠÃ¶ÄŁren me
ak lÄ±
ĠTB MM
H A
Ã¢ z
Ġend ek
ĠÃĩar ÅŁamba
Ġsat Ä±r
ĠolmasÄ± dÄ±r
ĠtakÄ±m Ä±n
Ġm az
ĠB es
iniz le
Ġmek Ã¢n
Ġplan da
el isiniz
ĠH acÄ±
ĠoluÅŁtur ur
Ä±l Ä±ÄŁÄ±nÄ±
ĠolaÄŁan Ã¼stÃ¼
ĠaraÃ§ lar
ĠÃ¶z Ã¼r
por taj
Ġisim ler
ĠgeÃ§ erek
Ã§ ileri
Ġt Ã¼y
b eri
I C
Ġsanat Ã§
Ġrapor u
ĠettiÄŁ iniz
ĠettiÄŁ imiz
n o
ĠY avuz
ĠhÃ¢ l
ĠS Ã¼n
art man
ĠSel Ã§uk
li p
ĠtÄ±k an
Ġal dÄ±ÄŁÄ±nÄ±
ĠAt eÅŁ
ĠÄ°st ik
ak ar
Ġran dev
ĠKal kÄ±nma
Ġb iber
ĠKÃ¶ pr
Ġpah alÄ±
ĠH edef
Ġbozuk luk
Ġn eÅŁ
Ġkaynak lÄ±
Ġsorun suz
ĠKaz an
Ġk el
Ġhes abÄ±
ĠU r
ĠÃ§evr esinde
Ġev vel
Ġzor lu
ĠYer el
s Ã¼n
Ġf Ä±
ĠdaÄŁÄ± tÄ±m
lÃ¼ÄŁ Ã¼ne
Ġsey ret
ĠS enin
lu b
p h
ĠG r
Ġs a
ĠKÃ¼r d
ĠUn ut
d inde
Ġp is
ĠFenerbah Ã§
Ġstratej ik
Ġham ur
ĠBelediy esinin
ĠgÃ¶ v
ĠSel am
Ġv ol
Ġor ijinal
ĠOrtad oÄŁu
Ġden en
ĠkÄ±s aca
Ġas gari
Ġuy dur
ĠÃ§Ã¶zÃ¼m ler
Ġol acaÄŁÄ±z
Ġhak sÄ±z
ĠÃ§aÄŁ daÅŁ
ĠÃľniversit e
Ġrefer ans
Ġr Ä±z
ĠgÃ¶z ler
ĠMuh ar
ĠdeÄŁiÅŁ ken
en a
ĠLis esi
mal Ä±yÄ±z
eng iz
ĠiÅŁ len
ĠÃ¼y eler
ĠgÃ¶rev e
ĠyetiÅŁ kin
k Ã¢r
Ġzorunda dÄ±r
in o
ĠPer ÅŁembe
ĠÃ§Ã¶zÃ¼m Ã¼
ĠyapÄ± larak
Ġdok u
Ġsunu cu
Ġb atÄ±
Ġnokt aya
ĠoluÅŁtur duÄŁu
id eki
ĠF orum
ĠyÄ±l dan
ĠÃ§Ä±kar dÄ±
Ġpiyas a
Ġfir malarÄ±
ĠSay fa
Ã¢h il
ĠvasÄ± t
Ġetkil eÅŁ
Ã¼ler ek
ĠGÃ¼n cel
ĠÃ§ il
Ġb ag
alar ca
ĠmeÅŁ hur
ĠG eb
ĠQ u
Ä±l maya
Ġyarar lÄ±
Ġkapsam da
if i
Ġolan larÄ±n
Ġm Ã¼ÅŁ
ĠsÄ±k lÄ±kla
h as
ĠYar gÄ±
st il
Ġkar Ä±n
ĠG B
j i
ĠA Y
n u
us e
ĠIÅŀ Ä°D
Ġgir miÅŁ
Ġkonak lama
ĠBen z
ÅŁ et
ĠH otel
ons or
ĠyapÄ±lan dÄ±r
Ġkan at
Ġ len
Ġtur nuv
Ġhem de
Ġolm asÄ±ndan
Ġsaat te
ĠaÅŁ Ä±k
lik ten
alÄ± lar
tiÄŁ inde
ĠÃ¶n lemek
ĠgÃ¶rÃ¼l Ã¼yor
ĠJ o
ĠD is
ĠHol landa
Ġham il
ĠG ece
ĠKon u
ĠkullanÄ±cÄ± larÄ±n
Ġmet r
aman Ä±z
Ġnef ret
Ġhak aret
Ġm Ã¼st
ĠMal iye
am e
le x
ĠÃ§Ä±k mak
Ġner eye
Ġhay li
Ġgid iÅŁ
ĠBalÄ±k es
Ġkend inize
Ġzinc ir
Ġsoru larÄ±
ĠP li
Ġmak simum
Ġyaz an
Ġib aret
Ġdes en
uk i
ĠH e
ĠSamsun g
mek le
E Y
Ġoyun cak
ĠEÄŁit imi
Ġsat Ä±ÅŁÄ±
Ġortam Ä±nda
Ġem r
Ġiz leyen
Ġistem ez
Ġinsan lÄ±k
Ġkad Ä±nÄ±
Ġmo tiv
Ġkon uyla
ĠK esin
Ġhoc am
Ġkullan maya
Ġonlar ca
Ġuyan dÄ±r
ur k
Ġmes leÄŁ
Ġam balaj
Ä±lÄ±r ken
Ġmin ik
Ä±s Ä±ndaki
ĠK KT
Ġort asÄ±nda
Ġdur an
manÄ±z a
Ġver ileri
ĠboÅŁ luk
ĠC anlÄ±
Ġtoplant Ä±sÄ±
ĠS k
ĠE mir
o du
Ġinan Ä±yorum
Ġdurum lar
Ġbor c
ĠaÃ§Ä±klam alarda
ĠÃĸn emli
ĠK um
Ġmevzu at
Ġvitam ini
ĠOk u
Ġvar lÄ±ÄŁÄ±
ebilir ler
Ġisten ilen
Ġgetir ilen
Ġkr itik
Ġkims eye
Ġyap acaÄŁÄ±
Ġs Ã¶k
ĠMahall esinde
ĠKad Ä±kÃ¶y
Ġorgan ik
Ġoyn ayan
ĠbÄ±rak Ä±n
ĠU Ã§
ĠA S
ĠBal kan
z em
Ġr af
Ġaray Ä±ÅŁ
ĠiÅŁ ten
ĠÅŀ ark
L Ãľ
ad iÅŁ
ĠaÃ§ ma
estiv ali
ĠS tar
ĠOn larÄ±n
Ġmemnun iyet
Ġar d
Ġdeney imi
luÄŁ unda
m m
Ġkir alÄ±k
ĠÃ§ Ä±l
Ġberaber inde
ĠaÃ§Ä±k landÄ±
Ġg Ã¼v
Ġtoplam da
ĠiÅŁlet meler
Ġgider ken
Ġtazmin at
Ġfazl asÄ±
Ġfik r
Ġkampan ya
ĠbaÅŁ lamak
ĠdÃ¼zenlen di
on ya
l edim
ĠihtiyaÃ§ larÄ±nÄ±
Ġbunun la
Ġmater yal
ĠgÃ¶ster ilen
Ġz em
ĠB oÅŁ
Ġver in
nam e
ĠPol itik
Ġtamam ladÄ±
ĠsÃ¶z ler
Ġn ik
Ġediyor lar
ĠÃ§alÄ±ÅŁmalar Ä±n
eh enn
ĠG Ã¼mÃ¼ÅŁ
p e
Ġ lam
ĠoluÅŁtur ulan
ĠD an
Ġbiz de
Ġanlat Ä±m
Ġan tik
Ġyans Ä±m
de ÄŁ
Ġdil im
u x
ĠkullanÄ±cÄ± lar
ĠÅŁ ok
ĠRes ul
Ġy i
Ġyarat Ä±cÄ±
Ġuygulan Ä±r
Ã¼l asyon
eyin ce
in dan
Ġgit tim
O M
Ġrej im
ĠkÃ¶pr Ã¼
ir t
Ġm uc
Ġf ot
Ġpil ot
ĠS Ä±k
Ġver meden
Ġgir ecek
Ġhak em
ĠmÃ¼z ak
ĠS elim
Ġsem t
Ġbekl iyorum
l ilerin
Ġlay Ä±k
Ġgir ip
az z
Ä±ÄŁ Ä±na
g Ã¼l
Ġi ÄŁ
ĠgerÃ§ eÄŁi
ĠyaptÄ±ÄŁ Ä±m
Ä±ÄŁ Ä±nÄ±n
ĠbÄ± Ã§ak
t el
Ġserg ilen
ĠgÃ¶rÃ¼n en
b o
ĠB os
Ġistif a
Ġver ip
ĠG ala
ĠarkadaÅŁ larÄ±
m ediÄŁini
ti har
ĠiÅŁ it
ĠgeÃ§ tik
ĠBiz ler
Ġe ur
ĠdÃ¶n er
ĠÄ°nÅŁ allah
Ġbir inde
ĠdÃ¶ ÅŁ
lÄ±ÄŁ Ä±yla
ĠBayram Ä±
ac aat
Ġbay r
Ġyarat tÄ±ÄŁÄ±
li dir
ĠdÃ¼z el
Ġs ag
Ġcev abÄ±
ĠÃĩoc uÄŁ
Ġtit iz
ĠÃĩ am
Ġr eÃ§
U T
u el
ĠyÃ¼r Ã¼m
ad as
Ġsiz de
Ġolur sunuz
Ġkarm aÅŁÄ±k
ĠÄ°Ã§ iÅŁleri
Ġuz ay
Ġbeb eÄŁ
ĠC in
ĠÅŁirket leri
ĠIn stagram
Ġitibar Ä±yla
Ã¼ÄŁ Ã¼n
ĠsÃ¼rdÃ¼r Ã¼lebilir
ĠÃ¼ret en
Ġrefer andum
Ġteknoloj isi
ĠK eÅŁ
Ġp laj
Ġaltyap Ä±
br ek
c usu
Ġduy duÄŁu
ĠEkonom ik
Ġmilyon larca
Ġy aban
Ġr ot
ĠVal isi
ĠÃľniversit esinde
ken t
Ġmus unuz
Ġik na
eli f
ĠseÃ§ ilen
Ġden ize
Ã¼s Ã¼nde
Ġyap Ä±yorum
Ġikti d
Ġkaynak lanan
Ã§ ek
ĠHer hangi
ĠboÄŁ az
ĠK D
Ġon lardan
ĠaÃ§ mak
Ġisim leri
lam ada
ek ili
ilm eye
Ġkurul um
eb ir
ĠÃĸz tÃ¼rk
ĠS c
Ġtab l
ĠY um
ĠK aya
ĠdoÄŁr usu
Ġkoy u
ĠKan al
Ġger gin
Ġyaz mÄ±ÅŁ
Ġkon ulu
ĠgenÃ§ ler
ĠUygul am
ĠÃľr etim
Ġbay rak
ĠkomÅŁ u
ĠbaÅŁarÄ± lar
ĠkÃ¶ t
ĠGenel likle
acak lar
ĠsÃ¼r Ã¼c
ĠistediÄŁ im
Ġol abiliyor
ant ol
Ġd iÄŁeri
or it
Ġl ak
Ġkav g
Ġvir Ã¼s
Ġfaz las
ĠÅŁer ef
Ã¼n Ã¼r
Ġsan iye
Ġsan dal
ĠDair e
Ġhareket i
Ġzam anÄ±n
Ġmin im
Ġbilg ilerini
Ġyap acaÄŁÄ±z
Ġmil liyet
larÄ±mÄ±z da
ĠÃ§alÄ±ÅŁ tÄ±
ĠoÄŁ l
ac Ä±n
ĠyaÅŁ Ä±nday
lad Ä±ÄŁÄ±nÄ±
ĠyaptÄ±ÄŁ Ä±nÄ±z
Ġatmos fer
ĠTeÅŁ kil
ĠSak arya
ĠKor k
ĠZ iraat
s anÄ±n
Ġmark asÄ±
Ġbayan lar
ĠSev gili
ĠiÅŁlem e
ĠÃ§Ä±r p
Ġtarih te
Ġuzak laÅŁtÄ±r
ĠYÃ¶net melik
A Äŀ
Ġzeytin y
Ġdep lasman
Ġprotest o
p Ä±nar
ĠBen ce
Ġtarih ten
LAR I
Ġsom ut
lay Ä±nÄ±z
p oz
ĠS P
Ġab on
ĠSal ih
duk Ã§a
ĠS alÄ±
Ġl astik
ĠBil in
ĠJoh n
ĠOÄŁ uz
Ġik amet
y eri
ĠsÃ¶z lerine
it Ã¶r
ĠyapÄ±l dÄ±ÄŁÄ±nÄ±
Ġlim on
Ġa jans
ol ik
Ġs Ã¼z
ap ort
Ġbu ÄŁ
ĠB eyin
ĠÃ§ek il
Ġrob ot
Ġduyur du
lay abilirsiniz
ĠtÄ±k layÄ±n
ĠLi gi
ĠS up
ÅŁ ek
ĠAy r
ĠBÃ¼yÃ¼k el
ĠÃĩocuk lar
LER Ä°
ĠÃľ s
ĠÅŁiddet li
Ã¼l Ã¼k
Ġh ic
am in
ĠsektÃ¶r de
ÅŁ Ä±
un um
Ġpol itika
ĠÃ§ atÄ±
ĠDav ut
ĠKomisyon u
ir et
ĠP o
ĠÅŁans Ä±
ĠgerekÃ§ esiyle
k as
ir al
ĠsÃ¼r esince
Ġduy ul
ĠMod ern
ĠaÃ§Ä±k lan
Ġk aÄŁÄ±
ĠgÃ¶nder ilen
Ġy uk
Ġyaz Ä±n
Ġhisset tir
ĠÃ§oÄŁun lukla
Ġd isk
Ġyap ay
Ġt Ä±bbi
ĠKo ordin
ĠM Ã¼f
I Åŀ
Ġtad Ä±nÄ±
Ġsah te
Ġol ayÄ±n
Ġgel mez
ĠyÃ¼z Ã¼
Ġon larla
Ġhast anÄ±n
Ġt Ã¼p
fen di
ĠUz manÄ±
ĠAk ÅŁam
Ġt uvalet
ĠT anÄ±
inc an
ĠdÃ¼k kan
l usu
Ġgerek siz
ĠdÃ¼ny asÄ±nda
Ġsin yal
Ġgeb elik
Ġtav uk
ĠS ohbet
Ġif tar
Ġfirmalar Ä±n
Ġver iyoruz
ĠvazgeÃ§ ilmez
Ġsay Ä±sÄ±nÄ±
Ġd Ã¢hil
ĠÅŀ ekil
Ġinan c
Ġs uya
ĠT uz
iler inde
ĠG it
ĠA ir
ĠKiÅŁ isel
Ġyer inden
ĠbÃ¼t Ã§e
Ġzor lan
Ġkurum lar
Ġy ir
Ġc h
ĠT iyatro
ĠHal il
Ġetmek te
ĠdÃ¼r Ã¼st
Ġdahil inde
Ġgez eg
ĠTop lantÄ±
as eb
ĠEl az
emey ecek
m esin
Ġgetir erek
ĠÄ° Åŀ
Ġhastan e
al d
Ġmalzem eler
ĠTur g
r anÄ±n
ĠAs k
Ä±nÄ±z dan
Ġmuhaf aza
Ġtut uklu
ĠaldÄ±ÄŁ Ä±m
Ġbak Ä±ldÄ±ÄŁÄ±nda
Ġhar ic
ĠM ay
Ġk esi
Ġg o
Ġsorun larÄ±n
Ġil ham
Ġal dÄ±klarÄ±
ĠB olu
Ġmad en
ĠD ost
Ġkullan Ä±r
ĠSÄ± cak
ĠH ad
Ġdurum una
c uk
ĠKorum a
ĠP aÅŁ
luÄŁ unun
ĠE R
Ġgar ip
Ġzaman lÄ±
ĠgÃ¼nÃ¼mÃ¼z e
Ġriv ayet
Ġmen f
ak al
ĠB aba
Ġilg ilendir
ic h
Ġdayan Ä±klÄ±
l d
Ġhastan eye
Ġfik ri
el inin
ĠdÃ¶n Ã¼m
Ġal erj
Ġperson eli
ĠHaf ta
Ġsay Ä±l
Ġcez alandÄ±r
ĠGala xy
ĠF or
ĠtartÄ±ÅŁ ma
el eme
Ġz ik
c in
g ur
otos iklet
d il
ĠgÃ¼l Ã¼m
Ġoran larÄ±
ĠS Ä±nÄ±r
Ġmuhalef et
Ġailen in
Ġayr Ä±lan
Ġv ize
ĠBr ezil
ĠaÄŁÄ±rlÄ±k lÄ±
Ġt ac
m es
Ġbilm ek
ĠdÃ¼ny adaki
ĠbaÅŁ lÄ±ÄŁÄ±
iliÄŁ in
Ġuzak tan
c uluk
ĠKon ferans
K Ä°
Ġtop ar
ig Ã¼r
ĠHind istan
ĠD ayan
Ġtaraf ta
Ġc asino
ĠgeliÅŁ imi
Ġn Ã¼kleer
Ä±y sa
ĠZ ar
u larak
ĠAn Ä±n
ĠÃ¶y kÃ¼
ĠBak Ä±m
Ġhaber ler
Ġmas k
ĠAvust ur
un cu
Ġbet on
Ġis pat
de si
ĠMah mut
ĠDik kat
Ġhey et
Ġyaz dÄ±
ĠS uÃ§
Ġtalim at
ed in
Ġkar Ä±ÅŁÄ±k
ĠN AT
Ã¢ lÃ¢
ĠM Ã¼n
Ġhaf Ä±z
ĠhastalÄ±k larÄ±
Ġkim in
is ti
un Ã§
hal de
Ġat Ä±lan
Ġar Ä±z
ĠT ev
Ġgir diÄŁi
ac asÄ±
Ġhav alim
Ġsay Ä±lÄ±r
ĠU mar
Ġs h
ĠB on
ĠÅŀ eyh
ĠT ip
ĠAs lan
laÅŁ masÄ±
ebil eceÄŁini
ĠKon ut
Ġle h
Ġkas ab
ĠmÃ¼t hiÅŁ
Ġvar mÄ±ÅŁ
d ilik
ĠMÃ¼ÅŁter i
Ġs ade
ar da
Ġel ini
Ġyarat an
ĠD am
ut in
Ġdiz isi
ĠTeÅŁ ekkÃ¼r
Ġorgan iz
ĠKÄ±r mÄ±zÄ±
s et
Ġv ekil
Ġkon usundaki
ĠSavaÅŁ Ä±
Ġis yan
ĠAk Ä±n
Ġmesaj Ä±
Ġfor ma
ĠaÃ§ ar
Ä±ÅŁ lÄ±
Ġgazet e
ĠS iyah
Ġedilm elidir
ĠHD P
ulu ÄŁu
ĠKad ir
Ġkitab Ä±n
Ã¼l dÃ¼ÄŁÃ¼
Ġtarih inin
ĠÃ¶n der
Ä±m lar
Ġgerektir en
Ġgec esi
Ġist eÄŁi
Ġst ok
Ġcin siyet
Ġyet ki
Ġat tÄ±ÄŁÄ±
aÄŁ Ä±ndan
ĠKons eyi
ĠsaÄŁ ladÄ±ÄŁÄ±
Ġokuy an
tik leri
Ġtaahh Ã¼t
Ġherk esi
Ġyer yÃ¼z
ĠÃ§alÄ±ÅŁ Ä±rken
r ah
ĠHÄ±z lÄ±
Ġh Ä±zÄ±
Ġver diÄŁini
Ġf iz
ĠSuriye de
ĠMer h
ĠD a
Ġu ÄŁur
ĠP R
Ã¼m de
ĠÃ¼lk eleri
Ġart masÄ±
ol a
ĠAlman yada
ĠTÃľ RK
Ġd ediÄŁ
Ġbit ti
ĠG eri
Ġg or
ĠdÃ¶n dÃ¼r
ĠsÃ¶z cÃ¼k
j an
ĠDer n
k aya
ĠkardeÅŁ i
Ġyaralan dÄ±
ĠG ay
ĠboÅŁ al
Ġyar Ä±sÄ±
al Ä±sÄ±nÄ±z
met ik
ĠgerÃ§ekleÅŁtir ilecek
Ġoyn adÄ±ÄŁÄ±
Ġuz manÄ±
Ġil im
ig ht
Ġerkek lerin
cel l
ĠBir lik
alar Ä±mÄ±z
Ġvur gu
Ġolur sak
ĠsÃ¼r dÃ¼
Ġst il
Ġboyut u
ĠbaÅŁ a
Ä±r t
ĠÃľ l
Ġuz anan
ĠN ef
Ġver ebilir
Ġyap Ä±ÅŁtÄ±r
ĠgÃ¶Ã§ men
Ġem per
ĠAm aÃ§
Ġkan aat
ĠS o
Ġres men
Ġdo lara
Ġg Ã¼mrÃ¼k
adiÅŁ ah
er a
oper atif
g ini
m edim
av Ã¼z
Ġyaz mak
ĠtÄ±p kÄ±
ev eyn
Ġn az
ĠhÃ¢ lÃ¢
ist ler
Ġil a
ĠÃ¶zellik lerini
ĠteÅŁkil at
ĠdÃ¼ÅŁÃ¼n en
Ġetkil eyen
Ġtarih lerinde
ĠHol ding
Ġc adde
ĠÃ¶ÄŁrenc isi
ey sel
ĠsÄ±nÄ±r sÄ±z
v at
ĠrÃ¶ portaj
ĠtoplantÄ± da
Ġu sta
ĠÅŁehir de
ĠÃĩ etin
ĠBahÃ§ eli
ab rika
ĠulaÅŁ an
y urt
as al
ĠmÃ¼r acaat
Ġhep imiz
ĠKart al
Ġdepol ama
Ġolsay dÄ±
Ġtemsilc isi
Ġihtiyac Ä±nÄ±z
os unu
Ġkr izi
ĠÃĩ avuÅŁ
t h
Ġoldu g
ĠBir bir
ĠyÄ±l larÄ±n
ĠYÃ¼k sel
Ġhedef i
alar ak
Ġsun uyoruz
Ġkitap lar
Ġuygulan masÄ±
ĠgerÃ§ekleÅŁtir di
Ġperforman sÄ±
Ġvar say
ĠbÃ¶lg elerde
ĠÄ°zmir de
mel isiniz
Ġs osy
ĠÃ¶nem ini
Ġg emi
ab Ä±n
Ġkend imizi
ĠkuruluÅŁ larÄ±
ĠdÃ¶n Ã¼k
Ġoy una
Ġceza ev
ĠÃ¶ÄŁren im
Ġsorum luluÄŁ
Ġin tik
ĠL ye
ĠBun larÄ±
Ä° H
ĠBaÅŁvur u
Ġrestor an
Ġtarih e
ĠÃĸ de
ĠSaÄŁ lÄ±ÄŁÄ±
Ġhat tÄ±
h id
at Ã¼r
Ġvar lÄ±ÄŁÄ±nÄ±
ĠTop rak
Ġform at
ĠOr ada
Ġtut k
ur e
ĠiliÅŁk isi
Ġklim a
ĠÄ°n ce
Ġvesil e
Ġolur lar
Ġsev dik
en di
ĠsaÄŁlay acaktÄ±r
ĠiÅŁ tir
E V
ĠÃ¶ len
ĠSen dik
Ġyol dan
ĠS S
Ġey alet
Ġtemiz liÄŁi
Ġbirbir lerine
len erek
Ãľ R
Ġkuvvet li
Ġhey kel
ĠT ec
ĠKÄ±lÄ±Ã§dar oÄŁlu
ĠÄ°sv eÃ§
s Ã¶r
ĠCam i
ĠP latform
Ġkok u
l ini
Ġtemsilc ileri
ĠMÃ¼cad ele
ĠElekt ronik
o ot
Ġmir as
Ġsar f
Ġekst ra
ĠsavaÅŁ Ä±
Ġyar alÄ±
Ġfazlas Ä±yla
Ġmuhab bet
ĠE N
ĠKat egor
Ġgetir ildi
Ġtop lanan
ĠL Ã¼tfen
Ġprogram Ä±na
ĠSÃ¼r ekli
ĠKil is
ĠyaÄŁ lÄ±
ĠgeÃ§ir en
Ġkur ucu
Ġkonu larÄ±nda
Ġd k
ĠdÃ¼ÅŁ er
Ġg un
ĠÃĸ y
ĠM Ã¼st
Ġor uÃ§
Ġgit miÅŁ
Ġmuhtem elen
Ġy alÄ±
ĠAl Ä±ÅŁ
Ġbil eti
Ġoyn amak
ĠMed ya
us a
Ġrad y
Ġar Ä±yor
ĠÅŁirket ler
AS I
ĠPerson el
ĠsÄ±nÄ±f Ä±
ĠM ag
ĠAd nan
m ac
ĠgÃ¶rÃ¼n Ã¼r
ĠdanÄ±ÅŁ manlÄ±k
Ġmah al
ĠhÃ¼kÃ¼m eti
ĠSig ort
ĠAr slan
larÄ±mÄ±z dan
ĠsektÃ¶r Ã¼n
ĠgeÃ§ ecek
ĠedildiÄŁ ini
Ġnitelik li
Ġlist esi
ĠyÃ¼ksel en
larÄ± dÄ±r
Ġmad denin
Ġsev iÅŁ
ĠOn ur
ĠbÃ¶lg esel
ĠM e
ĠaÄŁr Ä±sÄ±
Ġente gre
men ize
ul a
et en
Ġbilm iyor
Ġmez h
ĠT a
ĠaÅŁam ada
ĠP al
ĠS ad
Ġh il
ĠKah v
Ġi ma
y n
malar Ä±nÄ±n
ĠKurul uÅŁ
ĠmÃ¼ te
ĠiÃ§er isindeki
ec ilik
ĠÃĩ ank
et t
Ġop siyon
Ġim al
iÃ§ in
ĠAk si
Ġko ca
ĠbÃ¶lg edeki
Ġkalit esini
ĠÃ§ iÄŁ
Ä±lmÄ±ÅŁ tÄ±
Ã¼le b
t ah
Ġimk ansÄ±z
Ã¼yor um
ak lar
ĠyaÅŁan dÄ±
as on
Ġhaber ine
Ġsan tral
ĠiÃ§ e
Ä±z da
Ġkarar lar
Ġteklif i
ĠbaÅŁar Ä±yla
Ġner eden
ĠKur ban
Ġper iy
Ġanlam Ä±yla
Ġkategor isinde
ĠS tad
Ġait tir
Ġgr ev
ĠA cil
ĠÃ¶r n
Ġbelg eler
ĠA dÄ±
ĠS Ã¼t
lÃ¼ÄŁ Ã¼nde
ĠoluÅŁ uyor
ey erek
Ġol abileceÄŁini
Ġt etik
Ġfiyat lar
Ġyap Ä±ÅŁ
il ler
Ġkal eme
duk larÄ±nÄ±
Ã¼mÃ¼z Ã¼n
ĠKamp an
ĠkÃ¼ltÃ¼r Ã¼
r it
Ġgelecek te
ĠRek lam
ĠB Ä°R
ĠBaÅŁ sav
ĠÃĸ lÃ¼m
Ġgel ebilir
ĠdÃ¼ny asÄ±nÄ±n
ĠGel in
meler ine
ĠyÃ¶net ici
as ebe
Ġtes ti
ĠmÃ¼ j
ĠZ eyn
Ġfir manÄ±n
ĠRus yanÄ±n
elle f
Ġdon at
ik ler
ĠiÃ§ ten
Ġat Ä±l
Ġm Ã¼lt
Ġhan g
Ġoy unda
Ġr azÄ±
Ġarac Ä±lÄ±ÄŁÄ±
un t
Ġistem iyor
ĠcÃ¼m le
Ġkurul masÄ±
Ġoyuncu lar
d el
Ġn adir
l uyor
Ġdost u
b uki
Ġdikkat i
ĠÅŁ Ã¶
Ġseb ze
ĠparÃ§ alarÄ±
ĠbÄ±rak Ä±p
iÅŁ li
ĠgeliÅŁtir ilen
ĠyÄ±k ama
Ġde gil
Ġann em
ĠÃ§ Ã¼r
m iyorum
Ġkad Ä±na
iy esi
ĠdÃ¶nem ine
Ġsit ede
ĠR ektÃ¶r
ĠYaÅŁ ar
Ġsp onsor
ĠsÄ±r alam
I T
ĠTer c
ĠBaÅŁ ak
ĠsÃ¶z lerini
ĠAf yon
Ġkitap larÄ±
Ġsap tan
se de
ĠÅŁirket lerin
Ġser isi
Ġetm eden
ĠboÅŁ alt
ĠÃĩ oÄŁu
Ã¼mÃ¼z Ã¼
ĠK oz
ĠiÅŁ ken
ĠkonuÅŁ ul
f eri
ĠKom ut
ĠaÃ§ tÄ±ÄŁÄ±
ĠK AR
ĠkÄ±z ar
Ġetk isini
ĠA st
Ġz afer
Ġgazet eci
iy o
en ce
Ġb ran
ĠbaÄŁlÄ± dÄ±r
ĠdeÄŁiÅŁ imi
Ġkal masÄ±
ĠTÃ¼rk ler
ĠP ap
ĠEb u
ĠyÃ¶n lÃ¼
Ġ ini
ĠB Ã¼r
Ġver diÄŁimiz
ĠAl bay
lam ayÄ±
ĠA ÄŁr
Ġsev ilen
Ġdeneyim li
ĠkullanÄ±l dÄ±ÄŁÄ±
ĠBakan lar
ĠÃĸÄŁrenc iler
Ġhayat Ä±nÄ±n
Ġhay v
ĠTÃ¼k et
ol os
Ġhareket li
ĠdoÄŁ du
Ġs ec
Ġolacak sÄ±nÄ±z
Ġbak mak
ĠgeÃ§ tiÄŁi
ĠKur t
Ġa g
Ġproblem i
ĠL in
Ġg ev
bur g
acaÄŁ Ä±ndan
Ġp az
ĠÄ° le
Ġdom ates
Ġart Ä±ÅŁÄ±
iliÄŁ inden
Ġkay dÄ±
iv er
ĠkatÄ±l mak
ĠÅŀek er
Ġtop u
Ġmerkez li
Ġsev diÄŁim
Ġd ediÄŁimiz
Ġh ij
ĠbasÄ±n Ã§
eniz in
ĠDair esi
Ġpar ayÄ±
Ġdevam lÄ±
ĠHak larÄ±
Ġkur duÄŁu
Ġs taj
ĠkardeÅŁ im
b as
Ã ħ
ĠÅŁart lar
iÄŁ inin
Ġyetkil ileri
Ġihtim ali
ĠÃ¶y k
z ir
ĠÃ¶ÄŁrenc inin
ÅŁ ak
ĠAf rik
Ġkad er
ĠÃĩiÃ§ ek
Ġekley in
Ġkut u
atÃ¶r Ã¼
ĠC engiz
m ik
Ġart Ä±yor
Ġrahat lat
Ġist edikleri
Ġp omp
ĠgÃ¶rÃ¼l dÃ¼
Ġay Ä±nÄ±n
ĠC or
Ġbelg eleri
ĠbÃ¶lÃ¼m Ã¼nÃ¼
oj istik
Ġmark et
Ġyap Ä±ya
hat s
Ġyap abilecek
ĠÃ¼y elerinin
Ġmuh tar
ĠÃ§ey rek
ĠsaÄŁ ladÄ±
Ġelb ise
Ġkeyf ini
Ġuy du
Ġprogram Ä±nda
em edim
p o
ĠbaÅŁlay arak
Ġyan Ä±l
Ġhast alar
O K
Ġcerrah i
ĠD Ã¶rt
Ã¼nÃ¼z Ã¼
d Ä±nÄ±z
ĠM it
leÅŁ en
ĠihtiyaÃ§ larÄ±
ĠP i
ĠS ez
Ġc is
ĠPro t
ĠÅŁ of
ĠetmiÅŁ ti
Ġgay rimenkul
m ama
Ġyarg Ä±l
B B
is h
ĠGÃ¶ ster
ĠBay rak
ĠD iv
Ġdiy ebiliriz
Ġde g
ĠE h
ĠsÃ¼rdÃ¼r en
ĠBaÄŁ Ä±m
ĠyapÄ±l acaktÄ±r
n av
ir iz
Ġyap mam
bar at
ĠyaÅŁam Ä±ÅŁ
Ġol gu
mek tir
Ġref orm
Ġet sin
ĠKor e
Ġpeyn ir
Ã§ Ã¼
ĠN edir
em ektedir
lam anÄ±n
iler iyle
Ġyol un
ĠgeliÅŁ meleri
ÅŁ un
ĠEs as
ic isi
A F
Ġkullan Ä±n
ĠyayÄ±n lan
Ġtasar lanmÄ±ÅŁ
ĠgerÃ§ekleÅŁtir diÄŁi
Ġnak liye
Ġim ar
ĠkiÅŁi den
Ġmadde sinde
ĠhÃ¢ kim
d r
Ġtr av
Ġbildir im
Ġok si
Ġkat lÄ±
ĠBalÄ±kes ir
Ġgez i
ĠC emal
Ġantren man
lerimiz de
ĠÃ§Ä±k arÄ±
ĠaldÄ±ÄŁ Ä±mÄ±z
ĠÃ¼lk eyi
Ġmuay ene
Ġhikay e
Ġmin eral
Ġk ed
Ġyav ru
ĠamaÃ§ la
Ġsof r
Ã» r
Ġses li
ĠkÄ±y Ä±
ĠadÄ±m lar
at in
ĠsÄ±k Ã§a
ĠoluÅŁ maktadÄ±r
Ġk edi
ĠSin an
ĠkuruluÅŁ u
Ġha in
ĠaraÅŁtÄ±r macÄ±
ic ileri
ĠGÃ¶n Ã¼l
Ġcih azÄ±
d unuz
ĠtecrÃ¼b e
ĠyaÅŁ ar
Ġev lat
G S
siz in
Ġmi dir
k ili
Ġoyunc usu
ĠDir ektÃ¶rÃ¼
ic il
Ġtarih sel
ĠkaÃ§Ä±n Ä±lmaz
Ġher ÅŁ
Ġpat ron
Ġep ey
Ġes ir
ĠCih az
ĠElaz Ä±ÄŁ
t or
ĠBen de
Ġbilm eyen
ĠÃ§alÄ±ÅŁmalar Ä±nÄ±n
ĠÃ¶rg Ã¼
ĠMuhar rem
ey ecek
Ġyer in
Ġhak larÄ±nÄ±
Ġik iye
f af
ĠgenÃ§ lerin
Ġem anet
Ġyaz Ä±lan
ĠU N
ĠfÄ±r Ä±n
ĠAvust ral
ĠK el
Ġar tar
ĠN ik
Ġgel dim
Ġbeb eÄŁin
iÄŁ it
Ġaday lar
ĠÃ¶ÄŁ le
Ä±l malÄ±dÄ±r
Ġyaz Ä±sÄ±
Ġdurum unu
enc ere
ĠArab istan
Ġv as
Ġz ira
ĠBir kaÃ§
ep yeni
ĠhazÄ±r ladÄ±ÄŁÄ±
Ġnih ayet
gil iz
ĠÄ°nsan larÄ±n
ĠÄ°tal ya
ĠdÃ¼ÅŁÃ¼nc eler
c iÄŁer
Ġb araj
Ġanlat mak
o ta
ĠB eb
ay n
ĠÅŀ Ã¼ph
ĠDigit urk
Ġolm amak
em de
ĠartÄ±r mak
Ġettik lerini
ĠtÄ±r man
Ġsor du
ĠN es
ĠbÃ¼y Ã¼sÃ¼
Ġem eÄŁi
p s
ĠbilinÃ§ li
ĠÃ§eÅŁit leri
Ġy emin
ĠT rafik
Ġmadd eleri
Ġdev re
ĠÃ§alÄ±ÅŁmalar a
Ġkend isinden
ĠyayÄ±n landÄ±
Ġedil emez
bir liÄŁi
ĠÃ¼z Ã¼n
ĠDiy anet
ĠgÃ¼ncel lem
Ġgir erek
ĠÄ°ÅŁlet me
Ġher ÅŁey
ĠÅŁÃ¼ph eli
ĠVer gi
ĠF el
ĠOyun cu
Ã¼s Ã¼nÃ¼n
tÄ±k Ã§a
ĠbaÅŁlad Ä±ÄŁ
Ġboyut lu
Ġilg isi
Ġiler lem
ĠkÄ±z Ä±n
ĠgÃ¼n dÃ¼r
Ġayn en
ĠBirleÅŁ miÅŁ
s inden
Ġn eyse
iz in
ÄŁr ul
ĠÃ§ Ä±ÄŁ
Ġdetay larÄ±
ĠkatÄ±lÄ±m Ä±yla
ĠBel g
ĠbaktÄ±ÄŁ Ä±mÄ±zda
ir se
ĠÃ¼rÃ¼n lerini
Ġfatur a
ĠdÃ¶n en
ĠdÃ¶r dÃ¼ncÃ¼
Ġol abileceÄŁi
Ġver dikleri
Ġli f
ad Ä±n
ĠkÄ±l avuz
ĠBl og
s unun
er on
ĠmaÄŁ lup
Ġid rar
ĠkÃ¶y lÃ¼
Ġg Ã¼ler
Ġetm eleri
ĠÅŁu an
Ġiz leme
Ġakl Ä±ma
Ġseb z
d alÄ±k
op ter
ĠÃ¶ncelik li
ĠÃ§ek erek
ĠÄ°sv iÃ§
Ġtah t
ĠmÄ± dÄ±r
j inal
Ġbelirlen di
ĠTel ekom
Ġkon gr
ĠAzerbay can
ĠBÃ¶yl elikle
ĠdoÄŁ u
Ġc Ã¼z
ĠHavalim an
len in
y s
Ġhal iyle
Ġver miÅŁtir
Ġk ast
g azi
un lar
Ġkans eri
Ġt v
om e
Ġart tÄ±
ĠÃ§alÄ±ÅŁan larÄ±
ĠS eni
co in
ĠÃ¶nc Ã¼
ĠmÃ¼m in
Ġsev diÄŁi
lamak tadÄ±r
ac iÄŁer
ĠYukarÄ± da
Ġg Ã¼mÃ¼ÅŁ
Ġo z
Ġdin ley
ilmiÅŁ ti
Ġan Ä±m
ĠK las
f ez
Ġbe dava
ĠPart inin
Ġbilg iyi
ĠkarÅŁÄ±l amak
ak ende
ĠdeÄŁil se
ĠV ad
ĠaÃ§ Ä±ÄŁa
ĠT H
Ġbul gu
ĠG Ã¼mrÃ¼k
ĠdeÄŁer ler
landÄ±r ma
ĠgÃ¶ster gesi
Ġat Ã¶ly
ĠalÄ±ÅŁkan lÄ±k
ĠbÄ±rak tÄ±
ĠÃľzer ine
ĠiÅŁ ley
ĠMan isa
ĠmÃ¼ d
Ġbul dum
tis iz
Ġbelirt mek
ĠMil liyet
Ġlir aya
ĠkullanÄ±l acak
ĠKat Ä±lÄ±m
Ġn azar
ĠbaÅŁ landÄ±
cÄ± larÄ±
ĠnÃ¶ bet
Ġhan gisi
ilm esinin
ĠBul un
Ã§ uklu
ĠÃ¶l dÃ¼
Ġsaat lik
ĠF on
ĠF izik
Ġil tih
ĠEv de
ĠJ e
iÄŁ ini
Ġat mak
Ġyar atÄ±
Ġders i
Ġyap acaÄŁÄ±nÄ±z
Ġmal iyeti
ĠS ov
ĠS G
Ġyorum lar
ĠM ali
Ġkullan Ä±ma
ĠAmerik ada
Ġtec avÃ¼z
gel en
ra j
Ġman tar
Ġruh sat
Ġkural larÄ±
Ġkur ucusu
Ġbulun mayan
ĠÃ§ if
ĠE z
ĠEnstit Ã¼sÃ¼
Ġred det
ĠDÃ¼ÅŁ Ã¼n
ĠKal it
Ġmenf aat
Ġku cak
Ġsan dÄ±k
e da
ĠL ef
ĠI P
Ġdiyor lar
ĠÄ°n c
ĠkÄ±sm Ä±na
doÄŁ u
Ġden eme
Ġh ek
ĠH oca
Ġhassas iyet
ĠadlandÄ±r Ä±lan
Ġmahk um
Ġm isyon
ĠseÃ§ in
Ġyaz Ä±lmÄ±ÅŁ
ĠSor u
Ġbir de
Ġbar daÄŁÄ±
ĠÄ° L
ĠMak in
b Ã¼r
ĠgÃ¶z Ã¼
ĠUz ak
ĠKar aman
ĠAd Ä±y
ĠdeÄŁiÅŁtir mek
ĠH T
Ġmetrek are
Ġn a
ĠE K
Ġgetir ilmesi
ĠsÄ±r al
Ġp ik
ĠgÃ¶rÃ¼nt Ã¼len
ĠyÃ¼ksel di
Ġe x
Ġduy ulan
ĠaÃ§ Ä±lmasÄ±
Ġf es
I I
ladÄ±k larÄ±
ĠGir iÅŁim
Ġm ag
y olu
Ġt encer
Ġp Ã¼r
Ġkol tuÄŁ
ĠkÄ±z Ä±m
Ġbey ler
Ġp osta
lerimiz den
ĠyÃ¼zyÄ±l da
Ġhaber dar
ĠÃĩÃ¶z Ã¼m
ĠAn al
ĠyaptÄ±k larÄ±nÄ±
ĠgenÃ§ lik
gr ama
Ġon arÄ±m
Ġk ot
ĠHaber ler
ĠyÃ¼k lÃ¼
ĠkÃ¼t Ã¼phan
Ġyan g
ĠP ir
Ġgel sin
ĠilaÃ§ lar
ĠH il
Ġbilgilendir me
Ġb est
ow er
Ġbal kon
Ġyap madan
ĠparÃ§ alar
Ġver iliyor
Ġre ak
Ġtit r
Ġm ant
Ġeksik siz
Ġetk isiyle
malar da
Ġmim ari
ĠdÃ¼ny asÄ±
Ġal madan
Ġp ap
Ġtaraf a
Ġkatli am
m Ä±z
it an
ĠiÅŁlem lerini
ers ek
ĠGazet ede
ĠÅŁim diye
Ġyenilik Ã§i
Ġtab ir
Ġelektrik li
Ġpat ates
ĠÅŀ iir
ĠDÃ¶n Ã¼ÅŁ
Ġinsan i
ĠÃ§ek ilen
ĠÃ§am aÅŁÄ±r
Ġb am
ĠgeÃ§ mesi
Ġhar ek
ĠÃĩ at
Ġmut luluÄŁ
Ġik tis
ĠgeÃ§ir di
ĠtÃ¼ket ici
ĠyÃ¼z Ã¼ne
p iyat
ĠgeÃ§ir diÄŁi
Ġc eb
ĠdeÄŁer ini
ĠÃ§el iÅŁ
Ġg e
ĠpeÅŁ inde
Ġseviy esi
liliÄŁ ini
ĠVide o
Ġmad al
Ġedeb ilecek
ĠN eyse
Ġsit eye
Ġoyn at
ĠhÃ¼c re
Ġkay gÄ±
Ġad li
Ġiy ilik
ĠsÃ¶z lÃ¼
Ġmuhal if
ĠD N
larÄ±nÄ±z da
ĠZ afer
ĠaÃ§Ä±klam aya
ĠbaÅŁ rol
Ġbor u
Y A
Ġnokt alarÄ±
ĠE fendi
Ġan t
Ġmer diven
luÄŁ una
al isyon
Ġitir af
ik ar
ĠAl p
ĠR ef
Ġt ir
Ġfaz lad
ĠyaÅŁ adÄ±
ĠL ist
ĠettiÄŁ im
ĠSel Ã§uklu
t esi
Ġdir ektÃ¶r
Ġvak Ä±f
t s
y la
mem ektedir
Ä±p lak
Ġotur an
Ġadres inden
ĠMev cut
Ġetkin liÄŁi
ĠMÃ¼dÃ¼rlÃ¼ÄŁ Ã¼ne
Ã¼s Ã¼ne
Ġuygul ay
Ġlim an
ĠalÄ±n dÄ±ÄŁÄ±
Ġseviy esine
ĠBak Ä±r
ĠD u
ĠFet h
ĠsÃ¼rec inin
ĠgÃ¶r mez
Ġolmad Ä±k
ĠaraÃ§ larÄ±n
ĠaldÄ±ÄŁ Ä±nÄ±z
ĠM avi
ĠBel Ã§
ĠÄ±ÅŁ Ä±n
z en
Ġyap mÄ±ÅŁtÄ±r
Ġdav asÄ±
ĠbÃ¶ cek
ĠbaÅŁkan lÄ±k
ĠsÃ¶yley erek
ĠÃ¼st e
iz mi
ĠAs ker
ĠStr atej
Ġoran la
Ġnam azÄ±
l ayÄ±
Ġadam larÄ±
Ã¼ el
Ġkal kÄ±n
Ġu f
Ġsal onu
ĠÅŁÃ¼ph esiz
Ġkoy up
ĠgeleceÄŁ e
Ġbur adaki
eler imiz
Ġistem iyorum
Ġbilin mektedir
ĠY Ã¼ce
Ġcil d
ĠDer nek
Ġhar am
Ġbir imi
ĠOt ob
Ġifade si
ab i
Ġfak ir
c unun
ĠgÃ¶r eceksiniz
ĠAÅŁaÄŁÄ± daki
Ġh el
r anÄ±
Ġkaps ayan
Ġin tihar
ĠsÃ¼r Ã¼ÅŁ
ĠT est
ĠB iy
dÄ±ÄŁ Ä±ndan
ĠgeÃ§miÅŁ te
ER Ä°
ĠhÃ¼kÃ¼m leri
Ġtah sis
ĠKurum sal
Ġk Ã¼p
Ġar azi
ĠeÄŁitim e
ĠsÃ¼rec ini
Ġsevin irim
ĠyazÄ± lar
ĠÄ° Y
tak Ä±m
ĠyÃ¶n Ã¼nden
Ġgir iyor
ĠF estivali
r ib
ĠÄ° ST
akk ak
ĠyaÅŁam Ä±
Ġr ica
Ġvak ti
ĠAkÄ±l lÄ±
Ġokuy ucu
ĠtÄ±r nak
los uz
Ġokul da
ĠyÃ¶netic ileri
ro w
ĠyÃ¼ksel iÅŁ
Ã¶n Ã¼
ĠdÄ±ÅŁarÄ± dan
may acaktÄ±r
Ġkaz Ä±
Ġf av
Ġkusur suz
iz min
ĠbaÅŁlat Ä±lan
O B
maz lÄ±k
ĠE p
ĠD ub
Ġyet mez
ĠC ey
Ġinsan larla
ĠAmerik alÄ±
Ġhis si
ĠDevam Ä±nÄ±
ĠT ez
Ġkur an
ĠB o
ĠyÄ±k an
Ġyol lar
may la
Ġtespit i
Ġtehlik e
Ġc al
ĠE din
Ġfilm de
Ġhuzur lu
Ġdal ga
ĠÃĩ ukur
Ġileri de
ĠtaÅŁ Ä±r
ĠMem ur
ĠtanÄ±n an
Ġail esinin
u e
ĠUy gun
ĠsÃ¼rdÃ¼r Ã¼yor
Ġkal dÄ±m
Ġkarar Ä±nÄ±
Ġneler dir
Ġdayan an
ĠbÃ¼r okr
ir kin
ĠYah ud
Ġsar ay
ĠgerÃ§ekleÅŁ ecek
ar Ä±ya
Ġk Ä±t
Ġedilecek tir
doÄŁ an
adÄ±k larÄ±
Ġsemin er
t Ã¼m
Ġmuhtem el
ĠHÄ±r ist
bilir siniz
Ġotur um
Ġbab asÄ±nÄ±n
Ġyaz dÄ±r
en leri
Ġgel eceÄŁini
ĠaÃ§ Ä±p
m Ã®
Ġm eme
Ä±ÅŁ Ä±n
ĠkonuÅŁ mada
Ġot opark
ĠRes im
Ġplan lanan
Ġh oca
ĠoluÅŁtur uyor
ĠVak Ä±f
ĠtecrÃ¼b eli
Ġenerj isi
Ġ lÄ±
ĠÃ§Ä±k maktadÄ±r
Ġmez unu
biy otik
I F
Ġverir ken
ĠyaÅŁam aya
Ġdin lem
ob i
Ġkal madÄ±
Ġdep o
ĠM Ãľ
ĠmÃ¼cadel esi
ĠÃ§ ub
ĠKol ay
eniz de
ĠÅŁar tÄ±
Ġyaz ma
Ġk Ä±n
ĠÃľcret siz
Ġkon unun
Ġharic inde
Ġel den
Ġbas ketbol
Ġyah ut
Ġle v
S Ä°
ĠbÃ¶ brek
Ġsat an
ĠsÄ±f at
ĠÃ§alÄ±ÅŁ Ä±yorum
ĠAf gan
Ġpolitik asÄ±
Ġoku dum
ĠbaÄŁlam da
ĠSaÄŁlÄ±k lÄ±
Ġemin im
Ġhizmet lerini
ĠdÃ¼z eni
ĠKal ite
ĠmÃ¼s abak
Ġyak Ä±nda
Ġod alarÄ±
Ġv a
amay acaÄŁÄ±
ĠÃ¼ret ici
ĠMes l
Ġh ur
ĠhÃ¼kÃ¼m etin
elik opter
Ġdey ip
f Ã¶y
ĠvÃ¼cud un
Ġtamam Ä±nÄ±
ĠÃ§evr im
Ġfak Ã¼lt
Ġmu am
Ġas ans
Ġsaha da
ĠB B
Ġayr Ä±ldÄ±
Ġform u
ĠgÃ¶z y
der e
ĠDev rim
ĠyaÅŁ ta
Ġotur ma
ĠbaÅŁvur usu
ĠBakan lÄ±ÄŁ
ĠD ijital
Ġgide ceÄŁ
Ġkonse pt
Ġher halde
ĠT E
Ġediyor du
ĠYun us
ĠD olar
Ġkonfor lu
ĠRÃ¼y ada
ah il
G E
ĠGel ir
Ġf ed
ĠU EF
ĠaÃ§Ä±klam asÄ±nda
Ġkop ar
em edi
Ġgel mek
Ġgen etik
ĠUmar Ä±m
v i
ĠaÃ§Ä±klam alar
ĠTÃ¼rk lerin
Ã¢ s
d as
et li
Ġbur s
al Ä±ÄŁÄ±
Ġdur ak
Ġgel eni
ĠÃĸnc eki
ĠN il
Ã¼min yum
Ġne g
av a
Ġodak lan
Ġpart ner
Ġih rac
Ġeksik liÄŁi
Ġders leri
ĠY ur
Ġay dÄ±r
ac i
ĠyÃ¼k leme
larÄ±m Ä±n
Ġy Ä±p
ĠÃĩ el
Ġk Ä±lÄ±
Ġpiyas ada
Ġtak ib
lÃ¼k te
Ġmed yum
ĠbaÅŁar dÄ±
ĠsÃ¶yl ediÄŁi
ĠCil t
Ġf l
Ġd iyoruz
l iydi
fa iye
P G
ĠyaÅŁ Ä±na
Ġyaz Ä±mÄ±zda
Ġser in
Ġhal ini
Ġm Ã¼c
Ġf rek
ĠBur ak
Ã¢y et
ĠGir es
ĠgÃ¼Ã§ leri
Ġd uÅŁ
Ġzih n
Ġsat Ä±lan
Ġbelirlen mesi
Ġed elim
Ġal dÄ±r
Ġo v
ĠBaÅŁkan Ä±mÄ±z
ĠLig de
ĠbaÅŁ Ä±nÄ±
Ã¢n Ä±n
Ġkoy du
ĠMar mar
ĠMillet ler
ĠD alÄ±
Ġun van
bar ek
ĠTurk cell
Ġnit elendir
ĠYet er
Ġb erek
Ġp antol
ĠbÃ¼yÃ¼y en
Ä±k lÄ±k
ĠgÃ¼z er
ĠÃ§ek me
ĠMec l
eÄŁ inden
Ġsev iyor
g im
ĠbaÄŁlant Ä±lÄ±
ĠOk ulu
ĠÃľÃ§ Ã¼ncÃ¼
ĠYayÄ±n larÄ±
ĠII I
c ilerin
Ġtoplum a
Ġbelir lemek
ĠBaÅŁbak anÄ±
ĠR ah
ĠBÃ¶l gesi
ĠSalon unda
Ġasker lik
ĠbaÅŁlÄ± ca
Ġyarat mak
Ġmen Ã¼
ĠÃ§oÄŁun luÄŁu
Ġrandev u
ĠmÃ¼k ellef
Ġduyar lÄ±
Ġfilm leri
Ġan lama
dÃ¼ÄŁ Ã¼nde
ĠZ ek
abilir im
ĠYah udi
ĠkadÄ±n lara
ĠÃ§Ã¶z Ã¼nÃ¼r
g Ã¶z
Ġgel miÅŁti
Ã¼r ler
Ġmemnun iyeti
ab ey
Ã¼z Ã¼n
Ġhast alarÄ±n
ĠyÃ¶net melik
Ġver mez
iliÄŁ e
an o
l r
ĠK i
ĠK oÅŁ
ĠBas ketbol
ĠbaÄŁÄ±r sak
ken der
ĠAn t
ĠD es
ĠyapÄ±l masÄ±nÄ±
ed d
ĠÃ¶t esinde
Ġalt Ä±ndan
ĠMuÄŁ la
ĠY ou
Ġet i
Ġam c
ing ton
ĠtÄ±k layarak
on i
k usuz
ĠGen iÅŁ
uh af
ĠyoÄŁ urt
ĠdÃ¼ÅŁÃ¼n Ã¼n
ĠolduÄŁ umu
Ġat arak
Ġetkinlik leri
ĠHat ay
ĠKan ada
ĠTab lo
Ġmotor u
Ä±l acaktÄ±r
is tir
Ġver gisi
res el
ĠgeliÅŁtir ilmesi
Ġtav an
Ġkur uÅŁ
Ġal ev
Ġdiren Ã§
ĠkÄ±l Ä±n
ĠmÃ¼ÅŁter ilerine
Ġseviy esinde
Ġolan larÄ±
Ġal acaÄŁÄ±
Ġh ev
ĠÃ§alÄ±ÅŁan larÄ±n
Ġz an
Ġadr esine
ahat tin
Ġmet ro
Ġan im
ĠeÄŁ ilim
ĠiÅŁ g
Ġetm esini
ĠsÃ¼r ecek
Ġtan k
Ġek ledi
ĠKup asÄ±
Ġsenar yo
ĠG u
ĠÃ¶rnek leri
Ġetm iyor
ĠdÃ¼zey inde
ĠS ezon
Ġeski den
ĠyaÅŁam Ä±n
Ġyaz Ä±yÄ±
ĠtÃ¼ket imi
Ġbak arak
ĠgÃ¶rdÃ¼ÄŁ Ã¼nÃ¼z
ĠFÄ±r at
ĠG am
maz lar
Ġmodel ler
ĠR a
ĠB T
ĠgÃ¶rev leri
lan dÄ±ÄŁÄ±nÄ±
Ġneg atif
ĠmÃ¼ f
Ġyel paz
Ġkap Ä±sÄ±
Ġkazan Ä±r
ĠÃ§ ekt
meler de
Ġkom ik
st anbul
ĠTurg ut
ĠgÃ¼ven c
ĠÄ°stik lal
ĠU laÅŁ
Ġsayf ada
y nin
Ġort alam
Ġsit eler
ĠAh med
Ġhastan ede
ĠGel ecek
Ä° B
ĠÃ§Ä±k mÄ±ÅŁtÄ±r
ĠeÄŁ il
ĠMÃ¼z esi
ĠÃ§Ä±kar Ä±lan
Ġd eki
Ġkav uÅŁtur
Ġkes kin
Ġgit tiÄŁi
ĠStan dart
Ã§ in
ĠM S
Ġp ast
ĠKer im
Ġy epyeni
ĠTun c
Ġsit enin
ĠSekret eri
ĠkÃ¶ÅŁ e
ĠS Ã¶y
ĠT om
ĠbaÅŁ bak
ul larÄ±
ĠM osk
ĠÃ¶zel liÄŁini
ĠgerÃ§ekleÅŁtir mek
ĠK PS
Ġmas um
ĠgÃ¶r Ã¼lebilir
Ġcihaz lar
ĠD aÄŁÄ±
Ġolay larÄ±n
Ġlim it
ecek ler
oloj isi
ĠB Ä°L
Ġsit esinden
Ġs ep
ĠMahkem esi
acak larÄ±nÄ±
Ġi bar
Ġfazl asÄ±nÄ±
ĠsÄ±nav a
Ġetm eyin
Ġkavram Ä±
Ġhastal Ä±ÄŁÄ±n
Ġsay Ä±n
ĠEv e
ĠseÃ§im leri
Ġok ulu
Ġbab am
ĠmeÅŁ ru
ĠsaÄŁlan Ä±r
ĠK iÅŁi
at lÄ±
Ġder hal
Ġdol andÄ±r
ĠÃ¼lk eden
Ġhav ada
ĠfotoÄŁraf larÄ±
Ġger ilim
day Ä±m
Ã¼st ri
Ġk Ã¼m
ĠmaÃ§ Ä±n
ĠdÃ¶n Ã¼p
Ġfil tr
Ġk Ã¢r
ĠB nin
Ġtay in
Ġbilin ir
day dÄ±
ĠÅŁekil lendir
ĠbakÄ±m dan
ĠM c
ĠKal p
laÅŁ mÄ±ÅŁ
Ġb ot
Ġkurul muÅŁtur
ĠÄ°srail in
Ġv iz
ĠMah k
Ġsay Ä±lan
ĠgÃ¶ster erek
y m
ĠP C
ĠsÄ±r asÄ±yla
ĠgiriÅŁ imi
ĠSay Ä±lÄ±
ĠyaÅŁan dÄ±ÄŁÄ±
ĠÄ° laÃ§
ĠMil yon
Ġeb eveyn
ĠAr da
Ġmas al
ĠMÃ¼hendis liÄŁi
Ġdok uz
ĠTur an
ĠBiz i
ĠÄ° f
ĠO L
Ġk linik
Ġtan rÄ±
ĠyaÅŁadÄ±k larÄ±
ĠgeÃ§erli dir
Ġk eÃ§
ĠNak liyat
Ġmev ki
iy enin
Ġat ar
ĠBugÃ¼n e
Ġifade sini
ĠgÃ¶rÃ¼l dÃ¼ÄŁÃ¼
ĠtÃ¼k en
ĠyaptÄ±k tan
ĠyaptÄ±r Ä±m
iÄŁ ine
Ġkur ut
ĠyazÄ± da
Ġbuz dol
Ġkurtul mak
ĠS ivil
ĠkÄ±s men
Ġevren sel
ĠH Ã¼rriyet
Ġoyn am
Ġdiren iÅŁ
ĠSilah lÄ±
ĠS ite
ĠÄ°h racat
ĠRad yo
ĠyÄ±l larca
ĠEr g
ĠR ak
ĠkullanÄ±l Ä±yor
ĠTel evizyon
Ġyap Ä±yorlar
ĠseÃ§ men
Ġkullan Ä±ÅŁlÄ±
ĠDur um
ĠÅŁar ap
ĠÅŀ ef
ĠTek ir
Ġp Ä±r
Ġs ark
Ġat Ä±ÅŁ
Ġnak it
ĠCadde si
ĠMes aj
Ġi v
eÄŁin ce
Ġkampany asÄ±
Ġsor usuna
ĠÃ¼n it
on t
et erin
ĠSuriy eli
p ress
ĠSonr asÄ±nda
ĠdÃ¼ÅŁ mÃ¼ÅŁ
out ube
Ġhareket leri
ĠG Ãĸ
Ġetkiley ici
ĠsÄ±k Ä±l
Ġnokt asÄ±na
ĠM i
Ġkok usu
ĠS ana
ĠdÃ¶k Ã¼l
Ġf igÃ¼r
tÃ¼ d
Ġberaber lik
ab ildiÄŁi
Ġk ib
Ġbir takÄ±m
Ġo c
ĠmeÅŁ gul
Ġin Ã§
ĠyÃ¼z Ã¼nÃ¼
Ġham ile
Ġgrub un
Ġken ara
Ġcumhur iyet
lek s
Ġm otosiklet
ĠDeÄŁ erli
Ġhakk Ä±na
ĠÄ°liÅŁ kiler
ĠAdÄ±y aman
Ġev li
ĠT ol
ĠP il
Ġt ansiyon
ĠP or
Ġvar ken
Ġyir mi
abiliyor sunuz
ĠBiz ans
ĠyardÄ±m cÄ±sÄ±
ĠArkadaÅŁ lar
Ġbah Ã§e
Ġar Ä±
ĠbaÅŁ layÄ±p
r ul
Ġdiler im
ĠÃ§ adÄ±r
Ã® n
ĠkÃ¶tÃ¼l Ã¼k
Ġredde d
Ġden li
Ġsorun larÄ±nÄ±
Ġtoplum u
Ġay Ä±n
ĠEs en
ĠM ari
Ġat lat
ĠKaf kas
ĠmÃ¼d det
Ġkesin tisiz
y ken
Ġj e
h o
Ġtab anlÄ±
Ġc ar
Ġkilomet r
ĠarkadaÅŁ lÄ±k
ĠsÄ±nav Ä±
Ġsezon u
Ġon ar
Ġbey n
h isar
Ġt Ã¼zel
lerin ce
r as
Ġk ade
ĠbiÃ§ imi
ĠÅŀ ey
it in
st an
Ġkur du
Ġer di
ki f
Ġolduk tan
Ġyaz Ä±yor
U K
ad Ã¼f
ĠÃ§Ä±k ma
Ġgetir ecek
Ġbil diÄŁi
ĠÃĸz demir
Ġm am
Ġkayded ildi
Ġk uz
Ġakr ab
bul ans
ĠtÃ¼r leri
el iyiz
ĠÅŁek eri
Ġsayf asÄ±nda
ĠMut lu
ĠHes ap
Ġan Ä±lan
ĠÃ§oÄŁ al
ĠProf esyonel
v in
ĠsÃ¼t Ã¼
ĠkarÄ±ÅŁ Ä±m
ĠdÃ¼ÅŁÃ¼nÃ¼yor uz
Ġdep resyon
Ġsistem inde
Ġbirey ler
leÅŁ miÅŁ
ĠyÃ¶ntem ler
lerimiz le
ĠÃĩ or
Ġmerkez leri
ĠKaymak amÄ±
ĠAn lat
ĠyÃ¶n elt
ĠÅŁey tan
Ġkil is
Ġoldu lar
Ġart arak
ĠBur adan
ĠN or
Ġf as
ladÄ±k tan
Ġb itim
Ġvar ol
Ġger eÄŁince
ab ol
Ġkar g
Ġede mez
ĠbaÅŁlat tÄ±
Ġkir a
us uyla
Ġetkinlik ler
Ġpart inin
ĠiÅŁ lerini
Ġs os
ĠbuÄŁ day
ĠTat lÄ±
Ġslog an
ladÄ±ÄŁ Ä±nÄ±z
ĠÃĸl Ã§
Ġgel miyor
ĠHik ay
ĠHoc am
ĠÄ°dar esi
ĠKÃ¼r esel
Ġuy uÅŁ
Ġdol ap
Ġhij yen
ĠY em
ĠiliÅŁk ili
T A
Ġay a
ĠdeÄŁiÅŁtir me
ĠgerÃ§ekleÅŁtir en
ĠÅŀ Ã¼k
Ġtesis at
iyat ros
ĠbaÄŁlant Ä±sÄ±
est en
Ġbu har
ĠhazÄ±r lamak
ĠedeceÄŁ ini
ĠilÃ§ esine
Ġken tin
Ġtemin at
ĠyapÄ±l acaÄŁÄ±
eler dir
ĠK ey
ĠNer ede
ĠÃ§Ä±l gÄ±n
ĠKit abÄ±
Ġfark Ä±na
ĠsÃ¶z de
Ġet nik
ĠbÄ±rak mak
Ġal dat
ĠiÅŁ siz
ĠÄ°span yol
Ġmobil ya
ĠiÅŁver en
Ġsorum luluÄŁu
Ġgazet esi
Ġdost luk
Ä±y sanÄ±z
ĠyaÅŁ Ä±yoruz
ĠÃĸ SY
Ġkap ital
or ld
ĠO lim
Ġbulun mamaktadÄ±r
ĠKD V
Ġan i
ĠkÄ±ymet li
Ã§ inin
ĠMet al
Ġcev iz
t op
Ġtedav isinde
ĠalÄ±n mÄ±ÅŁtÄ±r
ĠTek rar
larÄ±m la
Ġk ef
Ġhisse de
Ä± cÄ±sÄ±
ĠMac ar
Ġfaaliyet lerini
ĠO lan
Ġmuay en
ĠFeder asyon
Ġunutul maz
y alar
ĠT o
ĠkullanÄ±cÄ± larÄ±
Ġar tÄ±
Ġbitk isel
ĠFir mamÄ±z
ĠG ran
Ġkur ab
Ġm uz
Ġpu anÄ±
Ġor g
Ġbilin meyen
ĠakÅŁam Ä±
ĠsÄ±k Ä±ÅŁtÄ±r
Ġser gi
ĠÃĩev r
Ġbelg esel
Ġbirik im
Ġd uv
Ġilk e
Ġsuy unu
ĠH ab
ĠkiÅŁ ileri
el iler
Ġsal at
ĠKahraman mar
ĠiÅŁlem ini
ĠKurtul uÅŁ
ĠsÃ¶z cÃ¼
Ġal gÄ±
ĠkÄ±z lar
Ġkurum larÄ±
ĠAy ÅŁe
ĠÃ¶ te
ler inizin
Ġak tÃ¶r
Ġbom ba
m atik
ĠÃ§alÄ±ÅŁ manÄ±n
ĠP ye
Ġf Ä±ndÄ±k
ĠyÃ¼kÃ¼m lÃ¼lÃ¼k
Ġdiy alog
ĠÃ§Ä±kar an
Ġf abrika
Ġdef alarca
ĠPay laÅŁ
Ġy il
ĠZ on
Ġhep imizin
Ġetm eyen
ĠendiÅŁ e
ĠsÃ¼rdÃ¼r dÃ¼
ĠpaylaÅŁ tÄ±
Ġlaborat uvar
Ġist ediklerini
ĠÃ§ek tir
oj en
Ġn ar
Ġkullan Ä±yorum
k ol
ĠT as
Ġgrup larÄ±
ĠN as
al Ä±yÄ±z
ĠÃ¶z lem
mÄ±ÅŁ tÄ±m
ĠÃ§alÄ±ÅŁ maktadÄ±r
Ġad il
ĠÄ°n dir
Ġkan dÄ±r
Ġc ehenn
ĠHazir anda
Ġalk Ä±ÅŁ
Ġdetay lar
Ġzar f
Ġar dÄ±
Ġkab lo
Ġbor cu
ĠP ost
Ġeser leri
ĠtÃ¶r eni
ĠGenel kur
ĠÄ° ster
ĠFar uk
st en
ĠniteliÄŁ inde
ĠY Ä±lÄ±
Ġkoy mak
ĠW ar
Ġkab a
ĠÃ¼z Ã¼l
oz a
Ġihtiyac Ä±nÄ±
ĠGazet esi
Ġhak ikat
ĠsÃ¶y leÅŁ
ĠiÅŁ ine
Ġar alar
Ġbul ma
Ġsahib inin
Ġet ap
ĠdoÄŁal gaz
ĠgÃ¶r Ã¼p
ĠyukarÄ± daki
ĠbaÅŁlam adan
d Ä±ÅŁÄ±
k ara
ĠÃ§Ã¶z Ã¼l
Ġan lÄ±k
Ġkal maz
ĠEr tu
Ġh ele
ilm eli
Ġmesel esi
ĠÄ° pek
Ġt Ã¼n
ĠyapÄ±l malÄ±dÄ±r
imiz deki
Ġkalk Ä±ÅŁ
ĠÃĩeÅŁ itli
es Ã¶r
Ġkurul du
Ġver ilerine
ĠHan i
ĠsÄ±nÄ±r Ä±
ĠSE O
mel iyiz
Ġnum ara
Ġsen t
ĠÄ° N
ĠÃ§alÄ±ÅŁan lar
Ġgrup lar
iÄŁ inde
ĠsonuÃ§ larÄ±nÄ±
Ġmel ek
ep e
ĠgÃ¶z leri
w ork
Ġul us
ac Ä±nÄ±n
ĠH oÅŁ
Ġel i
Ġbirey lerin
Ġfel aket
ĠÃľ mit
Ġhikay esi
Ġt h
ĠhazÄ±rlan Ä±yor
uy uz
sas por
ĠdÃ¼ÅŁÃ¼n erek
Ġkon t
ĠsÄ±k Ä±ÅŁ
Ġbelir lem
ĠkonuÅŁ masÄ±nda
Ġinternet te
Ġbit kiler
ĠEr dem
Ġasans Ã¶r
Ġfrek ans
ĠgÃ¶r meye
ĠM y
Ġz ann
ĠBah is
Ġyok sun
Ġok ut
ĠC errah
Ġim parator
Ä±y an
Ġson landÄ±r
mos yon
gul dak
ĠAn tik
ĠBek ir
cÄ± larÄ±n
Ġkahv alt
ĠgeÃ§ in
ar lÄ±k
Ġuygulam ak
Ġf acebook
Ġrol Ã¼
ĠdÃ¼ÅŁ Ã¼yor
Ġiy isi
Ġvade de
Ġnas ip
ĠM ekk
ĠMÃ¼st eÅŁ
ĠsuÃ§ lu
ĠÃ§ im
ĠÃľs kÃ¼
Ġbul uyor
s us
ac Ä±lÄ±ÄŁÄ±
Ġser p
masÄ± dÄ±r
Ġkoc aman
ĠvasÄ±t asÄ±yla
ĠÄ°Y Ä°
Ġcevab Ä±nÄ±
ĠsÃ¶zleÅŁ mesi
Ġc o
ĠsaÄŁlay arak
ĠÄ°span ya
ĠkuÅŁ at
Ġy Ã¼ce
on lar
ĠfotoÄŁraf Ä±
Ġbar Ä±n
ĠdoÄŁ umlu
ĠÃ¶dÃ¼l Ã¼
amay acaÄŁÄ±nÄ±
ĠkatÄ±l acak
ĠgÃ¶rÃ¼yor um
ĠH ele
ĠEs n
ĠyaÅŁ adÄ±ÄŁÄ±mÄ±z
ĠÃ§ek er
Ġbur asÄ±
Ġyap alÄ±m
Ġbenim s
Ġtoplum da
ĠAn laÅŁ
ĠgÃ¶rev lisi
ĠKÃ¼t ah
Ġmesaf e
ĠbarÄ±ndÄ±r an
Ġhar ik
ĠkÄ±r sal
Ġrak ib
Ġsor ul
Ġken ti
dÃ¼k ten
Ġkur ma
k z
ĠSekret er
ĠmÃ¼z iÄŁi
ĠgiriÅŁ i
Ġkend inden
Ġhaft anÄ±n
ĠTekir daÄŁ
ob an
ĠÅŁef faf
ĠsÃ¼rec in
Ġet ek
Ġbelir siz
Ġbas kÄ±n
ĠAv ukat
ĠarasÄ±nda dÄ±r
tay dÄ±
Ä±l masÄ±nÄ±n
ĠYaz Ä±lÄ±m
ĠMut fak
ĠyÃ¼zyÄ±l Ä±n
Ġsit emizde
ĠCen net
Ġruh sal
ap p
Ġdurum dan
Ġk lav
ĠHar ek
ayÄ±n ca
ĠGelen ek
ĠdÄ±ÅŁarÄ± da
ĠyÃ¼r ek
ĠdemiÅŁ ti
ĠSiz ler
Ġdil ediÄŁiniz
Ġolmak sÄ±zÄ±n
st eri
ĠkÄ±sm Ä±nÄ±n
Ġab i
ĠR ed
Ġses lendir
Ġrenk leri
Ġkav ga
ak larÄ±
Ġgetir miÅŁ
Ġkent inde
d elik
lo ad
Ġseviy eye
ov er
ĠÄ°slam i
c k
Ġkazan mÄ±ÅŁ
ĠfÄ±r Ã§
Ġtamam layan
ĠBurs ada
ĠV ekili
Ġas Ä±r
ĠÃ¶ÄŁretmen ler
amaz sÄ±nÄ±z
ĠgÃ¶n l
Ġkork unÃ§
d eler
Ġsev inÃ§
ore x
ĠGÃ¶k han
Ġbran ÅŁ
ĠSer dar
Ġkelim eler
Ġbir ebir
ĠH it
Ä±r nak
ĠM Ã¼s
Ġn o
ĠKomut anÄ±
ĠE S
Ġder gi
ĠyoÄŁun laÅŁ
Ġpak eti
ĠY Ã¼c
ĠMesl eki
em eye
ĠdeÄŁil iz
Ġkur t
r id
ĠBah ar
Ġdestek leyen
ĠaÃ§ Ä±lÄ±r
Ġek m
Ä±c Ä±lÄ±k
Ġsit esine
l uyum
ĠYar Ä±m
ilm esinde
ĠBil imleri
ĠkÃ¶ken li
ĠW ord
ĠKuvvet leri
Ġkarar lÄ±
ĠOtom obil
Ġbaz Ä±nda
Ġdiy ebilirim
ĠBelediy espor
l il
at ta
Ġtop lama
ĠÃ¶f k
Ġanal izi
ĠkeÅŁf ed
Ġfil an
ĠKÄ±r k
Ġp h
Ġyuvar lak
ĠDevlet i
Ġd eli
Ġanay asa
len mektedir
Ġk Ä±lan
Ġr ah
Ġb ant
Ġhaz ir
ĠMev l
ĠÄ°h tiy
ĠÃ§ irkin
Ġkom b
ĠV eli
Ġgen e
Ġpar amet
len miÅŁtir
ist en
ĠkarÄ±ÅŁtÄ±r Ä±n
ĠÃľlk e
ĠyÃ¼kÃ¼m lÃ¼
ĠÃ§alÄ±ÅŁ tÄ±m
ĠU m
Ġemper yal
ĠfotoÄŁraf lar
unuz da
ĠtaÅŁÄ±mak tadÄ±r
Ġpas aport
Ġum arÄ±m
t Ä±nÄ±z
ĠÄ°n cel
un g
ĠyaptÄ± lar
ĠÄ°Ã§ inde
ĠMÃ¼slÃ¼m anlar
ĠiÃ§ me
Ġmuht aÃ§
ĠBul ut
Ġver mey
Ġaktar an
ĠKap Ä±
ation al
ĠOl aÄŁan
ĠArap Ã§a
ĠEk ip
Ġhaft asÄ±nda
Ġduy an
ĠKahramanmar aÅŁ
os a
Ġrenk ler
Ġprens ip
ĠistediÄŁ imiz
Ġekran a
Ġekley ip
ĠSev gil
ĠkÃ¶k lÃ¼
ar ÅŁ
mem iÅŁtir
mÄ±ÅŁ lar
ĠKlas ik
ĠMahk eme
Ġbul am
ĠbaÄŁÄ±m lÄ±
ĠgÃ¼ncel leme
Ġv an
T Ä°
Ġzor la
c Ã¼l
ĠgÃ¶z le
eliÄŁ in
las h
t iniz
Ġad Ä±nda
r ama
Ġetk isiz
Ġver iyorum
al eti
ev Ã®
f alt
ĠE st
ĠT rak
Ġl azer
av v
ĠErtu ÄŁrul
Ġilg isini
bey az
ĠDen etim
Ä±t ma
Ġres imleri
j uv
ĠiÅŁÃ§ iler
ĠkÃ¶y Ã¼
ap Ä±
ĠK ast
ĠÃĸn Ã¼mÃ¼zdeki
ĠaÃ§Ä±k lanan
ĠkÃ¶ mÃ¼r
ĠHerk esin
ĠAsk eri
Ġb iÅŁ
ĠÅŁehr inde
et er
ĠEy Ã¼p
Ġeser ler
ĠGÃ¶n der
Ġkred isi
ĠgeÃ§ ip
ĠK imi
Ġedilm esini
ĠÃ§Ä±k maya
ĠZon guldak
ĠÃ§ocuÄŁ a
Ġbay Ä±l
ĠEr ol
l asÄ±
Ġfilm ler
Ġboy unda
Ġin giliz
ĠBur saspor
Ġaray Ã¼z
Ġprogram lar
Ġsol unum
Ġmuhab ir
ĠK Ä±l
mas yon
Ġay aÄŁa
Ġkitap ta
Ġengel lemek
Ġzih insel
ĠiÅŁ sizlik
ĠEv ren
ĠyÄ±ld Ã¶n
ĠKend isi
Ġdiz ayn
Ġp res
Ġhayat i
ad am
ĠVat an
ĠL G
ĠT oto
ĠkÄ±s kan
ladÄ±ÄŁ Ä±m
Ġgir mesi
Ġbelirlen ir
Ġkr onik
Ġt et
Ġh elal
uz el
ĠT T
ĠSer may
Ġab art
ĠÄ°s kender
ĠkarÅŁÄ±l ay
Ġotur up
Ġder ler
ĠH rist
I D
ĠsÃ¶yley ebiliriz
ĠPl us
ur lar
Ġpar asÄ±
Ġis abet
Ġk ep
ĠTemmuz da
Ġzek a
Ġteb liÄŁ
Ġar amak
s iyle
Ġfiyat a
Ġede ceÄŁi
Ġse ans
ĠbaÅŁlamÄ±ÅŁ tÄ±
Ã¼p he
c alÄ±k
ĠKurul unun
ĠW hats
ĠÄ°b n
ĠBil iÅŁim
tay Ä±m
i on
ĠkadÄ±n larÄ±
ĠÃ§ek tiÄŁi
ĠB erk
ĠÄ° p
r ada
ĠW ash
ĠbaÅŁlad Ä±ÄŁÄ±nÄ±
Ġvar an
Ġac Ä±m
ĠServ isi
Ġla ik
ĠB ing
Ġh elikopter
ĠÃ¼m it
ĠP amuk
ĠMÃ¼slÃ¼man larÄ±n
ĠM Ã¼k
ĠÃ§or b
Ġdurum larÄ±
Ġkapasit esi
ĠÃ§ocuk larÄ±nÄ±n
ĠÃ¼rÃ¼n lerinin
ĠUS B
Ä±mÄ±z la
ĠKap alÄ±
iliÄŁ ini
ĠKÃ¶y Ã¼
Ġteknoloj ileri
ĠHas ta
ĠSoÄŁ uk
Ġyeterli dir
Ġmuh at
ĠÃ¼z Ã¼m
ĠB Ã¼t
Ġemek lilik
Ġmetrek ar
ograf i
Ġuygun dur
lat ma
Ġk uc
Ġal manÄ±z
ĠY T
Ġaday larÄ±n
Ġver meyi
ĠÅŁekl indeki
ĠiÅŁÃ§ ilerin
Ġyat an
ĠÅŁiir leri
siy um
Ġbelir ley
ĠsÃ¼rec ine
ĠmantÄ±k lÄ±
Ġima j
Ġy eme
f an
Ġd ib
Ġmit ing
ĠÃ§ey r
ĠÃ¶l Ã¼mÃ¼
O G
Ġbas amak
acaÄŁ Ä±nÄ±zÄ±
dik i
Ġver ildiÄŁi
ĠkÃ¶ f
ĠG em
ĠmÃ¼dÃ¼r Ã¼
ĠEr ken
ĠH y
ĠGenelkur may
ĠH enÃ¼z
Ã§ Ä±nÄ±n
ers en
Ġstan dar
Ġres imler
AR A
ad ay
ĠbaÅŁladÄ± lar
Ġiddi alÄ±
c inin
ĠgÃ¶nder ildi
ĠDemir taÅŁ
Ġdayan Ä±k
ĠgerektiÄŁ ine
ĠdÃ¶nem e
ĠÃĩ orum
Ġplatform u
ĠA M
Ġtut arÄ±
ĠK Ã¶k
Ġizley ic
ĠAn gel
Ġs esini
Ġf os
miÅŁ tim
ĠgeliÅŁ mesi
ĠMus a
K S
Ġkurum larÄ±n
Ġbak anlÄ±k
Ġf eder
ĠÄ°ÅŁ Ã§i
ĠÃ¼lk emize
f one
ĠÅŁart larda
ĠcoÅŁ k
ĠtaÅŁ Ä±t
ĠmÃ¼lk iyet
ĠAd et
ĠÄ°d di
Ġanlat Ä±r
Ġal Ä±yoruz
ĠA lex
ĠÅŀub esi
Ġkar ara
Ġtarih in
c im
ĠsaÄŁ lanan
u dum
Ġgereksin im
Ġhayvan lar
ĠD emek
Ġyap Ä±nÄ±n
ĠCh ar
ĠÃľ m
Ġerk eÄŁin
ĠOn dan
ĠEm lak
ĠKon ser
Ġsezon unda
ĠFat ma
c anÄ±n
Ġsu da
ĠT uÄŁ
ĠhastalÄ±k lar
ĠB Ã¶
ok si
ĠMa x
Ġden ildi
Ġdey iÅŁ
g Ã¢h
Ġbuton una
Ġolur sanÄ±z
Ġtez gah
Ġkit le
Ġkarar larÄ±
Ġyol larÄ±nÄ±
Ġbelirt iliyor
ĠD A
ĠkullanÄ±m Ä±na
ĠgÃ¶v de
Ġd ed
ay eti
l ediÄŁiniz
Ġtakv im
Ġetm enin
Ġdilek Ã§
Ġbek lemek
I LI
Ã¶r ek
ĠÄ°ngilter ede
ĠÃ§alÄ±ÅŁma da
Ġk is
Ġak ciÄŁer
Ġert esi
Ġmak ul
ĠsavaÅŁ Ä±n
ĠtÄ±k layÄ±nÄ±z
Ġanlat maya
ĠGeliÅŁtir me
Ġgerektir ir
Ġfark l
Ġbank alar
Ġis eniz
T E
Ġnef is
Ġfar z
Ġsit esinin
ĠfarkÄ±n dalÄ±k
ĠateÅŁ li
Ġsar s
Ġtop tan
ĠSor un
ĠU mut
Ġsay Ä±sÄ±z
Ġoksi jen
Ġt adÄ±
Ġeur o
ĠKÃ¶r fez
Ġolan lara
Ġpersonel in
ĠgÃ¶rÃ¼ntÃ¼ ler
Ġy am
alan an
Ġy ut
Ġd inin
ĠrÃ¼y a
ĠYal Ã§Ä±n
ĠW at
lam Ä±ÅŁtÄ±r
ĠeÄŁitim in
ĠseÃ§im lerde
ĠN um
Ġs tad
ĠMerh abalar
ĠD om
ĠSonuÃ§ ta
Ġgelecek tir
Ġn ice
Ġdol ay
Ġiz n
Ġhik met
ĠÄ±ÅŁ Ä±ÄŁÄ±
ĠmÃ¼slÃ¼m an
ĠÃĩ iz
larÄ±nÄ±z la
ber g
Ġters ine
Ġders ler
ĠBat man
Ġko alisyon
ĠÅŁ en
Ġkazan ma
ĠÃ§arp Ä±cÄ±
il emez
ĠTak Ä±mÄ±
Ġboy n
ĠMat ematik
Ġminim um
ĠniÅŁ an
ĠÃ¢ lem
Ġmes ai
Ġve da
ĠÅŁ ap
ĠP op
ĠÅŁ ebek
ĠDer gisi
ĠZeyn ep
ĠSit esi
dir me
Ġbu Ã§uk
Ä±nÄ± p
ĠdÄ±ÅŁ Ä±ndan
Ġyorum larÄ±
Ġih bar
D P
ĠM oda
ĠV i
Ġtak dim
ĠKPS S
ĠF re
ĠhÄ±r sÄ±z
ĠÃ¼m met
L Ä°K
l ediÄŁini
Ġistem iÅŁ
B Ä°
ĠyÃ¶netim inin
ĠEsn af
eterin er
af e
m ece
ĠKullan Ä±m
Ġkadar Ä±yla
ĠHep si
ĠkaldÄ±r Ä±lmasÄ±
ĠdeÄŁerlendir ilmesi
os unun
Ġaray arak
ĠÃľskÃ¼ dar
it a
af et
Ġmak ale
Ġtes adÃ¼f
ĠgerÃ§ek Ã§i
ĠyÃ¼r Ã¼
ed an
ĠdÃ¼zen ledi
Ġs Ã¼p
ĠD iyet
z im
ĠGÃ¶ Ã§
Ġkon san
Ġilk okul
Ġkurtul uÅŁ
ĠUEF A
ĠKon gre
ĠÄ°s met
Ġkay g
Ġkar aciÄŁer
t as
Ġkur ÅŁun
ĠHaz reti
ĠÃľ ye
ĠÅŀanlÄ±ur fa
em ediÄŁi
ĠdÃ¼zenlem eler
ĠK ans
Ġmesaf ede
ey bol
Ġay Ä±na
ĠEs er
Ġal dÄ±ktan
Ġal lah
ĠOn e
ok er
amaz lar
ĠG re
Ġihtiyac Ä±mÄ±z
ĠD uvar
ĠAlÄ±ÅŁ veriÅŁ
v il
Ġtopr aÄŁa
ĠY oÄŁun
Ġolmay acaktÄ±r
ĠSay f
ĠP S
ĠÃ§alÄ±ÅŁmalar Ä±nda
ĠGazet e
Ġsar Ä±m
ĠSig orta
Ġt Ã¼f
ĠÅŁ ur
k oÅŁ
Ã¼nÃ¼z e
ĠÃĸ ÄŁ
af ak
ĠÅŁ em
Ġbirbir ini
Ġkar an
ĠM Ã¼l
Ġt uhaf
ĠTrump Ä±n
Ġet icaret
ĠS l
ĠdeÄŁiÅŁ ir
ĠM ol
et tÃ¼r
ĠsÃ¶z Ã¼nÃ¼
ĠB us
ĠÃ§ikol ata
Ġv aat
ĠbÃ¶lÃ¼m Ã¼ne
ĠK aÅŁ
Ġder im
ĠBakan lÄ±ÄŁÄ±na
ĠÃĸrg Ã¼tÃ¼
Ġar Ä±za
ener al
Ġproblem leri
ĠÅŁim dilik
ĠyaÅŁ Ä±ndan
ĠyÃ¶n den
Ġs ez
ĠS i
Ġp ul
Ġfet h
ĠOtob Ã¼s
Ġbul up
ĠgÃ¼n lerinde
ĠuÄŁr at
Ġvurgul an
ĠYargÄ± tay
li b
us undan
ik leri
ĠSistem leri
ĠÅŁof Ã¶r
AN B
nav ut
mam alÄ±
ĠayÄ±r t
Ġat om
ĠiÃ§in dir
Ġaday larÄ±
Ä±k lar
ĠÃ¶zellik lere
Ġkent sel
Ġbulun duklarÄ±
Ġs ef
ĠseÃ§im lerinde
ĠÃ§erÃ§ev ede
ĠbaÄŁ Ä±ÅŁÄ±klÄ±k
ĠsÃ¶n dÃ¼r
Ġot o
ĠT ap
Ġbin asÄ±
Ġgit tiÄŁ
Ġsam im
f il
ĠB AÅŀ
ĠkeÅŁ if
b it
y etik
Ġg Ã¼b
t ra
Ġak siyon
lay abilir
ĠyÃ¼rÃ¼t Ã¼l
Ġkey fi
Ġm g
id d
ĠMark a
ĠdÃ¼ÅŁÃ¼n mek
ĠyÃ¼z me
Ġf rag
r d
ĠHayvan cÄ±lÄ±k
ĠC insel
ĠiÅŁaret i
ĠBaÅŁ ta
ĠO tur
ĠI r
ĠdÃ¼ÅŁÃ¼n dÃ¼m
Ġl in
lan maz
Ġark asÄ±ndan
Ġtel af
ĠKarÅŁ Ä±
ĠsÄ±r f
ĠBaÅŁkan lÄ±ÄŁÄ±na
en s
ĠdeÄŁerlendir mek
ĠkaldÄ±r Ä±ldÄ±
ebilm e
ĠS om
ĠÃ§ocuk luk
ĠS ayÄ±
Ġek im
ĠAk ÅŁ
ĠAntal yada
ĠalanÄ±n daki
Ġkab ar
Ġc a
ĠLev ent
Ġtah liye
Ġmuh akkak
ĠanlaÅŁ Ä±lÄ±r
Ġbul muÅŁ
Ġeder se
Ġmor al
ĠsÄ± Ã§
Ġistis mar
ĠDemokr asi
ĠÃ§Ä±k tÄ±ÄŁÄ±nÄ±
ĠyaptÄ±r mak
ĠSer best
ĠÃ¼st elik
ĠÃ§ok tan
Ġsen dro
ĠayrÄ± calÄ±k
ĠilaÃ§ lama
Ġkap lama
ĠbÃ¶lg esine
Ġyer lerden
ĠnÃ¼f usu
ĠB ed
ĠaÅŁ an
ĠÃ§Ä±kar dÄ±ÄŁÄ±
Ġver ilerin
ĠkarÅŁ Ä±nÄ±za
Ġgiy in
ĠÃ§alÄ±ÅŁ arak
ĠmÃ¼ÅŁteriler imize
Ġtalep leri
ĠgÃ¶rÃ¼n Ã¼ÅŁ
Ġfer ah
Ġkatk Ä±sÄ±
Ġkat man
ĠÃ§ et
ĠdÃ¼zen leyen
Ġsor usu
Ãľ L
ĠAjans Ä±
Ä±yorlar dÄ±
ĠK H
ĠS te
Ġg Ã¼
ĠZ irv
ĠgeÃ§ir ilen
M AN
ĠVak f
ĠÃ¶ldÃ¼r Ã¼l
Ġkal Ä±ntÄ±
Ġkend iniz
ĠBl ack
ĠgÃ¶rdÃ¼ÄŁ Ã¼mÃ¼z
ĠbaÅŁar Ä±sÄ±
L A
Ġbenz et
ĠI l
anÄ±n Ä±z
or a
Ġolan aÄŁÄ±
Ġtarih ini
Ġar m
ĠAs Ä±l
ĠI M
Ġkend iliÄŁinden
ĠvatandaÅŁ Ä±
ĠGenÃ§ ler
Ġpro sed
is y
Ġzor dur
Ġkom utan
Ġer it
Ġail eler
ĠyaÅŁ Ä±
k ale
de st
Ġail esine
ĠÄ°liÅŁ kin
Ġkat il
ĠAlev i
anÄ±z a
ĠG ezi
Ġsistem de
Ġmes ele
ĠKud Ã¼s
Ġdosy alarÄ±
Ġn olu
Ġr et
Ġak si
ĠPort ek
Ġf aÅŁ
ĠmÃ¼zak er
Ġakadem isyen
Ġver diler
Ã¢ k
ĠgÃ¶l g
ĠN ok
Ġoran Ä±nÄ±n
Ġkal dÄ±k
Ã¼n ist
ĠiÅŁ tah
on da
ĠDoÄŁ a
ĠTB M
ĠSal dÄ±r
Ġpart isi
Ġfi il
Ġtemiz leme
Ġgel meye
ĠEdir ne
as s
ĠEski den
ĠbÃ¶lg elerinde
ĠAlman yanÄ±n
ĠdaÄŁ Ä±l
Ġzih niyet
Ġbirisi dir
ĠKo le
ĠbÄ±rak an
Ġyap Ä±sÄ±nÄ±
Ġil de
ĠV ir
Ġkork ut
ĠL ib
Ġd ram
ĠdÃ¼ny asÄ±na
ĠsonuÃ§ ta
ĠSiz i
acak larÄ±
Ġi ta
Ġter ey
ĠO larak
Ġkap lÄ±
Ġsaat ler
Ġkolay lÄ±k
ĠkonuÅŁ mak
ĠdoÄŁrul tu
Ġyaz maya
Ġkur b
ĠB a
Ġyan l
Ġc hat
ad ar
ĠolmadÄ±ÄŁ Ä±na
ĠKul Ã¼p
ĠgÃ¶rdÃ¼ÄŁ Ã¼m
ĠT ir
Ġbin anÄ±n
ĠGelenek sel
Ġfayd asÄ±
Ġv aj
Ġkal a
ĠE T
ur du
Ġhast alarda
Ġun cu
ĠGenel de
ac ag
Ġd ig
ĠB uz
ĠBil imler
Ġbak tÄ±m
ĠSiyas i
Ġkarakter i
ĠYÃ¼z yÄ±l
ĠTR T
el a
ĠÃ¶n Ã¼ndeki
ĠgÃ¶k yÃ¼z
Ġal am
ĠkÃ¼f Ã¼r
Ġyemek ler
Ġd eyince
ĠÃ¼lk elere
Ġbelirt ileri
ĠkoÅŁul larda
Ġtemiz len
Ġp oÅŁ
may alÄ±m
le ÄŁi
Ġuygulan acak
Ġs iv
acaÄŁ Ä±nÄ±n
Ġbulun muÅŁ
ĠhatÄ±rlat an
ĠoluÅŁtur maktadÄ±r
ĠA mas
Ġtamam landÄ±
Ġtut arak
ĠbÃ¶lg eler
Ã¼c Ã¼k
ĠÅŀampiyon lar
ĠeÄŁitim ini
Ġtur u
ĠK UR
Ġdav anÄ±n
n dan
ĠalÄ±n dÄ±ÄŁÄ±nda
ey z
ĠAt ak
Ġlit re
ĠSiz lere
ĠOn lara
Ã¼r t
ĠOl dukÃ§a
ĠJ am
ĠL ak
ĠiÅŁlem lerinin
Ġkonu daki
ĠsaÃ§ ma
Ġyemek leri
Ġteknik leri
ĠÃ§alÄ±ÅŁmalar da
Ġam bulans
al aÅŁ
elerin deki
ĠÄ° Ãĩ
ĠparÃ§ alan
Ġbozuk luÄŁu
ĠÃ§ocuk larda
Ġoper atÃ¶r
Ġsay gÄ±n
ĠÃ¶ner iler
ĠS y
ĠÃ¶de meler
ĠÃ§ekir dek
ĠkÄ±r Ä±l
ĠkullanÄ±l mÄ±ÅŁtÄ±r
l imi
Ġar adan
Ġoluyor uz
ĠR iz
Ġmekan ik
ĠÅŁey lerin
ĠÃ§ Ä±plak
ĠAy ak
ĠaÃ§Ä±k tÄ±r
Ġd or
Ġkim liÄŁi
K E
Ġmas aya
i o
an dan
ĠYar at
as por
ik li
Ġfiyat larla
amÄ±z dan
Ġekonom isi
ĠpiÅŁ man
ĠOper asyon
Ġde h
ĠbaÅŁlam asÄ±
Ġsorgul ama
ĠaydÄ±nlat ma
ĠtanÄ±m ak
ĠHastalÄ±k larÄ±
ĠOn larÄ±
Ġform Ã¼l
ĠHay al
Ġinternet ten
Ġpar m
Ġsat Ä±cÄ±
ĠÄ° y
Ġsev imli
Ġdevrim ci
Ġark adas
Ġyurt taÅŁ
Ġb y
Ġkonum da
ĠOk um
ĠGÃ¼ven liÄŁi
ĠH adi
Ġroman tik
ĠÃ§alÄ±ÅŁ mayÄ±
Ġper akende
Ġneden lerle
ĠEb Ã»
ĠE lif
ĠF abrik
Ġkoy an
Ġprogram da
iniz deki
Ġb ine
ĠbaÅŁken t
Ġokum aya
Ġm Ä±sÄ±r
ĠEn gin
Ġkarar Ä±n
r Ã¼
it h
Ġn imet
Ġimk Ã¢nÄ±
Ġ lar
ĠÅŁaÅŁ kÄ±n
ĠH or
diÄŁ ine
acÄ± lar
Ġref ah
Ġn orm
ĠNAT O
Ġm um
ĠC ity
Ġf Ã¼z
of f
ĠA la
Ġp embe
ĠM ekt
ĠÄ° c
Ġan dan
ĠÄ°st ih
n Ã¼n
ĠN ar
ĠKÄ± b
ĠM Ã¼t
Ġvaz if
ĠBel ir
Ġhalk Ä±na
Ġkurum u
ĠyatÄ±rÄ±m lar
ĠTedav i
ĠtaÅŁÄ±n maz
ĠAnkar aya
ĠÃ¶ dÃ¼n
ĠgÃ¶nder di
ĠAÅŁaÄŁÄ± da
Ġdeng eli
ĠKÄ±r Ä±k
t edir
Ã¢ f
ĠÄ±ÅŁ Ä±ÄŁÄ±nda
ĠN a
l aki
Ġid am
ĠP ad
ĠD ak
ĠsÃ¶ylÃ¼yor um
l ediÄŁimiz
ĠMal zem
Ġrisk ini
Ġver miyor
Ġb ini
Ġtem p
g eneral
ĠBur adaki
Ġiz liyor
Ġtek stil
Ġneden leri
ĠS m
ĠBel gesi
Ġp amuk
Ġhar Ã§
Ġkol on
Ġday at
aÅŁ ehir
ĠL ey
ĠI SO
Ġkan alÄ±
Ġmak s
ĠkaldÄ±r mak
ĠKalit eli
ĠmaÄŁaz a
Ġlist esinde
z aman
ĠA ra
Ġbulun makta
Ġhizmet ini
f Ã¼m
Ġtak Ä±l
ĠM ete
ĠAllah Ã¼
ĠAc aba
Ġolur uz
h h
Ġses leri
Ġdikkat ini
Ġalg Ä±lan
ĠÃ§Ä±k maz
ĠB eden
Ġhizmet lerin
Ġnitelik te
em iÅŁtir
ĠBulgar istan
l eden
ĠsÃ¶zcÃ¼ ÄŁ
Ġbek ley
Ġtaraf Ä±n
ĠÃ¶rnek ler
ĠkÄ±r k
Ġoper asyonu
ĠseÃ§ kin
un lu
Ġaktar dÄ±
ĠseÃ§ ildi
Ġpo li
ĠaÃ§Ä±l acak
ĠgÃ¶ster miÅŁ
ĠÃ¼cret li
ĠuÄŁr una
Ġdurum dur
C Ä°
ĠBor Ã§
Ġkelim esi
Ġu cu
Ġpar sel
da a
ĠB lu
Ġel it
ĠcoÄŁraf y
Ġreak siyon
iz de
Ġhesab Ä±ndan
ĠÄ° sa
Ġpro grama
ĠSuriy enin
Ġb ron
ĠY Ã¶r
Ġbek ler
ĠFa aliyet
ĠEk ran
ĠKon ak
g n
ĠyÃ¼rÃ¼t en
Ġat Ä±n
ĠDon ald
ĠD Ã¼ÄŁÃ¼n
Ġlir alÄ±k
t iz
ĠcÃ¼z dan
ĠYukarÄ± daki
ĠgÃ¶nder diÄŁi
ĠaÅŁ Ä±
Ġplan lama
Ġyapan lar
Ġayr Ä±lÄ±k
Ġg lobal
ĠBir inc
ĠÃĸn der
Ġter ap
ĠA P
ĠmÃ¼hendis lik
ĠgerektiÄŁ inde
ĠH ip
lar sa
Ġavantaj lÄ±
ĠK u
end im
ĠDemokr atik
ĠyazÄ±l Ä±mÄ±
ĠSey ahat
Ġen j
Ġsonu ca
Ġp adiÅŁah
Ġgittik Ã§e
ĠR Ä±za
Ġkon tr
Ġ unu
ĠÅŁ Ã¼phe
il eceÄŁi
ĠbaÅŁar Ä±ya
Ġsayf asÄ±
Ġbelirlen miÅŁ
ĠÃ¶nem ine
tÄ± p
T V
ĠKarÅŁ Ä±y
as us
ĠÃ§Ä±k abilir
iy eler
Ã§ Ä±sÄ±
Ġay ni
Ġn evi
ĠÅŁeh re
Ġhat un
Ġ ur
Ġbilm em
ĠgeÃ§tik Ã§e
Ġn ur
ĠHaz ine
ĠKaz ak
Ġd Ã¼
ĠAmerik anÄ±n
ak tif
Ġkab uk
ĠA F
ist al
ĠseÃ§im ler
ĠaÃ§ lÄ±k
ĠgÃ¼Ã§ lÃ¼k
Ġk ud
Ġhus usunda
ov asyon
Ġuygulam ayÄ±
I P
Ġkoy arak
Ġh iz
Ġdevam Ä±nÄ±
Ġdam la
ĠKesin likle
Ġc on
ah an
ĠWash ington
ar m
diÄŁ in
ĠpeÅŁ in
Ġvur uÅŁ
Ġister iz
ĠCumhuriyet inin
Ġkal mÄ±ÅŁtÄ±r
ĠÃ¼lk esi
ĠHam il
az e
ĠyÄ±ld Ä±zÄ±
ĠaÃ§ arak
Ġmem uru
ĠV eri
ĠÃ§Ä±kar Ä±l
Ġkir li
ĠEv den
ĠÃľn al
Ġlez z
abol iz
ĠÄ°n sanÄ±n
ĠHik met
ost an
ĠkuÅŁ ak
ec eg
Ġas falt
Ġm iz
Ġh Ã¼r
Ġdoy ur
ĠH u
ANB UL
ĠaÅŁaÄŁ Ä±ya
ĠP e
c am
len diÄŁi
Ġsak lÄ±
ĠKast am
Ġam atÃ¶r
Ġol abilmektedir
Ġkoy duÄŁu
ĠN Ã¼f
ĠSay gÄ±
tÃ¼ÄŁ Ã¼nÃ¼
ĠiÅŁ yeri
Ġanay as
ĠÃ¶ÄŁren dim
ah isar
Ġort aÄŁÄ±
Ġbah sede
ĠÃ¶nlem ler
ĠteÅŁh is
ĠsÄ±kÄ±ntÄ± lar
ĠHavalim anÄ±
Ġmerak la
Ġsen ary
ĠsÃ¶y lenen
ĠaÃ§ Ä±lmÄ±ÅŁ
abilm eniz
Ġsev iye
Ġvak t
ĠkÃ¶y Ã¼nde
ĠTemiz lik
ĠA dÄ±m
ĠSinem a
Ġkon usunu
mayÄ± p
ĠoluÅŁtur ulmasÄ±
Ġruh u
Ã¼l Ã¼ÄŁ
S S
Ġar Ä±ndÄ±r
Ġb ilerek
ĠM erk
ĠgÃ¶z lerini
ant in
leri dir
ĠkarÄ±ÅŁ Ä±mÄ±
ĠP T
Ġdakik alÄ±k
Ġbelirt iyor
Ġaz Ä±n
Ġner de
ĠyapÄ± lar
ĠÃľrÃ¼n leri
ĠM Ã¼ÅŁ
ĠyÄ±l Ä±nÄ±
Ġkonum unda
ĠY or
Ġat Ä±yor
ah it
ĠHastan esine
Ġkural lar
ĠKÃ¼rd istan
os unda
ĠW e
ĠY Ä±k
Ġkop y
Ġsorun lara
ĠsaÄŁlay abilirsiniz
ĠhÃ¼kÃ¼m lerine
par ta
Ġokul larda
Ġkayd Ä±yla
s ada
ĠKO BÄ°
Ġmerh amet
Ġd eyim
ĠÃ¼lk elerinde
Ġpar lament
Ġhat alÄ±
Ġc uma
ĠgÃ¶ster g
ĠLef koÅŁ
ĠÃ¶zen le
ĠaÃ§ Ä±sÄ±
ĠDevlet in
ĠL ok
Ġsay Ä±sÄ±nda
ĠYeni den
Ã» m
Ġpat ent
ĠPa ul
ĠSan ki
eÄŁ im
ĠHat ip
Ġsunul uyor
Ġis lam
Ġkar e
Ġmod Ã¼l
am adan
Ġobj ektif
il ebilecek
acaÄŁ Ä±mÄ±
may Ä±nÄ±z
ĠM ers
al lÄ±
Ġbak Ä±yor
ĠT v
ĠJapon ya
Ġol abilmek
B A
iv ert
Ġb Ä±r
Ġdur ul
ĠÃ¼ret mek
Ġmalzem esi
ĠKay ser
ler se
baÅŁ ka
Ġem zir
Ġsokak ta
ĠyapÄ±l Ä±rken
acaÄŁ Ä±mÄ±zÄ±
Ġayr Ä±lÄ±r
Ġyaz Ä±p
ĠÃ§Ä±k arken
Ġem lak
ĠK ON
ĠC oÅŁ
ĠAn ti
Ġduyg usu
ER S
Ä± h
C I
Ġdayan arak
ĠmÃ¼h im
ĠÄ° mar
L AM
abilecek leri
ĠÃ§ar esiz
Ġkarar Ä±nÄ±n
ĠH ekim
ĠkaÅŁ Ä±k
Ġprogram Ä±n
U Z
ĠkullanÄ±cÄ± lara
Ġik il
Ġat mÄ±ÅŁ
ĠÅŀ em
Ġhayvan larÄ±n
may acaÄŁÄ±nÄ±
Ġyol la
ĠtaÅŁÄ±m acÄ±lÄ±k
Ġmillet i
ĠteÅŁ eb
ĠÃ§Ã¶zÃ¼m leri
Ġdiy elim
ĠK Ä±rÄ±m
Ġordu su
Ġkims eyi
Ġoyuncu larÄ±
ĠseÃ§ ilmiÅŁ
Ġsen den
Ġsahn eye
ĠAy n
ĠZ eki
r esi
ĠÃ§ek ip
ĠrÃ¼z g
Ġver sin
ĠNih at
ĠAr ama
ĠTop lu
ĠKKT C
ĠYan gÄ±n
Ġkon umu
ĠgÃ¼n Ã¼ne
Ġdiy ecek
an sa
ĠÃ§alÄ±ÅŁ acak
ĠHÄ±rist iyan
Ġbir Ã§
ĠolduÄŁumuz u
Ġprogram Ä±nÄ±
Ġem ail
Ġtes isi
av at
ĠAr navut
ĠsÄ±r alan
s man
oda fone
tuÄŁ unu
l unun
ĠS of
Ġsev erek
f iye
d inin
Ġbenz ersiz
Ġg uzel
Ġbul duÄŁu
Ã»l ullah
Ġyar a
ĠyazÄ± larÄ±
Ġkan lÄ±
Ġinsan lÄ±ÄŁÄ±n
Ġh ost
ĠHak kÄ±
ĠÅŁÃ¼k Ã¼r
Ġtur istik
ĠV it
lan Ä±p
l Ä±y
ĠyayÄ±n ladÄ±
ĠAbd ul
n ess
Ġih anet
Ġot uz
P D
ĠT eh
os una
ĠgÃ¼ven liÄŁini
Ġyapmak ta
Ġcenaz e
ĠyaÅŁ ant
ĠgÃ¶rÃ¼ntÃ¼ leri
Ġtaraf lÄ±
d ini
ĠBir liÄŁinin
Ġderec eye
Ġden ge
od ik
Ġpor no
Ġsal g
Ġfayd alarÄ±
ĠPet rol
oÄŁl una
Ġbilin iyor
Ġcihaz larÄ±
Ġmal um
ĠVÃ¼c ut
ĠT F
Ġdest eÄŁini
Ġkend im
ĠdÃ¼ÅŁÃ¼n mÃ¼yor
ĠD ye
t il
Ġed iniz
Ġtemel inde
id or
Ġm e
ĠiliÅŁk ilerin
ĠyoÄŁun luk
ĠsoÄŁ an
eliÄŁ ine
Ġokul un
ĠmÃ¼cadel ede
Ġkat ma
Ġalb Ã¼mÃ¼
ĠN am
Ġsezon un
anÄ±z da
Ġf ren
m ediÄŁ
Ġklas Ã¶r
Ġkonusu dur
Ä±r Ä±z
ĠW orld
Ġkurtar ma
ĠEn f
ĠU laÅŁtÄ±rma
Ä±nÄ±z la
k Ä±rÄ±m
ĠLig inde
Ġbir ileri
ĠsÃ¼r eyle
ĠhatÄ±r lam
Ġzeytiny aÄŁÄ±
Ġtr ib
Ġdest eÄŁiyle
ĠyÃ¶netim inde
Ġtah ta
ac ivert
ĠdeÄŁiÅŁ iyor
ĠD ede
Ġtekn iÄŁi
Ġ ine
ĠT EK
Ġal Ã§ak
Ã¼s k
ĠGÃ¼Ã§ lÃ¼
lan maya
ĠyÃ¶n Ã¼
Ġz ahmet
ĠÃ§eÅŁ idi
Ġsoru larÄ±nÄ±
ĠgÃ¼zer gah
Ġnit eliÄŁi
Ġnik ah
ĠAnadol unun
Ġpantol on
Ġb adem
Ġkab losuz
ĠL ir
ĠB Ãĸ
Ġeksik lik
ĠiÅŁlem lerin
al in
mam Ä±zÄ±
ĠÅŁampiyon luk
ĠÃ¶ngÃ¶r Ã¼len
Ġmesl ektaÅŁ
Ġz ev
ĠsaÄŁ lÄ±ÄŁ
ĠReh ber
ĠM nin
Ġbuyur du
og ram
Ġilg il
ĠPazar lama
ĠDeÄŁer lendirme
Ġtaleb inde
ĠSon unda
m inin
Ġg as
ĠgÃ¶rÃ¼ÅŁ Ã¼
Ġotom otiv
ĠC el
ĠaÅŁ kÄ±
ĠK Ã¼l
ĠsÃ¶yl edik
i da
ĠÄ°z mit
ĠÃĸn er
ĠKen an
Ġmotiv asyon
Ġmerak lÄ±
Ġsunul maktadÄ±r
dÄ±r ma
Ġiht il
ĠÄ°l han
Ġve s
Ġkazan dÄ±ÄŁÄ±
ĠG ro
Ġver it
Ġsev giler
ĠLond ra
Ġkoy ul
ĠaÄŁ acÄ±
ĠarttÄ±r mak
Ġbank acÄ±lÄ±k
ĠBin ali
ir k
ĠG id
om i
g usu
ĠsayÄ± larÄ±
ĠyÃ¶netic isi
Ġis kel
Ġistih barat
Ġmol ek
ĠÃ§alÄ±ÅŁ masÄ±nÄ±
Ġrad ikal
Ġistem eyen
ĠÃ§Ä±k Ä±ÅŁÄ±
am amasÄ±
Ġs ter
ĠÃ§or ba
ĠboÅŁ a
k est
Ġy edir
ĠB art
Ġiz mir
ĠgÃ¶rÃ¼nt Ã¼sÃ¼
ĠbaÅŁlÄ±k larÄ±
Ġkon ten
Ġdiler iz
ĠHal buki
iler imiz
ĠK oy
Ġzul Ã¼m
Ġyar Ä±sÄ±nda
r uklu
Ġbilg isay
Ġol acaÄŁÄ±na
Ġnem lendir
ĠUkray na
ĠAm el
Ġal em
ĠendÃ¼str iyel
ĠiliÅŁk iye
l ilere
Ġm Ä±sÄ±nÄ±z
ĠÄ°ÅŁ in
ĠdeÄŁiÅŁ ti
Ġtasar lanan
r enin
ĠC D
Ġces ur
ĠSup er
Ġver ecektir
ĠiÅŁ lerin
Ġkurtar mak
Ġm alÄ±
Ġtoplant Ä±ya
y ak
ol uk
Ġsigort asÄ±
abilir sin
ĠC N
Ġsalon unda
Ġhes aba
Ġhamil elik
Ġetmek ten
AR I
ĠG Ã¼ler
av ir
aliz asyon
ĠAÄŁr Ä±
Ġok urken
Ġyetk isi
ĠD Ã¶v
ĠÃĩak Ä±r
ĠsoÄŁ ut
Ã§ Ä±k
n ey
ĠH o
ĠmÃ¼t te
c Ä±ya
ĠmaÃ§ a
ĠC ap
ĠÃ¶mr Ã¼
Ġsahip lerine
Ġem ri
ĠÄ±ÅŁ Ä±l
Ġkitab Ä±nda
ĠbÄ±rak arak
ĠU Ã§ak
Ġr ev
Ġdam g
Ġn eyi
Ġzorunlu dur
Ġpar anÄ±n
ĠFaz la
ĠÃĩocuk larÄ±n
im a
ĠgÃ¶ster miÅŁtir
Ġyor ul
ĠÄ°r anÄ±n
Ġdestek li
ĠÄ°k tis
Ġsor ar
Ġfark et
ĠA g
ĠZiy a
Ġr it
Ġyer lerinde
Ġedilm ez
Ġay larda
ĠyÃ¼z lÃ¼
Ġsevin dir
ĠBilin diÄŁi
Ã¼l tÃ¼
Ġtelefon la
Ä° ÅŁ
ĠdiÄŁer leri
azz am
Ġsun du
ĠYÄ±l Ä±n
er ez
Ġuzman lar
ĠDek or
ĠMÃ¼dÃ¼rlÃ¼ÄŁ Ã¼nÃ¼n
ĠO R
ĠgeÃ§ tiÄŁini
ĠaÃ§ Ä±yor
ĠAl b
ĠW h
adÄ± lar
Ä±sÄ±r a
ĠBur aya
Ġgel mesini
ks Ã¼r
Ġel imizden
l ediÄŁ
ek in
Ġyararlan mak
Ġz af
iyet le
fi ce
r uz
lan gÄ±Ã§
ĠÃ¼ret tiÄŁi
ĠA dem
ĠÃ¶zgÃ¼r lÃ¼ÄŁÃ¼
Ġkoruy an
ĠMar din
Ġkal bi
Ġkom bi
Ġteknoloj inin
lan a
Ġtrans feri
Ġfinans man
Ġhad i
Ġdestek lem
ĠÃ§an ta
b iye
ĠÃ¶zel leÅŁtir
Ġyat ay
ĠÃ§Ã¶z mek
ĠbiÅŁ ey
a in
Ġekley erek
Ġengel ler
Ġert elen
ĠG ÃľN
ĠsuÃ§ u
Ġgel ebilecek
Ġpro mosyon
ĠulaÅŁ Ä±l
Ġad Ä±mÄ±
Ġedeb ilmek
Ä±r sa
ĠsaldÄ±r gan
ĠbÃ¶lÃ¼m leri
Y D
ĠkarÅŁÄ± tÄ±
Ġhedef leyen
ĠGe or
deÄŁ er
ĠM de
ĠBaÅŁbak anlÄ±k
ĠP Ä±nar
Ġver eceÄŁi
Ġiler iye
ĠBit coin
ĠkuruluÅŁ lar
ĠfarklÄ± dÄ±r
inc eye
ĠAN K
m un
ĠOf is
ĠSan Ä±rÄ±m
ĠF ah
Ġbirik tir
Ġap artman
ĠdoÄŁrultu da
ĠmÃ¼ barek
ĠÃ§evr eye
ĠbaÅŁlat tÄ±ÄŁÄ±
Ġgec eleri
ĠHerk ese
ĠÃ§ek iÅŁ
ĠBaÅŁak ÅŁehir
Ġproj ede
mÃ¼ÅŁ tÃ¼
Ġyap Ä±t
ĠH int
Ġbelir tir
Ġbulun arak
ĠyapÄ± da
Ġak Ä±n
ĠO D
Ġsok aÄŁa
Ġel iyle
Ġs ih
ĠAnadolu da
ĠoluÅŁtur ma
Ġak sam
Ġmadd elerin
Ġkaynak lar
ĠAl tÄ±
ĠTar if
ĠBaÅŁkan lÄ±k
d ine
Ġmak ar
ĠaÄŁÄ±r lÄ±ÄŁÄ±
Ġuygulam anÄ±n
ĠkadÄ±n larda
ĠSer t
ĠanÄ±m sat
Ġgez in
ĠsÄ±cak lÄ±ÄŁÄ±
Ġark asÄ±na
ĠyaÅŁ ayacak
ĠB Ä±rak
Ġoyn uyor
Ġyakal ay
Ġinceley ebilirsiniz
Ġel ma
Ġsahip lerinin
Ä°Y E
Ġziyaret Ã§i
Ġlam b
Ġkadros u
Ġcaz ip
Ġsim g
ĠA kif
ĠÃ§Ä±kar ma
T R
Ġolumsuz luk
u j
Ġfizik i
Ġprogram Ä±nÄ±n
ĠÅŀ ar
ĠG lobal
ĠdÃ¼z eyi
Ġhizmet ine
Ġkal dÄ±ÄŁÄ±nÄ±
ĠH Ã¼k
ĠD iler
ĠbakÄ±m lÄ±
Ġkal ori
Ġy Ã¼c
Ġzar if
Ġn eye
ĠU sul
ĠM ini
Ġderin lik
Ġdol aylÄ±
Ġsistem ler
Ġkon usuna
ĠtÃ¼r den
ĠKim se
Ġbak Ä±r
ĠbÃ¶lÃ¼m Ã¼nden
Ġyan Ä±ndan
ĠgÃ¼r eÅŁ
Ġ aÄŁÄ±
ĠsÃ¶yl edim
mad Ä±r
ĠgÃ¼zel liÄŁi
Ġs n
Ġter min
ĠSÃ¶z cÃ¼sÃ¼
EN D
Ġkazan Ä±m
ay dÄ±n
Ġport fÃ¶y
ĠF ull
ĠMuh t
Ġhep sinin
Ġazalt mak
ĠÅŁaÅŁÄ±r t
Ġo mur
O D
ĠÃ§alÄ±ÅŁ Ä±n
ĠGÃ¼nde m
Ġf iÅŁ
Ġev rim
Ġoyuncu larÄ±n
Ġyan Ä±sÄ±ra
Ġmis in
dÄ±r an
ĠH el
unu p
ĠK elim
Ġdestek ler
ĠL Ã¼b
mÄ±ÅŁ lardÄ±r
Ġ Ä±lÄ±k
ĠÅŁehir ler
Ġbil iÅŁim
ĠRe al
k anÄ±n
ĠyÃ¶n Ã¼ndeki
Ġkal or
ĠC er
Ġhareket le
Ġh or
ĠP aket
ĠKÄ±brÄ±s lÄ±
ĠÃ¼cret leri
Ġilgilendir en
Ġmuhaf az
iyor sa
ĠOlim piyat
ĠKab ul
Ġsor uyu
len ebilir
ĠMuh tar
Ġoldu gu
Ġdosy asÄ±
ĠbaÅŁlan gÄ±
Ġkullan mayÄ±
ĠAk sar
ĠBil giler
Ġken arÄ±nda
Ġpas ta
ĠÃ¶ÄŁret meni
ĠkatÄ±l Ä±mÄ±
Ġciv ar
Ġita at
Ġsaat lerde
ĠMa alesef
Ġil ki
Ġn un
Ġprosed Ã¼r
ĠGires un
Ġat ak
ĠvatandaÅŁ Ä±n
ĠBan ka
Ã¢ d
Ġ Ä±z
l us
Ġez ber
ĠÄ°h ale
Ġiz ler
Ġedilm esine
c ileri
ĠGar anti
d unun
il yon
ih a
Ġyaz Ä±nÄ±n
Ġmev s
Ġortak lÄ±k
ĠyarÄ±ÅŁ ma
Ġbenz in
ĠT en
Ġod alar
ĠDen et
Ġmadde sine
d on
ĠcumhurbaÅŁ kanÄ±
iyet e
Ġversiyon u
ĠRob ert
ĠaÃ§Ä±k layan
S G
ĠBur asÄ±
al anÄ±
Ġuy uy
ĠdeÄŁin en
Ġanim asyon
ĠÃ¼y elerine
ĠkoÅŁul lar
abilm eleri
ĠpiÅŁ irin
eti ce
Ä± dÄ±r
Äŀ Ä°
ĠOy unu
ĠSG K
ĠE M
E Åŀ
Ġuygulam asÄ±nÄ±
ĠgÃ¶r mesi
ĠgeÃ§miÅŁ i
ĠkÄ±v am
ĠAm ac
Ġadam lar
ĠYan lÄ±ÅŁ
ĠyaygÄ±n laÅŁ
ir alama
ĠgÃ¶ t
Ġr ul
Ġbur juv
ayol larÄ±
ĠFilm in
ĠÅŁub e
k ik
Ġziyaret i
eÄŁ en
dir ler
ĠEylÃ¼l de
Ġp ist
ĠÄ° leri
Ġel le
onom ik
Ġif tir
Ġbur c
ĠKarab Ã¼k
Ġbam baÅŁka
ip to
ter i
ĠO H
abil eceÄŁimiz
ĠÄ±s lak
Ġortam larda
ĠsonuÃ§ larÄ±na
Ġkon ulan
ĠCam ii
Ġplak alÄ±
iyet in
Ġbur cu
Ġham l
Ġbeklen tiler
t d
Ġtat b
Ġkesin t
ĠDer in
Ġm iyim
ĠgÃ¶rev ine
Ġfen a
Ġsigort alÄ±
Ġgalib a
Ġp iyan
ĠkÃ¢ ÄŁ
Ġtak ibi
Ġyap Ä±sÄ±na
ĠKur s
ĠA ut
ub ay
ĠiÅŁtir ak
ĠLig in
Ġgez dir
ĠkonuÅŁ malar
Ġbulun muÅŁtur
Ġsiz ce
ĠsÃ¼r er
eÃ§ h
ĠYÃĸ N
ĠKÄ±b rÄ±
ir men
ĠS ec
dÄ±k Ã§a
Ġbiy olojik
Ġs tÃ¼d
il eÅŁ
em emiÅŁ
Ġkes tir
Ġtac iz
ĠkÄ±z Ä±l
ĠÃ§al Ä±n
Ġbirlikt elik
Ġo pt
Ġer gen
ĠA cÄ±
ĠtÃ¼r b
ĠmÃ¼sa it
Ġfazlad Ä±r
Ġil i
Ä±lÄ±r sa
Ġsig ar
ĠÅŀanlÄ±ur f
Ġtut uyor
Ġek sen
ĠY oz
ĠyanÄ±n daki
ĠÃĩ inin
ĠÃ¼lk elerden
g ren
ĠÃ¶ner ileri
ĠÃ¶ÄŁ Ã¼n
Ġyaz arak
Ġtak tir
ĠkullanÄ±l mÄ±ÅŁ
ĠkonuÅŁ uyor
ĠkarÅŁÄ± t
Ġr ep
ĠÅŀim ÅŁek
Ġkoz metik
Ġproj eye
Ġsol uk
ĠÃ§at Ä±ÅŁma
ĠÃ§Ä±karÄ± p
ĠsÃ¼r Ã¼n
ĠKur al
Ä±nÄ±z daki
ĠBir likte
ĠAvustur ya
ĠPark Ä±
Ġyak Ä±ÅŁÄ±k
Ġhey eti
ĠÅŀehir cilik
Ġnokt alar
g Ä±cÄ±
ĠBir i
Ġsorumlu dur
ĠDav id
Ġanti biyotik
T P
Ġver meyen
B Ä°T
Ġf an
ĠP D
ĠgÃ¶rÃ¼l mesi
ĠÃ¶zel liÄŁine
ĠMen der
ĠedeceÄŁ im
ĠkÄ±yas la
ĠM eÅŁ
Ġsor uya
ĠÅŀ if
ĠÃ¶n Ã¼nÃ¼
ĠBel li
ley se
ĠC elal
ĠbeÄŁ eni
l inde
ĠgÃ¶rÃ¼ÅŁ mek
ĠNur i
ĠYar Ä±n
Ġz Ä±r
Ġc ir
ĠfÄ±r Ä±nda
ĠAn lam
Ġzar arÄ±
Ä± tÄ±r
Ġ inin
ĠPar lament
Ã¼p hane
ĠY el
Ġbilm ez
ro ÅŁ
Ġdeplasman da
Ġbit en
ĠY AP
ĠEfend imiz
Ġses len
Ġkat Ä±larak
ĠtarÄ±m sal
ĠgÃ¼c Ã¼ne
f f
hend isi
Ġsah asÄ±nda
ĠBÃ¶lg esinde
Ġalan larÄ±n
ĠErk ekler
ĠdÃ¼zen ley
ĠK os
as e
ĠL og
ĠÃ¢ lim
eh ri
ĠYÃ¼r Ã¼y
Ġzaman ki
Ġm av
Ġedil ip
li g
ĠmÃ¼ÅŁteriler imizin
Ġkalit ede
Ġmuc iz
ĠAk l
ĠAl Ä±nan
Ġsan atÄ±
b ox
ĠAy v
Ġal man
ĠmÃ¼z e
Ġuzman lÄ±k
Ġj Ã¼r
Ġbir eyin
ĠsavaÅŁ a
ĠkonuÅŁ masÄ±nÄ±
ĠKÄ±s acasÄ±
Ġzih in
Ġplan larÄ±
ĠsÄ±r alarÄ±nda
Ġhak sÄ±zlÄ±k
ĠAlbay rak
iz me
ĠH id
ĠCumhuriyet in
k ay
Ġkab in
Ġsen edir
Ġuz laÅŁ
Ġsin dir
ĠkonuÅŁ tuk
Ġkes me
ĠÃ§evr esi
ĠC eb
ĠdÃ¶n Ã¼yor
Ġyurtd Ä±ÅŁÄ±
v eÃ§
LI K
Ġtar ayÄ±cÄ±
Ġgerekiyor du
Ġtutul masÄ±
ĠboÅŁan ma
Ġder di
Ġtak Ä±ma
Ġes in
ĠA C
ĠSermay e
ĠaÅŁ Ä±l
Ġaf f
Ġkend ilerinin
n es
Ġyeten ekli
ĠÅŀ Ã¶yle
ĠgÃ¶z lÃ¼k
Ġbilg isini
ĠYÃĸ K
ha el
im er
Ġfaaliyet ler
ĠN iÅŁ
m ine
ĠS ili
Ġister se
ĠsektÃ¶r Ã¼ne
Ġzaman dan
Ġm l
ĠÅŁ ov
ĠÃ¶ÄŁ Ã¼t
Ġokul lar
ĠF ay
Ġhak ik
Ġr en
Ġilan larÄ±
ĠyapÄ±l masÄ±na
Ġc ari
Ġse x
al ay
ĠOrgan ize
Ġin at
Ġpart iler
Ġameliyat Ä±
ĠL ED
ĠbaÄŁÄ±m sÄ±zlÄ±k
Ġ lÃ¼
Ġyorum u
ĠÃ¶lÃ§ ekli
Ġmu af
ĠÃľlk emizin
Ġc ik
ĠT icari
ade mi
ĠdÃ¶nem lerinde
Ġsiz lerde
l edikleri
Ġkend imize
Ġyakalan dÄ±
k oz
ĠBaÅŁ arÄ±
ĠV odafone
es k
cu lar
Ġhan i
Ġefsan e
ĠbaÅŁk alarÄ±nÄ±n
Ġyet in
ĠZ ey
may acaÄŁÄ±
Ġbulun acak
Ġtak Ä±lan
Ġmark anÄ±n
Ġal Ä±yorum
Ġinsan lardan
c ik
s ir
ĠÄ° kin
ĠSiyas et
len mesine
if or
ĠKar at
ĠÃ§alÄ±ÅŁ tÄ±k
ĠeÄŁit men
Ġkoy uyor
ĠÅŁiddet le
ĠÃ¶dÃ¼l lendir
Ġeh li
Ġk Ã¶l
ĠÃĩanakk al
ĠgÃ¶r ecek
Ġbit iÅŁ
ĠÄ°l ah
Ġsoru larÄ±n
Ġyap Ä±sal
ĠFir ma
ĠR ize
ĠC al
ĠgÃ¶zÃ¼k Ã¼yor
ĠÃ§alÄ±ÅŁ tÄ±ÄŁÄ±nÄ±
ĠÅŁ i
Ġal acaÄŁÄ±nÄ±z
Ġp eki
Ġp ank
Ġkas a
Ġada p
ĠkeÅŁ ke
Ġbayan Ä±m
ĠadÄ±m larÄ±
Ġver diÄŁiniz
Ġdayan Ä±ÅŁma
if er
ĠEdin ilen
ĠgÃ¶r Ã¼leb
Ġed itÃ¶r
ĠEy lem
Ġakl Ä±na
ĠgÃ¶zy aÅŁ
Ġstratej i
ĠgÃ¶ steri
Ġiyi dir
ĠH aÅŁ
ĠyapÄ± larÄ±
ĠdeÄŁiÅŁiklik leri
Ġbel lek
Ġtutuk landÄ±
Ġist in
ĠhoÅŁ lan
ĠBaÄŁÄ±m sÄ±z
ĠSin op
ĠK lim
ĠaraÅŁtÄ±r maya
ĠaldÄ± lar
ĠÃĸz kan
Ġirti b
ĠB ildiÄŁ
Ġifad eleri
Ġhizmet in
Ġpolitik alarÄ±
Ġort al
Ġism inin
Ġas tr
Ġolacak tÄ±
Ġtaraf Ä±na
ĠW i
Ġkal madan
ĠdÃ¼ÅŁ tÃ¼ÄŁÃ¼
ak Ã¢r
Ġko Ã§
Ġal mÄ±ÅŁtÄ±
ĠTeknoloj ileri
ĠcumhurbaÅŁ kan
ĠKend isine
or y
Ġar anan
ĠgÃ¶rÃ¼ÅŁ leri
Ġsub ay
Ġhev es
Ġhay ali
Ġk l
Ġp lay
ĠY rd
ĠÅŁark Ä±cÄ±
en ter
ĠKur u
Ġrahat Ã§a
ĠE le
ĠÃ§evr esindeki
Ġat Ä±p
Ġoldug unu
edi a
ĠbÄ±rak Ä±r
ĠyapÄ±l abilecek
ĠilÃ§ ede
Ġod asÄ±na
Ġsat Ä±lÄ±k
ĠÄ°dar e
ĠYÄ±l lÄ±k
Ġolmay abilir
Ġotel de
Ġca iz
ĠsaÄŁ lÄ±ÄŁÄ±nÄ±
ĠyÄ±l lara
ĠMÃ¼dÃ¼r lÃ¼k
Ġsen sÃ¶r
ĠY olu
ĠyÃ¼ksek tir
ĠiÅŁ leyen
Ãľ Z
Ġkims eler
ĠÅŁif re
ĠF as
Ġk adem
ĠyÃ¼z e
Ġyet kin
Ġolun ur
ĠÅŁ amp
Ġkim dir
w ood
Ġbir imleri
ĠtuÅŁ una
Ġsoru lara
Ġar sa
ĠTanÄ± tÄ±m
Ġkat Ä±nda
Ġkav ur
ĠSah ip
Ġel veriÅŁ
ĠAf r
ĠBaÅŁar Ä±lÄ±
Ġar Ä±yorum
ĠaÃ§ abilir
ĠDÃ¼z ce
ĠYazÄ± cÄ±
Ġpotansiy eli
ĠMÃ¼hendis lik
Ġnis p
Ġgrub a
ĠtÃ¼rk Ã§e
Ġev ler
ĠKom itesi
Ġdiz inin
Ġaz dÄ±r
ĠEr c
ĠÃ¼retim inde
aliz min
ĠR is
ĠKomutan lÄ±ÄŁÄ±
Ġgetir ip
ĠKap sam
ĠEn dek
Ġbur n
Ġ lÄ±k
Ġteslim at
ĠBiz de
ĠbaÅŁkan larÄ±
Ġmesaj lar
s p
ĠT EM
ĠbÃ¶lg esindeki
Ġgiy s
ĠYÃ¶n tem
Ġders iniz
ĠdÃ¶nem inin
C O
Ġev leri
ĠkayÄ±t larÄ±
Ġav uÃ§
asin da
Ġmezh ep
ĠUkray n
Ġark e
Ġsavun an
abil im
Ġziyaret Ã§
ĠÃ§iz en
Ġalan lara
ik e
it leri
ĠÃ§Ä±kar Ä±lmasÄ±
Ġteor ik
Ġsandal y
Ġdur ur
Ġoynan acak
Ġtan Ä±ma
f ir
ĠÅŀ am
Ä° ST
Ġmu azzam
Ġekran da
ĠOt o
ĠIn ternet
Ġente gr
ĠÄ°zmir in
ĠKon sey
Ġikin cisi
Ġgit ar
ust ur
Ġak an
iy en
Ġsah aya
l ileri
Ġayr Ä±lmÄ±ÅŁ
ĠSer ver
Ġyazar Ä±n
ĠÃ¶y l
ĠÃ§ek ilmiÅŁ
Ġkar ab
ĠÃ¶nem s
ĠvÃ¼c uda
Ġail eleri
ĠI V
ĠolasÄ±l Ä±k
Ġit faiye
ĠYaÄŁ mur
Ġdevlet e
ĠÅŁans lÄ±
ĠKend ini
ĠAÃ§ Ä±lÄ±ÅŁ
ĠÅŀÃ¼ph esiz
as tÄ±r
Ġdiy abet
Ġb Ã¼k
Ġh Ã¼zÃ¼n
Ġm Ã¢n
iyet te
ĠÃ¼retic isi
Ġek lemek
leÅŁ mesi
ac an
iyor dum
ĠBing Ã¶l
ĠÃ§ ukur
eÄŁ imiz
Ġay dan
Ġtan r
Ġfi dan
ĠsÃ¼r esinin
Ġad ama
ĠSar Ä±k
ĠHastan esinde
Ġterc Ã¼me
ĠgeÃ§ meden
Ġhip er
Ġyap manÄ±n
ĠcoÄŁraf i
ĠÃ¶zellik lerine
Ġbil diÄŁimiz
Ġyap acaÄŁÄ±nÄ±
Ġleh ine
ĠgÃ¶ster meye
ĠM P
mas i
ĠV ah
ĠbaÅŁvuru larÄ±
ĠÃĸdÃ¼l Ã¼
ĠÅŁ eri
Ġhizmet lerinin
ĠF ord
ĠtÃ¼m Ã¶r
Ġmahkem eye
Ġbelir leyen
ĠKay n
ĠB ilm
Ġor jinal
Ġs ans
v anÄ±
Ġkab l
ĠolmadÄ±ÄŁ Ä±ndan
ti j
ĠBil dir
ĠÄ±s Ä±r
Ġod asÄ±nda
ĠkaÄŁÄ± dÄ±
Ġkal e
ĠÅŀ art
ĠÃĸz can
ĠAmel iyat
alÄ± p
esi f
Ġhesab Ä±na
ĠÃ¶ÄŁrenc ilerinin
ĠyurtdÄ±ÅŁ Ä±nda
ĠÅŁ un
Ġyap acaÄŁÄ±m
Ġann eler
ĠgeÃ§ir ildi
ĠE D
ĠSev gi
ran Ã§
Ġgrub unda
ĠR Ã¼z
lam asÄ±na
Ġkoy ar
Ġs Ä±y
ĠgÃ¶ster mesi
h ak
ĠDet ay
ĠeleÅŁtir i
ĠÄ° Z
Ġa j
Ġkur arak
ĠgÃ¼ven ce
ĠA Åŀ
ĠvÃ¼c udu
ĠL den
Ġsay Ä±sÄ±na
ĠsÄ±r alarda
ĠÃ¶n eri
Ġkural larÄ±na
Ä±l a
Ġheyec anlÄ±
ĠgÃ¼n kÃ¼
ĠkapÄ± larÄ±nÄ±
ĠOyun larÄ±
Ġsor mak
art ma
Ġt witter
Ġat am
ĠÃ¼ret ilmiÅŁ
t un
Ġmut suz
Ġyap maz
ĠMil lÃ®
Ġak lÄ±
v al
ĠÄ° H
ot u
Ä±m Ä±nÄ±
Ġav uk
Ġhizmet lere
Ġmin net
Ġnih ai
ĠAn Ä±t
abil iyoruz
ĠM ayÄ±
Ġettik ten
Ġz er
Ġgelir i
Ġbur Ã§
ĠbaÅŁlangÄ± c
ĠkaÃ§ an
ĠsÄ±nÄ±f landÄ±r
ĠhÃ¼km Ã¼
ĠAy d
ro jen
ĠsÃ¶yl ediler
Ġhavalim an
Ġhaz in
Ġmesaj larÄ±
ĠgeliÅŁtir ilmiÅŁ
Ġmilletvekil leri
Ġkim e
ĠÅŁart Ä±yla
lÄ± ca
ing ir
uz un
ĠsÃ¶yley ebilirim
ĠÃĩalÄ±ÅŁ an
edd Ã¼t
ĠdÃ¼ny aca
ĠSam s
Ġgo ogle
ĠE dit
ĠIs parta
ĠTeÅŁekkÃ¼r ler
ĠD ah
Ġm uv
Ġ iri
Ġiz ah
Ġgiy en
Ġ ler
ĠsektÃ¶r e
m eme
ĠMan is
ĠÄ°ST ANBUL
Ġkal kÄ±nma
Ġs ini
ĠS ul
Ġhedef leri
Ġul uslar
ĠÄ° lan
ĠV el
Ġal Ã¼minyum
ĠgÃ¼ven le
Ġla v
Ġ Ã¼ÅŁ
Ġpir inÃ§
ĠherÅŁ eyi
et tin
Ġad Ä±nÄ±n
l aya
l ing
ĠSan ay
Ġmet od
ĠsÄ±kÄ±nt Ä±sÄ±
Ġb aya
Ġgal ip
S A
lÃ¼ÄŁ Ã¼nÃ¼n
Ġhav aya
Ġyak alam
ĠU st
ĠRabb im
Ġyetkil iler
ĠGÃ¼r c
ĠÃ§ev iri
ma in
ĠY erli
ĠÃ¼ret iciler
Ġkarar laÅŁtÄ±r
Ġfiyat larÄ±nÄ±
il asyon
y ah
Ġkal kan
ĠÄ°stanbul dan
Ġkurul acak
ĠSer tif
ĠgeÃ§ erken
Ġtap Ä±n
Ġon ayÄ±
Ġyenil eme
s eler
Ġlig de
ĠTÃľ BÄ°T
Ġi br
Ġhar man
ĠÃĩavuÅŁ oÄŁlu
Ġtem eli
ĠÃ§Ã¶zÃ¼m e
Ġl ojistik
Ġyaz dÄ±m
Ġkamu oyu
ĠgÃ¶revl ileri
ĠiÅŁken ce
Ġkurum un
ĠEr kan
emiz deki
ĠolduÄŁ unuzu
ĠS ib
Ġkup on
Ġfant ez
Ġol aya
Ã§ elik
ĠarkadaÅŁ larÄ±m
Ġyaz Ä±cÄ±
ĠÃ§aÄŁr Ä±sÄ±
Ġvur du
ut u
ĠMak ed
day ken
ĠTamam en
gÄ± t
ĠFrans ada
ĠK ya
ĠS U
ĠErdoÄŁ ana
Ġdevr ed
ĠdÃ¼ÅŁ manÄ±
v is
ĠTak ip
Ã¼s Ã¼nden
t iÅŁ
Ä±z Ä±n
ĠgÃ¼l dÃ¼r
Ġyap malarÄ±
Ġkend isiyle
Ġmuh asebe
ĠsÄ±nÄ±f ta
ĠK Ã¼b
ĠyakÄ±n larÄ±
il dikten
Ġbak Ä±p
am m
ĠSh ow
Ġk in
Ġtep kiler
ĠL lik
ĠD own
Ġduygu larÄ±
ĠdeyiÅŁ le
ĠEk imde
ĠtartÄ±ÅŁ malar
ĠYÃ¼ksek Ã¶ÄŁretim
ĠbÃ¼r Ã¼n
ĠBakÄ±r kÃ¶y
ĠU sta
O P
Ġden eyin
ĠDavut oÄŁlu
Ġkullan Ä±rken
op ar
hid rat
ĠiÅŁlev sel
Ġres sam
ĠKÃ¶ tÃ¼
Ġbaz lÄ±
Ġver eceÄŁiz
o larÄ±
rip t
ĠoluÅŁ u
m alÄ±k
ĠpÃ¼r Ã¼z
ĠPortek iz
Ġver mem
ikat Ã¼r
Ġver mekteyiz
ĠÃ§ar e
Ġgid in
Ġd ediÄŁim
ĠPat ent
ĠyaÅŁan Ä±yor
is sel
Ġtak Ä±
ĠgÃ¶ster ecek
ĠiÄŁ ne
b arÄ±
abil itasyon
ĠdÃ¶n mek
ĠTek lif
ĠdÃ¼ÅŁÃ¼n dÃ¼k
allah u
ĠT ed
ĠoluÅŁ tu
ta ur
Ġirti bat
Ġal masÄ±nÄ±
Ġfilm inin
ez z
ĠMillet vekil
ĠAy han
ĠKar s
ĠTerc ih
v iv
Ġbur da
ĠÄ°h san
meler e
Ġyapmak tan
Ġbulun madÄ±ÄŁÄ±
ĠÃ¶nc Ã¼lÃ¼ÄŁ
ĠÄ°dar i
Ġal maz
Ġn iÃ§in
Ã® nin
on im
Y K
Ä±m la
ĠAnkar anÄ±n
avv uf
ad Ä±ÅŁÄ±
Ġol abildiÄŁ
Ġsen esinde
lam adan
Ġdevam Ä±nda
Ġgel medi
Ġv ek
ĠÃ¶nlem leri
mal Ä±yÄ±m
Ġhukuk a
lik dÃ¼z
Ġsit elerinde
Ġbel de
Ġtat ili
ĠU c
ĠbaÅŁkan lÄ±ÄŁÄ±nda
oksi dan
Ġkat led
ĠG S
Ġproj esinin
Ġkullan dÄ±ÄŁÄ±mÄ±z
Ġbilg inin
ĠÃ¶rgÃ¼t leri
Ġ aman
ĠdeÄŁerlendir en
ĠdÃ¼ÅŁÃ¼nc esi
ĠgÃ¶z de
Ġistik amet
ĠkuruluÅŁ larÄ±nÄ±n
has sa
Ġkur su
as ay
Ġistiyor lar
ĠÅŁah s
ĠÄ°st atistik
Ġiktid ara
Ġfilm inde
ĠMak ine
Ġob ez
Ġproj eyi
Ġver ebilirsiniz
ik in
y u
Ġadr esini
Ä±k lÄ±ÄŁÄ±
Ġkur muÅŁ
Ġimkan larÄ±
Ġkolay dÄ±r
x t
len ecek
Ġver diÄŁim
Ġaz iz
Ġekip ler
ĠkullanÄ±c Ä±nÄ±n
ĠFran k
Ã§ iliÄŁi
Ġel indeki
Ġcihaz Ä±n
ĠÄ°k ti
ĠsuÃ§ undan
Ġ lerde
er g
s uru
Ä±m lÄ±
ĠsÃ¼r gÃ¼n
ĠkiÅŁiler de
ĠÃ¶de mek
Ġgec enin
ĠPer forman
ĠBoÄŁaz iÃ§i
sÄ±n lar
Ġd aki
l Ä±lÄ±ÄŁÄ±nÄ±
Ġkapsam Ä±na
ĠÄ°n Ã¶nÃ¼
Ġuygulan abilir
ĠH P
n ed
ĠÃ¶ bÃ¼r
Ġed erseniz
Ġver ilebilir
lanmÄ±ÅŁ tÄ±
ĠbaÄŁ layan
Ġkoy muÅŁ
ic ilerin
ĠMes ut
Ġol acaÄŁÄ±m
ĠkonuÅŁ ulan
Ġot or
Ã§Ä± larÄ±
ber al
ĠyÃ¶ntem lerle
s ev
ĠÃĸz bek
ĠgenÃ§ lere
Ġedilm ek
ĠD ili
Ġtut ulan
ĠMer ce
Ä±c Ä±nÄ±n
ĠYÃ¼z de
ĠyatÄ±rÄ±m larÄ±
Ä±r da
ul e
s Ã¼nÃ¼z
Ġdin lemek
ĠkullanÄ±m Ä±nÄ±
Ġfaaliyet lerine
Ġh uy
ĠkuruluÅŁ larÄ±n
os man
Ġcep he
Ġbenz iyor
ĠÃ§am ur
lan masÄ±nÄ±
ĠbÃ¶lÃ¼m Ã¼nÃ¼n
Ġgarant isi
Ġs per
Ġpar fÃ¼m
Ġiz i
Ġan iden
ĠdaÄŁ Ä±n
ĠdÃ¼ÅŁ mesi
ĠgÃ¶rÃ¼ÅŁ lerini
ĠÃ§ev resel
ĠtÃ¼rk Ã¼
op i
ĠAt aÅŁehir
Ġiktid arÄ±
ĠtanÄ±n mÄ±ÅŁ
Ġmerkez e
ĠS ipariÅŁ
l iyorum
k ileri
Ġkayn at
Ġbirbir leriyle
ĠK od
ĠMek an
ĠF it
ĠÃ§ek ildi
ĠÃ§ar ÅŁ
ĠÅŁey lerden
d elen
Ġab one
ĠÃ¶n cel
Ġkr it
Ġyap mamÄ±z
r ef
Ġsezon da
ĠL td
ĠMic hael
ĠÃ¶ ksÃ¼r
Ġs ipar
ĠR isk
ĠDemokr at
Ġticaret i
Ġoyunc unun
Ġsenin le
E P
lan mak
y at
Ġyap abilmek
ĠgÃ¼r Ã¼lt
Ġd ub
Ġinan an
ĠyaÅŁÄ±nday Ä±m
Ġmet aboliz
ĠTek in
Ġkem er
ĠF inal
Ġyapar lar
ĠseÃ§ mek
Ġavantaj Ä±
Ġkapsam Ä±ndaki
Ä±l aÅŁtÄ±r
Ġpro v
miÅŁ lerdir
Ġdik iÅŁ
ĠUz ay
ĠvatandaÅŁ lara
ĠÅŁ irin
Ġal Ä±nÄ±p
ĠVÃ¼c ud
Ã¶l ye
ĠbÄ±rak tÄ±ÄŁÄ±
ron un
ĠÃĩ il
Ġoluyor du
ĠbÄ±rak Ä±l
ĠhoÅŁ gÃ¶r
ĠtÃ¶ren inde
ladÄ±k larÄ±nÄ±
Ġgelir ken
Ġkonu lara
Ġs eti
iy eye
ĠEÄŁ len
ĠE L
ĠaÃ§ Ä±n
qu e
y az
Ġyeten eÄŁi
Ġalmak ta
emey iz
ĠkuÅŁ kusuz
ĠT Ã¶ren
Ã¼m Ã¼n
Ġkol u
ĠaÃ§Ä±klam alarÄ±
Ġp encere
ĠbaÅŁ larÄ±nda
Ġtad il
ilmek te
Ġan ladÄ±m
ĠPlatform u
ĠTemsil cisi
az in
esi h
ĠacÄ±m asÄ±z
ĠyÄ±ldÄ±z lÄ±
ĠÄ°slam Ä±n
Ġkitab Ä±nÄ±
j e
Ġsul ama
ĠNis anda
ĠYap Ä±m
ĠsÃ¼r Ã¼mÃ¼
Ġy og
eÅŁ im
ĠT AR
ĠR ahat
ĠhÄ±r sÄ±zlÄ±k
ĠaralÄ±k larla
ĠU ÅŁak
Ġ up
Ġm ur
al p
Ġkaz asÄ±
Ġuzak lÄ±k
ĠbuluÅŁ tu
Ġsor dum
Ġokuy up
ĠhazÄ±rlan mÄ±ÅŁtÄ±r
Ġdar al
ĠUl us
Ġisteyen lerin
ĠgÃ¶rev den
ĠAksar ay
ĠBaÅŁ langÄ±Ã§
ant Ä±lÄ±
ĠK aÅŁÄ±k
Ġim ha
ĠaÃ§ mÄ±ÅŁ
ĠÄ°lÃ§ esinde
ĠgÃ¼n Ã¼nÃ¼
ĠyaÅŁ larda
an am
Ġert el
ad en
Ġinan Ä±yoruz
oter api
Ġak Ä±ÅŁÄ±
Ġay Ä±p
Ġyer lerini
ĠsÃ¼r Ã¼len
Ġincel emek
ĠtasarÄ±m larÄ±
m il
Ġolan a
im deki
Ġiddi asÄ±yla
ĠgeÃ§ ebilirsiniz
ĠÃ¢ y
ĠGerek li
ĠkÄ±s alt
ĠBil ecik
ĠHay dar
Ġdes tan
ĠsÃ¼r eleri
Ġsunul acak
mas Ä±z
ib a
ester ol
ĠÃ§Ä±kar Ä±n
Ġkor ur
Ġsorum lusu
ĠÃ§ ayÄ±
ĠL id
ĠG Ã¼len
ĠDevlet inin
eder ken
ĠBul uÅŁ
t emiz
Ġs eg
Ä°L ER
ĠbÃ¼yÃ¼k lÃ¼ÄŁÃ¼nde
duÄŁ una
ww w
Ġs adÄ±k
ĠPr emi
Ġin ter
ÅŁ k
ĠtÃ¼n el
w ay
Ġip uÃ§
Ġad Ä±ndan
Ġam ir
ĠÃ¶de v
diÄŁ inden
Ġtercih i
Ġelem ent
og rafik
ĠÃ¶nc esine
ĠÅŀark Ä±
ĠalÄ±n abilir
t Ä±na
Ġel lerine
ĠhazÄ±rlan masÄ±
Ġdiyor du
ĠMer t
ĠÃ§ikol at
ĠO K
ĠBur cu
ĠT Ä±k
ĠÅŁaÅŁÄ±r tÄ±cÄ±
it ed
ĠtÃ¶ren le
ĠK AY
Ġn da
mas a
tÄ±ÄŁ Ä±nÄ±zda
Ġoran Ä±nÄ±
Ġbulun muyor
ĠEk rem
Ġg ri
ĠPeygamber imiz
Ġsistem lerinin
I A
Ġpar alar
Ġaleyh ine
ĠihtiyaÃ§ larÄ±na
Ġokum uÅŁ
ĠtakÄ±m larÄ±
Ġyar Ä±ÅŁÄ±
Ġter eddÃ¼t
ĠD li
Ġkal siyum
ĠÃ§ocuk larÄ±nÄ±
Ġkor idor
Ġkamuoy una
Ġter im
ot ek
ĠAr if
ĠTeÅŁkil at
ĠS efer
Ġtem asÄ±
ĠiÃ§er mektedir
ĠÃ¶ÄŁrenc ilerine
lay alÄ±m
Ġhat alar
Ġsol a
ĠKas Ä±mda
Ġkural lara
Ġ umu
Ã¼st e
om b
ĠS atÄ±n
iy la
Ġolay da
ĠTO KÄ°
gel e
Ġf ull
ver engi
ĠFu arÄ±
ir ve
ĠyÄ±p ran
Ġolur um
Ġmer t
Ġistiyor sunuz
ĠgÃ¶rÃ¼n Ã¼mÃ¼
ĠU Y
el d
ĠhastalÄ±k larÄ±n
y or
ĠH is
erk an
ĠsÄ±r aya
iliÄŁ inin
Ġfiyat lÄ±
Ġc ahil
ĠvatandaÅŁ larÄ±mÄ±zÄ±n
Ġbulun ul
Ġail elerin
ĠyÃ¼k lem
ĠgÃ¶rÃ¼l mÃ¼ÅŁtÃ¼r
Ġan ad
Ġharc ama
Ġh im
Ġspor tif
Ġrisk li
ĠAl Ä±n
ĠL aborat
ah tarÄ±
Ġy on
ap ur
Ġhac mi
Ã® m
Ä°S Ä°
Ġzorun dayÄ±z
ĠgÃ¼neÅŁ in
Ġbun larla
ĠbaÅŁvuru da
ĠiÅŁÃ§ inin
ilm eden
Ġlen s
Ġede mey
ĠgÃ¼c Ã¼nÃ¼n
Ġgelir se
ebil eceÄŁ
ede cek
ĠTur nuv
ĠfÄ± st
Ġaz a
Ġpart ilerin
ĠMad rid
lan masÄ±na
Ġziyaret Ã§iler
ĠEn g
ĠAvrup aya
ĠDoÄŁ r
Ġi in
Ġfelsef e
ĠR estor
ĠÅŀ iddet
Ġuzman larÄ±
ĠOs u
Ġproj elerin
Ġp ot
ĠFik ir
l esin
ĠÃ§Ä±k tÄ±k
Ġlist esine
Ġyarat tÄ±
pek tif
lar in
ĠÃĩ al
ĠÄ°stanbul daki
ĠOr tal
ĠtaÅŁÄ± dÄ±ÄŁÄ±
lÃ¼ÄŁ Ã¼n
ĠyÃ¼rÃ¼t tÃ¼ÄŁÃ¼
ĠMah alle
u cak
ĠÃ§ocuk larÄ±na
Ġest et
ĠOtom atik
ĠEnd Ã¼str
Ġson bahar
ĠgÃ¼zel di
Ġfaaliyet e
ĠG EN
Ġdosy alar
Ġver miÅŁti
ĠB y
las s
Ġz eki
diÄŁ inizde
Ġb Ã¼l
ĠsÃ¼r ek
Ġolm amÄ±z
ĠBaÄŁ dat
enin ce
Ġoyn ar
Ġorta okul
Ġheyecan la
Ġal ay
ĠeÄŁitim ler
Ġhak larÄ±nÄ±n
Ġf u
ab Ä±nda
Ġetmek tir
ar dan
Ġmah rum
Ġsorun unu
ĠgÃ¶r Ã¼lecek
es iniz
ib r
Ġedilir ken
Ã¼ h
ĠyaÅŁ Ä±nÄ±
ĠseÃ§ erek
Ġek ranÄ±
Ġtak lit
Ġtah rik
ĠhoÅŁ uma
ĠK aÄŁÄ±t
an ak
ĠY IL
ĠdÃ¼zen lemek
Ġinceley erek
d alar
Ġay aÄŁÄ±
ĠAl per
ĠAv cÄ±
ĠSÄ±nav Ä±
Ġdir eksiyon
ĠAk k
ĠmÃ¼cadel enin
ĠsÃ¼r esini
un e
Ġhav alandÄ±r
Ġnak il
ĠiÃ§ ki
f ab
Ġk alarak
ĠÅŁ ak
Ġbirbir lerini
OÄŀ LU
Ġtop luluÄŁ
Ġs pr
ĠÅŀ Ä±rnak
ĠdÄ±ÅŁ arÄ±ya
Ġtarz da
ĠS Ã¼m
ĠÃ§alÄ±ÅŁ acaÄŁÄ±z
Ġmut luluÄŁu
ĠiÃ§ ini
ĠAlan ya
ĠgeliÅŁtir diÄŁi
ĠÅŁu dur
lam anÄ±z
Ãľ K
ĠGÃ¼ney doÄŁu
ĠW il
ĠAllah Ä±m
Ġdur mak
ĠSonr aki
Ġs icil
ledik ten
ebil eceÄŁimiz
ĠBur han
Ġcevap lar
ĠAÅŁ Ä±rÄ±
ti Ã§i
amay Ä±z
ĠAdan ada
Ġkay mak
Ġt elif
Ġisten meyen
e in
ĠHaft asÄ±
ĠE V
Ġtak tik
Ġindir imli
Ġhedef liyor
Ġteh di
Ġsen de
ĠK eÃ§
ĠH ur
Ġkullan dÄ±m
ĠteÅŁeb bÃ¼s
ĠsÄ±k Ä±cÄ±
ĠgÃ¶r eceÄŁiz
ĠkonuÅŁ macÄ±
Ġkal Ã§
Ġkullan abileceÄŁiniz
Ġengel lem
Ġanlam aya
Ġcan av
pt om
AB ER
ĠL ider
Ġetm edi
Ġtasarruf u
Ġat Ä±ldÄ±
ĠdeÄŁer lerini
ĠSorum lu
m on
ĠKastam onu
Ġekonom isine
ĠYÄ±l lar
m l
ic inin
ĠdoÄŁ uÅŁ
Ġpek iÅŁtir
ĠH alÄ±
ĠYardÄ±m cÄ±
Ġgec ede
Ġr ahim
ĠS MS
ĠolasÄ±l Ä±ÄŁÄ±
ÅŁ ir
Ġvide oyu
Ġhav asÄ±
Ġvide osu
Ġmillet imizin
Ġor adaki
M L
Ġetk ilerini
ĠÄ°ÅŁ birliÄŁi
op ol
poz yum
Ġar adÄ±ÄŁÄ±nÄ±z
Ã ª
Ġyaz Ä±mÄ±z
abilecek siniz
Ġalan Ä±nÄ±n
ĠT iyatros
ĠT SK
Ä° P
ĠMer y
ilik on
ĠS eri
Ġp us
Ġgiz lilik
ĠGeÃ§ ici
Ġbul acak
Ġyorgun luk
ĠÃ¼lk edeki
Ġn oter
Ġsek ret
ĠLis e
mamÄ±ÅŁ tÄ±
ĠdavranÄ±ÅŁ larÄ±
ĠB isiklet
Ġdestek lemek
ĠolduÄŁ unca
Ġtehlik eye
ĠÃ¼zÃ¼n tÃ¼
Ġolay lara
ĠiÃ§erik li
Ġul tr
t atÃ¶r
ĠÃ§at lak
ĠS D
tÃ¼l Ã¼
ĠbÃ¶lg eyi
iÅŁ imi
ĠT ef
ĠM Ä°T
ĠKaz a
ĠÄ°lk Ã¶ÄŁretim
Ġtesis leri
Ġr utin
Ġann enin
Ġan Ä±t
ĠÃ¼Ã§ Ã¼n
ĠHal a
Ġters i
Ġf ol
por t
Ġann esinin
ilm esiyle
Ġcom da
im ark
Ġkol larÄ±
ĠgeliÅŁim ini
Ġkur am
Ġoperasyon da
ĠÅŁey dir
Ġharit a
p ik
p lant
ĠkarÅŁÄ±l Ä±ÄŁÄ±nÄ±
Ġmemnun iyetini
ĠsÄ±k Ä±ntÄ±lÄ±
Ġsev erler
ĠÃ§evrim iÃ§i
al Ä±nÄ±n
ĠGay rimenkul
eÄŁ iniz
Ġtor b
ĠHat Ä±r
ĠsaÄŁ a
ĠT Ã¶r
ĠÃ§alÄ±ÅŁ Ä±yorlar
ĠB ig
Ġizley ebilirsiniz
ĠTÄ±p kÄ±
Ġeh liyet
ĠBey koz
ĠdÃ¼zenlen mesi
ĠkullanÄ±m Ä±nÄ±n
ĠvÃ¼cut ta
Ġser amik
Ġbiliyor sunuz
ĠTat il
ilm i
Ã¼nÃ¼z de
dÄ±ÄŁ Ä±nÄ±n
lar Ä±ma
ĠR ic
larÄ±nÄ±z dan
ĠIn tern
Ġun suru
Ġgir dim
ĠÃ§oÄŁ alt
ĠÄ°b ni
I Y
ist lerin
ĠseÃ§enek ler
kin g
ĠD V
Ġiltih ap
Ġm eg
Ġar as
Ġmo tif
en ni
ada ÄŁ
Ġbulun duÄŁumuz
Ġsar Ä±l
Ġham mad
iliÄŁ ine
ĠyÄ±l lardan
Ġkorum aya
b az
Ġantren Ã¶r
Ġyaz Ä±mda
ĠI N
ĠSah il
ĠV ur
Ġmakin eleri
Ġin kar
ĠDil ek
Ġgel meden
ĠBank asÄ±nÄ±n
ĠtÃ¶ren ine
ĠdÃ¼ÅŁ kÃ¼n
ĠmÃ¼tte fik
ĠgÃ¼n delik
Ġyay Ä±lan
Ġfir masÄ±nÄ±n
ĠL ink
ĠvatandaÅŁ larÄ±
ĠKir alama
Ġkut up
Ġsefer inde
f on
Ġiler leme
Ġmodel lerini
Ġc ad
Ġtaraf sÄ±z
ledik lerini
ĠM EB
Ġpan ik
ĠBenz er
ĠyansÄ± tan
ĠmaÃ§ larÄ±
ĠEr en
Ġgezeg en
Ġiktidar Ä±n
ĠsÄ± c
ĠkÄ±yaf etler
Ġkaybet miÅŁ
ĠC nin
Ġiy isini
Ġy etim
Ġs m
Ġj andarma
Ġgem isi
Ġk lip
ĠAr j
Ġnot u
ĠÃĸ N
diler de
L AH
leÅŁtir mek
ĠBar cel
edik al
ĠÅŁirket lerinin
ĠbaÅŁlan gÄ±cÄ±
Ġy edik
ĠI stanbul
ĠMut lak
Ġkaybet tiÄŁi
ĠEc z
Ġlir adan
Ġin stagram
ĠR eÅŁ
ĠResul ullah
ĠyayÄ±n ladÄ±ÄŁÄ±
Ġkop yal
ed din
Ġc eket
ĠbileÅŁ en
ĠEv lilik
Ġdalg alan
ĠEr can
il iÅŁ
ĠT ube
ĠEr eÄŁ
Ġazal tÄ±r
r ut
Ġbor s
ĠAbdÃ¼l ham
Ġoku du
Ġan est
Ġtah r
ev ler
Ġdiler seniz
ĠartÄ±ÅŁ la
ĠmÃ¼l akat
Ġkon gre
ĠTÃľBÄ°T AK
ĠyoÄŁun luÄŁu
Ã§Ä± larÄ±n
Ġsevgil isi
uc h
c ilere
Ġk Ã¼s
ot t
Ġyaralan an
ĠHizmet ler
Ġkur gu
Ġsun maya
Ġfikir leri
ĠulaÅŁ mÄ±ÅŁ
ĠGÃ¼n Ã¼n
ĠSa adet
Ġonay lÄ±
ĠYÃ¼c el
Ġb Ä±k
las Ä±n
ĠsaÄŁlam aya
Ġat ama
Ġh d
ĠKÄ±zÄ±l ay
ĠyÃ¶n Ã¼yle
ĠsaÄŁlam Ä±ÅŁ
ĠÅŁef kat
Ġkullan dÄ±ÄŁÄ±nÄ±z
Ġc ay
ĠYÃ¶net men
ĠPen dik
ĠyÃ¼ksek liÄŁi
Ġmark alar
ĠyetiÅŁ en
Ġtas v
Ġp Ã¼sk
Ġpro p
Ġgetir meye
Ġcin s
ov ada
ĠbaÅŁkan lÄ±ÄŁÄ±
Ġgetir dik
ĠT art
Ġsayf alar
Ġtasar lanmÄ±ÅŁtÄ±r
Ġkoordin asyon
ĠeÄŁitim leri
ĠÃ¶ teki
ey ip
Ġk aya
Ġvideo larÄ±
Ġd Ä±r
Ġkonu larÄ±n
is por
Ġtut tu
ĠyaklaÅŁ Ä±mÄ±
Ä±l acaÄŁÄ±
Ġsefer ber
ĠÃ§alÄ±ÅŁ mÄ±ÅŁ
Ġm usun
Ġat ma
ĠEr soy
ĠN iÄŁ
Ġkap Ä±yÄ±
ĠÃ¢ yet
Ġtut up
Ġtut tur
Ġkon uma
Ġn ehir
edir gin
ĠEmek li
Ġbal on
ĠÃľniversit esinin
Ġvermek te
ĠsoÄŁ utma
Ġzorun luluÄŁu
w are
ĠfÄ±rsat larÄ±
Ġtekrar dan
Ġhesab Ä±nÄ±
aÃ§ lÄ±
Ġoyn adÄ±
Ġkullan manÄ±z
Ġetkinlik te
ĠbaÅŁar an
ĠBor s
Ġtal ih
Ġkuy ruk
ec h
Ġort ama
Ġsah asÄ±
Ġdurum unun
an mÄ±ÅŁ
ĠMik ro
Ġhukuk u
Ã§ o
Ġrek ab
ĠMeydan Ä±nda
ĠSov yet
ĠmÃ¼z isyen
leÅŁtir ilmiÅŁ
Ġniyet li
ĠSar Ä±y
ĠKom p
Ġbelirlen miÅŁtir
Ġst art
ĠÃ§alÄ±ÅŁan larÄ±nÄ±n
ab ir
Ġtar ama
Ġk uv
Ġb od
ĠF l
lam asÄ±nÄ±
ĠKÃ¼t Ã¼phan
g ir
Ġaleyh i
Ä±y o
ĠErz incan
ĠDern eÄŁinin
Ġseyir ci
Ġalan daki
ĠarkadaÅŁ larÄ±mÄ±z
R ET
ĠdÃ¼ÅŁÃ¼nc elerini
Ġkan unun
c eye
Ġd r
Ġgit meye
Ġedeb iliyor
ĠM az
ĠOtom otiv
Ġbol ca
ĠkiÅŁiler den
Ã¼l in
ak Ä±t
ĠmÃ¼dÃ¼r lÃ¼k
ĠbÃ¼yÃ¼k lÃ¼ÄŁÃ¼
w in
ĠiliÅŁk ilerini
ĠgÃ¼lÃ¼m s
Ġheyec anÄ±
Ġbekl ediÄŁi
ĠtÃ¼m Ã¼
Ġkay ak
ĠsarÄ±m sak
Ġsever im
Ġyaz dÄ±k
ĠsaÄŁlan maktadÄ±r
ĠgeÃ§ im
Ġsunu c
s c
ĠyÃ¶netic iler
ĠMer al
ĠAr ka
Ġsun uyorum
Ġev inin
ĠBilim sel
Ã¼s Ã¼n
Ġnez dinde
Ġdel eg
Ġproblem ler
ÅŁ an
ĠJam es
on ez
ĠÅŁey lere
ĠtaÅŁ eron
Ġhissed iyorum
ĠSanat lar
Ġkalk Ä±p
ĠfarklÄ±lÄ±k lar
ĠDayan Ä±ÅŁma
ĠyalÄ± tÄ±m
ĠDE Äŀ
ĠiÅŁlet mec
ĠCem il
Ġhareket ler
dÄ±ÄŁ Ä±n
Ġed ine
Ġliste de
r aÄŁÄ±
ĠD ip
ĠEl b
Ġkork usu
ĠgÃ¶nder mek
ecek lerini
ĠN amaz
Ġgib iydi
Ġendek si
at tan
ĠdÃ¶k Ã¼m
Ġhast asÄ±
ĠEtkin lik
ĠYÄ±l lardÄ±r
Ġin iÅŁ
ĠDÃ¼ÅŁ Ã¼k
Ġingiliz ce
ĠM ER
Ġtaktir de
Ġstan d
k Ä±l
m Ä±yoruz
av antaj
ĠBer lin
ĠBir eysel
m aca
Ġtan Ä±mÄ±
Ġrenk te
ĠgerÃ§ekleÅŁ mesi
Ġbenz eyen
Ġt Ã¼c
ĠÄ°ngilter enin
ec k
Ġeylem i
Ä° V
ĠbeÅŁ inci
Ġbelir ler
ĠH uzur
ent o
Ġmiktar Ä±nÄ±
ĠD H
ĠAvrup alÄ±
ĠBor sa
Ġhat asÄ±
LÃľ M
ĠJ ack
Ġazal ma
Ġuzak lÄ±kta
Ġoda da
ĠDer g
Ġmodel ini
ĠdÄ±ÅŁ a
Ġt Ã¼tÃ¼n
ĠKim s
ĠgÃ¼r Ã¼ltÃ¼
ĠbÃ¼yÃ¼k lÃ¼k
Ġparamet r
Ġid daa
Ġgrub unun
ĠPl astik
ĠSan al
ĠaÃ§Ä±l Ä±ÅŁÄ±
ĠkullanÄ±cÄ± larÄ±na
Ġak s
ĠgerÃ§ek lik
ast ro
Ġed ersiniz
ĠBÃ¶lg esel
ĠKÃ¼tah ya
l uyorum
Ġmer mer
ĠBos na
Ġar ayÄ±n
k isi
ĠdÃ¼ÅŁÃ¼n dÃ¼r
ĠyanÄ±n Ä±zda
Ġorganiz asyonu
at on
Ġr eg
ĠKadÄ±n larÄ±n
ĠS ub
Ġtedbir ler
ĠD S
ĠtanÄ±t Ä±mÄ±
ĠyaÅŁ Ä±yorum
Ġsoy kÄ±rÄ±m
ladÄ± lar
ĠartÄ±r Ä±lmasÄ±
Ġhaber e
ĠÅŁ an
ĠMender es
Ġdo larÄ±
Ġel lerinde
ic al
ĠkazandÄ±r an
Ġtop layan
Ġsir k
Ġb kz
Ä±l malÄ±
ĠduruÅŁ u
Ġ lerin
ĠAfyon kar
Ġgelin lik
ĠÃ¼rÃ¼n lere
ĠÃĸÄŁrenc ilerin
ĠMeh med
Ġisim lerin
ĠSuriy edeki
Ġz anlÄ±
Ġs is
ret leri
ĠAnn em
li gi
Ġkullan abilir
ĠBas it
ĠÃ§ek meye
ĠdiÅŁ i
liliÄŁ in
Ä±l masÄ±nda
ĠsabÄ±r sÄ±z
Ġmakam Ä±nda
ĠDeÄŁiÅŁik lik
ar aya
Ġdil de
Ġindir mek
ĠM uz
ĠKeÅŁ ke
ĠkÄ±s Ä±r
Ġrak ibi
on y
ĠeÅŁy alarÄ±
ĠNor veÃ§
Ġbul maya
ĠetkileÅŁ im
z Ä±
ĠÃ¶ÄŁren ebilirsiniz
ĠÄ°lk okul
Ġtalep lerini
Ġpat lama
ĠyÃ¼k Ã¼
ĠZ engin
ĠhÄ±r s
ĠulaÅŁ masÄ±
Ġyer lerine
Ġoyun unda
ĠseÃ§im e
ĠE lem
ec ilerin
b aÄŁ
Ġaf et
Ġgetir miÅŁtir
Ġbin alar
ĠR am
Ġhayat larÄ±nÄ±
ĠsÃ¼r dÃ¼ÄŁÃ¼
ĠÃ§Ä±kar Ä±yor
ĠsÃ¼r at
maz sa
Ġrehber lik
eler deki
ĠgÃ¼z eli
Ġpolis in
Ġtad Ä±na
Ġgeliyor du
ĠC at
Ġsoy ut
ĠR os
Ġsek ilde
Ġpaz arÄ±
ĠTak sim
ĠÃĸSY M
ĠYÃ¶netmel iÄŁin
ĠÅŁart tÄ±r
Ġgider ilmesi
ĠDan imark
Ġdol gu
ĠeÅŁit lik
C A
Ġhediy eler
adÄ±k tan
en Ã§
Ġbelg elerin
ĠYÃ¼rÃ¼y Ã¼ÅŁ
Ġmon te
Ġmuhat ap
ĠAvustral ya
Ġf r
ĠDep rem
ĠÄ°ÅŁ ler
Ġin kÃ¢r
p ir
ĠB eh
e a
Ġah lÃ¢
maktadÄ±r lar
ĠamaÃ§ layan
ĠMis afir
ĠOk tay
ĠAm atÃ¶r
ĠdaÄŁ Ä±lÄ±m
ĠyakÄ±n larÄ±nda
ĠLim an
ĠMark et
Ġitibar i
ĠK uv
Ġbulun abilir
ĠAd li
Ġsanat sal
ĠFiyat larÄ±
ĠKÄ±s aca
ĠyÄ±l baÅŁÄ±
Ġac ent
ĠYoz gat
il an
ĠolabildiÄŁ ince
ĠbÃ¶lg eleri
ĠgÃ¼Ã§ ler
ĠpaylaÅŁ tÄ±ÄŁÄ±
ĠsaldÄ±r Ä±ya
s ch
Ġkonsan tr
Ġvide olar
Ġdin lenme
ĠÅŁart larÄ±na
Ġyar Ä±da
Ġyap abileceÄŁiniz
Ġs Ä±nÄ±
Ġc Ä±k
k k
ĠyÃ¶netim ine
taur ant
Ġduy dum
ĠgeleceÄŁ in
Ġmadal ya
ĠTr av
ĠF lor
Ġgir meye
c Ä±n
ĠfaktÃ¶r ler
t Ä±mÄ±
ĠkullanÄ±l mak
lÃ¢ h
inde dir
Ġalan Ä±nÄ±
tÄ±ÄŁ Ä±na
Ġtelefon un
ĠO c
ĠsaÄŁ lÄ±ÄŁÄ±na
ĠM Ã¼m
Ġcil din
ĠYÃ¶netmel iÄŁi
ĠMayÄ± sta
ĠkÃ¶ÅŁ esinde
ĠÃ§Ä±kar Ä±r
Ġkal mÄ±yor
Ġirtib ata
idd eti
es an
ĠVol kan
iyet ine
ĠgeÃ§miÅŁ e
ĠÄ°lÃ§ esi
ĠyakÄ±ÅŁÄ±k lÄ±
Ġuzun luÄŁu
Ġbask Ä±sÄ±
Ġgiy dir
ĠtanÄ±y an
ĠÃľm ran
Ġanlam Ä±nÄ±
ok sit
ĠeÅŁ im
ĠgÃ¼ndem de
ĠPlan Ä±
Ä±nt Ä±sÄ±
ĠÅŀer if
ĠÅŁif a
ÅŁ ar
ĠMÃ¼steÅŁ ar
ĠS tu
ĠPaÅŁ anÄ±n
ĠmÃ¼t ev
ĠuÄŁr ayan
Ġetm elisiniz
ĠAllah Ä±
Ġide olojik
ĠYT L
ĠTrans fer
Ġist iÅŁ
ĠAn ahtar
ĠzÄ±r h
EL Ä°
ĠdÃ¶n g
Ġsaf h
Ġhava alan
Ġor da
ĠP den
ĠKam er
ĠMas ter
ĠGer Ã§i
ĠBah Ã§e
Ġhal lerde
ĠGÃ¶ ÄŁ
ĠFinans al
Ġsin dirim
Ġk asÄ±
ĠR ektÃ¶rÃ¼
ĠP iÅŁ
ĠoluÅŁ acak
ĠpaylaÅŁ an
ley ebilirsiniz
ĠR efer
Ġyas aÄŁÄ±
n el
Ġolmam Ä±ÅŁ
ĠanlaÅŁ masÄ±
Ġsertif ika
ĠMad en
ilm eyen
T S
ĠM Ã¼r
Ġmetrekar elik
Ã¢z Ä±m
Ġt edirgin
ĠTÃ¼ket ici
Ġdurumda dÄ±r
ĠMimar lÄ±k
ĠN us
Ġab dest
d y
ac Ä±lÄ±ÄŁ
ĠHal en
ĠEh li
ĠA ya
Ġy ed
ĠgÃ¶r kem
as ta
ĠFrans anÄ±n
meler inin
ĠB ektaÅŁ
ĠD ay
Ġgit mesi
ĠFik ret
Ġtoz u
Ġp ers
Ġesn ada
ĠSon y
Ġhus uslar
Ġsev dim
Ġduygu larÄ±nÄ±
Ġt aÃ§
Ġsit esini
Ġsorun larÄ±na
Ġnok tadan
Ġgerek ebilir
Ġcid d
ĠÃ¶den mesi
Ã¶ m
ĠÃľl kenin
ay ip
ĠkÄ±ÅŁ Ä±n
ĠÃĸde me
Ġpil av
em iyoruz
ĠgerÃ§ek leri
Ġsey red
ĠToplum sal
ĠiÅŁ lerde
ĠaydÄ±n lÄ±k
ĠBun lara
Ġr amaz
Ġb ast
ĠtanÄ±ÅŁ ma
ĠsÃ¼reÃ§ leri
Ġg azÄ±
malar Ä±nda
b ih
Ġar at
Ġalan larÄ±na
Ġiz lerken
Ġuygulam alarÄ±n
ĠoluÅŁ masÄ±
c esi
Ġaktiv ite
Ġs eh
f eder
ĠW illi
elen en
Ġuygulam ada
Ġbirbir iyle
Ġec z
Ġyol larla
ĠMerce des
Ġhak larÄ±na
el iyim
r arÄ±
ĠPak istan
ĠsÃ¶zleÅŁ meli
ĠÅŁirket inin
Ġkarar Ä±na
ĠH ABER
Ġpay daÅŁ
ĠkonuÅŁ masÄ±
Ġdikkat le
ĠDÃ¼ny adaki
ĠaÃ§ acak
ĠP rens
ig h
Ã¼ d
Ġpuan la
ĠS w
Ġgal er
Ġkav r
Ġhavuz u
ĠS ON
Ġar amÄ±zda
Ġtak si
Ġko operatif
Ġsunul du
Ġ inde
li c
E H
Ġc ildi
Ġsun acak
ĠmÃ¼sa ade
ak lÄ±k
anÄ±z Ä±n
Ġkomp oz
Ġistis na
ĠbaÄŁÄ±m lÄ±lÄ±k
Ġmerkez de
ĠayÄ±r an
ĠVer gisi
miÅŁ ler
ĠkiÅŁiler le
Ġintik am
Ġvur an
Ġetm esine
l Ä±ya
ĠgerÃ§ek te
ĠIrak ta
r iye
Ġbir e
Ġol am
Ġkelim eleri
Ġg l
ul i
ĠpaylaÅŁ Ä±mÄ±
ĠTal ep
ĠGro up
ir siniz
ĠK ing
ĠA ta
Ġm iydi
ĠoÄŁ ul
ĠÅŁim diki
ĠU s
Ġrej imi
ĠtanÄ±m lanan
ĠÃĩaÄŁ daÅŁ
Ġver ilere
ĠANK ARA
ĠbÃ¶ lÃ¼
ĠMet ro
ĠkarÅŁÄ±l ayacak
asyon a
Ġhedef ler
Ġziyaret e
ĠP laj
ĠAkadem ik
ĠS ap
Ġolun an
ĠH ic
ĠmÃ¼ÅŁter ilerin
Ġyakal amak
ĠbaÅŁk asÄ±
Ġs c
ĠgÃ¶m lek
ĠdÃ¶v Ã¼ÅŁ
Ġekib imiz
ĠÅŀeh rin
ĠmÃ¼n aseb
ĠAb dur
ĠÅŁik Ã¢yet
ĠAlman ca
ĠbaÅŁbak an
Ġah laki
ĠAk hisar
ans al
Ġkapasit eli
ĠÃ¶ÄŁren dik
ley i
ĠAs lÄ±
ĠhÄ±zlÄ± ca
ĠÃ§alÄ±ÅŁ anÄ±
ĠBirinc isi
Ġtut maya
ĠhazÄ±r lamÄ±ÅŁ
Ġey lÃ¼l
Ġtop lamak
ĠHar ika
aman Ä±zÄ±
Ġgelen ler
Ġkarar Ä±yla
ĠB araj
aÄŁ Ä±m
ad er
ĠaÄŁz Ä±na
Ġokuy un
Ġs o
ĠsonuÃ§ lara
ĠKo operatif
ĠEm ine
ĠÃĩ iÄŁ
ĠNev ÅŁehir
ĠÃ¶z erk
w ard
Ġtekn e
Ġelekt ro
ov e
Ġfed akar
Ġtamam lanmasÄ±
Ġgider mek
Ã¼y dÃ¼
Ġkon us
Ġsebep ten
ĠbÃ¶lg elere
d Ã¶
Ġel imden
ĠAy ÅŁ
ĠÃĩel ebi
ĠYat ak
ĠPart isinin
ĠÃĩ inde
Ġnormal de
ĠHal ep
ĠEv i
ic s
ĠdoÄŁ anÄ±n
an sta
Ġtak s
ant el
Ġs uyla
ĠC oÄŁraf
ĠUc uz
g iniz
Ġhay ret
Ġden emek
Ġalan larÄ±nÄ±n
ĠDE AÅŀ
ĠgeÃ§ miÅŁtir
ind ek
ĠKim lik
ĠAfyonkar ahisar
M ET
ĠModel leri
Ġolabilir ler
Ġh usu
ĠdÃ¶n mesi
ĠL ar
Ġc ek
Ġal malarÄ±
Ġyar Ä±sÄ±nÄ±
ĠTanr Ä±nÄ±n
Ġfiyat larÄ±nÄ±n
ĠmÃ¼cadel eyi
lar n
ĠA tÄ±k
Ġkullan dÄ±klarÄ±
Ġmut ab
Ġust asÄ±
ĠS A
Ġtarif leri
ĠApple Ä±n
ĠbÃ¶yl esine
I V
d alÄ±
Ġh om
o Ã§
Ġar ayÄ±p
ĠY emen
Ġilgilen en
ĠS iir
ĠÄ° ler
Ġder se
ĠÅŀen ol
Ġverilecek tir
Ġpres tij
v eti
ĠZ ih
Ġuzak ta
ĠV de
ĠÃĩank aya
ĠiÃ§ mek
ĠÄ° M
ĠAÃ§Ä±k lamada
ĠgÃ¶rmez den
Ġsik iÅŁ
ĠyapÄ±l acaÄŁÄ±nÄ±
ĠOH AL
e i
ĠkulÃ¼b Ã¼
ĠHal kÄ±n
ĠfÄ±r lat
ĠÅŁark Ä±sÄ±
ĠAkÅŁ ener
Ġsahn ede
am dan
ĠGen eral
Ġfikir ler
emez siniz
ĠUlu daÄŁ
Ġruh unu
Ġyap masÄ±nÄ±
len meye
Ġduygu lar
Ġtes ettÃ¼r
Ġm iyiz
paz arÄ±
Ġdiy enler
Ġayakk ab
ĠyatÄ±r ma
l Ä±ydÄ±
Ġreng ini
Ġek lenen
lem esine
d Ä±ÅŁ
ĠSÃ¼n net
ar lÄ±
ĠaÃ§Ä±k Ã§asÄ±
r ede
ĠkÄ± dem
Ġb a
ab ah
Ġn eyin
ĠbahÃ§ esinde
b en
ĠÃĩaÄŁ rÄ±
ĠÃ§ap raz
Ġyol suzluk
ĠAk Ã§
ĠM eg
Ġoku duÄŁum
ĠtakÄ±m Ä±nÄ±n
ĠfÄ±r tÄ±n
ĠR eg
Ġzorun luluk
Ġod aya
mektedir ler
Ä± v
Ġeden lerin
el la
ĠR em
ĠMerkez inin
ilm emiÅŁ
ĠPeygamber in
Ġetm emiz
ĠiÃ§er iyor
ĠBrezil ya
ĠÃ¼y eliÄŁi
ĠKarÅŁÄ±y aka
in at
Ġdil le
ĠBak Ä±n
ĠT UR
O J
d is
Ġzevk li
ĠB U
sin ler
ĠgerÃ§ekleÅŁ ir
g ara
Ġsahib ine
Ġb unda
Ġel lerinden
ĠkÄ±sÄ±t lÄ±
Ġbul duk
ĠGel iÅŁim
ĠbaÅŁvuru lar
ĠAk r
Ġetmek le
Ġkapas ite
ĠBelÃ§ ika
ĠbÃ¶lg esinin
Ġkim ler
n iz
ĠborÃ§ lu
ĠBes lenme
Ġde z
Ġpar asÄ±nÄ±
ĠAÄŁ a
v iÅŁ
Ġbirinc isi
Ġas il
Ġotur t
ĠÃ¼stlen diÄŁi
Ġduy mak
Ġot orit
Ġc anÄ±
Ġkur maya
Ġtamam lanan
luk ta
Ġkap tÄ±r
ĠdeÄŁer inin
f l
Ġisteyen lere
ĠÃ¶ÄŁretmen lerin
ĠS us
ĠL atin
Ġadres e
t le
ĠÃ¼st esinden
em ber
Ġdevlet inin
ĠgiriÅŁim ci
ĠTeÅŁkil atÄ±
Ġhayvan larÄ±
Ġbahset mek
s o
ĠÃ§iz im
Ġ lu
ĠBey likdÃ¼z
Ġanlam sÄ±z
il a
Ġhas ret
ĠKit ab
ĠAnd re
Ġbayan larÄ±n
Ġdal Ä±nda
Ġlan et
Ġum ur
Ġkay dÄ±r
Ġmini bÃ¼s
Ã¢ de
ĠÅŁer if
Ġal arm
Ġinternet e
ĠÃ¼retim ini
ĠSel ahattin
Ġdokun uÅŁ
ĠÃĸzgÃ¼r lÃ¼k
Ġadr esinde
Ġh e
Ġkurul umu
Ġharit asÄ±
Ġal n
ĠaÅŁ ama
Ġgider leri
am ayÄ±
ĠkÃ¼ltÃ¼r Ã¼nÃ¼
ĠÄ°k ili
Ġgerek Ã§e
ĠnÃ¼f usun
ary akÄ±t
ĠFransÄ±z ca
Ġkr ipto
Ġmad enc
ĠAÄŁ aÃ§
Ġyan lÄ±
Ġbit er
Ġbank alarÄ±n
ĠhÃ¼kÃ¼met inin
ar dÄ±
ĠyaÅŁadÄ±k larÄ±nÄ±
ĠGÃ¶rÃ¼n tÃ¼
ĠBÃ¶lg ede
ĠCeza ev
ĠgÃ¶rÃ¼ntÃ¼l Ã¼
Ġan kara
Ġkur gul
ĠPol at
Ġsonuc una
ĠeÅŁ inin
liÄŁ imiz
ĠP ower
ĠyoÄŁ ur
Ġn eb
EL ER
ans Ä±n
Ġifad eler
ĠÃ¼y eliÄŁ
Ġsab aha
Ġbayr aÄŁÄ±
Ġkarbon hidrat
r asÄ±
ĠiÅŁlem ci
ĠÃ§Ä±kar Ä±ldÄ±
Ġaral Ä±ÄŁÄ±nda
ĠgÃ¼Ã§ lerinin
ĠMan av
ĠbaÅŁlat Ä±ldÄ±
ĠkÄ±l mak
Ġvar mÄ±
Ã¢ tÄ±
Ġgid iyoruz
ĠbaÅŁlay Ä±n
Ġmark alarÄ±n
ĠateÅŁ te
R E
rop ol
ĠgÃ¶rev ler
C D
Ġerkek lere
ĠiÅŁlet melerin
Ġhat alarÄ±
Ġf eda
Ġver ilerek
ĠyerleÅŁ ik
g Ã¶ren
Ġanti oksidan
Ġoyn amaya
ĠaralÄ±k sÄ±z
Ġhak lar
Ġilah i
Ġbah an
ĠiÃ§eri de
Ġat maya
Ġbitir di
ĠdÃ¼ÅŁÃ¼n me
ĠYÃ¼r Ã¼t
ĠS ir
Ġverilm esini
Ġmanz ara
iy se
ĠÃ¼Ã§ te
Ġuygul adÄ±ÄŁÄ±
ĠyaklaÅŁ an
asyon lar
ĠEdir n
ĠÅŁun lardÄ±r
ĠkonuÅŁ maya
ĠiÅŁlem lerinde
ĠHrist iyan
Ġaz gÄ±n
Ġal abilmek
Ġhakk Ä±nÄ±n
Ġlider lik
ĠGalatasar ayÄ±n
et ini
ĠBÃ¼t Ã§e
ĠS ing
ĠN em
ĠT oy
ĠbaÅŁlay abilirsiniz
Ġs iber
Ġiz ledi
Ġsu lar
Ġdakik alar
liÄŁ indeki
ĠgÃ¶nder ilir
ĠÅŀ iÅŁli
ĠL o
ĠyapÄ± larÄ±n
ĠS erkan
ren ses
Ġbir inden
Ġpar ag
ĠÄ±sÄ±t ma
Ä±m Ä±na
ĠOrgan izasyon
Y ON
ÃĦ n
Ġihrac atÄ±
Ġsat mak
Ġy Ä±
ĠÃ¼lk elerine
ĠmÃ¼j de
Ġdev asa
ĠÃĸrg Ã¼t
Ä±yor sa
Ġm art
ĠkarÅŁ Ä±sÄ±ndaki
tar af
Ġmed y
ĠM asa
Ġeklen t
an b
si on
ĠBÃĸ LÃľM
ĠSiz de
ĠsÃ¶ylen iyor
ĠoluÅŁ muÅŁ
Ġzengin lik
Ġmerkez inin
ta da
ak t
Ġs kan
ĠÃ§iÄŁ n
ĠÃ¶n lenmesi
Ġyol unun
Ġkut lu
mey le
Ġkontrol lÃ¼
ĠVal iliÄŁi
Ġmalzem elerin
ĠÃ¼lk elerinin
ib il
ĠAy Ä±
may acaÄŁÄ±z
laÅŁ an
ĠoluÅŁtur du
Ġbilin ci
Ġkut usu
Ġzaman larÄ±n
Ġtedbir leri
Ġnas il
Ġgel diler
Ġve f
Ġhav anÄ±n
Ġs Ã¼tÃ¼n
ĠN AS
Ġat anan
Ġanlat Ä±lan
ĠErg enek
Ġhedef e
ar larÄ±
er ik
Ġgereken ler
Ġport akal
Ġhayvan cÄ±lÄ±k
ĠkatÄ±l ma
Ġkart larÄ±
ĠG Ãľ
Ġman ev
p i
Ġart tÄ±ÄŁÄ±
ĠR od
Ġbon usu
Ġpolitik alar
ĠM uÅŁ
Ġdav ada
ĠÄ°sviÃ§ re
ĠgeliÅŁ mekte
ad asÄ±
ef f
Y S
ĠAk tif
Ġkap Ä±sÄ±nÄ±
ĠMÃ¼k emmel
Ġ q
Ġot ele
c iliÄŁi
Ġdekor atif
ĠgeÃ§ tikten
Ġihtim alle
ĠbÃ¶yl esi
ĠP ress
ĠYalnÄ±z ca
Ġdil ini
al li
ĠyÃ¶net tiÄŁi
Ġfaaliyet lerinin
Ġkap aÄŁÄ±
ĠkÃ¶y de
Ġerkek lerde
ĠterÃ¶r le
Ġalg orit
Ġbel gelen
ĠdÃ¼ny adan
ĠTH Y
ĠbuluÅŁ ma
Ä±m larÄ±
Ġtest leri
ĠG i
ĠsaÄŁ layÄ±cÄ±
ĠyerleÅŁtir me
ĠUS D
ĠÃ¶ d
ĠseÃ§en eÄŁini
ĠiÅŁley iÅŁ
Ġs ultan
ĠpeÅŁ inden
ĠdÃ¶nÃ¼ÅŁ Ã¼
ĠAn abilim
Ã¼l te
c asÄ±
Ġk ub
ĠsÃ¼p Ã¼r
Ġbeklent ileri
ĠDeÄŁ iÅŁim
Ġdin leme
Ä±cÄ± lar
ĠanlaÅŁ maya
Ġkom edi
ĠTok at
das Ä±nÄ±z
ĠB O
Ġmuam el
ĠgÃ¶rev lerini
ĠÃ§Ä±k masÄ±nÄ±
eler ce
st em
Ġakl Ä±nÄ±za
Ġkap anÄ±ÅŁ
Ġist ekli
ĠÅŁekil lerde
Ġtah amm
ĠÄ°c ra
Ġistif ade
Ġduy uyor
il ar
Ġok uyor
Ġdin lendir
ist im
Ġkud ret
Ġhav ale
ĠD eri
Ġmolek Ã¼l
ul maz
Ġkurul duÄŁu
ĠKans er
il eceÄŁini
ĠKongr esi
ĠaÃ§ Ä±ÄŁÄ±
Ã¼yor du
ĠÅŀ ev
Ġkal eci
s n
Ġv il
ĠÃ¶nem e
Ġfirmalar a
mÄ±z Ä±lÄ±
ĠL it
ĠKanunun a
ĠbÃ¶yl elikle
ĠAl tay
Ġbeb ekler
ĠKim ya
Ġuy ruklu
ul acak
ĠNo te
dÄ±ÄŁ Ä±nÄ±zda
Ġnazar an
Ã® r
ĠhÃ¼c um
ĠbiÃ§im inde
ĠMuht eÅŁem
Ġgel diniz
Ġkapital ist
Ġev lerine
ebil iyoruz
ĠÃ¼retim e
Ġhav lu
om en
ist anÄ±
ĠHaf if
p on
ĠÃ¶dÃ¼l Ã¼nÃ¼
ĠÃ¶lÃ¼m Ã¼ne
abilm iÅŁ
ĠÃ§Ä±k mÄ±ÅŁtÄ±
lÄ±ÄŁ Ä±ndaki
ĠÅŁarkÄ± larÄ±
Ġbesin ler
ĠAd ayÄ±
Ġcez asÄ±na
ci di
ĠtanÄ± dÄ±k
ĠÃ¶ÄŁrenc iye
ĠsaÄŁ lama
Ġtav iz
Ġan ahtarÄ±
ĠZ am
ĠÃ¶de mesi
ĠyatÄ±r Ä±mÄ±
Ġm iy
Ã¼k sel
ĠLin ux
Ġh ibe
ĠmÃ¼cadel eye
ĠkaÃ§ aÄŁÄ±
ĠseÃ§im inde
Ġgrup ta
ĠÃ¼lk esinde
ĠG ur
Ġgarant ili
ĠsÄ±r alar
Ġimzalan an
Ġsar Ä±ÅŁÄ±n
ĠB ut
ĠgeliÅŁim ine
ĠDanÄ±ÅŁ manlÄ±k
at o
Ġcal is
ĠA lÄ±
Ġver eceÄŁim
Ġbak Ä±ma
Ġpar aya
Ġokul larÄ±n
Ġesk ort
ĠB ro
ĠiyileÅŁ me
ĠseÃ§im de
ĠsÄ±nÄ±r landÄ±r
Ġbas Ä±na
ĠNÃ¼f us
yon un
Ġkol esterol
ĠÄ°kti dar
Ġr ok
ĠsÄ±nÄ±r larÄ±nÄ±
Ġkil ogram
Ġkategor ide
Ġvah ÅŁi
Ġrom anÄ±
Ġkent te
ĠkÃ¼ltÃ¼r Ã¼nÃ¼n
ĠDur sun
ĠÄ°t tifak
an in
ĠBeÅŁiktaÅŁ Ä±n
ĠhÃ¼cr eleri
acak sÄ±n
ĠÃ¶rgÃ¼tÃ¼n Ã¼n
ĠC es
ĠÃ§Ä±k masÄ±na
Ġmillet e
ĠEnd Ã¼stri
ĠAfgan istan
Ġay Ä±ndan
Ġkonum una
h em
Ġtar ayÄ±
Ġil anÄ±
Ġyap amaz
lÄ±ÄŁ Ä±mÄ±z
ley ebilir
Ġseviy esini
Ġtem enni
Ġtem muz
ĠÃ§or ap
ĠÃ§erÃ§ev e
ĠDiler seniz
Ġmik rop
ĠdÃ¼ÅŁÃ¼n Ã¼len
ĠS O
ol un
ĠelveriÅŁ li
ĠyÃ¶net mel
ĠiÅŁlem inin
Ġkal maya
h anÄ±n
Ġarm aÄŁan
is te
Ġgir meden
Ġisim lerinden
Ġtemel ini
ĠgÃ¼Ã§ lerin
ĠyayÄ±m landÄ±
ĠÃĸrg Ã¼tÃ¼n
ĠkÄ±z larÄ±
Ġp ud
ĠulaÅŁ abilir
ĠAr aba
ĠyÃ¶ntem le
Ġdik tatÃ¶r
Ġgir miÅŁtir
Ġn emli
ĠMer ak
ĠetmiÅŁ lerdir
il ince
ĠM ana
Ġk rom
ĠgÃ¶tÃ¼r dÃ¼
Ġhastal Ä±ÄŁa
Ġelem anlarÄ±
ĠgerÃ§ eÄŁe
ĠseÃ§ me
Ġdez avantaj
Ġhar can
ĠDemir el
d s
Ġgit tiÄŁini
Ġekib inin
ĠBir den
h en
ad ig
emey eceÄŁi
ĠÄ°Ãĩ Ä°N
Ġcum artesi
Ġsit eyi
Ã¢ li
ĠyaÅŁ adÄ±ÄŁÄ±nÄ±
Ġver ebilecek
aÄŁ Ä±mÄ±z
ĠgerÃ§ekleÅŁtir ebilirsiniz
ĠBaÅŁ kent
Ġk Ä±lÄ±Ã§
ĠC as
Ġtr ilyon
pa gan
ĠkÃ¼t l
ĠÃ§ekil iÅŁ
ĠNiÄŁ de
ĠJ on
ĠYaÅŁ anan
ĠgeÃ§ir miÅŁ
ĠHep imiz
ĠKarÅŁ Ä±laÅŁ
Ġesk isi
ĠGÃ¼n dÃ¼z
ĠBur dur
ĠEn ver
isy enler
ĠadÄ±m larla
Ġem ret
ab inde
Ġhav ayolu
Ġseyir c
Ġr est
Ġtav r
Ġp al
ĠsonuÃ§ larÄ±nÄ±n
Ġsad akat
ĠTek stil
luÄŁ undan
Ġas l
ĠP uan
ĠVar lÄ±k
ĠmÃ¼lt eci
ĠT ag
ĠZ er
Ġtah mini
Ġintik al
ĠBab am
Ġkazan Ä±yor
ĠiÅŁlev i
ĠBir im
Ġlist esini
Ġduy uyoruz
Ġtoprak larÄ±
ĠRapor u
Ġyarat Ä±r
od yum
ĠbÃ¼yÃ¼m esi
Ġver medi
Ġsay Ä±sal
LAR IN
Ġbil diÄŁim
ĠK y
Ġkat Ä±na
ĠPT T
op e
ĠkullanÄ±l maya
Ġzann ed
Ġmensup larÄ±
ĠaldÄ±k larÄ±nÄ±
Ġy eÅŁ
Ġbur ayÄ±
ĠÃĸz lem
ĠE tr
Ġordu s
ĠAf rin
ĠKur Ã¢n
ie w
Ġmet ot
Ġer dir
Ġham am
cÄ±lÄ±ÄŁ a
ĠI S
Ġkes imi
ĠOrtal ama
ĠCem aat
Ġak ar
Ġal mam
Ġtelefon da
Ġaz ar
Ġel lerini
Ã» n
Ã§ek mece
ĠAr ÅŁiv
Ġgetir me
ĠalÄ±n dÄ±ÄŁÄ±nÄ±
ĠÅŁ iddeti
ĠWilli am
Ġm ul
ĠÃľ N
Ġsosyal ist
Ġmotor lu
ĠKut sal
Ġz Ä±t
Ġbec eri
Ġd ul
ret tin
Ġeklen miÅŁ
ĠÃ¶r tÃ¼
Ġkum ar
Ġdosy asÄ±nÄ±
ĠgÄ±d alar
ĠY outube
ĠaÃ§Ä±klam asÄ±nÄ±
uv al
Ġyapar Ä±m
Ġm d
Ġam bar
Ġyet eri
Ġpat lat
Ġgiz emli
ĠÅŁÃ¼k ran
ut e
ĠFel sef
p ati
Ġok yan
ĠÃ§arp Ä±ÅŁ
Ġd uman
ĠReh beri
Ġayar larÄ±
ebiliyor sunuz
ĠiÃ§er diÄŁi
Ġsem ptom
ĠgÃ¶rdÃ¼ÄŁ Ã¼nÃ¼
ĠYol larÄ±
ĠIntern ational
Ġetk iliyor
ĠKor un
ĠÃ§ek imi
ĠBab asÄ±
Ġr Ã¼ÅŁ
Ġtamam lamÄ±ÅŁ
ĠMobil ya
ekt eyiz
ĠKur anÄ±n
ĠR ol
ĠC O
ĠYal ova
Ġmakal emizde
Ġverir ler
Ġverim lilik
Ġl ap
ĠkullanÄ±l dÄ±
Ġyaz Ä±lÄ±r
Ġtelefon lar
Ã¢ let
ĠaÃ§Ä±k lay
Ġor anÄ±n
iÃ§ e
Ġneden se
ĠÅŁarkÄ± lar
C E
m y
Ġen str
Ġen g
ĠPiyas asÄ±
ĠSk y
ĠbeÄŁ endim
ĠbÃ¼yÃ¼k tÃ¼r
ĠK ep
Ġdur du
ĠhazÄ±r layan
Ġd iv
Ġotel leri
el ler
S AN
Ġamac Ä±na
Ġkanal larÄ±
ĠTaÅŁ Ä±n
ĠdoÄŁ muÅŁ
Ġsev gisi
ĠgÃ¶ster ebilir
Ġder gisi
il et
ĠsaÄŁlamak tÄ±r
Ġfi ili
Ġotel in
ĠÃ§Ä±kar maya
r ap
aÃ§ Ä±k
ĠsaldÄ±r Ä±da
Ġs ulan
onom i
Ġkah ram
ĠS emin
ĠEg emen
ĠA maz
Ġyaz Ä±yorum
oÄŁ ol
ĠÅŀ iÅŁ
ĠDuy gu
ĠO v
Ġen ter
Ġid rak
ĠtÃ¼m Ã¼yle
Ġkanal Ä±nda
Ġrapor da
Ä±ÄŁ Ä±m
ĠedilmiÅŁ ti
ĠAy akk
ĠÃ¶ner irim
g Ä±z
ĠeÄŁitim ine
D ER
ĠgeliÅŁtir en
Ġsitemiz den
Ġses le
Ġhedef imiz
Ġform unu
ĠEr dal
Ġortal amasÄ±
Ġj ener
ĠÃ¼Ã§ lÃ¼
um dan
Ġbas arak
Ġsu st
Ġetap ta
Ġolmak tÄ±r
ĠGÃ¼n Ã¼mÃ¼z
en ci
Ã¶ mer
Ġdil edi
Ġsal Ä±n
Ġcil de
Ġedin mek
Ġsu ik
Ġders eniz
Ġdil iyoruz
ĠDÄ±ÅŁ arÄ±
ĠKÄ±brÄ± sta
ĠiÅŁ lere
Ġsor uyor
Ġtop lar
ĠoluÅŁtur ulmuÅŁ
Ġcihaz larÄ±n
iy ye
ceÄŁ im
ĠkoÅŁul larÄ±na
Ġbelir leyici
AR T
ĠM id
z el
Ġn cÄ±
Ġder giler
o ma
Ġbas ka
Ġkolay lÄ±ÄŁÄ±
ĠÃ¶zg Ã¼ven
Ġes mer
Ġiz lemeye
ĠW in
eh an
ĠEr oÄŁlu
ĠtaÅŁÄ±n masÄ±
ĠsaÄŁlam asÄ±
ĠL av
Ġbat Ä±r
Ġbilgiler inizi
ĠB D
Ġsun arak
ĠIn ter
ĠÃľzer inde
Ġhast aya
Ġyaz Ä±sÄ±nda
ĠAy k
ĠT ru
ĠOy unun
Ġindir me
Ġetm eli
ĠProj enin
Ġkir let
ic o
ĠgÃ¶rÃ¼ÅŁ meleri
ĠkardeÅŁ lik
ĠkÃ¶t Ã¼ye
Ġpart isinin
ĠTar ifi
Ġn ey
ĠÃ¼y elerin
Ġb roÅŁ
at Ä±nÄ±
Ġol alÄ±m
Ġekonom isinin
Ġsav cÄ±
Ġmahk Ã»m
Ġolmay acaÄŁÄ±nÄ±
Ġaktar mak
ĠKÃ¼rt ler
iyor sun
Ġeklen di
ĠyetiÅŁtir mek
Ġtah Ä±l
Ġ Ã¼rk
ĠÃ¶z deÅŁ
Ġev lerinde
ĠkÄ±z art
ĠCumhurbaÅŁkan Ä±mÄ±z
Ġpazar Ä±nda
ĠarkadaÅŁ Ä±mÄ±z
ĠiÄŁ n
ĠBan yo
Ġilgili dir
Ġr uj
ĠÃ§Ä±k acaktÄ±r
Ġusul Ã¼
Ġbit tikten
Ġsebeb iyet
da d
Ġz alim
Ġtaraf larÄ±n
l op
ĠR ena
Ġtas dik
ĠgÃ¶rÃ¼n Ã¼me
ĠÃ§ap lÄ±
asyon larÄ±
Ġyarat Ä±yor
Ġbag aj
ĠÄ±srar la
Ġbil emiyorum
Ġev inizde
Ġtey it
Ġan ma
Ġkapsam Ä±
ĠdÃ¼zenlen miÅŁ
ĠdeÄŁer inde
ĠHÄ±r vat
ĠtasarÄ±m lar
Ä±yor dum
ĠKar go
Ġperiy odik
Ġmil lÃ®
Ãĸ Z
ĠgÃ¼zel likleri
ĠKol larÄ±
Ġs up
Ġte Ã¢lÃ¢
ĠP lat
Ġmed yanÄ±n
Ġpas if
Ġkur tarÄ±
ĠBas kÄ±
Ġkeyif le
i x
Ġt Ã¼z
ost al
Ġan droid
Ġkazan arak
Ġaz ami
Ġser ver
ek leri
Ġpro pagan
ĠalÄ±r lar
ĠT Ä±bbi
Ġoluyor um
Ġdikkat leri
ĠhÃ¢l inde
ĠalÄ±n Ä±yor
ĠP oz
Ġistis n
ĠGÃ¶k Ã§
abil eceÄŁine
Ã¼f er
SÄ° AD
Ġders in
ĠDeniz cilik
Ġy Ä±rt
ĠÃ¶zellik lerinden
am adÄ±ÄŁÄ±nÄ±
Ġparag raf
ĠfÄ±rsat lar
abilecek tir
d asÄ±
ĠK ale
Ġhafif let
Ġterc Ã¼m
ĠDanÄ±ÅŁ man
Ġkah verengi
Ġsab un
Ġolanak larÄ±
ĠEr iÅŁim
ĠGÃ¶r e
Ġfas ul
ĠsÃ¶ylen ebilir
c insel
ĠMal tepe
ĠBazÄ± larÄ±
abÄ± ta
Ġik iz
ĠKlim a
Ġkonu lardan
Ġiler liyor
R AM
Ġefend im
or du
Ġar ar
ĠAh ÅŁap
ĠT M
ĠgeliÅŁtir meye
Ġnumar alarÄ±
Ġyiyecek ler
ĠAr ac
Ġsim gesi
ĠMez ar
Ä±mÄ±z daki
ĠHukuk u
Ġd usun
ad ok
Ġinan dÄ±r
Ġsan tim
ĠeÄŁitim Ã¶ÄŁretim
adÄ±k larÄ±nÄ±
Ġsefer de
ĠOd alar
Ġart maktadÄ±r
ĠsanatÃ§ Ä±sÄ±
Ġm eh
ĠKar am
ĠÅŀirket i
ĠGÃ¶r sel
ĠÃ¶ le
Ġyap mÄ±ÅŁtÄ±
Ġar amaya
Ġtamam Ä±nÄ±n
Ġperformans Ä±nÄ±
Ġdig er
Ġsper m
ĠyapÄ±m Ä±nda
Ġkamer asÄ±
Ġtap u
tiv e
Ġtah rip
ĠÃ§ok lu
Ġt Ã¢
ĠÃĩ im
Ġyer lerinden
Ġkullan acak
Ġasker ler
Ġarac a
ĠKon uk
k inin
ĠgeÃ§ ersiz
Ġpol isi
ĠL en
Ġr ay
Ġduy uyorum
ĠÃ¼retim inin
Ġdil inde
ĠSili v
ĠGeor ge
AN S
ĠÃ¶n Ã¼nden
ĠyaygÄ±n laÅŁtÄ±r
Ġfes h
t Ã¼sÃ¼
ĠKar iyer
ĠoluÅŁ abilecek
ĠyÃ¶r esel
ÅŁ a
z eme
ĠulaÅŁ Ä±r
ĠÄ°kin cisi
ĠuÃ§ aÄŁÄ±
Ġin di
Ġtab iki
ĠyÃ¼kÃ¼m lÃ¼l
Ġkal Ä±b
ĠAÄŁust osta
Ġtedav iye
Ġgecik me
ĠDÃ¼zen li
d om
Ġder e
dan oz
Ġgelen e
Ġuygulam alÄ±
ĠtecrÃ¼b esi
ĠÃ§ Ã¶l
Ġsorunun un
Ġtoprak larda
ĠN OT
Ġhay kÄ±r
ĠAy lÄ±k
ĠgÃ¶rÃ¼ntÃ¼l eme
len mesini
Ġyas tÄ±k
Ġmev du
ĠKurul unda
Ġil acÄ±
c alÄ±
ĠÃĸzel likleri
ĠgeÃ§ir ilmesi
Ġd alÄ±
Ġbil diÄŁiniz
ĠEreÄŁ li
Ġdol an
ĠmÃ¼f re
Ġsilin dir
e w
Ġkal mayacak
Ġsayg Ä±lÄ±
ĠS abancÄ±
ĠH ome
ĠDiv an
ĠE Äŀ
k iye
Ġgrub una
ĠÅŀ uan
Ġsonr ada
ĠkarÅŁÄ±l ayan
asyon un
Ġh ol
ilm esinden
duÄŁ undan
ĠoluÅŁ umu
ĠAd il
Ä°N E
ĠsoÄŁ um
ĠdavranÄ±ÅŁ lar
ĠbÄ±rak Ä±ldÄ±
Ġistek leri
ĠYap Ä±lacak
ĠG rafik
ĠYet iÅŁ
ĠÃ ®
Ġhaft alarda
Ġsorgul an
Ġmacer a
Ġekonom inin
Ġsal l
ĠW al
ĠSt ore
ĠSay Ä±sÄ±
ĠÅŁikayet Ã§i
ĠProt okol
Ġkaynak larÄ±nÄ±n
Ġden gel
ĠR ot
ĠÃ§at Ä±sÄ±
ĠkapÄ± larÄ±
k es
ĠÃ§ erez
h y
Ġbir iydi
Ġhikay esini
iter atÃ¼r
ĠL u
Ġf al
ĠÃ¶ner isi
yap Ä±
Ġn Ã¶r
K AN
ĠÃ§ alan
b le
am il
Ġamac Ä±mÄ±z
ĠulaÅŁ tÄ±ÄŁÄ±
Ġnaz ik
Ġlev h
f e
Ġol sam
Ġal fab
Ġp lat
Ġuyg ar
ĠdonanÄ±m lÄ±
Ġbek leme
ĠhastalÄ±k lara
ĠKahv altÄ±
ĠkÄ±lÄ± f
Ġoyun unu
Ä±l amaz
ĠyÃ¼r Ã¼me
t Ã¼n
b y
Ġil inde
ir di
ĠÃ§iz giler
ĠTeh lik
ĠÄ° K
ĠSelam lar
af Ã¶r
ĠÅŁekl ini
Ġp ansiyon
ceÄŁ iz
Ġprof esÃ¶r
ĠkÄ±v r
T O
amam Ä±ÅŁtÄ±r
ĠsaÄŁlay abilir
ĠbaÅŁlay Ä±nca
Ġt raj
Ġuygulam asÄ±na
Ġark adan
Ġfonksiyon u
Ġsu larÄ±
ĠdÃ¼zen siz
ĠÃ¼niversit eye
ĠpÄ±r Ä±l
Ġbit miÅŁ
ĠsaldÄ±r Ä±sÄ±
ĠGiz li
ĠdeÄŁerlendir mesi
Ġincelen mesi
ĠYaÅŁ lÄ±
Ġsor usunu
Ġkap tan
ĠGaz z
ĠE F
Ġay gÄ±t
ĠH Ã¼c
Ġkayb Ä±na
ĠK op
ĠOD TÃľ
Ġpers pektif
Ġsokak larda
ĠHazÄ±r lÄ±k
ĠbaÅŁk alarÄ±na
lad im
Ġav rup
ĠMilliyet Ã§i
ĠOrta okul
al ist
Ġolm asÄ±yla
ĠbaÅŁar Ä±yÄ±
Ġver diklerini
Ġtem s
ĠgÃ¶ster isi
ĠS AT
Ġsonuc unu
Ġas lan
ĠCoÅŁ kun
ĠBu da
ĠAn tren
Ġgay ri
Ġsorun larÄ±nÄ±n
Ġon da
Ġbelir lediÄŁi
ĠkullanÄ±cÄ± larÄ±nÄ±n
ĠbÄ±rak Ä±lan
Ġ ade
Ġkr istal
dik Ã§e
dak ilerden
eceÄŁ in
ĠBit lis
ĠKar aca
ĠB AK
ĠbaÄŁ lama
ĠsÄ±nav Ä±na
ĠkÄ±s Ä±mda
ĠArt vin
Ġt rak
Ġkullan masÄ±
ĠÄ°z zet
ĠkoÅŁul larÄ±nda
Ġediyor sunuz
ĠmÃ¼zak ere
ĠM oÄŁol
ĠÅŁah ane
ĠÅŀÃ¼k rÃ¼
ĠÃĩ ap
Ġhat larÄ±
kÃ¼ ler
Äŀ I
ĠKaÃ§ ak
ĠP utin
Ãĸ R
Ġkaynak lardan
Ġay lar
Ġiddi alarÄ±
Ġkuzey inde
ĠÄ°s ra
Ġr Ã¼t
ĠÃ¼lk emizi
Ġbeklen medik
ĠdoÄŁru dur
Ġbelirt iler
ĠgÃ¶nder me
Ġplan lÄ±yor
ĠeÄŁitim de
Ġmet ni
Ġlak in
ĠmaaÅŁ Ä±
ĠtanÄ±k lÄ±k
Ġkon v
ĠR ock
r iz
ĠGÃ¶ lÃ¼
k urt
ĠgÃ¶z etim
Ġfaaliyet i
Ġkal mÄ±ÅŁtÄ±
f in
ĠGazet eciler
acaÄŁ Ä±n
ĠCih an
Ġkur siy
Ġy Ä±ÄŁÄ±n
Ä±ÄŁ Ä±ndan
ĠÃ§ocuk larÄ±mÄ±zÄ±n
ĠsÃ¼r Ã¼l
ilen in
Ġyan da
ĠiÅŁlem in
ĠsÃ¶y le
Ġser isinin
n at
ĠdÃ¶k Ã¼n
Ġdok Ã¼m
leriniz le
ĠRad y
ĠTO BB
ĠAÃ§Ä±k lama
Ġas lÄ±
Ġplan lÄ±
ĠCen ter
ĠToplant Ä±sÄ±
Ġedilm eli
ĠÅŁah siyet
omet rik
Ġincelem elerde
Ġcis im
liÄŁ imizi
Ġhaf Ä±za
ĠalÄ±n masÄ±nÄ±
ĠLak in
Ġik isinin
Ġm ayÄ±s
ĠDeÄŁ il
Ġfot ok
ĠKaynak larÄ±
ĠbaÅŁ larÄ±na
Ġal mayan
Ġdevlet ler
Ġtah akk
ĠÅŁ ab
len mek
Ġses ler
ĠartÄ±r Ä±r
ĠfÄ±rsat ta
Ġmed res
ĠR ey
Ġtehlik esi
ĠAkadem isi
ĠN azÄ±m
Ġyol lardan
Ġer im
ĠDN A
Ġtamam lamak
Ġtutul ur
ĠHay atÄ±
for d
ĠbaÅŁ lanan
Ġar om
ĠsavaÅŁ ta
ilm emesi
ĠOf fice
Ġzor laÅŁtÄ±r
Ġvurgul ayarak
Ġb eye
Ġac ele
ko Ã§
Ġgerek mez
at Ä±na
ĠKÄ±r gÄ±z
ĠFu at
ĠÃĩ Ä±nar
Ġbas ar
Ġokul larÄ±
Ġef ekt
Ġkar Ä±
ĠD izi
ĠL an
ĠseÃ§ ip
ĠGeb ze
ĠbaÄŁ Ä±
el ilerin
ĠdÃ¼ÅŁÃ¼n meye
ĠÃ§ab asÄ±
ĠkÄ±yaf etleri
n ot
ĠÃ§alÄ±ÅŁ Ä±p
Ġbul aÅŁÄ±k
ecek leri
Ġettir en
ĠdeÄŁerlendir di
ĠÅŀirket in
ĠIrak Ä±n
ĠdÃ¼zelt me
Ã¼ se
ĠKit abÄ±n
Ġdam ga
Ġolan Ä±n
Ġgrup larÄ±n
ĠkullanÄ±c Ä±ya
ĠalÄ±n acaktÄ±r
ĠDanÄ±ÅŁ tay
ĠarkadaÅŁ larÄ±nÄ±n
anb ulu
Ġdenet imi
Ġbron z
ĠT ro
Ġmadde de
mekt eyim
ĠsuÃ§ lam
k Ã¢n
Ġc el
ĠD ans
oz of
ler inizde
Ġtut ma
ĠKÄ±l avuz
ĠmÃ¼h Ã¼r
Ġekip lerinin
Ġpolis e
ĠÅŀ ener
Ġmes leÄŁi
Ġsaat e
T AL
ĠÃ§ en
oc i
Ġinsan lÄ±ÄŁa
Ä±yor sun
larÄ±m dan
Ġz ed
ĠKon uyla
ĠMevl Ã¼t
Ġlok al
ĠbÃ¶lÃ¼m ler
ĠL os
ĠÃ¶ÄŁrenciler imiz
Ġg raf
Ġib ad
om o
Ġol salar
Ġkap it
Ġgec elik
ĠazÄ±n lÄ±k
Ġb o
Ġboy ama
Ä±k Ä±r
Ġal alÄ±m
ĠAd res
Ġger eÃ§
ĠsÃ¶yley eyim
Ġkal masÄ±nÄ±
ĠSam i
Ġk ost
Ġk Ä±p
Ġolmak ta
ĠgeliÅŁ melerin
ĠgÃ¶rkem li
Ġderec esi
elen miÅŁ
Ġiddi asÄ±
ĠDak ika
ĠAL LAH
ĠÃľlk emiz
Ġalak asÄ±
ul aÅŁtÄ±r
ĠÄ±s lah
Ġfav or
Ġgit me
Ġkazan acak
ĠHol land
ĠGran d
ĠÃ¶lÃ¼m e
Ġedebil eceÄŁiniz
ĠaÃ§Ä±l Ä±yor
ĠyÃ¶net en
ĠÅŁampiyon u
Ġs op
un k
ĠbÃ¶lÃ¼m den
Ġtem a
Ġfav ori
ĠRÃ¼z gar
Ġdiz el
ĠyÃ¼z leÅŁ
Ġolm al
ĠC lub
ĠsÃ¶z lÃ¼k
ĠkÄ±sm Ä±ndan
Ġk iz
ĠKiÅŁ inin
Ġk eb
ĠtakÄ±m da
Ġg am
ĠMuh asebe
Ġgec eler
Ġyel ken
Ġfark Ä±nday
ag anda
Ġder inden
ĠHav acÄ±lÄ±k
Ġtem yiz
ĠMart ta
ĠbaÅŁ Ä±ma
ĠA man
ĠBakan lÄ±ÄŁÄ±ndan
ĠFETÃĸ nÃ¼n
ĠHak em
ĠGoogle Ä±n
ĠÃ¶den en
ĠOs car
Ġemperyal ist
Ġp ed
ez a
Ġap ar
L EM
Ġkaybet meden
Ġanlam Ä±ÅŁ
Ġoyn ayacak
Ġaf fet
Ġuzun luÄŁunda
p aÅŁ
ĠAV M
ĠO ut
ĠgerÃ§ekleÅŁtir dik
es te
Ġdev ri
k adir
ĠKaynak lar
Ġbak tÄ±
ĠY anÄ±
ram v
ĠMar ÅŁ
ĠY edi
Ã¢ ye
Ġmaz lum
Ġsit elerinin
ay iÅŁ
Ġgol Ã¼
mez ler
ĠSoy lu
Ġedil ebilecek
Ġdin le
Ġart tÄ±ÄŁÄ±nÄ±
Ġmaks ad
Ġkullan dÄ±ÄŁÄ±m
Ġtelefon larÄ±
c om
ĠhemÅŁ ir
Ġkan ama
ĠCen abÄ±
Ġhesap lama
Ġcid diye
bah is
ĠBat Ä±lÄ±
ĠKem er
Ġide oloj
ĠKÄ±r ÅŁehir
uÅŁtur ma
ĠalÄ±n malÄ±dÄ±r
Ġtel aÅŁ
Ġdog ru
ĠAr ke
liliÄŁ e
Ġdok usu
ilir se
ĠkoÅŁ tur
Ġinf az
ekt Ã¼el
ĠSarÄ±y er
Ġan larÄ±
Ġbenim sen
ĠgÃ¶rev inden
ĠgÃ¶rm edim
Ġhesap larÄ±
Ġolmam asÄ±na
Ġyan daÅŁ
Ġay na
s s
Ġal acaktÄ±r
Ġavuk atÄ±
ĠSig ara
ĠT ic
Ġkazan mÄ±ÅŁtÄ±r
ĠtanÄ±t mak
ĠAlan Ä±
Ġciv arÄ±
A G
Ġnak li
ĠkÄ±z gÄ±n
ĠÃ¼niversit eler
Ġsandal ye
Ġgetir mektedir
ĠY eri
Ġteknoloj iyi
Ġbil ek
Ġip ek
ĠsÃ¶ylemiÅŁ ti
ĠyÃ¼z Ã¼k
al amak
Ġh ack
sey di
ĠiliÅŁk ilendir
Ġhedef liyoruz
Ġortak laÅŁ
ĠateÅŁ i
ĠpÃ¼rÃ¼z sÃ¼z
ĠO zan
Ġist ekler
az Ä±rda
ĠÃĸz er
ĠsaldÄ±rÄ± larÄ±
Ġoy u
ĠbahÃ§ esi
ĠyapÄ±l mak
ĠstÃ¼d yo
Ġdev i
as an
ĠS AN
ĠP de
Ġbelirt ilmiÅŁtir
Ġrast lan
ĠEdebiyat Ä±
Ä±r dÄ±
Ġem isyon
ĠM um
for masyon
Ġyaz Ä±m
g on
ĠdÃ¶n mÃ¼ÅŁ
ĠmutluluÄŁ unu
Ġkor san
ĠKampan ya
ĠDev r
ĠBu h
ĠmaÃ§ Ä±nÄ±
ĠiÅŁ lerinde
ĠB ina
Ġt om
Ġay aÄŁ
ĠF IF
Ġfiyat lara
in ler
nam esi
Ġc er
ĠtakÄ±m lar
ĠF orex
ĠDir ektÃ¶r
ekk Ã¼l
ik asyon
ĠZor lu
Ġdik en
ĠMeclis te
ĠErgenek on
ĠY iÄŁit
ĠamaÃ§ lar
st at
y azÄ±
ĠdÃ¼ÅŁÃ¼nÃ¼yor sanÄ±z
ĠLefkoÅŁ a
ĠMak yaj
Ġat let
ĠHÃ¼k m
ĠyÃ¶n e
ĠdÃ¼ÅŁÃ¼nc eleri
Ġbilg ilerinin
Ġtuz u
ol sun
ĠLey la
macÄ± lar
ĠO ru
ĠDÃ¶nÃ¼ÅŁ Ã¼m
ĠarÄ±yor sanÄ±z
ĠBÄ°L G
ĠKr em
ĠDÃ¼ny asÄ±
ĠAk ar
ĠbaÅŁk asÄ±na
iy eleri
ĠOtel de
Ġcehenn em
ĠRena ult
ĠKÃ¼rt lerin
l Ã¶r
abiliyor lar
ĠFar s
ĠyaÅŁan mÄ±ÅŁ
ĠK ok
ĠKurul una
p eri
Ã§ ilere
Ġkorum asÄ±
ĠiÅŁ lenen
Ġyapabilir iz
Ġver elim
ĠaraÃ§ larÄ±nÄ±n
iler imizin
ab anÄ±
ĠbaÅŁvur an
eÅŁ e
ĠM ul
Ġah ir
Ġyar dim
ĠÃ¶mÃ¼r lÃ¼
ĠBel irt
ĠsaÄŁlan acak
ĠMery em
Ġgir erken
ĠmaÄŁ ar
ĠÃ§ok Ã§a
Ġseviy esinin
Ġayak larÄ±
ĠTec h
ĠFenerbahÃ§ enin
Ġnokt alara
Ġkont eyn
Ġyarar Ä±na
h oÅŁ
s aÄŁ
Ġyap acaÄŁÄ±mÄ±z
ĠgÃ¶r ebilir
ĠKat ar
rah man
la da
ĠSar ayÄ±
Ġsendik a
Ġneden lerden
ĠL Ã¼t
Ġap tal
ĠTeb liÄŁ
Ġbildir en
ĠSak ar
ĠÅŀ ik
Ġhafif Ã§e
Ġin anÄ±n
ĠilaÃ§ larÄ±n
n Ã¼
ĠVen edik
ĠEr tesi
ĠÃ¶l Ã¼r
ĠhazÄ±r lay
Ġkaynak larÄ±n
Ġotel ler
Ġetkin liÄŁe
ĠyÃ¼rÃ¼y en
Ġter mal
Ġtip ik
Ġan layan
ĠÃ§ub uk
ĠgÃ¶r erek
Ġoyn arken
viv or
Ġtamam lanmÄ±ÅŁ
Ġs ac
Ä±r sanÄ±z
Ġyap Ä±sÄ±nÄ±n
ĠCey lan
ev e
ĠdÃ¼ÅŁÃ¼ndÃ¼ÄŁ Ã¼m
ĠEb ru
ĠY alan
ĠKar ac
ĠyaÅŁ a
ĠÃ§iz di
Ġsoy un
alar daki
Ġkr ediler
ĠKil o
Ġin ovasyon
ĠDeÄŁer lendir
Ġtitiz likle
ĠU p
ic ilik
l ekli
ĠK alan
ĠgenÃ§ leri
ĠkardeÅŁ ler
ĠB re
ĠYet kili
ard o
Ġumu du
Ġdoldur an
ĠgÃ¶ster in
Ġel imizde
ĠkiÅŁ iyle
inin in
ĠN ob
ĠTÃ¼rk leri
Ġoyunc uluk
ĠV eya
l uyuz
ĠSiir t
Ġendek s
Ġazal Ä±r
c eler
ĠoluÅŁtur arak
ĠgeÃ§ it
ĠkazandÄ±r mak
Ġet menizi
Ġhar ici
Ġyer lerin
ĠKategor iler
Ġbilg isine
Ġbab anÄ±n
E G
ĠK ub
Ġli gin
Ġf are
ĠTF F
ĠErmen istan
Ġbeklent isi
de x
ĠAÄŁ Ä±z
Ä° s
Ġdondur ma
Ġed it
Ġel ime
ĠEngel li
k inden
Ġkullan mÄ±ÅŁ
ĠyakÄ±n Ä±nda
em edik
ĠÃ§iÃ§ ekler
Ã¢b Ä±
ĠÅŁehir lerde
m od
ĠCh at
Ġbek lerken
Ġtab el
mey eceÄŁini
Ġmens ubu
Ġistikrar lÄ±
ĠaÃ§Ä±k lÄ±k
ĠÅŁans Ä±nÄ±
ĠBr Ã¼ksel
Ġilk eleri
Ġel imde
ĠÃ§alÄ±ÅŁmalar Ä±mÄ±z
d Ã¶n
ĠRus yada
Ġkaps ar
Ġsistem iyle
ĠH ul
Ġre el
Ġyer inin
ĠbÃ¼r o
ĠTO P
Ġmo du
d Ã¶rt
Ġel li
emey eceÄŁini
Ġyol lara
Ġh asÄ±l
ĠÃ¶ÄŁren meye
ĠM U
ĠO kan
ĠGÃ¼neÅŁ in
ĠiÅŁÃ§ ilik
Ġsakin leri
ĠHar p
yon u
or gan
ĠSÃ¼r dÃ¼r
Ġkar ikatÃ¼r
Ġel inizde
Ġhizmet lerinden
p as
ĠyaÅŁamak tadÄ±r
ĠkoÅŁ u
ĠTun Ã§
ĠBak alÄ±m
Ġkadros una
Ġuygulam asÄ±nÄ±n
s ki
ĠÅŁi iri
ĠKur su
Ġdiz isinin
Ġev lerde
ĠÃ¶ner iriz
ĠFil ist
Ġiptal i
ĠeriÅŁ imi
an oz
am Ä±yoruz
Ġisim lerini
ĠLond rada
ĠUlaÅŁ Ä±m
Ġtut ku
Ġverim liliÄŁi
Ġgerekiyor sa
os h
ĠdeÄŁer lerin
Ġt uÄŁ
Ġarz ul
ĠD or
ĠC re
ĠDÃ¼n yaya
Ã¢ v
ĠPerforman s
ĠÃ¶ncÃ¼lÃ¼ÄŁ Ã¼nde
ay Ä±z
Ġbul abilir
ef abrik
ĠdÃ¼ÅŁÃ¼n Ã¼p
ĠaÄŁz Ä±
Ġpsik olog
Ġgecik tir
ĠsanatÃ§ Ä±nÄ±n
Ġokuy uc
Ġhavalim anÄ±
c em
ĠgÃ¼ndem ine
ĠT Ã¼n
ĠsaÄŁlam Ä±ÅŁtÄ±r
Ġgetir ilmiÅŁ
Ġl Ã¼t
ĠDiyarbakÄ±r da
ĠmÃ¼ÅŁter ileri
Ġdem iÅŁtir
ĠEl de
may arak
Ġo m
ĠbÃ¶lÃ¼m e
ĠZ el
Ġdin dar
Ġmiz ah
Ġseg ment
g Ã¶l
madÄ± lar
man a
Ġkum anda
Ġt we
ĠBenim le
ĠmÃ¼te ahh
Ġotur du
ĠMÃ¼s lim
Ġbeb eÄŁi
ĠBaÅŁkan lÄ±ÄŁÄ±nÄ±n
Ġelekt r
ĠÄ°htiy aÃ§
Ġbir iyle
Ġtar ikat
Ġkomp lik
ĠE UR
ĠKur anda
ĠsaldÄ±rÄ± lar
ĠSab it
ĠBur un
ĠsaÄŁ anak
ĠulaÅŁ Ä±n
Ġyan Ä±mda
Ġkazan maya
Ġilk esi
os istem
ĠÅŁart larÄ±nÄ±
Ġkalk ar
ĠyÃ¼ksek Ã¶ÄŁretim
Ġbu t
ĠGÃ¼rc istan
ĠAk ademi
Ġistiyor du
Ġic at
ĠpoÅŁ et
af fer
Ä±n Ã§
Y O
g inin
ver en
Ġbakter i
Ġed ince
Ġver ildiÄŁini
iy y
Ġbak Ä±yorum
Ġoyn ama
Ġbelirlen ecek
ĠSuriy eye
ĠkÄ±y amet
dÃ¼k leri
Ġunsur lar
g em
Ġmut luyum
ĠÅŀ ayet
ĠÃ§alÄ±ÅŁ masÄ±na
Ġkil ise
ĠÃ¼retic ileri
ĠCh ris
ĠsÄ±r asÄ±
ĠyÃ¼rÃ¼r lÃ¼k
Ġolm ayÄ±p
ĠÃľst Ã¼n
Ġalan larÄ±nÄ±
g raf
Ġsev diÄŁiniz
Ġbul acaksÄ±nÄ±z
ĠpeÅŁ ine
ĠHal uk
Ġetkilen en
y alarÄ±
Ġcan Ä±nÄ±
memiÅŁ ti
ĠÃ¼rÃ¼n e
ĠdoÄŁ aya
Ġekib in
s or
tik lerini
Ġs Ã¼l
ĠÃľniversit esinden
cÄ±lÄ±ÄŁ Ä±n
Ġist eÄŁe
Ġat Ä±f
Ġincel eyen
ĠR an
Ġdilek Ã§e
ĠÃĩukur ova
Ġl as
lem eler
Ġard Ä±nda
n ez
ĠÄ°d lib
Ġd amak
ĠÅŁer bet
ĠbaÅŁar Ä±sÄ±nÄ±
ĠÃ¶f ke
el eyen
ilm em
ĠiÃ§ sel
Ġbulun duÄŁunuz
ĠG E
Ġam p
ĠÄ°n eg
Ġver giler
Ġpiyas asÄ±nda
ĠgeÃ§ mektedir
Ġz irve
liliÄŁ inin
Ġzarf Ä±nda
Ġy y
Ġyaz dÄ±ÄŁÄ±m
lo ma
Ġkesi ci
ĠB ye
Ġrakam lar
Ġal Ä±k
ĠD ic
ĠÅŁer it
eceÄŁ inden
c alan
ĠgÃ¶rÃ¼nÃ¼m lÃ¼
m ese
Ġboyut ta
at h
Ġz a
Ġkarar lÄ±lÄ±k
ĠÅŀampiyon asÄ±
ĠÅŁiddet e
Ġmev z
ĠCen ev
ra de
Ġkor u
Ġar Ä±n
ĠP yi
Ġres ep
ÅŁ u
Ġyay Ä±na
Ġucuz a
ĠAt Ã¶ly
Ġhab ersiz
or oloji
ĠToplantÄ± da
Ä±m daki
Ġkay da
ĠÅŀ air
Ġdayan Ä±ÅŁ
ĠV ic
ĠÃ¶z Ã¼
Ġdiyor sanÄ±z
Ġban d
ĠiÅŁ lenmiÅŁ
ĠU R
ĠdeÄŁiÅŁtir ilmesi
Ġbilir siniz
ĠilaÃ§ larÄ±
o us
Ġdiz in
Ġyeter lilik
ĠMÃ¼cad el
g s
ĠT ES
en en
ĠÃĸ lÃ¼
ĠcÃ¼ml eler
Ġunsur larÄ±
ĠParis te
ĠTaÅŁ Ä±m
el eÅŁtir
T I
Ġhast alarÄ±
c is
ĠdÃ¶nÃ¼ÅŁ tÃ¼
ĠÃ§ar pan
ĠbÃ¶lg eden
Ġtoplam Ä±
ĠP in
Ġyaz arken
ĠD ini
Ġsunul masÄ±
Ġkim ya
Ġmak sat
iy eri
Ġkend ilerinden
Ġkur utma
op ik
Ġolm alarÄ±nÄ±
ĠOk uy
Ġdin leyen
Ġdol gun
Ġedecek siniz
ĠN i
Ġyay Ä±nÄ±
ĠiÅŁ lerine
Ġkat arak
Ġart masÄ±na
ĠTak v
Ġhad isi
eÄŁ er
ĠB af
ĠV eysel
Ġsavun du
Ġol abilmesi
ĠBayrak tar
ĠÃ¼stÃ¼n lÃ¼k
AS IN
Ġdik ey
ĠyaÅŁ adÄ±m
Ġm p
lÄ± larÄ±n
ĠrÃ¼zg Ã¢r
Ġyolc uluÄŁu
Ġotomobil in
Ġb inden
Ġtutan ak
ĠH en
Ġil Ã¢h
Ġhttp s
ĠÃĩalÄ±ÅŁ malar
Ġprogram larÄ±na
ĠÃ§Ã¶zÃ¼nÃ¼r lÃ¼k
ĠA G
ĠamaÃ§ larÄ±
ĠAm ir
mey ecektir
Ġiade si
ĠÃ¶yl esine
aÃ§ a
Ġkah k
ĠSÃ¶z leÅŁme
ĠgÃ¶ÄŁ s
y id
ĠL am
D K
Ġinsan larda
Ġgelir ler
Ġkriz in
Ġzinc iri
tan e
ĠP osta
Ġuygul ayan
Ġark aya
ĠÃ¶lÃ¼m sÃ¼z
ers em
ĠDE V
lendir mek
ĠÃ¶nc Ã¼lÃ¼k
ĠFa iz
Ġhaber leÅŁme
Ġgetir ilmiÅŁtir
al Ä±ÄŁÄ±n
ĠÅŁah si
ĠC han
Ġsaat lerce
r r
ĠkÃ¢ÄŁ Ä±t
ĠÃĩ ub
ĠÃ§alÄ±ÅŁ tÄ±klarÄ±nÄ±
Ġetm elidir
ĠMel ek
ĠbaÅŁlar ken
ĠiÅŁit me
Ġeklen ir
ro me
Ġotur uyor
ĠÃ§iÃ§ eÄŁi
ti han
Ġziyaret te
Ġkut lama
es ses
ĠAraÅŁtÄ±r malar
ĠkadÄ±n la
ĠiÃ§eriÄŁ ini
Ġh Ã¼s
Ġon ce
Ġyapar sanÄ±z
ĠAb bas
Ġtahamm Ã¼l
ĠT una
ĠsÃ¶z leriyle
Ġhareket in
Ġtaraf lar
ĠaraÅŁtÄ±r masÄ±
ĠKah ve
Ġbin asÄ±nda
ĠBelÃ§ ik
Ġmark alarÄ±
ĠÃĸnc eden
ĠMacar istan
ĠÃ§arp tÄ±r
ĠMosk ova
Ġbelirt ildiÄŁi
Ġmerkez lerinde
us i
ĠtÃ¼r Ã¼dÃ¼r
Ä±c Ä±k
ĠL uc
ĠStratej ik
ĠÃ¶ldÃ¼r Ã¼len
Ġp azartesi
Ġm azer
ĠyÃ¶net meni
Ġkr emi
ĠoÄŁl unun
Ġyapacak larÄ±
ĠSÄ±r b
Ġh Ã¼rriyet
ĠDar be
Ġsor ulan
ĠÃ§alÄ±ÅŁmalar la
Ġyal Ä±n
ĠBan g
ĠsÃ¼rdÃ¼r mektedir
t anÄ±n
Ġk aka
Ġetm emek
ĠRes Ã»lullah
Ġbirik imi
ĠMah m
Ġden edim
Ġasker leri
ĠbaÅŁlad Ä±ÄŁÄ±nda
Ġtencer eye
Ġelem anÄ±
ent al
ĠR on
Ġpiyas asÄ±
Ġbeden sel
Ġlog o
Ġor antÄ±lÄ±
Ġkabil iyet
oot h
ĠO ya
ĠdÃ¼z eye
tiÄŁ in
ĠÃ¼niversit ede
ĠU f
ĠDoÄŁ uÅŁ
Ġfer t
ĠÃĸy leyse
ĠK us
Ġyararlan arak
Ġden iyor
ĠH Ã¼l
iv i
ĠyÄ±k Ä±m
oc u
Ġmaliyet leri
Ġbin alarÄ±n
ĠKH K
Ġmilyon a
Ġbil hassa
ĠPol onya
ĠL ojistik
ĠOl du
Ġetkili dir
ti hat
ĠSn ap
Ġhaft aya
ĠG iy
Ġtut uÅŁ
ĠhatÄ±rlat tÄ±
Ġc c
Ġkurum lara
Ġgir dik
Ġerkek leri
Ġolay la
Ġokuy arak
Ġis raf
ĠÄ±sÄ±n ma
ĠT AN
ĠÃ§Ä±k tÄ±ÄŁÄ±nda
Ġimz alÄ±
ĠBr un
y umu
U Åŀ
Ġkar Ä±sÄ±
Ġyan aÅŁ
Ġtep s
Ġelekt ron
Ġkar ayolu
ĠBu ÄŁ
ĠyaÅŁ adÄ±ÄŁÄ±m
Ġsit eniz
Ġpsik oloj
l Ã¼yor
Ġ Ã¼f
lar ini
ĠH AK
ĠBugÃ¼n kÃ¼
ĠFeder al
ĠaraÅŁtÄ±r mada
Ġmek anda
ĠKal b
ĠK Ã¢
ĠgeÃ§ir dik
b ab
Ġgel se
ĠKÃ¶ pek
Ġtraf iÄŁe
ĠyayÄ±n larÄ±
Ġp iz
ĠGeÃ§miÅŁ te
z ade
ĠMutlak a
ĠgeliÅŁtir erek
ĠMic h
ĠMaÄŁ az
ĠG EL
ĠKategor i
Ġat Ã¶lye
D EN
ĠK erk
ĠM av
Ġt iÅŁ
Ġfir maya
ĠAtatÃ¼rk Ã¼
ĠÅŀ unu
Ġhaber imizde
Ġst abil
ediÄŁ in
ĠkÃ¼t Ã¼phane
ĠAt illa
ĠÃ¼rÃ¼n lerde
ĠBay kal
Ġokul dan
ĠS OR
ĠC Ã¼n
ĠgÃ¼v eni
Ġtuz lu
ĠS ef
Ġtar l
Ġb Ã¼f
ĠÃ§Ä±k madan
Ġyak Ä±nÄ±n
Ġat abilirsiniz
ĠV is
Ġkap Ä±da
ĠbÄ±rak Ä±yor
Ġpaz ara
ĠdÃ¼zen e
Ġmek anÄ±
ĠÃ¶n Ã¼
Ã¶mer t
Ġekonom iye
ĠGeb elik
ant Ä±sÄ±
R A
ĠAs la
Ġev lerin
ĠK uz
Ä° n
Ġn Ã¼s
ĠgÃ¶rdÃ¼k leri
Ġvizyon a
Ġhayat Ä±mÄ±za
ot al
ĠAn aliz
Ġyat kÄ±n
ĠiÃ§erik leri
ĠL Ã¼k
ĠÃ¶ner ilir
ĠÃ¶t esi
ĠkaldÄ±r ma
Ġgetir in
Ġrestor asyon
ĠSendik asÄ±
ĠKar arÄ±
Ġhesab Ä±nÄ±za
Ġz Ä±p
ĠdeÄŁiÅŁ mektedir
ĠsatÄ±ÅŁ larÄ±
Ġiktis adi
Ġdil in
ĠdeÄŁiÅŁtir en
Ġilk Ã¶ÄŁretim
ĠC asino
Ġli beral
Ġtut muÅŁ
Ġfonksiyon el
Ġgerektir diÄŁi
Ġr ab
ĠyÃ¶netim in
Ġpsik iyat
ĠiÅŁÃ§ ileri
Ġbedel ini
Ġd um
Ġr ock
Ġham le
ĠKoordin asyon
l ediÄŁim
Ġbed eni
D S
y etler
Ġist emek
ĠKullan Ä±lan
Ġif las
ĠÃ¶ÄŁretmen leri
Ġduyur u
Ġmasa Ã¼stÃ¼
ĠN in
mamÄ±z a
Ġoluyor lar
Ġesas lar
ab ildi
Ã§ esi
Ġordu sunun
Ġten is
Ġpazar da
Ġo tu
Ġdosy ayÄ±
Ä° F
Ġkazan masÄ±
Ġg Ã¼le
Ġimal atÄ±
Ġil mi
ĠVer ilen
D I
Ġkonten jan
Ġfin ale
Ġbal Ä±ÄŁÄ±
em m
Ġdeng esiz
Ġsel lem
Ġkaynak lanÄ±yor
ĠK azÄ±m
ĠKend isini
ĠEngel liler
Ġtat ile
ĠM B
ĠkÄ± lar
ĠV ef
Ġdoktor lar
Ġeser lerin
Ġsaat ten
Ġhiss eder
Ġmensup larÄ±nÄ±n
Ġhalk Ä±mÄ±zÄ±n
ĠKon yada
du c
Ġolmas aydÄ±
Ġtet kik
ĠHak im
ĠateÅŁ e
ĠNok ia
Ġdemokras inin
Ġad min
ĠB uy
ĠyaÅŁat mak
Ġsonsuz a
ĠNih ayet
Ġtarz Ä±nda
Ġduv ara
b aba
Ġhayat Ä±mda
Ġyan larÄ±nda
ĠJe an
ledik Ã§e
Ġdiplom atik
ĠÃ¼z gÃ¼n
mesi dir
ĠTrak ya
Ġdiz ide
ĠnÃ¼f usunun
laÅŁ Ä±r
O C
ĠfotoÄŁraf larÄ±nÄ±
Ġtrib Ã¼n
ĠÃ¼rÃ¼n lerden
ĠBakanlÄ±ÄŁ Ä±nca
ĠgeÃ§ir erek
ĠaltÄ±nda dÄ±r
ĠDem et
an lara
ĠbÃ¼yÃ¼m eye
ĠÄ°ran a
ĠanlaÅŁ Ä±lan
Ġs usuz
ĠT K
Ġpozisyon da
Ġmekt ubu
lan dÄ±ÄŁÄ±nda
ir alam
Ġak Ä±
ĠCerrah i
ĠKent sel
ĠNef es
Ġgetir ilir
Ġal abilecek
ĠsÃ¶zleÅŁ menin
ĠG ibi
Ġal acaÄŁÄ±z
mam aya
ĠulaÅŁ Ä±labilir
ĠbÃ¼l ten
ĠfotoÄŁraf Ä±nÄ±
ĠFilm leri
may acaÄŁÄ±m
Ġan ki
Ġbun ca
ĠÃ¼retim in
Ġhapis han
Ġel bet
Ġist ir
ĠEs ad
Ġsan iyede
ĠSan cak
ust ik
Ġhac im
Ġy Ä±r
ĠÃ¶ner ilen
ĠNil Ã¼fer
Ġg n
Ġsu dan
ĠAntal yanÄ±n
U B
Ġfi ilen
ĠKal Ä±n
s ika
ĠY EN
ĠY avaÅŁ
Ġeser in
k ele
Ġde de
ĠUzman lar
ĠvasÄ± f
ĠÃ¶nc esinden
Ġsal ata
Ġbes lenen
ste in
ĠB I
ĠsÄ±nÄ±f Ä±nÄ±n
ĠortaklaÅŁ a
ĠSah n
ĠsaÃ§ lar
ĠOl ur
ekk ur
ĠN iye
Ġgerek ecek
ĠV il
ĠÃ§alÄ±ÅŁan larÄ±na
ĠbÃ¼y Ã¼ley
ĠyaÅŁ arken
ĠgÃ¼Ã§ sÃ¼z
Ġbiz lerin
t ing
ĠÄ°st anbulu
Ġproj elere
Ġham uru
ĠÃ§ Ä±tÄ±r
ĠKoordin atÃ¶rÃ¼
ĠEtr af
j a
Ġyap Ä±cÄ±
Ġdur madan
ĠP ers
Ġg Ã¼ce
Ġyap mÄ±yor
n al
Ġstandart larÄ±
ĠAr zu
ĠBelediy esine
ĠbÃ¼tÃ¼n leÅŁ
ĠbaÅŁk asÄ±nÄ±n
Ġkes ilen
ĠBurs anÄ±n
p ol
v en
Ġism iyle
Ġyazar lar
ĠdeÄŁer lere
ĠkÃ¶ le
ĠYen ilik
Ġiz ol
ĠH isar
ĠC M
ĠÄ° S
st Ä±r
ĠÃ¶ÄŁrenciler imizin
Ġyiy en
ĠC ur
lÄ± can
ĠS Q
Ġzan net
ĠS ep
ĠKal em
Ġdin ler
ĠM uk
ĠyardÄ±m a
ĠsÃ¼rÃ¼c Ã¼sÃ¼
Ġinan cÄ±
ĠgÃ¶z altÄ±
Ġn ic
o dan
ĠÄ°z in
om uz
ĠgeliÅŁmeler e
ly wood
Ġber taraf
ĠBey oÄŁlu
Ġistin aden
Ġproj esinde
ak ip
Ġdevlet lerin
Ġbab alar
Ġkal mayÄ±
Ġiler ley
ĠtartÄ±ÅŁ maya
ĠÅŀampiyon asÄ±nda
ĠdÃ¶nem ini
ĠyayÄ±n lar
ĠÃ¶lÃ¼m Ã¼nden
ĠhÄ±z Ä±nÄ±
larÄ±n ca
ĠE de
ĠÃ§ek ilmesi
ĠYet kil
Ġplan lar
ab le
ĠL at
ĠjÃ¼r i
ĠTes lim
ĠManav gat
n az
Ġkontrol Ã¼nde
ĠDevlet leri
Ġbozukluk larÄ±
Ġsayf asÄ±na
ĠK UL
Ġh ort
Ġk uyu
Ġyapabilir im
ĠRe ad
ĠK e
ĠaÃ§Ä±k lamak
Ġihtiyac Ä±m
Ġman yetik
Ġbilinc inde
ĠsonuÃ§ landÄ±r
ĠhÃ¼kÃ¼m dar
Ġmezun iyet
Ġyaz Ä±ÅŁ
len ip
tiÄŁ ine
ĠG ider
ĠgiriÅŁ inde
ĠYÃĸN ET
ĠKend ine
ĠAmas ya
ĠbaÅŁ lama
Ġmodel inin
Ġil lerde
c eli
ĠmÃ¼ÅŁter iye
Ġp ut
ĠuÄŁr amÄ±ÅŁ
el ey
Ġdepol an
ĠG PS
Ġazal masÄ±
Ġdurdur ul
de d
ĠÄ°neg Ã¶l
ĠdoÄŁ duÄŁu
ĠÃ¼r etir
ĠS et
Ġyav r
ĠÅŀim diye
ĠP iyan
ĠHava alan
ĠLir asÄ±
ĠanlayÄ±ÅŁ Ä±nÄ±
am alar
Ġnes ne
ĠÃ§Ä±k Ä±nca
Ġveriyor lar
ĠkullanÄ±l abilecek
Ġbilir k
ĠyaÄŁ lar
ĠSek s
Ġsayf alarÄ±
ĠAÅŁ Ä±k
Ġnak led
Ġfirmalar Ä±nÄ±n
Ġtop ladÄ±
ĠtÃ¼rk iye
Ġkapat mak
ĠbÄ±rak ma
ĠBeylikdÃ¼z Ã¼
d Ã¼nÃ¼z
Ġbecer ileri
ĠKullan Ä±mÄ±
ĠS Ä±f
ĠsaÄŁ lÄ±yoruz
eyz aj
ar enk
eb ildiÄŁi
ĠAk taÅŁ
Ġbulundur an
ĠdeÄŁerlendir meler
ĠAk soy
ĠsÄ±kÄ±ntÄ± larÄ±
Ġdamg asÄ±nÄ±
ĠhazÄ±r ladÄ±k
Ġpik nik
Ġhediy esi
k eli
ĠmÃ¼cadel esini
ĠyanÄ±t ladÄ±
har d
ĠF o
ĠbaÅŁk alarÄ±
ĠYap Ä±mÄ±
ĠTat ar
ĠKal dÄ±
ĠyÃ¶ntem iyle
ĠUN ES
ĠyÃ¼k s
ĠYak up
Ġanest ezi
ĠdÃ¼ÅŁÃ¼nmÃ¼yor um
ĠK ek
ĠAr Ä±
ĠgÃ¶z Ã¼nÃ¼
ĠR ep
ĠTim es
ĠgerÃ§ek tir
Ġtur izmi
Ġgir in
Ġart mÄ±ÅŁ
Ġdil eÄŁiyle
Ġdok Ã¼man
Ġk ili
ĠSÃ¶zleÅŁ mesi
Ġedebilir iz
Ġhizmet lerine
Ġask Ä±ya
Ġkar am
Ġark asÄ±ndaki
ĠkarÅŁÄ±laÅŁ ma
ĠmaÄŁdur iyet
ĠAl ternatif
ch ester
Ġs ulu
Ġg azi
Ġs alÄ±
ilendir me
ĠBay b
ĠÃ§evr esine
ĠseÃ§im lere
Ġbul abileceÄŁiniz
Ġkonum landÄ±r
Ġd ist
Ġkullan madan
Ġibar esi
ĠdaÄŁÄ±l Ä±mÄ±
ĠmÃ¼ÅŁter ilerinin
ĠD inÃ§
Ġn de
Ġmuh aseb
uluÄŁ unu
ĠF ur
Ġsor gu
ĠMÃ¼dÃ¼r Ã¼mÃ¼z
ĠPlan lama
ĠK AL
Ġbank anÄ±n
Ġm eb
Ġtazmin atÄ±
var yum
Ġkar ma
Ġdayan Ä±r
ĠF ev
Ġfilm ini
ĠS unu
ĠkatÄ±lÄ±mcÄ± lara
s y
Ġkayb eder
Ġskan dal
ĠKur ucu
Ġgr ip
ĠgÃ¶ster ge
ĠÄ° de
ĠOb ama
ediÄŁ ine
Ġyakalan an
ĠKerk Ã¼k
ĠKul ak
lem ektedir
err y
ĠsÄ±nÄ± fa
ĠaÄŁz Ä±ndan
Ġman tÄ±ÄŁÄ±
Ġprop aganda
ĠSem ih
Ġoran Ä±na
ĠyÃ¶netim ini
ĠgerÃ§ekleÅŁtir ilmesi
Ġsit elerine
asay fa
ĠSams unda
Ġtez ah
er y
Ġmes c
Ġuy umu
Ġyar amaz
ĠÃ¼retim ine
ĠDok uz
Ġbu tik
ĠiÃ§ecek ler
ĠdeÄŁerlendir mesinde
ĠAvrup adaki
Ġay larÄ±
Ġproj esini
ĠmaÄŁ lub
at ya
ĠkÃ¶y Ã¼n
ĠN ap
Ġkontrol Ã¼nÃ¼
ĠHat ice
Ġvur ul
ĠS tep
d Ã®
ĠHÃ¼kÃ¼m eti
ĠTunc eli
ĠÅŁ al
ĠÃĩocuÄŁ un
Ġetkiley ecek
is iyat
ĠA lem
ĠtaÅŁ larÄ±
ĠHar it
ĠkonuÅŁ ur
Ġkurum larÄ±nÄ±n
d eleri
ĠÃ§ek miÅŁ
ĠHastan e
ĠÃ§oÄŁ unun
ĠyÄ±ldÃ¶n Ã¼mÃ¼
ĠyakÄ±ÅŁ Ä±r
Ġy aya
ĠyÄ±l ki
Ġservis e
ĠtaÅŁÄ± dÄ±
ĠRenk li
Ġduy muÅŁ
Ġkurum a
ĠiliÅŁk iyi
ĠS osy
ĠAnayas anÄ±n
ĠEr gen
Ġmiktar Ä±nÄ±n
uÅŁ ak
ĠAllah u
ĠyarÄ±ÅŁ masÄ±
Ġtopr aÄŁÄ±
Ġsuik ast
ĠÃ¼zer ini
Ġman uel
Ġdu alar
ĠaÃ§Ä±k ladÄ±ÄŁÄ±
P A
c ada
Ġmar if
ĠUy gur
ĠK linik
ĠC id
ĠbasÄ±n cÄ±
Ġprot ez
ĠkÃ¶p Ã¼k
ĠMahkem esinde
Ä±l madan
ĠanlaÅŁ Ä±lmasÄ±
ĠbÄ±rak mÄ±ÅŁ
ĠP AR
ĠÃľy eleri
ĠO ran
emiz den
Ġsabah Ä±
ĠAl kol
Ġdin am
ĠY av
Ġmillet inin
ĠOy unda
Ġtan Ä±ÅŁtÄ±r
Ġyenilen ebilir
ĠdÃ¼ny asÄ±nÄ±
ĠKut lu
Ġdedik odu
ak s
ĠSm art
ĠÅŁah sen
ĠbÃ¶lÃ¼m Ã¼n
ĠB EL
ĠTh om
Ġenj eksiyon
Ġisim lerden
Ġdiz isinde
Ġilet iÅŁimi
ĠÃ¶ngÃ¶r Ã¼l
ĠaynÄ± dÄ±r
Ġan ormal
ĠHam di
ĠTan Ä±m
Ġnis an
ĠOd alarÄ±
ĠS Ã¶
m ark
ĠFet ullah
Ġokum ayÄ±
Ġd alÄ±ÅŁ
ĠdÃ¼ÅŁ me
ĠSev giler
ĠkÄ±s acasÄ±
ĠkarÅŁ Ä±y
Ġdur up
ĠT Ã¼p
h one
m iyoruz
Ġtraf iÄŁi
Ġhazir an
ĠTaraf Ä±ndan
Ġtamam lay
is im
Ġsec de
Ġsembol Ã¼
Ġsat Ä±m
ĠAl eyh
Ġy in
Ġhoc alar
ĠRus yaya
os it
Ġdir i
ĠÃ¼ret ken
Ġz av
Ġkons ol
Ġdom uz
ĠBaÅŁkan vekili
Ġtur k
em emesi
ĠSl ov
ĠHam za
ĠTÃľ Ä°K
Ġsorun lu
ĠhÃ¼kÃ¼m ler
ĠkulÃ¼b Ã¼n
h in
Ġbah ane
Ġhukuk un
ĠMev lana
ĠgÃ¶ b
ĠiÃ§eriÄŁ inde
Ġmotiv e
Ġberek et
ĠZ ayÄ±f
ĠSit emizde
r Ä±n
Ġhim ay
ĠÅŁu ur
Ġm Ä±ydÄ±
Ġgid iyorum
ĠKom it
Ġdis ip
ĠKÄ±lÄ±Ã§dar oÄŁlunun
ĠV est
ĠdÃ¶nem inden
Ġo g
Ġerk eÄŁi
ĠGeÃ§ iÅŁ
ĠEÄŀ Ä°T
Ã¼v ekk
ĠÃ§Ä±k tÄ±m
Ġop tik
Ġanlat tÄ±ÄŁÄ±
Ġedilm esinin
ĠaÅŁ amasÄ±
ĠPolitik alar
Ġc asus
Ġbilin mez
Ġmet n
ĠAmac Ä±mÄ±z
ĠfÄ±kr asÄ±nÄ±n
ĠkatÄ±lÄ±m cÄ±lar
ĠOrta okulu
ĠÅŁiÅŁ e
Ġal Ä±ÅŁtÄ±r
n ing
Ġhikay eleri
ĠbaÅŁ lÄ±yoruz
ĠyaÅŁ Ä±n
ist eki
ĠBirbir inden
ĠdÃ¼zenlem esi
Ġstandar d
Ġbak Ä±nca
ĠÄ°n s
Ġtan Ä±yor
ĠhazÄ±rlan Ä±r
ĠÃľrÃ¼n ler
ĠGÃ¼ven li
ĠyÃ¼z Ã¼nde
Ġyar al
ĠÃ¶l dÃ¼ÄŁÃ¼
ĠyÄ±ldÃ¶n Ã¼m
Ġor al
Ġsalon da
b eli
ĠD at
Ġik isini
Ġt ik
ĠgÃ¶tÃ¼r Ã¼r
Ġdem eden
Ġmal esef
Ġken te
k ap
l ali
ĠÃ§ocuk larla
ĠÃ§atÄ±ÅŁ malar
Ġek leme
Ġsebep leri
ĠÃĩin li
Ġin en
ĠTe Ã¢lÃ¢
Ġkup a
EL Ä°K
ĠÃ¶de meleri
ĠsaÄŁ lanmÄ±ÅŁ
ĠÄ°k lim
ĠÄ°Ã§er ik
ĠV ik
ĠMÄ±sÄ±r da
elik li
ĠH un
Ġister ler
imiz dir
ĠyÃ¼rÃ¼y erek
ic iliÄŁi
ĠyumuÅŁ at
ĠgÃ¼zel ce
l Ä±yÄ±
ag a
isi dir
ĠMehmet Ã§
ĠOsman lÄ±nÄ±n
ĠÃ ĥ
Ġkapat Ä±p
Ġl iteratÃ¼r
Ġsat Ä±l
Ã¼nÃ¼z Ã¼n
liliÄŁ ine
Ġsistem atik
Ġter temiz
Ġv eteriner
dÄ±r lar
ĠBildiÄŁ iniz
ĠS aman
ĠgeliÅŁ mesine
ĠÃ§eyr eÄŁinde
Ġsen ede
Ã¼v ey
ĠTes pit
Ġcinsel lik
Ġs Ã¼
ey l
Ġmekt ub
ĠBel irli
ĠI C
ĠÃ¶ÄŁren en
Ġhaf tadÄ±r
ĠbaÄŁlam Ä±nda
ĠarkadaÅŁ Ä±nÄ±n
ĠPan el
ĠbazÄ± larÄ±nÄ±n
Ġdah ili
ĠaÄŁ abey
e o
ĠP az
Ġiz lenen
ad amÄ±
ĠKol tuk
Ġavantaj larÄ±
Ġaday larÄ±nÄ±n
ĠhazÄ±rlÄ±k larÄ±nÄ±
raf t
Ġay arÄ±
Ġgit meden
Ġs olu
ĠH AY
ĠAyv alÄ±k
ĠmÃ¼z iÄŁin
ĠsÃ¼r enin
ĠyaÅŁam ayÄ±
ĠSaÄŁ lam
ĠKÄ±rk lar
Ġan Ä±sÄ±na
ebilir sin
ĠÃ¶z eti
Ġkampany alarÄ±
iler imize
ĠÄ° TÃľ
ĠE ce
ĠS taj
ĠkÄ±ÅŁ kÄ±r
Ġd ediÄŁini
ĠiÅŁ bu
Ġak sak
Ġim tihan
ĠAv ras
at Ä±nÄ±n
Ġgergin lik
ĠDur umu
ĠMahkem esinin
Ġprogram lama
Ġp es
ĠsaÃ§ larÄ±
madÄ±ÄŁ Ä±m
Ġpen altÄ±
Ġtah lil
Ġfiz y
Ġedilm eye
Ġkalk tÄ±
ĠAyk ut
ot ok
ĠYÃ¼ksek okulu
ĠÃ¶l mÃ¼ÅŁ
Ġdav alÄ±
Ġindir imi
Ġn af
Ġedil eceÄŁi
K B
Ġgen cin
ĠdeÄŁiÅŁim e
ĠSov yetler
ĠD Ã¶k
ĠÃĩank Ä±rÄ±
ĠH iz
Ġon ca
l Ä±m
ĠMuh al
ĠAn ket
ĠD enk
ĠÃ§ocuk larÄ±mÄ±z
ĠEndÃ¼str iyel
Ġes rar
ĠvatandaÅŁ larÄ±mÄ±z
ĠG etir
ĠM ih
Ġrapor larÄ±
ĠilÃ§ esindeki
Ġnumar asÄ±nÄ±
ĠhÃ¼r met
ĠbaÅŁlan mÄ±ÅŁtÄ±r
Ġyur d
ĠD osy
ĠyapÄ±l malÄ±
ĠgÃ¼c Ã¼n
med iler
K UR
ĠÃ§ab al
Ġbul masÄ±
Ġr ent
luk tan
Ġolay dan
ĠOk yan
ĠinÅŁaat Ä±
ĠeÄŁitim li
ĠiÃ§ ers
ĠAnn eler
Ġlen f
ĠBil gisi
ĠboÅŁ una
diy se
ĠgÃ¼n lerin
ĠJ et
Ġsal t
ĠS uy
ĠF e
Ä°Y ET
iyet inde
ĠkarÅŁÄ±laÅŁ tÄ±ÄŁÄ±
ĠyÃ¼r eÄŁ
sin deki
asyon el
Ġsun muÅŁ
Ġkod larÄ±
g Ã¼nÃ¼
diÄŁ imi
Ġboyut larÄ±
Ġengel leyen
Ġnokt ayÄ±
ĠÃ¶n leyici
Ġfa izi
ĠKemal in
ĠyaÅŁÄ±nday ken
Ġist asyonu
ĠÃĩ erkez
ĠC a
ĠdeÄŁiÅŁ mez
Ġiy iydi
ĠF Ä±ndÄ±k
Ġteknoloj iye
iyor sanÄ±z
Ġfilm e
Ġvol eybol
erk es
Ġel leri
Ġmetr elik
eyt ing
Ġart tÄ±kÃ§a
Ġt im
ĠS ER
ĠBin lerce
Ġdeng esini
ĠÄ°k iz
Ġkat an
ĠKur tar
Ġj el
ĠbaÅŁlangÄ±Ã§ ta
ĠAyakk abÄ±
Ġend Ã¼stri
ĠEs ra
Ġol g
siz liÄŁi
ĠN Ã¶
ĠOÄŁ lum
Ġil la
Ġat tÄ±m
Ġtezah Ã¼r
ĠdeÄŁiÅŁ mesi
Ġsap t
Ġuc unda
ĠS AY
Ġ ÄŁ
ĠPD F
ĠyÄ±l Ä±ndaki
ĠNormal de
ĠM Ã¼min
Ġhast alara
Ġkok ulu
ĠsÄ±r rÄ±
ĠiliÅŁk inin
Ġhuzur u
Ġkim liÄŁini
Ġy outube
Ġziyaret inde
ĠDÃ¼zen leme
ĠMez un
Ġsiyas eti
ip er
Ġkir eÃ§
Ġkurab iye
ĠSes li
ĠyargÄ±l ama
ĠÃ¶ldÃ¼r Ã¼ldÃ¼
ĠhazÄ±r ladÄ±
ĠD edi
ĠSÃ¼r Ã¼cÃ¼
lem eyi
ĠY asa
ĠDet aylÄ±
ĠTip i
Ġar adÄ±m
Ġar Ä±tma
acaÄŁ Ä±nÄ±za
ĠÃ¶yk Ã¼sÃ¼
ĠMes cidi
Ġes en
Ġbilg ilerine
ĠÅŁiir ler
ĠMar s
ĠbuluÅŁ acak
ĠG iyim
Ġev imde
Ġtem bel
R S
ĠÃ¶ÄŁ leden
g anÄ±n
Ġmutab akat
ĠbirÅŁey ler
Ġizl edim
Ġa gr
rag on
Ġtab anÄ±
Ġrahat lÄ±ÄŁÄ±
Ġfaydalan mak
ĠBon us
abil iyorum
ĠPar Ã§
ros k
Ġtem alÄ±
ĠayÄ±r mak
ĠhÃ¼cr eler
Ġyan ma
Ġhisset tim
ĠkatkÄ± larÄ±
Ġizley ici
c Ä±lÄ±ÄŁÄ±nÄ±
at er
is er
ĠT il
Ġuygul ayÄ±n
l iyim
ad o
Ġgazetec ilerin
Ġort asÄ±na
ĠUnut mayÄ±n
ĠR oy
Ġkat alog
Ġn ev
ĠSur vivor
ĠÅŁ ant
Ġn etice
ĠgeÃ§ iÅŁi
ob a
Ġmah sus
ĠparÃ§ acÄ±k
k Ã¶
Ġkilometr elik
ĠO lum
Ġkomp le
ĠAn ma
Ġpazar lÄ±k
Ġaltyap Ä±sÄ±
ĠahlÃ¢ k
oy ol
oÄŁl unu
Ġbulun maz
Ġgider ler
Ġmuhabir ine
Ġhayat Ä±nÄ±zda
Ġmanz arasÄ±
ĠBank acÄ±lÄ±k
ĠkÄ±skan Ã§
ĠuÄŁraÅŁ an
Ġsebep lerden
g enin
H P
Ġbir isinin
ĠmÃ¼ÅŁter inin
ĠKal dÄ±r
ĠyaÅŁan acak
Ġmimar lÄ±k
ĠÃ§ek ecek
b or
Ġbilm eden
ĠÅŁirket e
Ġsan tr
ĠMart in
Ġad liy
Ġbayram Ä±
ĠEÄŀÄ°T Ä°M
Ġsayg Ä±yla
ĠDis iplin
Ġser gisi
p le
ĠgeÃ§ tim
ĠHamil elik
oÄŁ ullarÄ±
ĠbÃ¼yÃ¼k el
madÄ±k larÄ±
Ġh ib
Ġc et
eceÄŁ inizi
ĠBu d
Ġolm alÄ±sÄ±nÄ±z
Ġettir mek
ĠKes kin
ĠsÃ¼r erken
Ġhastal Ä±ÄŁÄ±nÄ±n
Ġstat Ã¼
Ã¼yor lar
ĠÅŀ ans
ĠdoÄŁ ran
ĠdÃ¼zenlem eleri
ed ilen
ĠPol on
ĠP adiÅŁah
tÄ±ÄŁ Ä±mda
Ġkend imiz
Ġkan unu
azÄ± t
Ġtah vil
ĠSe dat
iÅŁ an
ĠÅŁah sÄ±n
Ä±y Ä±l
ĠU B
Ġy eg
Ġaleyh issel
ĠkullanÄ±l amaz
Ġdoldur ul
Ġhav uÃ§
l ow
ĠR AM
Ġolacak lar
c on
ĠEr gÃ¼n
u de
ĠkarÅŁÄ±laÅŁ Ä±lan
am alarÄ±
ob et
dÃ¼ ler
ĠÃ§Ä±kar arak
lan Ä±rken
Ġl uk
ak tadÄ±r
Ġh ekt
Ġtas fiye
Ġtrak tÃ¶r
ĠÄ±s lat
Ġkullan Ä±cÄ±sÄ±
Ġhav adan
ĠAn Ä±
ĠdaÄŁÄ±t Ä±mÄ±
KE Z
ĠkatÄ±lÄ±mcÄ± larÄ±n
ĠyÄ±l an
ĠGÃ¶nÃ¼l lÃ¼
u al
Ġoyun larÄ±nÄ±
Ġsistem lerinde
ĠsÄ±z dÄ±r
g imiz
ĠHar un
ĠkÄ±z larÄ±n
Ġvaz iyette
ĠSa id
Ġbil an
Ġkapat ma
Ġtermin al
ĠFizik sel
Ġkil oda
ĠÃ§evr ili
ĠM elik
Ġr ez
ĠSur esi
ĠMer ve
ĠDeÄŁ iÅŁtir
ĠHÃ¼km Ã¼nde
ĠGol d
Ġyal var
ĠulaÅŁ arak
Ġeylem leri
Ġtut tuÄŁu
ay abilirsiniz
Ġfutbolcu lar
ĠaÅŁam asÄ±na
ĠC omp
Ġet men
Ġtab los
ĠaÅŁ Ä±n
ĠÃ¶ÄŁretmen lik
ĠbaÄŁ daÅŁ
Ġvarol uÅŁ
ĠLÃ¼b nan
ĠgerÃ§ekleÅŁ tiÄŁi
ĠalÄ±ÅŁveriÅŁ i
ĠdÃ¼ÅŁÃ¼n mÃ¼ÅŁ
lek si
ĠeÄŁ r
kon usu
ĠoluÅŁtur acak
ĠÃ§oÄŁun luk
ĠkarÄ±ÅŁtÄ±r arak
Ġyap abiliyor
Ġgir me
ĠSer gi
ĠiliÅŁk ilerinin
Ġkat ta
ĠsanatÃ§Ä± lar
b oy
ÅŁ Ä±k
at om
Ġver eceÄŁini
Ġkur up
ĠN eb
Ġard Ä±na
Ġbak acak
ĠP eÅŁ
Ġkomb ine
Ġzul m
ĠÅŁamp uan
ĠY es
ĠL azer
in er
m Ä±yorlar
ĠOn ay
Ġramaz an
Ġdemir yolu
Ġbur alarda
ĠÃ¶zgÃ¼r ce
Ġsen et
Ġtemel li
ey ken
Ġbelir sizlik
Ġep ost
Ġamac a
ĠD eli
Ġtep e
bur nu
is s
tad ir
ĠFestival inde
ul um
Ġbank asÄ±
ĠMek sika
ĠGeliÅŁ miÅŁ
Ġgel me
Ġpar asal
ĠgÃ¶z Ã¼yle
Ġuyg ular
ĠOy n
Ġir ad
ĠayrÄ±l mak
Ġfil tre
Ġkes iÅŁ
ĠyÃ¶netim indeki
ĠyÃ¼ksek lik
ĠD EN
Ġak abinde
Ġoy sa
Ġyans Ä±yan
ĠUy sal
ĠM Ã¼c
ĠdeÄŁer lerine
Ġcin sinden
F E
ĠGÃ¼r eÅŁ
b esi
ĠkÃ¶y e
ĠSÄ±r a
ĠEnd onez
eb ildiÄŁ
Ġr ezil
Ġdestek liyor
an ik
ĠB ran
ĠanlaÅŁ Ä±lmaktadÄ±r
ab Ä±na
Ġmilyon dan
Ġasker lerin
ĠHaber leÅŁme
ĠDÃ¶n emi
Ġbelir ledi
Ġg af
ĠE C
Ġyenilik ler
ĠKad Ä±nÄ±n
ĠyÃ¼rÃ¼t mek
ĠVal ilik
ĠaÄŁ ust
ĠkonuÅŁ urken
Ġart acak
Ġkal mamÄ±ÅŁ
ĠA san
Ġkut luyorum
ĠI B
Ġduy duÄŁum
ĠYÄ±l Ä±nda
Ġnamaz Ä±nÄ±
Ġok ÅŁ
ĠanlaÅŁ Ä±lÄ±yor
ĠhazÄ±r lama
Ġsor usunun
Ġetk isinin
y ant
Ġkelim esinin
ĠUy ku
Ġbas Ä±lÄ±
ĠYÄ±ldÄ±r Ä±mÄ±n
Ġtuz ak
ĠoluÅŁ masÄ±na
Ġizley erek
ĠgeÃ§ mesine
ĠAnadol uya
ĠR af
ĠsÄ±y r
ĠtaÅŁÄ±y Ä±cÄ±
m Ä±s
ĠTar Ä±k
im dir
ĠkonuÅŁtu ÄŁ
ĠedildiÄŁ inde
Ġsay Ä±labilir
Ġon larda
Ġduy duklarÄ±
ab e
ĠdeÄŁiÅŁtir erek
Ġmis ali
ĠÃĩÄ±k ar
Ġsit enizin
Ġbul amadÄ±m
ĠÃ¼lk elerinden
Ġhedef lerine
ti ci
m iye
ĠhazÄ±r ladÄ±ÄŁÄ±mÄ±z
ĠrÃ¼ÅŁ vet
Ġol im
lam alÄ±
Ġak aryakÄ±t
Ġyapar Ä±z
Ġkay Ä±n
Ġ lere
Ġson da
opar lÃ¶r
ĠÅŁ ut
ĠK ayÄ±p
ĠBayb urt
ĠKend inizi
Ġl ob
omet ri
eh li
Ġiz leri
es em
Ġder n
ĠkÄ±z a
ol f
Ġek osistem
ĠÃ¶mr Ã¼nÃ¼
ĠgÃ¼ven de
Ġfil ozof
ĠbaÄŁlantÄ± larÄ±
Ġb Ã¶r
Ġy uf
ĠS adÄ±k
Ġisim lendir
ĠyanÄ± tÄ±
ĠbaÄŁ lar
ĠdÃ¼ÅŁÃ¼n meden
dÃ¼ÄŁ Ã¼m
Ġs az
ar ch
Ġyay Ä±nda
Ġkadro muz
Ġiddi anam
Ġtam iri
ĠgeÃ§ir me
Ġzengin leÅŁtir
ĠEk mek
Ġtek el
Ġklav y
Ä±l Ä±ÅŁÄ±
Ġtem enn
Ã§ er
ĠC R
Ġetm emiÅŁ
ĠBek len
ĠBaÅŁsav cÄ±lÄ±ÄŁ
Ġbir iyim
ĠeÅŁ cinsel
ĠÅŁÃ¶ len
Ġgetir mesi
Ġedecek lerini
ĠzayÄ±f lama
Ġal etleri
Ġizley in
ĠKam il
spor un
Ġtalim atÄ±
eÃ§h iz
ĠDÃ¶v iz
Ġkaynak larÄ±nÄ±
ĠÃ§alÄ±ÅŁ Ä±lan
Ġf ener
ĠfarkÄ±n dal
Ġcin si
ĠÃ§oÄŁ unu
bey li
ĠÃĸÄŁretmen ler
Ġturist lerin
ĠgÃ¶ster diÄŁini
Ġkahram anÄ±
Ġek ranÄ±n
ĠI m
ĠarttÄ±r Ä±r
Ġduy duÄŁumuz
Ġyasak tÄ±r
ĠFeth iye
Ġher gÃ¼n
ĠKon yaspor
ĠT oh
ĠilÃ§ enin
ĠtaÅŁÄ±m acÄ±lÄ±ÄŁÄ±
Ġkadro ya
Ġrisk leri
Ġaf iÅŁ
ĠEx p
Ġf e
ĠKÃ¶ p
Ġtemiz lemek
Ã Ĥ
Ġgelir leri
ĠF ed
ĠTan er
Ġr end
Ġkullan Ä±yoruz
ĠV eteriner
Ġtey z
ĠsoruÅŁtur masÄ±
ĠB UR
Ġkar ayol
ĠÃ¼niversit esi
ĠoluÅŁtur abilirsiniz
Ġayr Ä±ÅŁtÄ±r
ĠyeryÃ¼z Ã¼nde
ĠÃ¼stÃ¼n lÃ¼ÄŁÃ¼
Ġc ocuk
ĠAntal yaspor
ĠKer em
ĠÅŁart lara
Ġmay danoz
Ġortak lÄ±ÄŁÄ±
ĠrahatsÄ±z lÄ±ÄŁÄ±
ĠÃ¶ÄŁren miÅŁ
Ġkor uyor
Ġd own
ĠK alÄ±
ev in
Ġkavram larÄ±
ĠÅŀ afak
Ġbar Ä±ÅŁÄ±
ĠOrgan ik
ĠFin land
ĠMed ine
Ġaral Ä±ÄŁÄ±
ĠTol ga
Ġdeniz in
Ġvar Ä±ÅŁ
ĠyapÄ±l Ä±p
ĠtÃ¼ket iciler
ĠMal zeme
k uÅŁ
ĠAkÄ±n cÄ±
Ġesas larÄ±
Ġgel mesiyle
ĠyaÅŁ tan
ĠEf es
ĠTer im
ĠgÃ¶ster ilmiÅŁtir
Ġhusu sta
a u
Ġgerekir ken
ĠtÃ¼r Ã¼ne
c ess
Ġtest ler
s ah
Ġkarar la
ĠPet er
Ġ Ã¼nÃ¼
ĠgeÃ§miÅŁ ten
er cin
b eÅŁ
Ġkullan Ä±p
ĠayrÄ± larak
ĠÃĸZ EL
ĠgiriÅŁim cilik
Ġev cil
ĠÃ§Ä±rp Ä±n
Ġuygulan maktadÄ±r
ĠiÅŁlet menin
y r
ĠyolculuÄŁ a
Ã§ Ä±lÄ±ÄŁÄ±
ĠG Ã¼z
Ġen tel
ĠAbdur rahman
uy o
ĠC lo
Ġkaf asÄ±nÄ±
Ġsamim iyet
Ġlezz eti
ĠÃ§ alar
ĠGir ne
ĠfÄ±k ra
Ġv eli
Ġmuk av
ĠhazÄ±r da
Ġoyn a
Ġail eye
madÄ±ÄŁ Ä±nÄ±z
Ġkam usal
ĠKend imi
ĠÃ¼niversit elerin
Ġay Ä±k
Ġbelir leme
Ġod un
ide m
ĠAlt un
Ġdir enc
w a
h ir
ĠiÃ§er isinden
ĠmÃ¼hendis liÄŁi
Ġsit emize
Ġdenk lem
Ġlav ab
Ġd antel
ĠyatÄ±rÄ±m larÄ±n
ĠyÃ¼kÃ¼mlÃ¼ dÃ¼r
b Ã¼l
Ġf laÅŁ
ĠiÅŁ inde
ĠCez ay
ĠÃ¼ret meye
Ġbek leyin
mekt eydi
Ġkarakter ini
ĠÃ§ab alarÄ±
ĠK lÄ±
ĠÃ¶ÄŁ len
Ġtakv iye
Ġayr Ä±mÄ±
Ġter api
iy es
Ġyap sÄ±n
Ġ qu
ĠS Ã¶n
iy miÅŁ
Ġtan Ä±r
r aya
Ġgerek lilik
ĠHay atÄ±n
ĠÃ¼cret in
ĠyayÄ±n lanacak
Ġbl oÄŁ
Ġyol larda
ak il
Ġkas Ä±m
ĠKap lan
Ġail esini
ĠoluÅŁtur maya
ĠHu a
ĠBaÅŁk ons
Ġyarat ma
ĠA Ãĩ
Ä±l masÄ±yla
Ġf Ä±s
Ġt onu
Ġer dem
ĠKurum larÄ±
Ġver ebilmek
ĠÅŀer ef
ĠVol eybol
Ġ Ä±lÄ±m
ĠdeÄŁiÅŁik liÄŁe
ĠBer at
ĠHav uz
Ġnam us
Ġdep osu
ek Ã¶y
eri de
Ġyer dir
ĠÃ¼Ã§ gen
ĠKim yasal
Ġvit es
ĠaraÃ§ larÄ±nÄ±
ĠÅŀ ir
ĠyaÅŁan dÄ±ÄŁÄ±nÄ±
h ol
ĠulaÅŁ ma
ĠKork maz
t ayÄ±n
ĠÄ°lk okulu
ĠÃ¼niversit enin
Ġd Ã¶l
ĠMÃ¼dÃ¼rlÃ¼ÄŁ Ã¼nden
Ġmasraf larÄ±
ĠbÃ¶yl edir
mam Ä±
Ġkir liliÄŁi
ac ar
ĠneÅŁ eli
ĠP ot
Ġuy mayan
Ġev inize
ĠH Ã¢
Ġorgan larÄ±
ĠJo se
lam enter
ĠFilm i
Ġnisp eten
Ġkur ar
Ġmerh abalar
Ġinan Ä±yor
ĠkÄ±sÄ±m larÄ±
Ġkorun mak
ĠartÄ±r an
Ġfikr ini
Ġrapor unda
Ġtas avvuf
ĠbÃ¼yÃ¼k ÅŁehir
Ġhissede cek
ĠtÃ¼m Ã¼ne
Ġyap mayan
Ġbecer ilerini
et ooth
ĠeÄŁlenc eler
ĠkadÄ±n Ä±m
Ġkorun ma
ĠsektÃ¶r Ã¼ndeki
Ġdeneyim ini
ĠGÃ¶ÄŁ Ã¼s
Ġister dim
ĠSavaÅŁ Ä±nda
Ã¼ÄŁ e
ĠbroÅŁ Ã¼r
Ġtop luluÄŁu
ceÄŁ ini
Ġkrit erler
ĠArj antin
ĠiÃ§ lerinde
ĠiÅŁlem lerinizi
f urt
Ġkadros unda
ĠÅŁÃ¶ h
Ġkesi p
ĠN Ã¼kleer
Ġsun mayÄ±
ĠÃ¶den ecek
uk u
ĠN ic
Ġbirbir imize
ĠdeÄŁil ler
Ġistem iyoruz
Ġdes em
es iydi
Ãľ M
ĠBil al
j ik
ĠhatÄ±r a
Ġn iz
ĠhazÄ±rlÄ±k larÄ±
Ġzirv eye
ĠG nin
Ġdost um
Ġsunul muÅŁtur
Ġokun an
Ġsey irler
Ġdur gun
ĠMER KEZ
ĠN uh
Ġmark asÄ±nÄ±n
ĠMuh tem
mey ip
ĠeÅŁ deÄŁer
y ali
as yum
ĠKad ar
ĠmÃ¼r ekk
ĠÃ¶n ler
ĠÃ§eÅŁit liliÄŁi
ĠgÃ¶rÃ¼ÅŁ Ã¼nÃ¼
ĠÃ¼r eme
ĠgÃ¶nder erek
ĠÃ§aÄŁ Ä±n
ĠkÃ¢ fir
Ġgayret i
Ġmaliyet li
Ġbeklent ilerini
ĠmaÃ§ Ä±nÄ±n
Ġbil imi
Ġser Ã¼ven
Ġy Ä±ÄŁ
Ġduy duÄŁunu
ĠArda han
ĠK in
ĠNerede yse
Ġk asÄ±l
ĠBir imi
ĠCadde sinde
ĠV ER
Ġyatak ta
Ġindir ip
ĠHareket i
Ġdo larÄ±n
i dat
Ġal abileceÄŁiniz
iz ma
Ġkalit eyi
ĠyaÅŁ adÄ±ÄŁ
ĠÃ§eÅŁit lilik
ĠC de
Ġtabl osu
ĠKap adok
ĠMan chester
s Ã¶z
ĠyatÄ±rÄ±m cÄ±lar
Ä±y Ä±k
ĠgÃ¶rÃ¼ÅŁ tÃ¼
Ġetm ediÄŁi
Ġibr az
ig n
Ġsiyas etin
D EM
em on
ĠÃ§Ä±kar sa
Ġpart iye
ĠaÃ§ maya
Ġmuht elif
Ġab lam
Ġyenil g
ĠSigort asÄ±
Ġfrag man
Ġincelen diÄŁinde
ĠgÃ¶nder ir
ĠYap rak
ĠreÃ§ et
ih i
ĠÃĸ k
ĠÄ°st erseniz
ĠÃ¶nc eleri
Ġis hal
ĠR ay
Ġsit elerinden
ĠiÅŁbir lik
ĠyaÅŁ larÄ±nda
Ġgas p
ĠyÃ¼rÃ¼t me
oÄŁ ul
Ġyaz Ä±ya
Ġsit elerin
ĠgÃ¶l ge
ĠbaÅŁ Ã¶rt
Ġpr at
Ġkurum larÄ±nda
Ġgeril edi
Ġfor vet
Ġgide b
ĠÃľmran iye
Ġgen c
ĠYer leÅŁ
m Ä±yordu
Ġkitab Ä±nÄ±n
ez e
Ġkom Ã¼nist
h un
ĠS M
ĠiÅŁ inizi
ĠAt let
ĠSar aÃ§
lÄ±ÄŁ Ä±m
Ġhav acÄ±lÄ±k
ĠAn asayfa
Ġy udum
ik lik
ĠtaÅŁÄ±y acak
ĠeÅŁy alarÄ±n
Ġzehir li
may Ä±z
Ġmodel in
ĠProgram Ä±n
ĠtaÅŁ lar
Ġhaft asÄ±
Ġtamam Ä±na
Ġtelefon dan
Ġyaban c
ĠAf et
ey ecektir
ĠÄ° HA
ĠDanÄ±ÅŁ ma
Ġb ib
Ä±l ama
Ġger eÄŁini
Ġz at
Ä±l abilecek
ĠTÃ¼rkÃ§ eye
ĠtiÅŁ Ã¶rt
ĠdeÄŁerlendir meye
m o
Ġatan dÄ±
Ġfant astik
Ġkat mak
Ġsipar iÅŁi
Ġbul unup
Ġvermek ten
ĠB ec
ĠY AR
Ġuz er
ĠW est
ĠD P
ĠÃ§alÄ±ÅŁ kan
ĠYÄ±lmaz Ä±n
me ga
ĠMeydan Ä±
k apÄ±
ĠbaÅŁ Ä±ndaki
D AN
ĠS ult
ĠMuham met
ĠMerkez ine
l Ã¼nÃ¼n
ĠkÄ±y Ä±sÄ±nda
Ġsun umu
ĠN E
ĠPart ili
Ġtarih lerde
ĠyarÄ±ÅŁ maya
ĠTr en
ĠT on
ĠMarmar is
h op
ĠoluÅŁ tuÄŁu
ĠmÃ¼ fet
ĠRabb imiz
ĠolduÄŁ un
duÄŁunuz da
Ġuyk usuz
ĠdolaÅŁ an
ĠalÄ±n tÄ±
Ġbuy uk
Ã¼m cek
ĠLis esinde
r eden
ĠsÃ¼t un
Ġsendro mu
ĠÃ§Ä±kar mÄ±ÅŁ
ĠÃ¶n yar
ĠÄ°mparator luÄŁu
ans Ä±
Ġkarakter ler
Ġderec elendir
Ġbor sa
Ġbulun abilirsiniz
Ġlist elen
ĠÃ¶dÃ¼l lÃ¼
Ġdekor asyonu
ĠFaz Ä±l
Ġb asÄ±
Ġsan iy
Ġ Ã¼t
Ġunut tur
ĠC ehenn
ĠÅŀimdi den
ab Ä±nÄ±
ĠhiÃ§bir i
Ġistek lerini
Ġol a
ĠÃ¶rgÃ¼t lerinin
Ġmak ro
Ġverilm elidir
ĠgeÃ§ meye
ĠsaÄŁ landÄ±
Ġadap te
ĠyapÄ±l dÄ±ktan
ĠgeÃ§ir iyor
ĠCep h
Ġar ap
ĠEmek lilik
ĠarkadaÅŁ larÄ±yla
Ġist ersen
Ġbilgisay ara
ĠgÃ¶ bek
ĠkÃ¶f te
Ġis min
ĠMed in
eceÄŁ imizi
Ġter tip
ĠyanÄ±t Ä±nÄ±
ĠtÃ¼f ek
ĠO N
ĠdÃ¶nÃ¼ÅŁ Ã¼r
un c
Ġkes en
Ġyer le
Ġtoplan masÄ±
Ġfel Ã§
Ġsekret er
Ġbir a
ĠT oz
Ġazalt Ä±lmasÄ±
ĠNec ip
ed isi
ĠZ e
ro v
Ġkar lÄ±
ĠhemÅŁ er
Ġver meniz
Ġpozisyon u
ĠYunan istanÄ±n
ĠgeÃ§ir meye
Ġsat Ä±lÄ±yor
ĠiÅŁyer inde
ĠmÃ¼ÅŁ rik
Ġ larda
ĠtasarÄ±m cÄ±
ĠaraÃ§ la
Ġor kest
ĠEr bak
ĠM adem
ĠÃ¶z ver
ĠK n
ilm eleri
ĠPsik olojik
ab ildiÄŁini
Ġyar ayan
ĠyÃ¶netim e
ĠKar adaÄŁ
Ġihtiyac Ä±nÄ±n
ĠÃĸdÃ¼l leri
adam larÄ±
ĠasÄ±l lÄ±
Ġev ini
meler inde
ĠyÃ¶netmen liÄŁini
Ġal Ä±c
ĠStad Ä±nda
m uyorum
Ä±l acaÄŁÄ±nÄ±
Ġmek anlar
Ġolabilir di
madÄ±ÄŁ Ä±ndan
l n
ĠgÃ¶ster ilir
Ġlek e
ĠG R
ĠY asin
Ġalerj ik
Ġbulunuyor du
ĠStr e
ĠÄ°r landa
Ġokul lara
Ġman ken
Ġyetenek leri
malar la
ĠgÃ¼ney inde
Ġark asÄ±
ĠT ac
ĠKan ad
Ġbir araya
ĠaraÅŁtÄ±r malarÄ±
Ġistiyor dum
ĠD osya
ĠSorum luluk
ĠBÃ¼yÃ¼kel Ã§isi
ĠEk sik
ĠÃ§il ingir
ĠSertif ik
Ġkamer alÄ±
ĠLe on
ĠSib el
ĠE leÅŁtir
Ġfrag manÄ±
b l
Ġuygun luk
ĠgeleceÄŁ ine
t alar
Ġmas ke
ĠTaÅŁ Ä±ma
ĠYet iÅŁtir
Ġtopr aÄŁÄ±n
Ġkalit esinin
Ġelbis eler
ĠYen ik
ĠFIF A
ĠD den
ĠsÃ¼r erek
Ġkons olos
ĠÃ§ift lik
Ġmuv af
Ġasker in
len diÄŁini
Ġhaber lerin
Ġenerj iyi
ĠÃ§arp tÄ±
Ġat Ä±lmasÄ±
ĠgiriÅŁim inin
Ġal manÄ±n
Ġpan eli
ĠSQ L
ĠTuz la
re e
l s
ĠkoÅŁul larÄ±nÄ±
ĠeÄŁil imi
ĠaÄŁrÄ± larÄ±
ĠH Ã¼r
Ġkapat Ä±n
ĠTah min
ĠiliÅŁkiler de
ĠC av
ib in
ĠI sÄ±
ĠyapÄ±yor sunuz
Ġs ilikon
ĠAralÄ±k ta
Ġres imde
Ġr ic
AL AR
ĠR ahmet
ĠdeÄŁerlendir ilir
ĠuÃ§ ur
Ġac Ä±k
Ġkurs larÄ±
as inin
ĠBÃ¼r o
Ġm ama
ecek sin
Ġrast gele
Ġplatform da
leÅŁ ti
ĠAn tep
ĠKup asÄ±nda
ĠF lash
Ġkaz asÄ±nda
ĠfÄ±r tÄ±na
rol ik
ĠgÃ¼c Ã¼yle
Ġyitir di
uv er
ĠHayÄ±r lÄ±
Ġistem ektedir
Ġmerkez lerinden
ĠGre en
Ġh ile
tik Ã§e
ĠM aliyet
Ġf orex
aÅŁ ma
ĠÃ¼lk esine
ĠKan d
Ġindir ebilirsiniz
t Ä±lÄ±
ĠÅŀubat ta
ĠZ en
Ġneden ler
ĠgÃ¶rev liler
Ġisten di
Ġman ada
Ġgev ÅŁ
A Ãĩ
Ġlisans lÄ±
Ġuygulam alarÄ±nÄ±
alan masÄ±
ĠBil ge
ĠgÃ¶tÃ¼r en
Ã¢ met
Ġhalk Ä±nÄ±
Ġokun masÄ±
Ġger isinde
ĠÃ§Ä±kar larÄ±
ĠbaÄŁ lÄ±lÄ±k
b Ä±
Ġdiy al
ĠsÃ¼n ger
ic an
ov anÄ±n
ĠÄ°zmir e
ĠiÃ§ imde
ĠAmerik aya
ih azÄ±rda
ĠgÃ¶rÃ¼l meye
Ã¼n g
as lan
ĠyaÅŁam Ä±na
Ġsayf asÄ±ndan
ĠfÄ±r Ã§a
ĠBor n
ĠMete oroloji
Ġl Ã¼z
ok al
Ġrakam larÄ±
ĠdeÄŁiÅŁtir ildi
ĠyatÄ±rÄ±mcÄ± larÄ±n
di p
ĠA Ä°H
ĠgÃ¶nÃ¼l den
ĠKole j
ĠdÃ¶n erek
Ġist ediler
Ġak Ä±mÄ±
Ġkuvvet leri
ĠTah ir
ĠsÃ¼r eler
lu lar
ĠHÃ¼kÃ¼m etin
Ġyaz lÄ±k
AL I
ĠbÃ¼ny esindeki
Ġp i
ĠGiz lilik
Ġpat layÄ±cÄ±
ĠÃ¶lÃ¼m cÃ¼l
at it
ĠO z
ĠbaÄŁ lanan
Ġbay aÄŁÄ±
Ġdestek lenen
Ġel ler
ĠKur Ã¢nÄ±
d m
Ġtoplant Ä±sÄ±na
ĠiÅŁlem ine
unuz dan
ĠY o
ĠalÄ±n maktadÄ±r
Ġayr Ä±lmasÄ±
Ġisten iyor
Ġpark Ä±
Ġen stit
luk lar
ĠYurt dÄ±ÅŁ
Ġtal ip
ĠaÄŁaÃ§ larÄ±
ĠS ayÄ±s
ĠÄ°tal yada
Ġdevr al
Ġsistem li
iÄŁ im
ĠilÃ§ elerinde
ĠStu di
ĠBart Ä±n
ĠÃĩ oÄŁun
l Ä±yÄ±m
Ġp e
ĠT it
ĠMuhammed in
ĠB eÄŁen
ĠedeceÄŁ iniz
ĠalmÄ±ÅŁ tÄ±m
ĠkÄ±rÄ±k lÄ±ÄŁÄ±
Ġy un
ĠHizmet i
ĠyakÄ±n larÄ±na
el em
Ġmu dur
ĠM im
ĠL as
ĠgÃ¶rÃ¼ÅŁ mede
Ġtutar lÄ±
Ġsporcu lar
ĠB ostan
Ġres imli
ĠYarÄ±ÅŁ masÄ±
Ġv ekili
ĠH ap
ĠY edek
lamÄ±ÅŁ tÄ±
Ġann eb
ilm iyor
ĠÃ¶ÄŁren ir
ĠYurt dÄ±ÅŁÄ±
Ġp Ã¼f
ĠJ ava
Ġtaraf tarÄ±
ĠÃĩ erÃ§ev
ĠsonuÃ§ larÄ±n
Ġolmay acaÄŁÄ±
z Ä±m
an ce
Ġf ah
Ġsent ez
ĠAl inin
ĠiÃ§er iye
ĠraÄŁ bet
Ġekran larÄ±nda
Ġkategor i
ĠHat t
Ġyap t
ĠÃ¶ g
ĠÅŁekl ine
Ġedin miÅŁ
ĠHac et
ĠEg z
Ġdin sel
ĠÃ¼st Ã¼nden
Ġtamam layarak
Ġzar ara
Ġs imdi
ĠÃ§alÄ±ÅŁ tÄ±ÄŁÄ±m
Ġ larÄ±n
ĠartÄ±r arak
ĠEst etik
ĠÃ¼z Ã¼cÃ¼
alan dÄ±
ĠfÄ±kr asÄ±nda
Ġkonse p
ĠD Ã¶r
Ġetk iye
mam asÄ±nÄ±
Ġmuh ar
Ġhayat Ä±mÄ±zda
ĠMel ih
ĠH um
ĠP omp
tÄ±ÄŁ Ä±n
ĠgÃ¶nder ilmesi
Ġedilir se
Ġceza i
ĠMuh af
Ġbirik en
Ġyan an
Ġaday lÄ±ÄŁÄ±
Ġdil imi
Ġbulun mamasÄ±
uÃ§ uk
Ġsendro m
Ġat Ä±lmÄ±ÅŁ
az ma
ĠÄ°st ediÄŁiniz
Ġa jan
ĠP V
Ġer g
ĠYah ya
ĠKÃ¶pr Ã¼sÃ¼
Ġneden ini
ĠDav a
Ġslogan Ä±yla
ĠM ig
Ġteknoloj iler
Ġkon fer
Ġdost lar
ĠMey ve
Ġvek alet
Ġayr Ä±nt
Ġak Ä±cÄ±
ĠÃ§ab alar
ĠgÃ¶z Ã¼nde
Ġy uz
Ġg oz
ĠH ediye
ic ek
Ġmal Ä±n
Ġifad elerine
ĠtÃ¶ren de
Ġterey aÄŁÄ±
ĠBank alar
ĠdÃ¼zenlen ir
ĠakÄ±ÅŁ Ä±nÄ±
ĠB eye
ĠanlayÄ±ÅŁ la
daÄŁ Ä±n
Ġsav unu
ĠSÄ±r p
ĠGEN EL
Ġih lali
Ġdin let
ĠÃ¶lÃ§ Ã¼t
p uz
ob e
Ġfaaliyet lerin
Ġkom it
ĠOkum aya
Ġdavran Ä±ÅŁÄ±
Ġsunmak tayÄ±z
ĠEv in
Ġsanat Ä±n
Ġgazetec ilere
ĠEc ev
oy la
ĠD C
ĠF ant
ĠhÄ±z Ä±yla
lini ÄŁ
Ġl ah
Ġdav ul
ĠhoÅŁ una
ramv ay
and o
Ġtop layÄ±p
ĠL ad
ĠgÃ¶nder en
Ġkab ak
Ġsit eden
Ġyur tiÃ§i
ĠTaraf tar
ĠgeÃ§ mesini
ĠgÃ¼nde mi
ĠHÃ¼l ya
Ġhal let
Ġtemel de
Ġedin en
Ġzek Ã¢
ru ÄŁ
ĠseÃ§im lerin
ĠKazak istan
Ġyap Ä±yordu
ĠT y
Ġgide bilir
Ġtah rib
ĠmÃ¼ÅŁteriler imiz
Ġotel lerde
Ã¶r ler
Ġtakib en
Ġn elere
Ġst op
ĠÃ§ift Ã§i
o tip
Ġtatb ik
Ġhuzur unda
ĠbaÅŁar mÄ±ÅŁ
Ġfiyat Ä±nÄ±n
Ġlist eye
ĠgerekÃ§ esi
ev her
ĠkatÄ±l mÄ±ÅŁ
c asÄ±na
Ġd edikleri
ĠA lar
Ġproj elerini
ĠmÃ¼fre dat
ĠKÃ¼rt Ã§e
Ġl ed
Ġestet iÄŁi
Ġr us
Ġd edir
Ä° C
Ġyat aÄŁa
ĠÃ¶rgÃ¼tÃ¼n e
Ġenerj inin
Ġtor un
ĠdeÄŁiÅŁim ler
ĠHol lywood
Ġyap Ä±sÄ±yla
Ġtur larÄ±
ay abilir
Ġkes mek
ĠKole ji
Ġsan Ä±ÄŁÄ±n
ĠmÃ¼dÃ¼r leri
Ġkan alizasyon
Ġsen elik
ĠDon an
Ġplan lanÄ±yor
ĠÃ§ek mektedir
Ġbirbir i
ĠOnun la
ĠOf f
n ut
Ġfaaliyet te
ĠYar alÄ±
Ġanlat Ä±rken
ĠBer aber
Ġyum ruk
r ent
u u
Ġb os
Ġzarar larÄ±
ĠN ov
D IR
ĠdÃ¼zenlen miÅŁtir
ĠZ eh
Ġoluyor sunuz
ĠgeniÅŁ liÄŁi
Ġb Ã¶rek
Ġhep sine
ĠÄ° hal
ĠmÃ¼cadel esinde
ĠdÃ¼ÄŁ Ã¼m
ĠBir de
ĠanlayÄ±ÅŁ Ä±yla
Ġotur duÄŁu
ĠPh ilip
ĠmÃ¼mkÃ¼n se
Ġistem em
Ġas istan
ĠboÄŁ ul
ĠolmadÄ±ÄŁ Ä±nÄ±n
ĠÃ¼lkemiz deki
ĠAk bank
ĠseÃ§ ebilirsiniz
Ġpar alarÄ±
ĠvarlÄ±k lar
Ġkaybol an
ĠOlaÄŁan Ã¼stÃ¼
Ġgez en
tÄ±ÄŁ Ä±mÄ±zda
ĠEf san
t y
ĠyapÄ±l maz
Ġklav ye
sik lop
Ġgol le
Ġkampany alar
Ġbit iyor
am adÄ±ÄŁÄ±m
ĠyaÅŁan abilir
Ġal mÄ±yor
Ġip lik
Ġkab Ä±z
ĠÃĩar ÅŁ
ĠMÃ¼n ih
ĠaraÃ§ larla
ĠsÃ¶z lerle
ĠÃ¼rÃ¼n lerine
ĠHua we
Ġyan Ä±ma
ĠTasar Ä±mÄ±
Ġden gesi
Ġberaber e
Ġdin Ã®
Ġf iber
ĠkatkÄ± lar
ĠÃĸ Äŀ
ĠÃ¶ldÃ¼r mek
ĠbaÅŁladÄ±k tan
ro z
ing s
ĠAt lan
ĠAk su
ĠnÃ¼f uz
lem eleri
ĠmÃ¼ esses
ĠipuÃ§ larÄ±
Ġkit aba
Ġprogram larÄ±nÄ±n
ĠÃ§ocuÄŁ unun
Ġediyor sanÄ±z
b ilim
Ã§ iye
ĠÃ§alÄ±ÅŁ Ä±rlar
Ġbank aya
Ġw ith
Ġan lÄ±yor
ĠÅŀ Ä±k
ĠI ÄŁ
ĠYum urt
Ġkaymak am
Ġgelen eÄŁi
Ġhijyen ik
ĠgÃ¶rÃ¼n se
ĠkÃ¼Ã§ Ã¼m
ĠÅŁekil leri
ĠN iz
ĠÅŁirket lere
Ġyol daÅŁ
Ġaktivit eler
Ġboy lu
ĠdiÄŁer ine
ĠdÃ¼z lem
Ġyok muÅŁ
ĠOyun lar
ĠseÃ§ erken
ĠOrt aya
ĠTop luluÄŁu
Ġen gin
Ġsoy ad
ĠV nin
ĠkullanÄ±l malÄ±dÄ±r
ÅŁ en
ĠHakk ari
Ġem sal
Ġyarat Ä±k
Ġsar hoÅŁ
ink o
ĠiÅŁ inin
ĠyapÄ±l makta
ĠKap tan
ĠOcak ta
ĠDigit Ã¼rk
ĠtÃ¼c car
Ġmekaniz masÄ±
Ġn im
Ġyar arÄ±
ĠÃ¶lÃ§ ek
Ġsorunun a
ĠgeÃ§ me
ĠTec rÃ¼b
ac t
Ġas tÄ±m
ĠzayÄ±f lat
ĠOru Ã§
Ä±l dÄ±ktan
iy az
Ġarab ulu
mey eceÄŁi
ĠB ook
ic ik
ĠSavaÅŁ Ä±nÄ±n
ĠSanat Ã§Ä±
Ġhayat tan
Ã¢n Ã®
ĠiyileÅŁtir me
ĠÅŁart larÄ±nda
ĠyÃ¶n Ã¼nÃ¼
Ġimz asÄ±
Ġbulun madÄ±ÄŁÄ±nÄ±
tr ik
ĠkiÅŁi dir
Ġtab ur
Ġal Ä±yorlar
ĠEr han
Ġiv me
t ap
ĠK AP
Ġcezaev inde
ĠbuluÅŁ an
ĠfaÅŁ ist
unuz la
G B
Ġihtil af
Ġpank art
ĠgerÃ§ekleÅŁtir ilir
Ġhisset mek
ĠaÃ§Ä±lÄ±ÅŁ Ä±nÄ±
Ġbebek lerin
Ġmahall esi
Ġrapor lar
ĠMahm ud
ĠT u
Ġc Ä±v
ĠDen eyim
n de
Ġincelem eye
Ġspor u
ĠGÃ¶z tepe
ĠgerÃ§ekleÅŁtir ecek
Ä±l mamasÄ±
Ġhareket inin
ĠMar aÅŁ
Ġdar p
ĠÃ¶dÃ¼l leri
Ġuf uk
ik il
laÅŁtÄ±r Ä±lmÄ±ÅŁ
Ġkullan dÄ±r
Ġok uyorum
ĠgÃ¼n Ã¼nden
ĠGÃ¶k Ã§e
Ġiy iye
ĠgÃ¼n lere
aday Ä±z
T ER
Ġgazetec iler
Ġar tik
dak iler
ĠTav uk
ĠiÃ§erik ler
ĠÃ§alÄ±ÅŁmalar Ä±mÄ±zÄ±
Ġyapan larÄ±n
ĠÃ¶de m
Ġsans Ã¼r
ĠgÃ¶r em
ĠkÃ¼Ã§ Ã¼lt
Ġson larÄ±nda
Ġal acaÄŁÄ±nÄ±
ĠRoman ya
ĠEndek si
ĠS AÄŀ
ĠL ou
ĠgÃ¶rÃ¼ÅŁ mesi
n y
Ġyaprak larÄ±
it lerin
Ġas ist
Ġibaret tir
Ġd at
ĠadlandÄ±r Ä±lÄ±r
Ġis y
Ġolan lardan
Ġs pek
ĠyÃ¶net mek
ĠKÃ¼ltÃ¼r el
m isiniz
Ġsev inc
ĠkapÄ± lar
ĠgÃ¶stergesi dir
Ä±ÄŁ Ä±yla
Ġotur muÅŁ
ĠOrt aÃ§
Ġt il
ĠgÃ¶z lÃ¼
Ã¼z yon
Ġk ac
Ġcevap larÄ±
Ġtan esini
ĠÃĩift Ã§i
ĠC enk
ĠÃ¶ÄŁret menin
iÅŁ sel
ĠSÃ¼rdÃ¼r Ã¼lebilir
ĠkaÃ§ Ä±ÅŁ
Ġboz an
ĠkaldÄ±r Ä±p
ĠyÃ¶nlendir me
ĠH ot
oz om
il eÅŁtir
Ġen der
ĠCem iyeti
Ġtasv ir
Ġdiren ci
Ġm Ä±sÄ±n
ĠA LI
Ä±n caya
ĠÅŀey tan
Ġhayat Ä±mÄ±zÄ±n
c Ä±m
Ġsen edi
ĠOl uÅŁtur
Ġiy im
ĠÅŁub esi
Ġsev enler
Ġhayat Ä±m
Ġl istem
Ġizin siz
Ġdonat Ä±lmÄ±ÅŁ
ĠÃ§alÄ±ÅŁmalar Ä±yla
Ġeklen miÅŁtir
Ġbit mez
ĠseÃ§ ilir
ĠyerleÅŁtir ilen
Ġyap Ä±sÄ±nda
Ġal masÄ±na
j der
ĠE li
ĠSa it
nez yum
ĠV as
ĠÃ§ Ä±t
ĠparÃ§asÄ± dÄ±r
t ayÄ±
ef endi
id ik
Ġyet miyor
ĠKon feder
Ġsit elere
de ÄŁi
Ä°N Ä°N
Ġbat arya
Ġayar lar
ĠÃ¼y elerinden
Ġbuyur muÅŁtur
Ġver em
Ġtamam Ä±yla
ĠsaÃ§ lÄ±
Ġdo main
Ġmeyv eler
Ġb ezi
Ġail elerine
Ġbeklen ti
ter e
ĠhazÄ±r layÄ±p
Ġsok ul
Ġj et
ĠgÃ¶r meden
ĠÃ§ek erken
Ġsaat inde
ĠAlman yaya
ĠmÃ¼ÅŁter ek
Ġunut mamak
ĠBil inÃ§
iliyor du
ĠalÄ±ÅŁkan lÄ±ÄŁÄ±
ÅŁ in
Ġkavram Ä±nÄ±
Ġyap acaktÄ±r
ĠGazet eci
Ġkabul Ã¼
ĠRas ul
acak tÄ±
Ġfikir lerini
Ġzorluk lar
Ġhuzur suz
Ġsak lan
ĠM ye
du y
Ġsep et
Ġkarab iber
ĠÃ§Ä±k madÄ±
Ġhastal Ä±ÄŁÄ±na
Ġengel ley
ĠgeÃ§ir ir
Ġar g
ĠÃ§ift Ã§iler
ĠC r
ĠOl sun
Ġedebilir ler
Ġpuan larÄ±
Ġson unu
ĠOl gun
ĠkayÄ±t sÄ±z
leÅŁ ir
ĠÃ§Ä±k tÄ±ktan
ĠsÄ±ralam asÄ±nda
ĠÃĩat al
Ġar asÄ±n
ĠkullanÄ±l dÄ±ÄŁÄ±nÄ±
ĠayrÄ±ntÄ± larÄ±
Ġyok ken
ĠKar anlÄ±k
Ġduv arÄ±
Ġyap Ä±yÄ±
Ġinc eler
ĠYum urta
ti gi
ĠkanÄ± tÄ±
Ġbilin mesi
ĠKal esi
tan siyon
Ġval la
ĠÄ°ÅŁ e
Ġail em
c Ä±sÄ±nÄ±n
ĠmÃ¼ hendisi
Ġhizmet inde
ĠKayser ispor
ĠÃ§alÄ±ÅŁ acaÄŁÄ±m
Ġy ad
Ġv illa
Ġben t
Ġad aya
Ġdev ret
iyet inin
ĠÃĸ calan
Ġsayf anÄ±n
ĠbirÃ§ oÄŁ
ĠyÃ¶ntem dir
ĠkÄ±s mi
ĠSer isi
ĠuÄŁr adÄ±
Ġgel mesine
ĠForm u
g et
Ġmemleket i
Ġserv et
Ġrest ore
Ġl Ã¢zÄ±m
Ġkap Ä±nÄ±n
ĠkarÅŁÄ±lan masÄ±
ĠEy y
ĠyapÄ±m Ä±na
ĠbÃ¼yÃ¼ley ici
Ġyap mayÄ±n
ĠOk uma
Ġstad yum
Ġbulundur ul
ĠL ez
ĠAs s
Ġap art
Ġd ediÄŁiniz
ĠV AR
Ġkav ray
Ġkut ladÄ±
Ġev lenme
ĠbeÄŁen isine
Ġmen z
Ġkib ar
ayÄ±n dÄ±r
ĠaÃ§Ä±k lar
ĠtanÄ± dÄ±ÄŁÄ±
Ġkost Ã¼m
Ġsun duÄŁumuz
il d
Ã¼s Ã¼yle
ĠI lÄ±
ĠAmaz on
lÄ±k larÄ±n
Ġbin asÄ±nÄ±n
Ġduyar lÄ±lÄ±k
Ġrol Ã¼nÃ¼
Ġkurul tay
ĠSon bahar
Ġspor a
Ġalacak larÄ±
Ġyoksul luk
ĠP res
Ġtur da
ĠBoy ut
Ġm af
esi fik
ĠÃ¼ret ilmiÅŁtir
Ġav ro
Ġadam larÄ±nÄ±n
le de
ĠY GS
k az
Ġar adÄ±
Ġak red
Ġtas lak
Ġl az
ĠÃ§ ember
ĠaÃ§ tÄ±m
Ġhal indeki
Ġiz lediÄŁi
Ġdesen li
ĠdeÄŁerlendir melerde
Ġkur uy
Ġva ad
Ġy eÄŁ
am adÄ±ÄŁ
Ġac ilen
ĠmÃ¼ÅŁter ilere
Ã® f
Ġmilyon u
Ġyararlan abilirsiniz
ĠZ inc
Ġdor uk
Ġgez ilecek
ot on
isi on
Ġtamam ladÄ±ktan
Ġyem eÄŁe
Ġmodel lerinde
ĠAlt Ä±nda
ĠseÃ§enek lerini
ĠdoÄŁ usunda
ĠkolaylaÅŁtÄ±r mak
Ġsahip liÄŁinde
ĠdÃ¶nem den
ĠAnn esi
Ġstandart larÄ±na
Ġstratej isi
emez ler
ĠF al
ĠhÃ¼k met
Ġbahar at
Ġgel dikten
ĠgÃ¶ster ilmesi
Ġc iÄŁer
c ili
Ġyar Ä±ya
ĠAv cÄ±lar
Ġhaber lere
Ġdep artman
ĠMÃ¼l k
ekt eki
ak ta
Ġiz lerini
ĠY PG
am amak
ĠÃ¼st Ã¼ndeki
Ġkur alÄ±
Ġyakal adÄ±
Ġz il
ĠÃ¶t esine
ĠÅŁab lon
Ġhav alarda
Ġmah s
Ġortam Ä±n
Ġtoprak lar
Ġver mesini
ĠAm balaj
D U
Ġkal acaktÄ±r
Ġolun masÄ±
ĠBÃ¶lÃ¼m Ã¼nde
ĠÃ§aÄŁr Ä±sÄ±nda
Ġb asÄ±nda
ĠkarÅŁÄ±l Ä±yor
ĠUn iversit
ĠCevap larÄ±
ĠÃ¼st lenen
ĠBak ara
ĠL eg
Ã§ Ä±lÄ±ÄŁ
Ġmevdu at
ĠgÃ¼Ã§lendir mek
san iz
ĠbuluÅŁ uyor
ĠhatÄ±r lÄ±yorum
ĠYen ilen
ĠT Ä±r
Ġetm eliyiz
Ġd ine
Ġmas asÄ±
ĠAr ada
ĠD Ã¼r
Ġc ansÄ±z
ĠP rim
Ġb av
diÄŁ imizde
ĠSÃ¶z leri
ĠBaÄŁ lÄ±
Ġmalzem enin
Ġtak Ä±n
ĠN okt
s ayÄ±
ĠfÄ±rsat Ä±nÄ±
ĠKO SG
ĠM am
n ur
Ġhizmet lerinde
Ġsistem le
Ġim plant
ĠgerÃ§ekleÅŁ miÅŁtir
ĠMus ul
ĠAs h
ĠaÄŁ acÄ±n
ĠÅŁ Ã¶yl
Ġr a
Ġort alÄ±k
Ġpas lanmaz
ĠKOSG EB
Ġkabul len
say dÄ±
Ġhap se
ĠMu ay
isk Ã¼v
ĠG a
ĠTÃ¼rk istan
ĠgÃ¶r mektedir
Ġkavram lar
is iyim
abil eceÄŁim
Ġtelaf i
ĠGÃ¼zel lik
Ġiddi alar
Ġmadde ye
Ġpark e
ut er
Ġtes ir
Ġkitap larÄ±n
ĠYaz Ä±lÄ±
ĠB R
ĠÄ° Ã§i
ĠsÃ¶y lerken
ĠR A
ĠFETÃĸ PD
it te
ec an
Ġmuc ize
lam az
ĠgeliÅŁ ir
ĠÃ¼lk esinin
Ġoyun larÄ±n
ĠaraÃ§ lara
Ġg ebe
ĠalÄ±n mak
Ġperson ele
Ġvide oda
Ġmilliyet Ã§i
ĠmaÃ§ lar
Ġhaber ini
ĠhazÄ±r lar
ĠgÃ¶ster ileri
Ġeden lere
diÄŁ imde
ĠMahkem esine
ĠDaÄŁÄ± tÄ±m
Ġekib ine
di gi
Ġkaz anÄ±n
ĠT aban
malar dan
ok im
ĠÅŀ i
ĠÃĩ Ä±l
ĠhoÅŁ gel
Ġsevg isini
Ġkompoz isyon
Ġkapat tÄ±
ĠsÃ¶ylÃ¼yor lar
ĠÃ§ocuÄŁ unu
Ġpark ur
ĠAÃ§Ä±k Ã§asÄ±
Ġgazet esinin
Ġbedel inin
ĠDah asÄ±
ĠÃ§ ene
ĠtaÅŁ Ä±nÄ±r
Ġvan il
ĠDekor asyon
Ġfelsef esi
Ġsen eye
ĠistediÄŁ in
Ġk lor
ĠaraÃ§ ta
ĠAc ar
Ġzaman larÄ±
Ġizlen im
ĠRek abet
ĠÃ§Ä±kar acak
ĠÅŁub at
Ġdib ine
ĠÃ§ek meyi
ĠtÃ¼ketic ilerin
Ġgez gin
Ġof f
Ġbeklet in
Ġat a
ĠbÃ¼tÃ¼n lÃ¼k
Ġpen is
ĠAr adan
Ġsuy unun
ĠUy um
p atik
ĠVad isi
an ta
ĠÃ¼rÃ¼n lerinde
ĠyaÅŁ adÄ±ÄŁÄ±nÄ±z
ĠYas emin
Ġmon itÃ¶r
Ġkal emi
ĠkÄ±p Ä±r
ĠdediÄŁ in
Ġkayn aÄŁÄ±ndan
ĠIÄŁ dÄ±r
ĠyapÄ±l abilmektedir
ĠmaÃ§ Ä±na
Ġyine de
ĠKarÅŁ Ä±lÄ±k
ĠiliÅŁk isini
ĠfÄ±kr asÄ±
ĠFilistin li
Ġr ant
ĠdeÄŁiÅŁtir di
ĠhatÄ±rlat arak
Ġvaj in
ĠAr acÄ±
Ġtadil at
dÃ¼ÄŁ Ã¼nÃ¼z
Ġbelediy enin
se fi
ĠH on
ol an
eceÄŁ inin
iy eyi
ĠMÃ¼z iÄŁi
abileceÄŁ inizi
ĠTak s
ĠÃ§alÄ±ÅŁan lara
in ess
Ġdav acÄ±
Ġesir g
ĠbÃ¶lÃ¼ cÃ¼
ĠsÃ¼r Ã¼ldÃ¼
ĠkatÄ±l masÄ±
Ġm ih
Ġsistem lerini
ĠHay di
ES T
ĠKÃ¶y Ã¼nde
Ġkapasit esine
aÄŁ aÃ§
miÅŁ tik
ĠrÄ±z asÄ±
Ġf oto
ĠZ Ã¼l
Ġhammad de
ĠbÄ±rak tÄ±m
ĠEnf lasyon
pr Ã¼
ĠDanÄ±ÅŁ manÄ±
Ġevr enin
ĠUn ited
Ġkon tÃ¶r
Ġpar ayla
ĠUzak tan
Ġbin ada
iy eli
ĠS har
ĠsÃ¼rdÃ¼r mek
Ġkonu ÄŁu
Ġsevg iyle
ĠKor ku
ĠProf esÃ¶r
Ġbur ad
ĠtanÄ±ÅŁ mak
ĠT Ã¼z
m emizi
Ġs Ã¼k
ĠMal um
ĠE den
c Ä±yÄ±
ĠkÃ¼r s
g usal
Ġpart il
d f
ĠyavaÅŁ lat
ĠMuz affer
uv arÄ±
Ġbilir im
ĠulaÅŁ mÄ±ÅŁtÄ±r
ĠpaylaÅŁ Ä±lan
Ġyap malÄ±
ĠÄ°s im
ĠVi et
Ġdestek lenmesi
ĠpaylaÅŁ Ä±yoruz
Ġdemokr at
Ġhesap lar
Ġm adem
Ġask ere
ĠdÃ¶k Ã¼len
ĠÅŀ eri
Ġtut acak
ĠGÃ¼n gÃ¶r
ĠHad is
Ġel inize
Ġpolis ler
ĠiÃ§ im
Ġsistem lerin
Ġoperasyon lar
Ġyap abileceÄŁi
ĠB AY
ĠÄ±rk Ã§Ä±
Ġez iyet
Ġn i
ĠdÃ¶n me
Ġins Ã¼lin
ĠbÄ±rak Ä±lmasÄ±
ĠkapÄ± dan
ĠÃľy elik
ĠyapÄ±l dÄ±ÄŁÄ±nda
ĠmÃ¼te akip
Ġi ÄŁr
Ġuyar Ä±sÄ±
ĠÃĩ ol
Ġfirmalar dan
Ġedilm ekte
Ġdeh ÅŁet
ĠRes mÃ®
ĠEÅŁ it
ĠKir alÄ±k
Ġuyk uya
ĠTed arik
Ġs ilme
Ġkelim enin
Ġyas alar
Ġin ek
ĠparÃ§ al
ĠyavaÅŁ Ã§a
Ġbay i
ĠMÃ¼dÃ¼rlÃ¼ÄŁ Ã¼nde
Ġek imi
Ġner den
Ġsit esindeki
ĠTe or
ĠEn ter
Ġpeyn iri
ĠdÃ¼ÅŁ ecek
ĠbÃ¼tÃ¼n lÃ¼ÄŁÃ¼
ĠKr alÄ±
Ġd n
ĠKÄ±rÄ±k kale
ĠC ad
Ġsertifik asÄ±
yÄ±l dÄ±z
ĠoluÅŁum unu
ĠhemÅŁ ehr
ĠN ij
Ġtasar Ä±ma
y y
Ġbulunuyor uz
ĠanlaÅŁÄ±l acaÄŁÄ±
Ġsayf aya
ĠSeÃ§ me
ĠG or
mek sizin
Ġselam lar
K A
Ġkonsantr asyon
Ġkitap larÄ±nÄ±
ĠÃ¶n len
Ġetik eti
ĠÃ¶zellik lerinin
Ġiler de
Ġmert eb
Ġs inin
ĠkÃ¶f t
ĠDoktor a
ĠiÅŁaret leri
ĠÃĩar p
l m
Ġpsik oloji
ĠErdoÄŁ anÄ±
ĠSÄ± v
Ġf lor
Ġstan t
laÅŁ maya
m ediÄŁim
Ġkes ilir
ĠB Ãľ
Ġcom un
ĠimkÃ¢n sÄ±z
ĠdaÄŁÄ±n Ä±k
ĠÃ¶nder liÄŁinde
ih an
Ġgit meyi
Ġpaket leme
oh ut
ĠY AZ
ĠdÃ¶nÃ¼ÅŁ Ã¼mÃ¼
Ġb inin
Ġdoktor u
b atÄ±
Ġdayan dÄ±r
Ġgazet esinde
ef i
ĠG Ã¼
ĠdeÄŁer ine
dÃ¼k siyon
Ġkap Ä±l
ĠarkadaÅŁ larÄ±na
Ġmesaj Ä±nÄ±
ĠgÃ¼b re
ĠM Ãĸ
Ġat Ä±lÄ±r
ĠMut f
Ġg ran
Ġtah s
Ġab iye
Ġkoc asÄ±
ĠBen den
ĠD Ã¼ÄŁ
Ġtab iri
Ġister ken
ĠdoÄŁ asÄ±
ĠdÃ¶nem ler
Ġyenilen en
Ġter biy
ĠL oz
Ġfeder asyon
Ġtoprak larÄ±nda
ĠÃĸrg Ã¼
as u
Ġekley ebilirsiniz
ĠY arÄ±
Ġkol ye
ĠOr general
Ġor gaz
ĠsÃ¼rdÃ¼r Ã¼l
ĠÅŀ ti
tur e
Ġad larÄ±
ĠMeclis e
Ġbilm iyoruz
Ġpaket leri
ĠC iz
Ġk uzu
on der
Ġkart on
ĠAd asÄ±
ĠÃĩ oban
ĠhazÄ±r landÄ±
edek tif
Ġmakar na
ĠdanÄ±ÅŁman lÄ±ÄŁÄ±
ĠUNES CO
L AY
eler imizin
Ġek olojik
Ä±r sak
ĠÃ§Ã¶z me
Ġdir ektÃ¶rÃ¼
Ġec zan
Ġkal sÄ±n
ĠbirÃ§ oÄŁu
ĠÃ¶ÄŁrenciler imize
Ġoyun dan
Ġverm emek
ĠkiÅŁ ide
Ġsam sun
ĠkoÅŁ an
ĠÃĩaÄŁ layan
ĠanlaÅŁ malÄ±
ĠÃ¶ldÃ¼r en
Ġyapacak larÄ±nÄ±
mamak ta
ĠaÄŁ ab
Ġsiyas ete
Ġbilm eniz
ĠÃ¶rt Ã¼sÃ¼
Ġbenzer lik
Ġcenaz esi
ĠÃ§alÄ±ÅŁ tÄ±klarÄ±
ĠKÃ¶pr Ã¼
ĠkÃ¶p eÄŁi
ler ime
ĠZaman la
Ġalkol lÃ¼
Ġm y
ĠeleÅŁtir iler
ĠÃľr Ã¼nÃ¼n
Ġac iz
ĠMev zu
Ġes asÄ±na
Ġan larda
ĠBayan lar
ĠKÄ±y met
ĠB est
Ġduyg usunu
ro f
Ġsor muÅŁ
ĠMÃ¼m kÃ¼n
Ġhalk la
ĠUl uslar
ĠAr asÄ±
Ġaz ap
ĠsaÄŁlan Ä±yor
eliÄŁ ini
Ġtav rÄ±
ĠN ez
Ġdestek len
Ġmaksad Ä±yla
ĠdÃ¼zey ine
ĠHey eti
ĠF onu
ĠkeÅŁfet mek
Ġat Ä±ÅŁtÄ±r
ber t
ĠKar bon
Ġez an
Ġku afÃ¶r
Ġsit em
Ġhal if
Ġdoldur arak
Ġilk el
ĠTeÅŁ vik
Ġvesil eyle
ĠyÄ±p rat
ĠtoplantÄ± lar
Ġsor una
Ġuygul ayarak
ĠBoz kurt
f eksiyon
ĠdÃ¼ÅŁÃ¼n Ã¼rken
t anÄ±
Ġkab artma
Ġetkil edi
ch er
eceÄŁ imi
ĠÃ¶ksÃ¼r Ã¼k
ĠgeÃ§ir ip
Ġetraf Ä±ndaki
ĠK edi
Ġgel diÄŁimiz
ĠiÅŁ lediÄŁi
Ġkim isi
Ġtoh umu
ĠiÅŁ inize
ĠbaÅŁvur usunda
Ġhost ing
Ġdeniz de
Ġot eli
ĠuÃ§ aÄŁÄ±n
Ġsor an
Ġtanesi dir
ab en
ĠH ersek
tr y
umuz dan
mem elidir
ĠYaÄŁ lÄ±
ĠÃ§ in
ĠhazÄ±r Ä±z
Ġyem iÅŁ
Ġt eÃ§hiz
ĠPas if
ĠÃĩalÄ±ÅŁ malarÄ±
IN DA
ĠDav ran
ĠÃ§Ä±k abilecek
ĠR iv
Ġyetkil isi
Ġolmam Ä±ÅŁtÄ±r
ĠkarÅŁÄ±l adÄ±
ĠkaÃ§ tÄ±
Ġhik Ã¢ye
Ä°L Ä°
ĠdoÄŁuÅŁ tan
ĠkÃ¼ltÃ¼r Ã¼n
bo ard
ĠS icil
Ġes pr
Ġsunul ur
ĠcoÄŁraf ya
ĠsorumluluÄŁ unu
ĠH ek
Ġc Ã¶mert
ĠgÃ¼Ã§ lerini
Ġyetenek lerini
Ġanlat acaÄŁÄ±m
Ġimkan lar
Ġbirlik leri
Ġtan Ä±sÄ±
Ġyen erek
Ġyay l
ĠgÃ¶rÃ¼r Ã¼z
Ã§ iÃ§
ĠdÃ¶n gÃ¼
ĠB ot
ĠA str
Ġmakin asÄ±
ĠyÃ¼ksel mesi
eÅŁ me
ĠdÃ¼ÅŁ tÃ¼ÄŁÃ¼nÃ¼
ĠFik ri
ĠG emi
ĠyaÅŁam asÄ±
ĠÃ¶rgÃ¼t len
ĠAngel es
Ġviz esi
Ġkut lam
ĠpiÅŁ manlÄ±k
Ġal acaÄŁÄ±m
Ġal manÄ±zÄ±
Ġih san
ĠBas k
ĠarkadaÅŁ larÄ±n
Ã¶z Ã¼
Ġkat lan
Ġyetersiz liÄŁi
ĠKilis esi
Ġkab uÄŁ
Ġgelecek teki
ri ca
Ġultr ason
Ġsebep ler
Ġtok at
Ġopt imiz
Ġprogram larÄ±nÄ±
ĠsonuÃ§ lan
ĠbugÃ¼n Ã¼n
ĠDer viÅŁ
Ġolmayan lar
il le
ĠR ev
Ġimzal adÄ±
al de
ĠG Ã¼rk
ĠNo el
Ġmevsim inde
ĠD um
ĠalÄ±n masÄ±na
Ġreh in
ĠÃ§aÄŁÄ±r dÄ±
B S
ĠkaldÄ±r Ä±lan
madÄ±k Ã§a
an se
ĠgÃ¶ster ip
ĠRis ale
Ġtarif e
Ġkuv veti
n esi
Ġal im
Ġsev mek
ev leri
ĠkonuÅŁ mayÄ±
id ye
Ġhikay eler
Ġsat ranÃ§
Ġtalep ler
Ġnesil lere
Ġfarkl Ä±laÅŁ
ĠSÃ¼n ni
LI ÄŀI
ĠyurtdÄ±ÅŁ Ä±na
ĠTEK N
ĠDav et
leriniz den
mam asÄ±na
ĠyÃ¶ntem lerini
ikil oc
ĠKey if
ĠyÃ¶netic ilerinin
ĠKÄ±brÄ±s Ä±n
Ġolm anÄ±zÄ±
ĠB edi
ĠÄ°r fan
Ġkaz ada
Ġservis leri
ĠH azar
ĠL ife
ĠYÃ¶net icisi
Ġvar lÄ±ÄŁÄ±na
ĠKam era
ĠyaÅŁay abilirsiniz
ĠbaÅŁlay alÄ±m
Ġbak mayÄ±n
Ġkursiy er
Ġad Ä±mda
ĠdÃ¼ÅŁÃ¼r Ã¼l
Ġdokun matik
ĠaÃ§Ä±k lÄ±yor
Ġum ud
Ġyet miÅŁ
lerim le
ek onomik
ĠÃ§ocuk larÄ±mÄ±za
ĠgÃ¶rÃ¼n mÃ¼yor
f uz
Ġhediy elik
ĠUf uk
Ġsit emizi
Ä± Ä±
ĠO Y
Ġsilah lar
ĠsaÄŁlam ayÄ±
ĠdeÄŁil siniz
gin Ã§
Ġheyecan landÄ±r
ĠAr alarÄ±nda
Ġsan mÄ±yorum
ĠÃ¼s lup
ĠYaz Ä±n
Ġan h
Ġeb ed
Ġr ut
dÃ¼k Ã§e
Ġgen eral
ĠSiyas al
ĠtakÄ±m Ä±nÄ±
Ġfot ograf
ĠYap tÄ±ÄŁÄ±
l ili
ĠD OÄŀ
ĠiÃ§in se
ĠAÅŁ kÄ±n
mez se
ĠgÃ¶rÃ¼ÅŁmeler de
ĠsÃ¶mÃ¼r g
Ġyak alama
Ġbilg ili
Ġmontaj Ä±
Ġf at
ĠSÄ±f Ä±r
Ġuygulam alara
ĠÃ§eÅŁ id
Ġolmaz dÄ±
Ġ eki
e x
Ġlok asyon
Ġb ilmesi
Ġad ayÄ±n
Ġsal tan
Ġmillet imiz
ĠkuruluÅŁ unun
ob ili
Ġkazan Ä±lan
Ġban y
Ġev deki
Ġman ip
ĠpiÅŁir me
Ġter as
ĠD O
ĠiÃ§inde dir
eng er
Ġkural larÄ±nÄ±
ĠKom Ã¼nist
ĠkÄ±s met
ĠgÃ¼venc esi
ĠbÃ¶lg esinden
Ġyer altÄ±
ĠaÃ§Ä±l mÄ±ÅŁtÄ±r
Ġorg anÄ±
Ä±l mamÄ±ÅŁ
Ġblog ger
Ä°Y OR
Ġkaynak larÄ±ndan
Ġentel ektÃ¼el
Ä±r sÄ±nÄ±z
Ġkomisyon u
Ġsem pozyum
ĠÄ°stih barat
Ġdetay larÄ±nÄ±
ĠMÃ¼hendis leri
ĠgÃ¶ster ildi
ĠTerÃ¶r le
ĠhatÄ±r lay
Ġo sman
ĠS SK
Ġhas at
Ġyas asÄ±
ĠÄ° tir
Ġb ac
Ġde zen
ĠKan una
ĠaraÅŁtÄ±rmacÄ± lar
lerinden dir
Ġib ret
ĠfÃ¼z e
Ä±y mÄ±ÅŁ
ĠEsen yurt
Ġm aÅŁ
Ġaralar Ä±ndaki
Ġyar Ä±sÄ±ndan
ĠSÃ¼m er
Ġsev dir
ĠOf isi
ĠMevl Ã¢n
ĠMerkez leri
Ã¶y ley
Ġeser lerini
ĠAil esi
Ġp alet
Ġden izi
ĠdÃ¶n Ã¼mÃ¼
ĠG ame
ĠyayÄ±m ladÄ±
ĠV izyon
Ġhayal ini
Ġkanun i
Ġdel alet
ĠdoÄŁr uya
Ġkapat Ä±lmasÄ±
ĠTC M
Ġp c
ĠK un
ĠkadÄ±n lardan
ĠI Ã§in
Ġsorun lardan
ĠsaÄŁlan mÄ±ÅŁtÄ±r
ĠLaborat uvar
tep ede
Ġvar is
Ġyapmak tayÄ±z
ĠD ani
Ã¢l Ã¢nÄ±n
as Ä±ya
ilm is
Ġsay Ä±m
Ġverilm ez
Ġbuzdol abÄ±
iy ade
Ġal amaz
Ġgec eyi
ĠsektÃ¶r deki
ĠBit k
ĠThom as
ĠyÃ¼r Ã¼rken
ĠSa int
Ġmahalle de
ĠG Ã¼v
sel en
Ġbah si
Ġstandart lara
M AZ
av ig
Ġihal eye
ĠB row
ĠP YD
Ġber aat
ĠAm ster
Ġbu larak
ĠCÃ¼n eyt
ĠbaÅŁlÄ±k lar
ĠLid eri
ĠKarar nam
Ġyap abilm
Ġrahat lÄ±k
ĠsÄ±r alama
ĠKUL LAN
ĠBl ok
li de
ĠmaÃ§ larda
ĠsÃ¶yley ecek
ĠK AD
ĠNob el
Ġmec r
ĠyansÄ± dÄ±
ĠyerleÅŁtir in
Ġkal masÄ±na
st aki
Ġbilgisayar Ä±nÄ±za
tÃ¼ el
ĠÃ§alÄ±ÅŁ Ä±yordu
ĠdÃ¼ÅŁÃ¼n dÃ¼ÄŁÃ¼
dÄ±ÄŁ Ä±mÄ±zda
Ġsan d
ĠFakÃ¼lt esinde
Ġfabrik asÄ±
ic in
iz den
ĠM E
ĠsÃ¼r Ã¼p
ut a
ĠCumhurbaÅŁkan Ä±nÄ±n
ĠBM W
Ã§ Ä±l
ĠÃ¶rt Ã¼ÅŁ
ĠyaÄŁ Ä±ÅŁÄ±
ĠMek sik
ĠFÄ±r sat
ĠyansÄ±m asÄ±
Ġkab uÄŁu
Ġhareket lerini
ĠgeldiÄŁ ince
ak er
Ġetm iyorum
ĠBer g
ĠÅŁey h
Ġbir ak
Ġap aÃ§Ä±k
ĠkoÅŁ ulu
Ġizn iyle
c esine
ĠÅŁim dilerde
ĠBak Ä±mÄ±
Ġann emin
ov un
ĠuÄŁr adÄ±ÄŁÄ±
ĠÃ¶den ek
han ede
Ġtabi at
ĠbÃ¼yÃ¼m Ã¼ÅŁ
Ġgel din
ĠbÃ¼y Ã¼yor
Ġdet erj
Ġyap masÄ±na
ĠkÄ±rÄ±k lÄ±ÄŁÄ±na
Ġdurum lara
Ġverit abanÄ±
Ġuygulam asÄ±nda
ĠsuÃ§ lar
saÄŁ lÄ±ÄŁÄ±
in di
ĠuÃ§ an
Ġistey ebilirsiniz
Ã¼s Ã¼z
Ġmuam ele
Ġser giler
ĠKal k
ĠalÄ±k oy
ebilecek leri
ĠD ec
Ġkriter leri
ĠiÃ§ers inde
Ġtop la
Ġuz laÅŁma
Ġkaf asÄ±na
op si
ĠyerleÅŁ en
ĠÃ¼rÃ¼n dÃ¼r
ĠkullanÄ±l masÄ±nÄ±
Ġsorun larla
ĠPar Ã§a
Ġsor g
ĠyapÄ±l abilmesi
Ġd os
Ġsak al
ĠbaÅŁlar lar
Ġda imi
eÄŁ inize
Ġedilm emesi
Ġuy mak
Ġlit r
Ġalt ta
ĠN eÅŁ
Ġmet odu
ĠB ern
ĠÃ¼n van
ĠgÃ¼nÃ¼mÃ¼z Ã¼n
ĠAvras ya
w ag
siz ce
Ġhaber de
ĠÄ°Ã§er isinde
ĠkasÄ± t
Ġal eti
Ġat Ä±lÄ±m
ĠyÃ¼z eyi
Ġkontrol leri
Ġkaynak lan
ak e
Ġkon ur
Ġpersonel inin
ĠAr m
ĠbÃ¶lg elerine
Ġolmam alÄ±
D Ä°
Ġkes ildi
Ġyaz mayÄ±
Ġmah rem
ĠFev zi
ĠsÃ¼s lÃ¼
ĠbaÅŁar Ä±nÄ±n
Ġo daÄŁÄ±
ĠtÃ¼r Ã¼nde
Ġbitir mek
ĠMad di
amadÄ±k larÄ±
ĠkarÅŁÄ±lÄ±k sÄ±z
ĠSorum lusu
ĠFuar Ä±nda
ĠgÃ¶r mekteyiz
ĠRe is
Ġajans Ä±
ĠÃĩ erkes
ĠyÃ¼kselt mek
Ġekipman larÄ±
ĠDef ter
ĠN O
Ġhareket lilik
ĠYar g
ĠÃ§ ark
ing le
Ã¼y Ã¼k
ĠL ab
il ebilen
Ġkoy dum
ĠÄ°f tar
ĠhÃ¼cr elerin
Ġpah al
ĠS uyu
ĠgÃ¼n lerini
ĠAlan Ä±nda
ĠgÃ¶ster iliyor
ĠAL T
Ġyapabilir ler
ĠEle c
lÄ±lÄ±ÄŁ Ä±n
Ġfilm lerin
ĠÃ§if te
ab alÄ±k
Ġd un
ĠÄ°tal yanÄ±n
Ġneb ze
ĠsÃ¶ylen ir
ler imin
ĠKÃ¶ ÅŁ
ĠsÃ¶yleÅŁ i
ĠkÄ±z Ä±nÄ±n
ĠNur ettin
Ġoran larÄ±nÄ±n
Ġoku duÄŁu
adan a
en im
ĠSonuÃ§ larÄ±
ĠÃ§Ã¶k Ã¼ÅŁ
ĠÄ°ncel eme
ĠD esi
ĠÅŀ irin
Ġsit enizi
ĠDown load
Ġs tar
dÄ±ÄŁ Ä±mÄ±
ĠAy ar
ĠÅŁÃ¶yl edir
Ġbildir ilir
ĠGS M
ĠdÃ¼zenlem eye
Ġtercih leri
Ġan ten
Ġbey nin
Ġotom asyon
Ġcezaev ine
ĠkaldÄ±r dÄ±
madÄ±ÄŁ Ä±na
g Ã¼cÃ¼
Ġdem esi
Ġkaf asÄ±
ĠÃ¼zÃ¼n t
ĠCh rist
v anÄ±n
Ġf aci
ĠVest el
Ġkomp leks
Ġarz usu
c iye
Ġbir isini
ros s
Ġbir ilerinin
alar Ä±ndaki
Ġod alarÄ±nda
ĠdanÄ±ÅŁ manÄ±
Ġkur duk
Ġtes ekkur
Ġuy ul
Ġtoplan dÄ±
ĠbÃ¼tÃ¼n Ã¼yle
ĠYÃ¼ksek okul
Ġbahset tiÄŁim
Ġnokt alarda
ĠhemÅŁ ire
ĠAb i
ĠÃ§evir di
Ġbak Ä±nÄ±z
y oz
Ġuyan Ä±k
Ġbeyan nam
Ġcanav ar
as onu
ĠM ide
Ġha iz
Ġad Ä±ndaki
Ġtakip Ã§isi
ĠÃĩ AL
ĠB ob
duÄŁ un
Ä° AD
Ġkonu dur
Ġmo dem
am Ä±ÅŁtÄ±r
ĠyalÄ± tÄ±mÄ±
ĠtÃ¼r Ã¼nÃ¼n
ĠbaÅŁlay acaktÄ±r
ĠkullanÄ±l dÄ±ÄŁÄ±nda
Ġip hone
ĠR ezerv
ĠTÃ¼rk Ã¼
Ġiftir a
ĠÃ§ekt ik
ĠkarÅŁ Ä±nÄ±z
ĠKend ilerine
ĠÅŀik ayet
Ġmer div
ĠAn ton
p et
Ġyarat Ä±lmÄ±ÅŁ
Ġsak lama
ĠtecrÃ¼b eler
Ġpah asÄ±na
Ġhorm onu
ĠyaptÄ±ÄŁ Ä±nÄ±zda
ĠEl ma
ĠGÃ¼ven ilir
Ġaksesuar larÄ±
ĠyaÅŁam Ä±nda
ĠSiz den
ĠGÃĸ R
aÄŁ Ä±yla
Ġbulunan lar
ĠÃĩub uk
ur i
ĠYan g
ĠKat olik
Ġkon usunun
ĠistediÄŁ inizi
ĠÃ¶ÄŁrenciler le
am ada
ĠÃ§il ek
ĠmÃ¼dÃ¼r lÃ¼ÄŁÃ¼
Ġek ler
Ġmal larÄ±n
ĠDer ya
ĠkarÅŁÄ±lan dÄ±
ĠJ ac
Ġar adÄ±ÄŁÄ±
Ġah iret
Ġadres leri
Ġul as
ĠsÃ¼r eyi
Ġfark Ä±nÄ±
ĠMaÃ§ Ä±n
Ġb etim
Ġk okt
ĠÃ¼zer lerine
ĠkÄ±r p
ĠÃ¶ k
Ġres m
Ġburjuv a
ĠGÃ¼n leri
Ġ Ä±l
ĠhÃ¼kÃ¼m ete
Ġhav ayÄ±
Ġpor siyon
ĠHacet tepe
ĠL ap
Ġr i
ĠyaÅŁay arak
ĠHalk la
Ġf ran
ĠtanÄ±t tÄ±
ĠTah ran
Ġgrup lara
ĠilÃ§ eye
Ġey lesin
Ġolm alarÄ±na
Ġuyg arlÄ±k
Ġar adÄ±ÄŁ
ĠbaÄŁ lamak
Ġdol usu
Ġmen aj
Ġhat ip
Ġayk Ä±r
Ġduvar larÄ±
Ġtarz Ä±nÄ±
lÄ±k larÄ±nÄ±
ĠÅŁark Ä±yÄ±
ĠsaÄŁlar ken
ĠaÃ§Ä±l dÄ±ÄŁÄ±
Ġsit enize
ĠOsman gazi
ĠÃ¶den ir
ĠEvren sel
Ġh oparlÃ¶r
ar yen
ebilecek siniz
Ġser inin
Ġdok unun
Ä±l masÄ±ndan
Ġkav anoz
ĠTÃľRK Ä°YE
Ġsivil ce
ĠG as
[...]
