{
  "version": "1.0",
  "truncation": null,
  "padding": null,
  "added_tokens": [
    {
      "id": 0,
      "content": "<pad>",
      "single_word": false,
      "lstrip": false,
      "rstrip": false,
      "normalized": false,
      "special": true
    },
    {
      "id": 1,
      "content": "<unk>",
      "single_word": false,
      "lstrip": false,
      "rstrip": false,
      "normalized": false,
      "special": true
    },
    {
      "id": 2,
      "content": "<eos>",
      "single_word": false,
      "lstrip": false,
      "rstrip": false,
      "normalized": false,
      "special": true
    }
  ],
  "normalizer": {
    "type": "Sequence",
    "normalizers": [
      {
        "type": "NFKC"
      },
      {
        "type": "Replace",
        "pattern": {
          "Regex": "[^\\'\\n\\ \\!\\\"\\#\\$\\%\\&\\'\\(\\)\\*\\+\\,\\-\\.\\/0123456789\\:\\;\\<\\=\\>\\?\\@ABCDEFGHIJKLMNOPQRSTUVWXYZ\\[\\\\\\]\\^\\_\\`abcdefghijklmnopqrstuvwxyz\\{\\|\\}\\~\\±\\´\\·ÂÃÄÅÇÖÜâçéêîöûüĞğ\\İ\\ıŞş\\‘\\’\\…\\′\\']"
        },
        "content": ""
      }
    ]
  },
  "pre_tokenizer": {
    "type": "Sequence",
    "pretokenizers": [
      {
        "type": "Digits",
        "individual_digits": true
      },
      {
        "type": "Whitespace"
      },
      {
        "type": "Punctuation",
        "behavior": "Isolated"
      },
      {
        "type": "Metaspace",
        "replacement": "▁",
        "add_prefix_space": true
      }
    ]
  },
  "post_processor": {
    "type": "TemplateProcessing",
    "single": [
      {
        "Sequence": {
          "id": "A",
          "type_id": 0
        }
      },
      {
        "SpecialToken": {
          "id": "<eos>",
          "type_id": 0
        }
      }
    ],
    "pair": [
      {
        "Sequence": {
          "id": "A",
          "type_id": 0
        }
      },
      {
        "Sequence": {
          "id": "B",
          "type_id": 1
        }
      }
    ],
    "special_tokens": {
      "<eos>": {
        "id": "<eos>",
        "ids": [
          2
        ],
        "tokens": [
          "<eos>"
        ]
      }
    }
  },
  "decoder": {
    "type": "Metaspace",
    "replacement": "▁",
    "add_prefix_space": true
  },
  "model": {
    "type": "Unigram",
    "unk_id": 1,
    "vocab": [
      [
        "<pad>",
        0.0
      ],
      [
        "<unk>",
        0.0
      ],
      [
        "<eos>",
        0.0
      ],
      [
        "▁",
        -2.117119836228291
      ],
      [
        ".",
        -3.0629820978513216
      ],
      [
        ",",
        -3.3995461576244885
      ],
      [
        "▁ve",
        -4.06334330410181
      ],
      [
        "▁bir",
        -4.406556744756379
      ],
      [
        "n",
        -4.513346172043388
      ],
      [
        "e",
        -4.679381964240136
      ],
      [
        "a",
        -4.834027241726243
      ],
      [
        "i",
        -5.052188826917895
      ],
      [
        "▁bu",
        -5.286972412513556
      ],
      [
        "▁için",
        -5.336421946562453
      ],
      [
        "▁ile",
        -5.463996442690593
      ],
      [
        "▁de",
        -5.537016750250405
      ],
      [
        "▁da",
        -5.5793436405049235
      ],
      [
        "m",
        -5.6364031774089085
      ],
      [
        "da",
        -5.7173237754513675
      ],
      [
        "k",
        -5.732442730701699
      ],
      [
        "▁olarak",
        -5.809262743863741
      ],
      [
        "de",
        -5.837212105245635
      ],
      [
        "▁Bu",
        -5.8695980614018115
      ],
      [
        "▁çok",
        -5.945205113971786
      ],
      [
        "nin",
        -5.970596417012137
      ],
      [
        "▁olan",
        -6.029416305041165
      ],
      [
        "lar",
        -6.045821151160414
      ],
      [
        "nın",
        -6.049787556705912
      ],
      [
        "▁daha",
        -6.1412924872075205
      ],
      [
        "s",
        -6.145929725518313
      ],
      [
        "in",
        -6.147073138563552
      ],
      [
        "▁en",
        -6.166711944397315
      ],
      [
        "ler",
        -6.1805851664529055
      ],
      [
        "l",
        -6.199209711966979
      ],
      [
        "den",
        -6.2238969347195106
      ],
      [
        "▁gibi",
        -6.254158565584387
      ],
      [
        "dan",
        -6.256294776058821
      ],
      [
        "o",
        -6.2711929221981215
      ],
      [
        "ya",
        -6.372708620658161
      ],
      [
        "ı",
        -6.375899065258894
      ],
      [
        "r",
        -6.448237041844989
      ],
      [
        "▁kadar",
        -6.460776592287836
      ],
      [
        "t",
        -6.4725075383317705
      ],
      [
        "▁her",
        -6.492258086072052
      ],
      [
        "p",
        -6.532042705392021
      ],
      [
        "ın",
        -6.562226520517841
      ],
      [
        "ye",
        -6.593616504956524
      ],
      [
        "▁sonra",
        -6.600841151231226
      ],
      [
        "y",
        -6.601066096234302
      ],
      [
        "u",
        -6.636978249872868
      ],
      [
        "▁ise",
        -6.653135495962879
      ],
      [
        "z",
        -6.656462227836904
      ],
      [
        "dir",
        -6.662098115628535
      ],
      [
        "la",
        -6.684148001769817
      ],
      [
        "leri",
        -6.688307648772991
      ],
      [
        "le",
        -6.690561967976732
      ],
      [
        "ları",
        -6.710420963645484
      ],
      [
        "d",
        -6.731033146104567
      ],
      [
        "si",
        -6.740329220952667
      ],
      [
        "▁veya",
        -6.835986502169369
      ],
      [
        "▁var",
        -6.839900116586261
      ],
      [
        "ki",
        -6.86628601961101
      ],
      [
        "▁göre",
        -6.899397747922009
      ],
      [
        "dır",
        -6.916324718496009
      ],
      [
        "▁yer",
        -6.92892132021384
      ],
      [
        "▁büyük",
        -6.933029294286422
      ],
      [
        "▁yeni",
        -6.954118182385855
      ],
      [
        "▁tarafından",
        -6.958474528218153
      ],
      [
        "▁olduğu",
        -6.980787556393249
      ],
      [
        "▁zaman",
        -6.986278713576938
      ],
      [
        "yla",
        -7.005362393005296
      ],
      [
        "▁ilk",
        -7.006760760095425
      ],
      [
        "▁iyi",
        -7.025044430672091
      ],
      [
        "▁ki",
        -7.033409599771124
      ],
      [
        "lı",
        -7.061065964953528
      ],
      [
        "▁şekilde",
        -7.09034747095853
      ],
      [
        "▁ama",
        -7.0930263638496225
      ],
      [
        "▁Bir",
        -7.100454273156318
      ],
      [
        "te",
        -7.103874736832697
      ],
      [
        "▁A",
        -7.114411533046628
      ],
      [
        "ta",
        -7.125822864422629
      ],
      [
        "yle",
        -7.129422533397042
      ],
      [
        "yı",
        -7.138884752180491
      ],
      [
        "▁tüm",
        -7.167292520927155
      ],
      [
        "▁ilgili",
        -7.169679196443305
      ],
      [
        "▁olduğunu",
        -7.172272767052997
      ],
      [
        "lerin",
        -7.1981161474864646
      ],
      [
        "nda",
        -7.204436811459818
      ],
      [
        "▁ya",
        -7.2177478970586755
      ],
      [
        "sı",
        -7.223681502431573
      ],
      [
        "▁iki",
        -7.2411135239512365
      ],
      [
        "▁önce",
        -7.247490718374264
      ],
      [
        "▁son",
        -7.251370722619665
      ],
      [
        "ların",
        -7.284325325959774
      ],
      [
        "▁devam",
        -7.292743367403082
      ],
      [
        "▁içinde",
        -7.3003333947347055
      ],
      [
        "▁önemli",
        -7.305977261509076
      ],
      [
        "▁değil",
        -7.308980525591798
      ],
      [
        "▁gün",
        -7.3155441834108785
      ],
      [
        "▁arasında",
        -7.322610655927352
      ],
      [
        "▁yıl",
        -7.338527535520489
      ],
      [
        "▁hem",
        -7.343967573121452
      ],
      [
        "b",
        -7.349551068848264
      ],
      [
        "larını",
        -7.353904199705436
      ],
      [
        "arak",
        -7.354263714858837
      ],
      [
        "▁O",
        -7.355293690118023
      ],
      [
        "▁diye",
        -7.368563975276508
      ],
      [
        "▁fazla",
        -7.370429588086722
      ],
      [
        "lerini",
        -7.375128524584246
      ],
      [
        "ken",
        -7.376363310435433
      ],
      [
        "sine",
        -7.3901604536819345
      ],
      [
        "▁karşı",
        -7.404030057510019
      ],
      [
        "▁birlikte",
        -7.40447173791698
      ],
      [
        "▁aynı",
        -7.416433134120602
      ],
      [
        "▁diğer",
        -7.417042898869223
      ],
      [
        "▁S",
        -7.421451155157845
      ],
      [
        "un",
        -7.422794600726178
      ],
      [
        "▁Türk",
        -7.433816311008833
      ],
      [
        "▁güzel",
        -7.435633062521301
      ],
      [
        "▁kendi",
        -7.465088499779938
      ],
      [
        "▁sahip",
        -7.477164728388237
      ],
      [
        "▁Türkiye",
        -7.478321846281832
      ],
      [
        "▁B",
        -7.483709349884851
      ],
      [
        "▁iş",
        -7.494066424108936
      ],
      [
        "lik",
        -7.540666846258212
      ],
      [
        "ten",
        -7.543030889199043
      ],
      [
        "▁farklı",
        -7.5479618740811745
      ],
      [
        "▁yapılan",
        -7.551593759695608
      ],
      [
        "▁alan",
        -7.553039667708443
      ],
      [
        "▁eden",
        -7.55573071790627
      ],
      [
        "▁oldu",
        -7.558127830999657
      ],
      [
        "ini",
        -7.558863034287047
      ],
      [
        "v",
        -7.560958736718948
      ],
      [
        "ine",
        -7.563147662796155
      ],
      [
        "sına",
        -7.563684689054465
      ],
      [
        "lere",
        -7.57067121779561
      ],
      [
        "▁K",
        -7.572143250087537
      ],
      [
        "▁Başkanı",
        -7.574140358220534
      ],
      [
        "▁sadece",
        -7.580958742851626
      ],
      [
        "▁gelen",
        -7.59252377349873
      ],
      [
        "larına",
        -7.597428296508799
      ],
      [
        "▁M",
        -7.59920840476364
      ],
      [
        "▁T",
        -7.600503962387821
      ],
      [
        "▁özel",
        -7.604532819660015
      ],
      [
        "lara",
        -7.606859657755145
      ],
      [
        "tan",
        -7.608052134464312
      ],
      [
        "tır",
        -7.609607429144642
      ],
      [
        "▁yok",
        -7.612980998186833
      ],
      [
        "sini",
        -7.617113176622139
      ],
      [
        "ndan",
        -7.627203224321354
      ],
      [
        "▁tek",
        -7.631337235944921
      ],
      [
        "▁olmak",
        -7.633212099663112
      ],
      [
        "▁bin",
        -7.634878012927747
      ],
      [
        "▁ben",
        -7.638111671856807
      ],
      [
        "▁nasıl",
        -7.652090737034797
      ],
      [
        "▁dedi",
        -7.653930593175927
      ],
      [
        "sını",
        -7.656571554029661
      ],
      [
        "▁bulunan",
        -7.659627449927244
      ],
      [
        "lerine",
        -7.6605699173427055
      ],
      [
        "erek",
        -7.66213827678032
      ],
      [
        "▁bile",
        -7.662304609392784
      ],
      [
        "ını",
        -7.675385626771703
      ],
      [
        "daki",
        -7.682592141302868
      ],
      [
        "▁yılında",
        -7.686500968323756
      ],
      [
        "▁şey",
        -7.68946302088777
      ],
      [
        "ü",
        -7.691825132288857
      ],
      [
        "ına",
        -7.6935237697744
      ],
      [
        "▁doğru",
        -7.697975919045049
      ],
      [
        "ca",
        -7.698317139384882
      ],
      [
        "▁olması",
        -7.7090772282543565
      ],
      [
        "miz",
        -7.716675996607608
      ],
      [
        "▁D",
        -7.720796007525344
      ],
      [
        "mız",
        -7.727761614803006
      ],
      [
        "▁üzere",
        -7.734708860485441
      ],
      [
        "niz",
        -7.736778335802521
      ],
      [
        "tir",
        -7.7373680463207
      ],
      [
        "deki",
        -7.753713761523869
      ],
      [
        "nde",
        -7.757124823370187
      ],
      [
        "c",
        -7.760442362523074
      ],
      [
        "▁üzerine",
        -7.769023840486213
      ],
      [
        "ç",
        -7.771168931333962
      ],
      [
        "h",
        -7.773273874174139
      ],
      [
        "▁uygun",
        -7.776738891613812
      ],
      [
        "larının",
        -7.791317975603857
      ],
      [
        "er",
        -7.792443043150486
      ],
      [
        "▁C",
        -7.793199112264912
      ],
      [
        "g",
        -7.79956787154695
      ],
      [
        "▁başka",
        -7.801095670643239
      ],
      [
        "lerde",
        -7.805205030601872
      ],
      [
        "▁üzerinde",
        -7.805404880314013
      ],
      [
        "nız",
        -7.8103977672246625
      ],
      [
        "▁yüksek",
        -7.816772690840208
      ],
      [
        "▁süre",
        -7.822222799985854
      ],
      [
        "▁E",
        -7.825127440957544
      ],
      [
        "lerinin",
        -7.841770512716623
      ],
      [
        "▁az",
        -7.852214123392981
      ],
      [
        "▁Her",
        -7.857113443067592
      ],
      [
        "▁hiç",
        -7.859038965901123
      ],
      [
        "▁olur",
        -7.8645705163031
      ],
      [
        "▁etti",
        -7.864685001042812
      ],
      [
        "▁ortaya",
        -7.8695785841691315
      ],
      [
        "▁hizmet",
        -7.87730081237576
      ],
      [
        "nun",
        -7.887367342276924
      ],
      [
        "▁bilgi",
        -7.89090885091764
      ],
      [
        "larda",
        -7.89637801988726
      ],
      [
        "▁su",
        -7.902855883036141
      ],
      [
        "▁Genel",
        -7.902958976885593
      ],
      [
        "▁hakkında",
        -7.90661540368399
      ],
      [
        "▁mi",
        -7.922048352437303
      ],
      [
        "ce",
        -7.928416157476649
      ],
      [
        "▁uzun",
        -7.934264319778592
      ],
      [
        "▁bütün",
        -7.9378141397145665
      ],
      [
        "▁Ancak",
        -7.944253249884694
      ],
      [
        "▁kişi",
        -7.961126633745336
      ],
      [
        "lerle",
        -7.961605023490689
      ],
      [
        "▁kabul",
        -7.9632814641224385
      ],
      [
        "lık",
        -7.967076743397756
      ],
      [
        "▁biri",
        -7.970099716055126
      ],
      [
        "▁bazı",
        -7.974615061047455
      ],
      [
        "uz",
        -7.975667824753767
      ],
      [
        "▁yüzde",
        -7.9777068993524605
      ],
      [
        "▁insan",
        -7.979860783994361
      ],
      [
        "larla",
        -7.987670699695865
      ],
      [
        "▁ifade",
        -7.988211039269476
      ],
      [
        "▁ancak",
        -7.991841960529632
      ],
      [
        "▁olacak",
        -8.00447184474201
      ],
      [
        "▁Ben",
        -8.00672902641885
      ],
      [
        "▁içerisinde",
        -8.006838488001003
      ],
      [
        "▁tam",
        -8.00989269655441
      ],
      [
        "ş",
        -8.013080368038482
      ],
      [
        "lerden",
        -8.017537027449023
      ],
      [
        "f",
        -8.02280051578353
      ],
      [
        "▁yerine",
        -8.023115101611697
      ],
      [
        "▁İstanbul",
        -8.023692152325994
      ],
      [
        "▁neden",
        -8.024425414741248
      ],
      [
        "▁eğitim",
        -8.03694936602775
      ],
      [
        "▁konusunda",
        -8.037032107530116
      ],
      [
        "▁edilen",
        -8.039070872476787
      ],
      [
        "▁saat",
        -8.040682689705266
      ],
      [
        "▁böyle",
        -8.059749596605373
      ],
      [
        "▁vardır",
        -8.061994638852163
      ],
      [
        "▁G",
        -8.070095467530836
      ],
      [
        "▁birçok",
        -8.071423338925623
      ],
      [
        "▁Ama",
        -8.080816254336423
      ],
      [
        "▁artık",
        -8.083832496993928
      ],
      [
        "lerinden",
        -8.087252890610703
      ],
      [
        "▁para",
        -8.088858773560052
      ],
      [
        "lardan",
        -8.089520322778304
      ],
      [
        "▁ardından",
        -8.090926143878294
      ],
      [
        "▁yaptığı",
        -8.10244306141482
      ],
      [
        "▁açık",
        -8.106988062692263
      ],
      [
        "▁şu",
        -8.111163475793976
      ],
      [
        "▁yine",
        -8.111533576899632
      ],
      [
        "inde",
        -8.118828017480116
      ],
      [
        "▁etmek",
        -8.11954253317858
      ],
      [
        "▁yapan",
        -8.124230011913584
      ],
      [
        "▁En",
        -8.140317807117967
      ],
      [
        "▁P",
        -8.14599169669693
      ],
      [
        "dur",
        -8.14937201399371
      ],
      [
        "inin",
        -8.157738997582884
      ],
      [
        "▁yol",
        -8.15862977202978
      ],
      [
        "▁ay",
        -8.161305348955468
      ],
      [
        "mektedir",
        -8.162036761168515
      ],
      [
        "▁kez",
        -8.162338650859615
      ],
      [
        "dı",
        -8.162607867622112
      ],
      [
        "▁olsun",
        -8.164836840577602
      ],
      [
        "▁H",
        -8.166955720271199
      ],
      [
        "▁söz",
        -8.169195541075835
      ],
      [
        "▁benim",
        -8.17193652234529
      ],
      [
        "▁zamanda",
        -8.175755117094885
      ],
      [
        "▁karar",
        -8.176337039887471
      ],
      [
        "▁hemen",
        -8.1792219216667
      ],
      [
        "▁geri",
        -8.183125501563863
      ],
      [
        "▁yakın",
        -8.18439343161322
      ],
      [
        "▁bunu",
        -8.18448961021166
      ],
      [
        "▁kısa",
        -8.190902385124716
      ],
      [
        "▁geçen",
        -8.19121655514616
      ],
      [
        "▁altında",
        -8.191356092903856
      ],
      [
        "larından",
        -8.193981329314106
      ],
      [
        "um",
        -8.196475334203807
      ],
      [
        "▁milyon",
        -8.196783731015493
      ],
      [
        "▁dikkat",
        -8.197391961608536
      ],
      [
        "▁günü",
        -8.201026121503556
      ],
      [
        "mış",
        -8.20220748857324
      ],
      [
        "▁çalışma",
        -8.207534130707442
      ],
      [
        "▁göz",
        -8.209699778138356
      ],
      [
        "larında",
        -8.211740200290679
      ],
      [
        "▁ediyor",
        -8.213958418255705
      ],
      [
        "▁olup",
        -8.215944049536823
      ],
      [
        "▁Bunun",
        -8.21811669242202
      ],
      [
        "maktadır",
        -8.21969614840654
      ],
      [
        "▁oldukça",
        -8.223604405377186
      ],
      [
        "▁Ayrıca",
        -8.22377871318788
      ],
      [
        "▁size",
        -8.22600452177257
      ],
      [
        "lerinde",
        -8.229376884568914
      ],
      [
        "▁Ve",
        -8.22952002925166
      ],
      [
        "▁küçük",
        -8.230256134100529
      ],
      [
        "▁tercih",
        -8.231385443253387
      ],
      [
        "▁geldi",
        -8.238796193842642
      ],
      [
        "▁olabilir",
        -8.239309112075862
      ],
      [
        "du",
        -8.240359023591887
      ],
      [
        "▁hiçbir",
        -8.244844557486019
      ],
      [
        "▁sıra",
        -8.2523439331028
      ],
      [
        "nden",
        -8.256135080942855
      ],
      [
        "▁Daha",
        -8.261457628893492
      ],
      [
        "▁elde",
        -8.264857566946075
      ],
      [
        "▁bağlı",
        -8.266756684986763
      ],
      [
        "▁Türkiyenin",
        -8.267679096890566
      ],
      [
        "▁destek",
        -8.271849910043107
      ],
      [
        "▁biraz",
        -8.280009463692027
      ],
      [
        "▁pek",
        -8.282574581516124
      ],
      [
        "▁hafta",
        -8.283306151958014
      ],
      [
        "▁sosyal",
        -8.285104958522675
      ],
      [
        "▁biz",
        -8.28969495315025
      ],
      [
        "▁Dr",
        -8.291082960286579
      ],
      [
        "▁gereken",
        -8.295253552593206
      ],
      [
        "sinde",
        -8.2966607090277
      ],
      [
        "▁söyledi",
        -8.300844340943625
      ],
      [
        "▁eski",
        -8.302381263066176
      ],
      [
        "▁Yeni",
        -8.304646829867437
      ],
      [
        "▁üzerinden",
        -8.309225939649117
      ],
      [
        "▁Belediye",
        -8.31620623546518
      ],
      [
        "oğlu",
        -8.31713849651244
      ],
      [
        "▁özellikle",
        -8.317679604679482
      ],
      [
        "▁yani",
        -8.32939739015308
      ],
      [
        "▁yapmak",
        -8.329846908008998
      ],
      [
        "▁bana",
        -8.334795456748724
      ],
      [
        "sinin",
        -8.338196485529902
      ],
      [
        "▁Çünkü",
        -8.33919357196747
      ],
      [
        "iz",
        -8.341716713566298
      ],
      [
        "nızı",
        -8.343519645355986
      ],
      [
        "▁veren",
        -8.346557165937078
      ],
      [
        "▁dünya",
        -8.350680533404738
      ],
      [
        "▁tekrar",
        -8.352917995769163
      ],
      [
        "▁Eğitim",
        -8.356542566391198
      ],
      [
        "nizi",
        -8.357795437982563
      ],
      [
        "▁olsa",
        -8.358245863244479
      ],
      [
        "▁onu",
        -8.358447559964103
      ],
      [
        "▁ait",
        -8.363251860299913
      ],
      [
        "▁mı",
        -8.365384195745662
      ],
      [
        "▁üç",
        -8.367517467331876
      ],
      [
        "▁Türkiyede",
        -8.369282860362144
      ],
      [
        "▁Ne",
        -8.376531690524983
      ],
      [
        "▁yönelik",
        -8.377510103049802
      ],
      [
        "miş",
        -8.381612706860631
      ],
      [
        "▁bugün",
        -8.381716497262763
      ],
      [
        "▁F",
        -8.381980847130116
      ],
      [
        "▁L",
        -8.385092717017201
      ],
      [
        "▁kadın",
        -8.390520491707406
      ],
      [
        "▁başladı",
        -8.390572670500736
      ],
      [
        "▁nedeniyle",
        -8.394416969252982
      ],
      [
        "▁ev",
        -8.399523610046526
      ],
      [
        "▁dışında",
        -8.40125662384955
      ],
      [
        "▁durum",
        -8.401915195990785
      ],
      [
        "▁herhangi",
        -8.404310370060777
      ],
      [
        "▁genel",
        -8.410250079118796
      ],
      [
        "▁değildir",
        -8.412387864301875
      ],
      [
        "▁kolay",
        -8.415408203084276
      ],
      [
        "▁Eğer",
        -8.417885520917968
      ],
      [
        "▁gerek",
        -8.418363437507667
      ],
      [
        "▁konusu",
        -8.41934040160904
      ],
      [
        "▁dolayı",
        -8.424994331197244
      ],
      [
        "▁onun",
        -8.42798807842519
      ],
      [
        "▁rağmen",
        -8.435654430615298
      ],
      [
        "▁bizim",
        -8.438766093485821
      ],
      [
        "▁Biz",
        -8.439226202824608
      ],
      [
        "siniz",
        -8.441475543090105
      ],
      [
        "▁yeniden",
        -8.441965177725383
      ],
      [
        "▁iç",
        -8.44197594603415
      ],
      [
        "▁çıkan",
        -8.449548027050328
      ],
      [
        "▁gelir",
        -8.450082774585795
      ],
      [
        "▁I",
        -8.452280765747428
      ],
      [
        "▁olmayan",
        -8.455359763783424
      ],
      [
        "▁Avrupa",
        -8.456054962593683
      ],
      [
        "▁bunun",
        -8.456585270503481
      ],
      [
        "▁zor",
        -8.460467379178633
      ],
      [
        "sin",
        -8.460805939197126
      ],
      [
        "▁burada",
        -8.462524340930903
      ],
      [
        "ün",
        -8.469256135465468
      ],
      [
        "▁sağlık",
        -8.471383353186443
      ],
      [
        "▁ilişkin",
        -8.472330995467628
      ],
      [
        "▁ikinci",
        -8.472468047847368
      ],
      [
        "▁durumda",
        -8.473182289217478
      ],
      [
        "▁Son",
        -8.48233406993591
      ],
      [
        "▁mümkün",
        -8.484851180024565
      ],
      [
        "▁gerçek",
        -8.485508022567242
      ],
      [
        "▁hızlı",
        -8.486841598902414
      ],
      [
        "▁N",
        -8.487903414681762
      ],
      [
        "▁takip",
        -8.494321597347028
      ],
      [
        "▁derece",
        -8.497554279908789
      ],
      [
        "▁temel",
        -8.49757190455578
      ],
      [
        "▁Allah",
        -8.499668746193375
      ],
      [
        "▁hale",
        -8.500796007129658
      ],
      [
        "▁çeşitli",
        -8.501790669331907
      ],
      [
        "▁eder",
        -8.507288844766036
      ],
      [
        "▁konu",
        -8.511407508510919
      ],
      [
        "siz",
        -8.516199929239965
      ],
      [
        "▁Ankara",
        -8.516485746952345
      ],
      [
        "yor",
        -8.518519843014548
      ],
      [
        "▁üst",
        -8.520240294420278
      ],
      [
        "▁sahibi",
        -8.52223378413495
      ],
      [
        "▁boyunca",
        -8.523443939526747
      ],
      [
        "▁yanı",
        -8.523545762913265
      ],
      [
        "▁hava",
        -8.523902220129056
      ],
      [
        "▁gece",
        -8.52404932677086
      ],
      [
        "ci",
        -8.525579208463371
      ],
      [
        "▁TL",
        -8.526059588132792
      ],
      [
        "▁yanında",
        -8.526941905833016
      ],
      [
        "▁sayesinde",
        -8.530124637743155
      ],
      [
        "▁ürün",
        -8.531409393536176
      ],
      [
        "▁tarihi",
        -8.536817217807387
      ],
      [
        "▁Dünya",
        -8.5395072143125
      ],
      [
        "▁çocuk",
        -8.53991049307584
      ],
      [
        "▁halinde",
        -8.540986249122712
      ],
      [
        "▁yardımcı",
        -8.541726445860727
      ],
      [
        "ktan",
        -8.544204752312625
      ],
      [
        "▁ön",
        -8.544565118278246
      ],
      [
        "î",
        -8.544654033848214
      ],
      [
        "▁anda",
        -8.544784553404762
      ],
      [
        "▁kontrol",
        -8.546251924735103
      ],
      [
        "▁almak",
        -8.548261433099427
      ],
      [
        "▁Üniversitesi",
        -8.549164746228357
      ],
      [
        "▁görev",
        -8.553484034053653
      ],
      [
        "▁gerekli",
        -8.553857216660278
      ],
      [
        "▁hareket",
        -8.5597856965731
      ],
      [
        "▁gerekir",
        -8.560549875743094
      ],
      [
        "abilirsiniz",
        -8.56238647796927
      ],
      [
        "▁hep",
        -8.563050323116768
      ],
      [
        "▁ayrı",
        -8.563450373400247
      ],
      [
        "▁ana",
        -8.570595138988308
      ],
      [
        "▁İl",
        -8.571134539656295
      ],
      [
        "▁kapsamında",
        -8.575831148087428
      ],
      [
        "▁oluyor",
        -8.58163440436555
      ],
      [
        "ir",
        -8.581740703433397
      ],
      [
        "▁türlü",
        -8.582195902433947
      ],
      [
        "▁adet",
        -8.583121704945494
      ],
      [
        "▁Çok",
        -8.583451167913257
      ],
      [
        "▁yaklaşık",
        -8.584533248089244
      ],
      [
        "sında",
        -8.590398727283343
      ],
      [
        "▁bize",
        -8.590621856386232
      ],
      [
        "▁beni",
        -8.592318228957218
      ],
      [
        "▁Parti",
        -8.592793112891059
      ],
      [
        "▁ederek",
        -8.592820905483643
      ],
      [
        "▁ziyaret",
        -8.598443384840632
      ],
      [
        "▁AB",
        -8.599777784452808
      ],
      [
        "▁ülke",
        -8.601035805229108
      ],
      [
        "▁konuda",
        -8.601371915831576
      ],
      [
        "▁tarihinde",
        -8.603130876244135
      ],
      [
        "▁İlk",
        -8.603770731208119
      ],
      [
        "▁Ali",
        -8.60515730058463
      ],
      [
        "▁kötü",
        -8.605981543724303
      ],
      [
        "▁olacaktır",
        -8.606750283318469
      ],
      [
        "▁V",
        -8.609594492160182
      ],
      [
        "▁ettiği",
        -8.615624144008606
      ],
      [
        "▁adı",
        -8.61607547775707
      ],
      [
        "▁Y",
        -8.62143808296629
      ],
      [
        "▁oyun",
        -8.629338168644617
      ],
      [
        "▁beraber",
        -8.62939405997897
      ],
      [
        "▁sizin",
        -8.630832934496935
      ],
      [
        "▁sürekli",
        -8.631338828387898
      ],
      [
        "▁Başkan",
        -8.632157642713606
      ],
      [
        "▁hangi",
        -8.63227995565977
      ],
      [
        "▁yaptı",
        -8.635412096475225
      ],
      [
        "ında",
        -8.63642736705777
      ],
      [
        "mıştır",
        -8.637238605972406
      ],
      [
        "▁aldı",
        -8.642067904177628
      ],
      [
        "▁verdi",
        -8.64300445811139
      ],
      [
        "▁sistemi",
        -8.64372620293687
      ],
      [
        "▁verilen",
        -8.646669807330184
      ],
      [
        "x",
        -8.649424093513176
      ],
      [
        "▁şöyle",
        -8.652615142622144
      ],
      [
        "▁hazır",
        -8.654153037117688
      ],
      [
        "▁ona",
        -8.658218511514283
      ],
      [
        "▁ara",
        -8.661641635324582
      ],
      [
        "▁vardı",
        -8.674028482614725
      ],
      [
        "dığını",
        -8.675265048267876
      ],
      [
        "su",
        -8.679808526490724
      ],
      [
        "▁açısından",
        -8.67986370031246
      ],
      [
        "miştir",
        -8.681321507274747
      ],
      [
        "▁adına",
        -8.682573425171224
      ],
      [
        "mı",
        -8.68508990130354
      ],
      [
        "▁nedenle",
        -8.68774898894744
      ],
      [
        "▁konuştu",
        -8.688259129540855
      ],
      [
        "sız",
        -8.688356012488537
      ],
      [
        "▁devlet",
        -8.69057579494464
      ],
      [
        "▁R",
        -8.693791120588175
      ],
      [
        "▁internet",
        -8.69950170943392
      ],
      [
        "▁belli",
        -8.70005146678584
      ],
      [
        "▁ABD",
        -8.703312943534833
      ],
      [
        "▁dakika",
        -8.704072697299425
      ],
      [
        "▁sık",
        -8.70496482102481
      ],
      [
        "▁şeklinde",
        -8.706286584459784
      ],
      [
        "▁yaz",
        -8.706493700857628
      ],
      [
        "▁çalışan",
        -8.707192586971805
      ],
      [
        "▁genç",
        -8.71049660590027
      ],
      [
        "ması",
        -8.710665421351045
      ],
      [
        "dığı",
        -8.715760351080984
      ],
      [
        "▁AK",
        -8.721076158822012
      ],
      [
        "sın",
        -8.721705796741968
      ],
      [
        "▁sırasında",
        -8.721810908796828
      ],
      [
        "▁olma",
        -8.723575051849416
      ],
      [
        "▁baş",
        -8.7277755391606
      ],
      [
        "sanız",
        -8.72795477209454
      ],
      [
        "▁başarılı",
        -8.72939597573145
      ],
      [
        "▁insanlar",
        -8.729700133008858
      ],
      [
        "▁sene",
        -8.729746453509758
      ],
      [
        "▁mücadele",
        -8.730876254377298
      ],
      [
        "▁Kurulu",
        -8.733153996838618
      ],
      [
        "▁kalan",
        -8.740798986014996
      ],
      [
        "▁sonunda",
        -8.743457810683344
      ],
      [
        "▁tedavi",
        -8.746380876488193
      ],
      [
        "▁bulunduğu",
        -8.750359816752194
      ],
      [
        "▁teşekkür",
        -8.75110581756777
      ],
      [
        "▁sorun",
        -8.751135228063886
      ],
      [
        "▁kişinin",
        -8.752695044415328
      ],
      [
        "▁Tüm",
        -8.755768444355793
      ],
      [
        "▁araç",
        -8.756937045401687
      ],
      [
        "cı",
        -8.757537746039311
      ],
      [
        "▁yaşam",
        -8.758389765272206
      ],
      [
        "▁doğal",
        -8.759403037908045
      ],
      [
        "▁yardım",
        -8.761350998631658
      ],
      [
        "▁çıktı",
        -8.762799219419211
      ],
      [
        "▁İş",
        -8.763247140220395
      ],
      [
        "▁geniş",
        -8.764598700703818
      ],
      [
        "liği",
        -8.765507905098584
      ],
      [
        "▁kullanılan",
        -8.76558427878871
      ],
      [
        "▁bi",
        -8.76563684050005
      ],
      [
        "▁proje",
        -8.767596928388205
      ],
      [
        "▁ortak",
        -8.76791670000595
      ],
      [
        "▁yapılacak",
        -8.768391471604694
      ],
      [
        "▁çünkü",
        -8.772314939350391
      ],
      [
        "▁ele",
        -8.77275466023297
      ],
      [
        "▁Mehmet",
        -8.77378891504158
      ],
      [
        "▁sonucu",
        -8.775423359838708
      ],
      [
        "▁öyle",
        -8.776914510007902
      ],
      [
        "unu",
        -8.778572242470757
      ],
      [
        "▁fark",
        -8.781752080894464
      ],
      [
        "▁mu",
        -8.78204209287036
      ],
      [
        "▁hak",
        -8.78239353869758
      ],
      [
        "mızı",
        -8.782799628754205
      ],
      [
        "▁çıkar",
        -8.783786429616239
      ],
      [
        "▁teknik",
        -8.789915033883284
      ],
      [
        "mizi",
        -8.792634667534946
      ],
      [
        "▁güçlü",
        -8.793369766260561
      ],
      [
        "▁enerji",
        -8.795247134990811
      ],
      [
        "▁Milli",
        -8.795739145181546
      ],
      [
        "▁Fakat",
        -8.798379986350607
      ],
      [
        "▁İşte",
        -8.801758287059199
      ],
      [
        "▁yüzden",
        -8.803569771699689
      ],
      [
        "▁itibaren",
        -8.80479462761582
      ],
      [
        "sel",
        -8.805206554266471
      ],
      [
        "▁Devlet",
        -8.807189701630698
      ],
      [
        "▁verdiği",
        -8.808397581942868
      ],
      [
        "▁tamamen",
        -8.808810635710437
      ],
      [
        "▁başarı",
        -8.808867953929415
      ],
      [
        "▁yemek",
        -8.809823190542444
      ],
      [
        "▁uygulama",
        -8.809960032517917
      ],
      [
        "▁zaten",
        -8.810808297116395
      ],
      [
        "▁geliyor",
        -8.812228208325589
      ],
      [
        "▁dahil",
        -8.812510375956661
      ],
      [
        "▁varsa",
        -8.813183699411814
      ],
      [
        "▁U",
        -8.813246588464379
      ],
      [
        "▁ilgi",
        -8.813524268071689
      ],
      [
        "▁ayrıca",
        -8.815216435179275
      ],
      [
        "▁fakat",
        -8.81539470641264
      ],
      [
        "▁aldığı",
        -8.815594366916049
      ],
      [
        "▁alt",
        -8.815673253737495
      ],
      [
        "▁gerekiyor",
        -8.822162088500042
      ],
      [
        "sının",
        -8.823812299879874
      ],
      [
        "▁haber",
        -8.824328121384758
      ],
      [
        "▁sayılı",
        -8.825761566279278
      ],
      [
        "▁Temmuz",
        -8.825764997764946
      ],
      [
        "▁sağ",
        -8.826564392878295
      ],
      [
        "▁kendini",
        -8.827839329959676
      ],
      [
        "▁arada",
        -8.82826807976587
      ],
      [
        "▁Burada",
        -8.829023814509608
      ],
      [
        "▁yerde",
        -8.829024754461175
      ],
      [
        "▁Yani",
        -8.829382561276022
      ],
      [
        "▁tespit",
        -8.830683327803674
      ],
      [
        "▁hatta",
        -8.830997437487596
      ],
      [
        "▁haline",
        -8.831969558786444
      ],
      [
        "▁Bugün",
        -8.832876736588059
      ],
      [
        "▁Mustafa",
        -8.833530682747728
      ],
      [
        "▁rahat",
        -8.835935219173905
      ],
      [
        "▁değer",
        -8.836519316227776
      ],
      [
        "▁giriş",
        -8.83679653711336
      ],
      [
        "▁Özellikle",
        -8.838273508487648
      ],
      [
        "▁düzenlenen",
        -8.838450069160384
      ],
      [
        "▁aslında",
        -8.83857526474909
      ],
      [
        "leriyle",
        -8.839356751359428
      ],
      [
        "▁yıllık",
        -8.841624705360287
      ],
      [
        "▁Belediyesi",
        -8.841916122711199
      ],
      [
        "▁toplam",
        -8.84348058255329
      ],
      [
        "▁birkaç",
        -8.844878659417306
      ],
      [
        "▁ekonomik",
        -8.84647746279759
      ],
      [
        "▁oluşan",
        -8.848050570879888
      ],
      [
        "▁siz",
        -8.848229814567604
      ],
      [
        "tur",
        -8.849568125960603
      ],
      [
        "▁güvenlik",
        -8.85032053549608
      ],
      [
        "▁dönemde",
        -8.851906108565696
      ],
      [
        "lan",
        -8.852250293362484
      ],
      [
        "▁isteyen",
        -8.855320461653367
      ],
      [
        "▁yana",
        -8.856423531032755
      ],
      [
        "▁seçim",
        -8.856722096613991
      ],
      [
        "▁mutlu",
        -8.858525502336024
      ],
      [
        "▁gelecek",
        -8.859043746980308
      ],
      [
        "▁edin",
        -8.861460250437203
      ],
      [
        "▁canlı",
        -8.861643376204817
      ],
      [
        "larıyla",
        -8.865314372680785
      ],
      [
        "▁yoktur",
        -8.865789537268038
      ],
      [
        "▁kız",
        -8.865910329658334
      ],
      [
        "▁dile",
        -8.867384258414072
      ],
      [
        "▁şimdi",
        -8.86759591101905
      ],
      [
        "▁amacıyla",
        -8.869843679194545
      ],
      [
        "sınız",
        -8.869881196102758
      ],
      [
        "▁mevcut",
        -8.86990226082536
      ],
      [
        "▁arasındaki",
        -8.870297778891647
      ],
      [
        "lü",
        -8.874612206266391
      ],
      [
        "▁meydana",
        -8.874962130152262
      ],
      [
        "▁kat",
        -8.877313104108289
      ],
      [
        "▁gerçekten",
        -8.880055612302671
      ],
      [
        "▁ciddi",
        -8.881283804046271
      ],
      [
        "▁insanların",
        -8.881383115981272
      ],
      [
        "▁Cumhurbaşkanı",
        -8.883299951183943
      ],
      [
        "▁tür",
        -8.88393768590966
      ],
      [
        "▁buna",
        -8.889359868701069
      ],
      [
        "▁Eylül",
        -8.89322116477477
      ],
      [
        "▁Büyük",
        -8.8960316084219
      ],
      [
        "yan",
        -8.898931536384946
      ],
      [
        "▁kitap",
        -8.899003525718932
      ],
      [
        "▁istiyorum",
        -8.901415145439705
      ],
      [
        "▁adam",
        -8.902108594719751
      ],
      [
        "nıza",
        -8.903736474643962
      ],
      [
        "▁yılı",
        -8.90379719343872
      ],
      [
        "▁yoğun",
        -8.90478271763977
      ],
      [
        "▁sizi",
        -8.905018016956916
      ],
      [
        "▁kaç",
        -8.907267941165045
      ],
      [
        "▁edildi",
        -8.908269856431044
      ],
      [
        "▁izin",
        -8.909051675551527
      ],
      [
        "▁Erdoğan",
        -8.90998621986843
      ],
      [
        "▁Bakanı",
        -8.911687650779045
      ],
      [
        "▁işlem",
        -8.912315232214048
      ],
      [
        "▁bulundu",
        -8.912430337267539
      ],
      [
        "▁imza",
        -8.91349804831335
      ],
      [
        "▁dünyanın",
        -8.914431907745957
      ],
      [
        "acak",
        -8.920338576019775
      ],
      [
        "▁kredi",
        -8.920907733473802
      ],
      [
        "▁erkek",
        -8.921398265031723
      ],
      [
        "ydi",
        -8.922189220525548
      ],
      [
        "▁sayısı",
        -8.930742842037985
      ],
      [
        "▁yaş",
        -8.931077095636972
      ],
      [
        "▁Ak",
        -8.931081572765278
      ],
      [
        "▁sonrası",
        -8.93222908212658
      ],
      [
        "▁yanlış",
        -8.93275170240279
      ],
      [
        "▁zarar",
        -8.932846752653862
      ],
      [
        "▁Bakanlığı",
        -8.93401750406594
      ],
      [
        "▁güç",
        -8.934867393625392
      ],
      [
        "▁ses",
        -8.935012978023765
      ],
      [
        "▁ödeme",
        -8.937594215703868
      ],
      [
        "▁satın",
        -8.938185461584744
      ],
      [
        "▁film",
        -8.938786739853487
      ],
      [
        "▁web",
        -8.939336225080918
      ],
      [
        "▁telefon",
        -8.940018961072521
      ],
      [
        "▁takım",
        -8.941496562154535
      ],
      [
        "▁kan",
        -8.94197298682346
      ],
      [
        "▁dış",
        -8.942617408512856
      ],
      [
        "▁Şimdi",
        -8.944564089835886
      ],
      [
        "▁başına",
        -8.944680451116689
      ],
      [
        "▁başında",
        -8.946360974096237
      ],
      [
        "▁geç",
        -8.947521847481333
      ],
      [
        "▁günlük",
        -8.947941564409469
      ],
      [
        "▁durumu",
        -8.94946444963975
      ],
      [
        "▁hizmeti",
        -8.949847541298123
      ],
      [
        "sinden",
        -8.951086638099799
      ],
      [
        "▁bulunmaktadır",
        -8.951126629448492
      ],
      [
        "▁şeyler",
        -8.951194194512933
      ],
      [
        "▁üretim",
        -8.951205659284907
      ],
      [
        "inden",
        -8.952419763691708
      ],
      [
        "▁cevap",
        -8.953303753028287
      ],
      [
        "sal",
        -8.953386401280577
      ],
      [
        "▁Kasım",
        -8.95405530424382
      ],
      [
        "▁Özel",
        -8.954120918647297
      ],
      [
        "▁düşük",
        -8.957707980971158
      ],
      [
        "mizin",
        -8.958112664503386
      ],
      [
        "▁araya",
        -8.960086281620484
      ],
      [
        "▁aile",
        -8.960960054863024
      ],
      [
        "▁önceki",
        -8.961575563101318
      ],
      [
        "ecek",
        -8.961729431660622
      ],
      [
        "sun",
        -8.962487031472989
      ],
      [
        "▁adlı",
        -8.96539623814863
      ],
      [
        "diğini",
        -8.966310848239651
      ],
      [
        "▁bilgiler",
        -8.966343988676563
      ],
      [
        "▁ayında",
        -8.96678419030579
      ],
      [
        "▁Haziran",
        -8.968419009841847
      ],
      [
        "▁merkezi",
        -8.97033256341978
      ],
      [
        "▁talep",
        -8.970948874872684
      ],
      [
        "diği",
        -8.971302528144035
      ],
      [
        "▁başlayan",
        -8.972912317308356
      ],
      [
        "▁teslim",
        -8.97433620664659
      ],
      [
        "▁yere",
        -8.97434469251661
      ],
      [
        "▁ediyorum",
        -8.974832289031347
      ],
      [
        "▁yapma",
        -8.975553703200319
      ],
      [
        "▁yabancı",
        -8.975766514188106
      ],
      [
        "▁kaliteli",
        -8.975817803519426
      ],
      [
        "▁yazı",
        -8.976119124724828
      ],
      [
        "▁Yönetim",
        -8.977536683671362
      ],
      [
        "kten",
        -8.978887073955228
      ],
      [
        "▁yapı",
        -8.978925174006312
      ],
      [
        "▁Aynı",
        -8.97907611925232
      ],
      [
        "▁sizlere",
        -8.980975339775615
      ],
      [
        "▁mutlaka",
        -8.981332543184797
      ],
      [
        "ve",
        -8.983684506976026
      ],
      [
        "▁adım",
        -8.9856205046936
      ],
      [
        "▁siyasi",
        -8.986109020813192
      ],
      [
        "▁milyar",
        -8.986338456437496
      ],
      [
        "▁Osmanlı",
        -8.987414953819025
      ],
      [
        "▁altına",
        -8.988443144282193
      ],
      [
        "▁yolu",
        -8.988666898484418
      ],
      [
        "▁lira",
        -8.988839519801944
      ],
      [
        "▁alınan",
        -8.989346146626072
      ],
      [
        "▁spor",
        -8.990336185149776
      ],
      [
        "▁zorunda",
        -8.99143571356555
      ],
      [
        "▁ihtiyaç",
        -8.99176655854108
      ],
      [
        "▁Müdürü",
        -8.99218502158929
      ],
      [
        "▁yapılması",
        -8.992951593536688
      ],
      [
        "▁servis",
        -8.992992153216662
      ],
      [
        "▁dört",
        -8.994270005832494
      ],
      [
        "▁dair",
        -8.994403795245672
      ],
      [
        "ydı",
        -8.994744628596989
      ],
      [
        "▁soru",
        -8.994803284036314
      ],
      [
        "▁çözüm",
        -8.995062168581251
      ],
      [
        "▁Mayıs",
        -8.996319196659478
      ],
      [
        "▁dolu",
        -8.996462512758457
      ],
      [
        "rken",
        -8.99673826969916
      ],
      [
        "▁yüz",
        -8.999196257362113
      ],
      [
        "▁Ekim",
        -8.999240535083748
      ],
      [
        "▁Ahmet",
        -8.999889637775427
      ],
      [
        "▁olmadığı",
        -9.000527416381999
      ],
      [
        "▁ağır",
        -9.00077193868627
      ],
      [
        "▁yönetim",
        -9.002991696155505
      ],
      [
        "nca",
        -9.003727306203377
      ],
      [
        "▁El",
        -9.005066376614074
      ],
      [
        "▁belki",
        -9.005903275409723
      ],
      [
        "▁olmuş",
        -9.00829681592186
      ],
      [
        "▁Spor",
        -9.011061022760632
      ],
      [
        "▁Su",
        -9.01142991319896
      ],
      [
        "▁önünde",
        -9.012041612542864
      ],
      [
        "▁durumunda",
        -9.012053899636587
      ],
      [
        "▁önem",
        -9.01256142283994
      ],
      [
        "▁edilir",
        -9.01292519127231
      ],
      [
        "▁bulunuyor",
        -9.0148303546419
      ],
      [
        "▁olmadığını",
        -9.01644506398421
      ],
      [
        "▁alma",
        -9.016781698533732
      ],
      [
        "▁kararı",
        -9.016868356982394
      ],
      [
        "▁çalışmaları",
        -9.017607713082183
      ],
      [
        "▁başvuru",
        -9.01818119240168
      ],
      [
        "▁yaşayan",
        -9.019415271971845
      ],
      [
        "▁edilmesi",
        -9.019793156572211
      ],
      [
        "▁Mart",
        -9.020523931040731
      ],
      [
        "▁edecek",
        -9.022172974326583
      ],
      [
        "▁defa",
        -9.023693124504634
      ],
      [
        "▁vermek",
        -9.02540079085611
      ],
      [
        "▁yatırım",
        -9.025825953549605
      ],
      [
        "▁yeterli",
        -9.026110631224114
      ],
      [
        "▁halde",
        -9.028009552391914
      ],
      [
        "ının",
        -9.028691203274477
      ],
      [
        "iyor",
        -9.034243088064724
      ],
      [
        "▁gerektiğini",
        -9.034844109442528
      ],
      [
        "▁hayat",
        -9.036379612466495
      ],
      [
        "▁renk",
        -9.037809024170954
      ],
      [
        "▁bizi",
        -9.038140230967583
      ],
      [
        "▁beri",
        -9.041432840197432
      ],
      [
        "▁dönem",
        -9.041593348981928
      ],
      [
        "mak",
        -9.04233607122316
      ],
      [
        "▁kimse",
        -9.042661936583706
      ],
      [
        "▁orta",
        -9.04314589658194
      ],
      [
        "▁İ",
        -9.043362999065833
      ],
      [
        "▁Anadolu",
        -9.043824404365235
      ],
      [
        "▁tavsiye",
        -9.04476062118158
      ],
      [
        "▁sağlıklı",
        -9.044829368432344
      ],
      [
        "▁yayın",
        -9.04574273598096
      ],
      [
        "▁Prof",
        -9.04673229424619
      ],
      [
        "▁sen",
        -9.05132916359814
      ],
      [
        "▁sebep",
        -9.053052818947467
      ],
      [
        "lığı",
        -9.053703673303865
      ],
      [
        "▁alanında",
        -9.054671369728275
      ],
      [
        "▁sayıda",
        -9.054686267672825
      ],
      [
        "▁şehir",
        -9.054904263870055
      ],
      [
        "▁satış",
        -9.054997443467768
      ],
      [
        "▁dil",
        -9.05508470541188
      ],
      [
        "ebilirsiniz",
        -9.056960357731466
      ],
      [
        "▁Sosyal",
        -9.057260557862191
      ],
      [
        "▁herkes",
        -9.057826727281023
      ],
      [
        "▁ister",
        -9.058134975588416
      ],
      [
        "▁hedef",
        -9.058570476755412
      ],
      [
        "▁uzak",
        -9.058715459887614
      ],
      [
        "▁sonrasında",
        -9.06004299459919
      ],
      [
        "▁Sağlık",
        -9.060094479016238
      ],
      [
        "▁resmi",
        -9.061527151746146
      ],
      [
        "▁uluslararası",
        -9.06228691982932
      ],
      [
        "▁Bunlar",
        -9.06364228023346
      ],
      [
        "▁Diğer",
        -9.065003202861243
      ],
      [
        "▁hala",
        -9.066931008176445
      ],
      [
        "▁bahis",
        -9.06706351417854
      ],
      [
        "▁ince",
        -9.068192340301714
      ],
      [
        "▁kamu",
        -9.068687715882753
      ],
      [
        "▁etkili",
        -9.071044473231412
      ],
      [
        "▁eğer",
        -9.071143251736922
      ],
      [
        "▁sağlar",
        -9.072850961676412
      ],
      [
        "▁yandan",
        -9.074240851001608
      ],
      [
        "▁normal",
        -9.0744259211724
      ],
      [
        "▁Müdürlüğü",
        -9.07505508646355
      ],
      [
        "alım",
        -9.075865084115382
      ],
      [
        "▁olmaz",
        -9.076172068626514
      ],
      [
        "▁iletişim",
        -9.078034662889356
      ],
      [
        "▁sistem",
        -9.07974477747364
      ],
      [
        "▁kendisine",
        -9.080314218882938
      ],
      [
        "man",
        -9.08080196113236
      ],
      [
        "▁sıcak",
        -9.081893807624494
      ],
      [
        "▁anne",
        -9.082113749776338
      ],
      [
        "▁kullan",
        -9.08300620578422
      ],
      [
        "luk",
        -9.083510519518317
      ],
      [
        "▁İzmir",
        -9.084121614480006
      ],
      [
        "▁Ş",
        -9.084925684922222
      ],
      [
        "▁savaş",
        -9.086090965790754
      ],
      [
        "san",
        -9.09316750439321
      ],
      [
        "▁Merkezi",
        -9.093395469011446
      ],
      [
        "▁Büyükşehir",
        -9.093677755876522
      ],
      [
        "▁açıklama",
        -9.09390616288037
      ],
      [
        "▁olursa",
        -9.093927333524029
      ],
      [
        "▁belirten",
        -9.095298716920306
      ],
      [
        "▁Türkçe",
        -9.095701313894557
      ],
      [
        "nce",
        -9.0960017908125
      ],
      [
        "▁olay",
        -9.096384350590672
      ],
      [
        "▁onların",
        -9.096762057518822
      ],
      [
        "▁Nisan",
        -9.096858387701692
      ],
      [
        "mızın",
        -9.097310783584646
      ],
      [
        "▁Sonra",
        -9.098110367885692
      ],
      [
        "▁öğrenci",
        -9.100601914545647
      ],
      [
        "▁alıyor",
        -9.10175259727305
      ],
      [
        "▁örnek",
        -9.10381047374406
      ],
      [
        "▁firma",
        -9.10560211147861
      ],
      [
        "▁dolar",
        -9.10743183514113
      ],
      [
        "▁sağlamak",
        -9.108181091945184
      ],
      [
        "mizde",
        -9.111830132150605
      ],
      [
        "lama",
        -9.112674068015282
      ],
      [
        "▁araştırma",
        -9.113809817939927
      ],
      [
        "▁değerli",
        -9.11387453157029
      ],
      [
        "▁fiyat",
        -9.115506848788591
      ],
      [
        "▁madde",
        -9.116119046469697
      ],
      [
        "▁Benim",
        -9.116160865752274
      ],
      [
        "▁oy",
        -9.116477377382465
      ],
      [
        "▁alanda",
        -9.118446518732028
      ],
      [
        "▁Onun",
        -9.119999415351442
      ],
      [
        "▁etme",
        -9.121646974081324
      ],
      [
        "▁X",
        -9.12189479377682
      ],
      [
        "▁işi",
        -9.124153366569589
      ],
      [
        "▁onları",
        -9.124253910335394
      ],
      [
        "▁parça",
        -9.124676616694591
      ],
      [
        "▁Cumhuriyet",
        -9.125748462732396
      ],
      [
        "▁şeyi",
        -9.127578841474143
      ],
      [
        "▁okul",
        -9.128559095561604
      ],
      [
        "▁iddia",
        -9.130516106892852
      ],
      [
        "▁arama",
        -9.130639722978994
      ],
      [
        "▁yıllarda",
        -9.130649401668094
      ],
      [
        "▁bunlar",
        -9.130902171411432
      ],
      [
        "▁on",
        -9.131862807591286
      ],
      [
        "▁yada",
        -9.13353928763976
      ],
      [
        "▁tarih",
        -9.135951301095409
      ],
      [
        "▁çoğu",
        -9.136261145605786
      ],
      [
        "▁yaparak",
        -9.1365636111006
      ],
      [
        "▁ücretsiz",
        -9.137311787989342
      ],
      [
        "▁basın",
        -9.139953772913056
      ],
      [
        "▁alanı",
        -9.142518211608987
      ],
      [
        "▁döneminde",
        -9.143004550652035
      ],
      [
        "▁sohbet",
        -9.143379384404964
      ],
      [
        "▁başta",
        -9.143604913390847
      ],
      [
        "▁medya",
        -9.144032825829951
      ],
      [
        "▁terör",
        -9.144075942078958
      ],
      [
        "▁aylık",
        -9.144230024111858
      ],
      [
        "▁birisi",
        -9.144972965952416
      ],
      [
        "▁akşam",
        -9.148571839082932
      ],
      [
        "▁Siz",
        -9.149228568439796
      ],
      [
        "▁Şu",
        -9.149951215078422
      ],
      [
        "▁ünlü",
        -9.15106099284125
      ],
      [
        "▁müşteri",
        -9.151202322463895
      ],
      [
        "▁Hz",
        -9.151284008542254
      ],
      [
        "▁ilçe",
        -9.152728974267877
      ],
      [
        "▁yeri",
        -9.153179885219012
      ],
      [
        "▁İlçe",
        -9.153800772786106
      ],
      [
        "▁İyi",
        -9.154047312108004
      ],
      [
        "▁üye",
        -9.154127155390803
      ],
      [
        "▁kilo",
        -9.155704761364763
      ],
      [
        "▁lazım",
        -9.15678467372359
      ],
      [
        "▁gerekmektedir",
        -9.157532571620024
      ],
      [
        "▁ileri",
        -9.157914740639784
      ],
      [
        "▁beyaz",
        -9.159662157138126
      ],
      [
        "ız",
        -9.159668643815303
      ],
      [
        "nize",
        -9.16172478529792
      ],
      [
        "▁içi",
        -9.16209640297622
      ],
      [
        "▁parti",
        -9.16254513625759
      ],
      [
        "▁yaşanan",
        -9.163278822036272
      ],
      [
        "▁marka",
        -9.164744171863225
      ],
      [
        "▁grup",
        -9.16529621486542
      ],
      [
        "▁dünyada",
        -9.170387623017076
      ],
      [
        "▁çalışmalar",
        -9.170457205354513
      ],
      [
        "▁hasta",
        -9.175856547663557
      ],
      [
        "▁saç",
        -9.17765791273242
      ],
      [
        "▁ederim",
        -9.177986912790503
      ],
      [
        "▁yaşında",
        -9.17799786703424
      ],
      [
        "▁gösteren",
        -9.178089621339923
      ],
      [
        "▁Sen",
        -9.180142984630455
      ],
      [
        "▁kayıt",
        -9.180983815117418
      ],
      [
        "▁teknoloji",
        -9.183732409374253
      ],
      [
        "▁sırada",
        -9.185183546316546
      ],
      [
        "▁Kültür",
        -9.1857625381436
      ],
      [
        "▁onlar",
        -9.186114055867344
      ],
      [
        "dür",
        -9.186503012480967
      ],
      [
        "▁sağlayan",
        -9.186873339254898
      ],
      [
        "▁alarak",
        -9.18725767743842
      ],
      [
        "unun",
        -9.18880876199932
      ],
      [
        "▁Bunu",
        -9.191426060969256
      ],
      [
        "▁video",
        -9.191989842389546
      ],
      [
        "▁Kemal",
        -9.19304570012422
      ],
      [
        "▁Ya",
        -9.193206738320375
      ],
      [
        "▁Ocak",
        -9.194227881345162
      ],
      [
        "una",
        -9.194836877769344
      ],
      [
        "mize",
        -9.197437307419325
      ],
      [
        "▁olmuştur",
        -9.197522747223186
      ],
      [
        "▁işaret",
        -9.20020711384452
      ],
      [
        "▁ceza",
        -9.201109814876943
      ],
      [
        "▁faaliyet",
        -9.201245420284415
      ],
      [
        "▁Birliği",
        -9.204491804004984
      ],
      [
        "▁insanın",
        -9.204953206910606
      ],
      [
        "▁belirtti",
        -9.205511072709848
      ],
      [
        "▁diyor",
        -9.2057156972418
      ],
      [
        "▁yorum",
        -9.207064208751383
      ],
      [
        "nün",
        -9.207511756731677
      ],
      [
        "▁kişiler",
        -9.209621713406085
      ],
      [
        "yoruz",
        -9.209720802301232
      ],
      [
        "▁fotoğraf",
        -9.209877979288285
      ],
      [
        "▁geçti",
        -9.21031187164486
      ],
      [
        "▁saldırı",
        -9.210644531604965
      ],
      [
        "▁Ay",
        -9.211000332400792
      ],
      [
        "mesi",
        -9.21174925493736
      ],
      [
        "▁henüz",
        -9.212211309992597
      ],
      [
        "muz",
        -9.214157340873896
      ],
      [
        "iyle",
        -9.214727719078285
      ],
      [
        "▁dışı",
        -9.217997035162163
      ],
      [
        "▁ürünleri",
        -9.219226797911748
      ],
      [
        "▁benzer",
        -9.22009507944328
      ],
      [
        "▁kullanarak",
        -9.22066678189218
      ],
      [
        "▁karşısında",
        -9.221676043320764
      ],
      [
        "▁müzik",
        -9.221725217214903
      ],
      [
        "▁ders",
        -9.222160034914497
      ],
      [
        "▁al",
        -9.223131827440556
      ],
      [
        "▁getir",
        -9.22349105591992
      ],
      [
        "▁katkı",
        -9.22349463804445
      ],
      [
        "▁istediğiniz",
        -9.225577357416224
      ],
      [
        "elim",
        -9.227312849723331
      ],
      [
        "▁Sayın",
        -9.227794539555168
      ],
      [
        "▁net",
        -9.229882384121558
      ],
      [
        "▁puan",
        -9.232569558441622
      ],
      [
        "meyi",
        -9.232615206802478
      ],
      [
        "▁çevre",
        -9.232869752511588
      ],
      [
        "▁programı",
        -9.233910057581252
      ],
      [
        "▁escort",
        -9.234108009366324
      ],
      [
        "▁bakım",
        -9.234560439742726
      ],
      [
        "▁kendine",
        -9.235838442273703
      ],
      [
        "▁din",
        -9.238647998442731
      ],
      [
        "ndaki",
        -9.239056989611402
      ],
      [
        "▁sonuç",
        -9.239489332924128
      ],
      [
        "▁arası",
        -9.24076315323239
      ],
      [
        "▁hesap",
        -9.242093652361383
      ],
      [
        "▁tane",
        -9.2422377438866
      ],
      [
        "il",
        -9.242540217398467
      ],
      [
        "▁yılın",
        -9.243659913526162
      ],
      [
        "▁hayata",
        -9.243833952513649
      ],
      [
        "▁halk",
        -9.244176909900489
      ],
      [
        "▁özelliği",
        -9.24600675746006
      ],
      [
        "▁ilan",
        -9.24622897938851
      ],
      [
        "▁merak",
        -9.246380253658906
      ],
      [
        "▁ediyoruz",
        -9.24704941377728
      ],
      [
        "▁beş",
        -9.251707927829184
      ],
      [
        "▁kullanım",
        -9.251972046537032
      ],
      [
        "▁Derneği",
        -9.25225569607018
      ],
      [
        "▁hakkı",
        -9.252681056023055
      ],
      [
        "▁sitesi",
        -9.252964928804207
      ],
      [
        "▁basit",
        -9.25311739739709
      ],
      [
        "▁başlar",
        -9.25319467234625
      ],
      [
        "▁önüne",
        -9.254103725180906
      ],
      [
        "▁bundan",
        -9.254937547631354
      ],
      [
        "▁tabi",
        -9.256096864010576
      ],
      [
        "ıyor",
        -9.25622638505493
      ],
      [
        "▁anlamda",
        -9.256607694934674
      ],
      [
        "▁yoksa",
        -9.256719870619149
      ],
      [
        "▁zengin",
        -9.257937639629825
      ],
      [
        "liğe",
        -9.259374485980375
      ],
      [
        "▁İki",
        -9.259381171059
      ],
      [
        "▁İslam",
        -9.259812890964511
      ],
      [
        "▁aç",
        -9.26090424666038
      ],
      [
        "▁işte",
        -9.261621122583364
      ],
      [
        "▁kesinlikle",
        -9.261748132778042
      ],
      [
        "▁oyuncu",
        -9.262535646807496
      ],
      [
        "▁bol",
        -9.26318255523958
      ],
      [
        "sunuz",
        -9.263732721609223
      ],
      [
        "▁yapılır",
        -9.264889065084567
      ],
      [
        "▁tasarım",
        -9.26543380083591
      ],
      [
        "▁sabah",
        -9.26550435994441
      ],
      [
        "yız",
        -9.265774763430388
      ],
      [
        "dim",
        -9.2662773160275
      ],
      [
        "▁esas",
        -9.266639321812528
      ],
      [
        "▁asla",
        -9.267939251571107
      ],
      [
        "▁Aralık",
        -9.268129077981856
      ],
      [
        "▁kim",
        -9.26903173518263
      ],
      [
        "▁Ağustos",
        -9.270157479623842
      ],
      [
        "▁yapıldı",
        -9.27057645322169
      ],
      [
        "▁bilgileri",
        -9.27102104861812
      ],
      [
        "ebilir",
        -9.271082889027172
      ],
      [
        "▁yerinde",
        -9.27184002066869
      ],
      [
        "▁toplum",
        -9.271982237953722
      ],
      [
        "▁yurt",
        -9.272167093794502
      ],
      [
        "▁yazılı",
        -9.272610991779311
      ],
      [
        "▁Uluslararası",
        -9.274059952648924
      ],
      [
        "mıza",
        -9.274822950340416
      ],
      [
        "▁sonucunda",
        -9.275405553405326
      ],
      [
        "▁Al",
        -9.275731127519707
      ],
      [
        "▁demek",
        -9.27653605817288
      ],
      [
        "▁yağ",
        -9.276846532890394
      ],
      [
        "▁aday",
        -9.278463375792173
      ],
      [
        "▁Öz",
        -9.2800131602048
      ],
      [
        "▁İnsan",
        -9.280380954783949
      ],
      [
        "▁sezon",
        -9.28061182630726
      ],
      [
        "▁yılda",
        -9.281555976584126
      ],
      [
        "▁Sadece",
        -9.28297254080794
      ],
      [
        "▁oyunu",
        -9.283561467166564
      ],
      [
        "▁Doğu",
        -9.28365954789084
      ],
      [
        "▁Bazı",
        -9.284108073945854
      ],
      [
        "▁neler",
        -9.284778132243874
      ],
      [
        "▁Rusya",
        -9.288004962623564
      ],
      [
        "▁Buna",
        -9.290074184728612
      ],
      [
        "imi",
        -9.290874357230436
      ],
      [
        "▁görmek",
        -9.291177543680057
      ],
      [
        "▁uzman",
        -9.291798389606548
      ],
      [
        "j",
        -9.293086209294009
      ],
      [
        "▁model",
        -9.293851445729947
      ],
      [
        "ğ",
        -9.294489206550614
      ],
      [
        "▁sahiptir",
        -9.294737330219338
      ],
      [
        "▁günlerde",
        -9.295712457354968
      ],
      [
        "▁ürünler",
        -9.297403208763466
      ],
      [
        "▁sorunu",
        -9.298022559982016
      ],
      [
        "İ",
        -9.299544583046597
      ],
      [
        "▁sayfa",
        -9.303834794547855
      ],
      [
        "nızda",
        -9.304221957261795
      ],
      [
        "▁açıklamada",
        -9.304463607269104
      ],
      [
        "▁sana",
        -9.30464644666671
      ],
      [
        "▁CHP",
        -9.304852643528394
      ],
      [
        "▁sonraki",
        -9.305637850152875
      ],
      [
        "▁bazen",
        -9.305940790286112
      ],
      [
        "▁deniz",
        -9.3061184983484
      ],
      [
        "▁kurum",
        -9.30750979507012
      ],
      [
        "▁Allahın",
        -9.309215323627214
      ],
      [
        "▁Yüksek",
        -9.311654407487346
      ],
      [
        "▁alıp",
        -9.31169800282303
      ],
      [
        "▁Yine",
        -9.313433601950967
      ],
      [
        "▁onlara",
        -9.314597407725469
      ],
      [
        "▁işe",
        -9.314817514531518
      ],
      [
        "▁hafif",
        -9.31481839254752
      ],
      [
        "▁Deniz",
        -9.31502555132855
      ],
      [
        "▁Ticaret",
        -9.315617496714925
      ],
      [
        "▁orada",
        -9.31561823110192
      ],
      [
        "▁kurulu",
        -9.315655639504453
      ],
      [
        "▁Eski",
        -9.316243340860824
      ],
      [
        "▁suç",
        -9.316712083967088
      ],
      [
        "▁profesyonel",
        -9.317625970510967
      ],
      [
        "▁öne",
        -9.317645590884531
      ],
      [
        "▁polis",
        -9.318013693768076
      ],
      [
        "▁sayı",
        -9.319739896893992
      ],
      [
        "▁İstanbulda",
        -9.321008925087996
      ],
      [
        "▁kuru",
        -9.32402872784151
      ],
      [
        "▁alışveriş",
        -9.32486527886094
      ],
      [
        "▁yavaş",
        -9.324903616271351
      ],
      [
        "mıştı",
        -9.32564510056596
      ],
      [
        "▁yıldır",
        -9.325694724738378
      ],
      [
        "siyle",
        -9.326100215135495
      ],
      [
        "▁genellikle",
        -9.326595824201446
      ],
      [
        "▁baskı",
        -9.326672092035585
      ],
      [
        "▁yapıyor",
        -9.327294545491554
      ],
      [
        "▁birinci",
        -9.328249228560862
      ],
      [
        "▁temiz",
        -9.328260509938392
      ],
      [
        "▁veri",
        -9.328348718597724
      ],
      [
        "▁geçmiş",
        -9.329536702460077
      ],
      [
        "▁Hem",
        -9.33059594717658
      ],
      [
        "▁yerel",
        -9.33072145378068
      ],
      [
        "▁kar",
        -9.330950817264451
      ],
      [
        "▁sürede",
        -9.331771420644172
      ],
      [
        "▁belediye",
        -9.33367540155872
      ],
      [
        "▁dahi",
        -9.335198800686126
      ],
      [
        "▁Kara",
        -9.338276811751358
      ],
      [
        "▁nedir",
        -9.338431750556609
      ],
      [
        "▁erken",
        -9.338979761968648
      ],
      [
        "▁oda",
        -9.33962625733874
      ],
      [
        "yim",
        -9.340118556749871
      ],
      [
        "▁mal",
        -9.340332306475482
      ],
      [
        "▁altı",
        -9.343014304374291
      ],
      [
        "ing",
        -9.34308638440664
      ],
      [
        "▁yapmış",
        -9.343261788370592
      ],
      [
        "liğini",
        -9.344407351083271
      ],
      [
        "teki",
        -9.344407990017247
      ],
      [
        "▁harika",
        -9.34462697019762
      ],
      [
        "min",
        -9.344649656045904
      ],
      [
        "▁işlemi",
        -9.346194499283742
      ],
      [
        "▁olmasına",
        -9.3466757358795
      ],
      [
        "▁isimli",
        -9.347618750826852
      ],
      [
        "▁bayan",
        -9.348191936040774
      ],
      [
        "▁kendisini",
        -9.348257186231637
      ],
      [
        "▁Bizim",
        -9.352047868059897
      ],
      [
        "▁belirterek",
        -9.352152497022136
      ],
      [
        "▁oranı",
        -9.352691323383937
      ],
      [
        "▁Atatürk",
        -9.35285358029352
      ],
      [
        "▁bunların",
        -9.353450532325216
      ],
      [
        "▁Merkez",
        -9.35374320565935
      ],
      [
        "▁kesin",
        -9.354117866576372
      ],
      [
        "▁hayatını",
        -9.3546149074128
      ],
      [
        "▁bilim",
        -9.355858316210364
      ],
      [
        "abilir",
        -9.35639411232938
      ],
      [
        "larımız",
        -9.356634171881185
      ],
      [
        "▁hoş",
        -9.357040538380836
      ],
      [
        "▁sanat",
        -9.357265495704418
      ],
      [
        "▁Suriye",
        -9.358388196175232
      ],
      [
        "▁Bütün",
        -9.358576793330686
      ],
      [
        "▁Ö",
        -9.35960031967653
      ],
      [
        "▁kendisi",
        -9.360029782999703
      ],
      [
        "▁etmektedir",
        -9.363213480814922
      ],
      [
        "taki",
        -9.363227041063553
      ],
      [
        "▁bilinen",
        -9.363621557049273
      ],
      [
        "▁Ar",
        -9.364478629060594
      ],
      [
        "▁nokta",
        -9.36526129579773
      ],
      [
        "▁üçüncü",
        -9.365805037160577
      ],
      [
        "▁vb",
        -9.366415620197223
      ],
      [
        "▁alır",
        -9.367318557066742
      ],
      [
        "▁katıldı",
        -9.367983443291912
      ],
      [
        "▁Kendi",
        -9.368028252634408
      ],
      [
        "▁Başbakan",
        -9.36899629425881
      ],
      [
        "▁aşağıdaki",
        -9.369851500642817
      ],
      [
        "▁kişisel",
        -9.37020021655181
      ],
      [
        "lerimiz",
        -9.370701718288286
      ],
      [
        "▁program",
        -9.371278766377785
      ],
      [
        "â",
        -9.371676853531556
      ],
      [
        "▁Google",
        -9.372406939040456
      ],
      [
        "▁bunları",
        -9.37323676713532
      ],
      [
        "▁Örneğin",
        -9.374307844134028
      ],
      [
        "sıyla",
        -9.37472542546798
      ],
      [
        "▁gitti",
        -9.374813048738424
      ],
      [
        "▁Peki",
        -9.375894283178372
      ],
      [
        "▁Böylece",
        -9.37589875814133
      ],
      [
        "▁dava",
        -9.37611594438708
      ],
      [
        "lardır",
        -9.376273780552571
      ],
      [
        "▁edip",
        -9.376781264724256
      ],
      [
        "▁kısmı",
        -9.377700969638346
      ],
      [
        "▁etki",
        -9.381138620575982
      ],
      [
        "▁çeken",
        -9.38176082752572
      ],
      [
        "▁değerlendirme",
        -9.38271217524536
      ],
      [
        "▁kaldı",
        -9.38308266054868
      ],
      [
        "▁Şubat",
        -9.384122481469952
      ],
      [
        "▁veriyor",
        -9.385575666387048
      ],
      [
        "gi",
        -9.38578097430259
      ],
      [
        "▁ortalama",
        -9.387422323258724
      ],
      [
        "▁vergi",
        -9.388018698673402
      ],
      [
        "▁doğum",
        -9.388177716849327
      ],
      [
        "▁mükemmel",
        -9.3882205430678
      ],
      [
        "han",
        -9.388553858533244
      ],
      [
        "▁etmiş",
        -9.388688514337773
      ],
      [
        "▁biçimde",
        -9.388789304852477
      ],
      [
        "▁yola",
        -9.390427376468892
      ],
      [
        "▁Böyle",
        -9.390589503755391
      ],
      [
        "ünü",
        -9.391289464386489
      ],
      [
        "▁inşa",
        -9.39158359668502
      ],
      [
        "▁Tek",
        -9.39278099113001
      ],
      [
        "▁yapmaya",
        -9.393179146979314
      ],
      [
        "▁Ev",
        -9.39403973173408
      ],
      [
        "▁gerçekleştir",
        -9.396537922683518
      ],
      [
        "▁Yardımcısı",
        -9.396686326498624
      ],
      [
        "ecektir",
        -9.397017695842376
      ],
      [
        "▁olumlu",
        -9.397035549567494
      ],
      [
        "▁etmeye",
        -9.397340670633616
      ],
      [
        "▁Orta",
        -9.398546997995432
      ],
      [
        "▁edilmiş",
        -9.398721709859965
      ],
      [
        "▁hayal",
        -9.39889613486049
      ],
      [
        "ö",
        -9.39912014960781
      ],
      [
        "▁konuşma",
        -9.399216576249
      ],
      [
        "▁Ç",
        -9.399446685249709
      ],
      [
        "▁güven",
        -9.400179135486278
      ],
      [
        "▁izle",
        -9.402666058973349
      ],
      [
        "▁il",
        -9.402921758802345
      ],
      [
        "▁kullanımı",
        -9.403592910279244
      ],
      [
        "▁W",
        -9.403681729258372
      ],
      [
        "▁alın",
        -9.404446383182506
      ],
      [
        "▁bölge",
        -9.40512170707803
      ],
      [
        "▁diyerek",
        -9.409440383971502
      ],
      [
        "▁askeri",
        -9.410596254486864
      ],
      [
        "▁giden",
        -9.411091040499034
      ],
      [
        "▁şirket",
        -9.41133279959842
      ],
      [
        "▁milli",
        -9.41204034813399
      ],
      [
        "▁olumsuz",
        -9.413700321630648
      ],
      [
        "▁çıkıyor",
        -9.41595694276711
      ],
      [
        "▁ülkede",
        -9.41688174230972
      ],
      [
        "▁davet",
        -9.417086159687717
      ],
      [
        "▁tepki",
        -9.418269340002375
      ],
      [
        "▁verir",
        -9.420054582499668
      ],
      [
        "▁bilgisayar",
        -9.420701011732197
      ],
      [
        "▁ilişki",
        -9.421127966482134
      ],
      [
        "kça",
        -9.421153640532722
      ],
      [
        "▁acı",
        -9.42171698720206
      ],
      [
        "▁süresi",
        -9.42174029127262
      ],
      [
        "▁olduğuna",
        -9.422267314927549
      ],
      [
        "▁dizi",
        -9.422275585757074
      ],
      [
        "▁aracı",
        -9.423096531227367
      ],
      [
        "▁koruma",
        -9.423292108022787
      ],
      [
        "▁etkisi",
        -9.42378240590506
      ],
      [
        "▁aşırı",
        -9.424993932192072
      ],
      [
        "▁kullanma",
        -9.425232960942669
      ],
      [
        "▁suyu",
        -9.42530724837749
      ],
      [
        "on",
        -9.426708161923546
      ],
      [
        "▁evde",
        -9.428275913826871
      ],
      [
        "▁amacı",
        -9.428318557016562
      ],
      [
        "▁ülkenin",
        -9.428349815897777
      ],
      [
        "▁görüntü",
        -9.42852532980107
      ],
      [
        "▁serbest",
        -9.429155989536016
      ],
      [
        "leme",
        -9.429409474808844
      ],
      [
        "▁nedeni",
        -9.430193003212358
      ],
      [
        "▁can",
        -9.43024669965455
      ],
      [
        "▁önemlidir",
        -9.43030639981866
      ],
      [
        "▁modern",
        -9.431338784493589
      ],
      [
        "▁hediye",
        -9.432976459576691
      ],
      [
        "mişti",
        -9.433442250970778
      ],
      [
        "▁Vali",
        -9.434227224385031
      ],
      [
        "▁giren",
        -9.434273847088477
      ],
      [
        "▁plan",
        -9.4345964874193
      ],
      [
        "▁dün",
        -9.434684833556704
      ],
      [
        "▁Uzun",
        -9.43484375799093
      ],
      [
        "▁elektrik",
        -9.434953496555387
      ],
      [
        "▁Bursa",
        -9.434968673658982
      ],
      [
        "▁getiren",
        -9.435623634571272
      ],
      [
        "lardı",
        -9.43579384979224
      ],
      [
        "▁belirtilen",
        -9.436684510766993
      ],
      [
        "▁hizmetleri",
        -9.436862611822557
      ],
      [
        "▁çocuklar",
        -9.437307585499354
      ],
      [
        "▁özellikleri",
        -9.438009239928412
      ],
      [
        "▁Artık",
        -9.4388419875706
      ],
      [
        "▁derin",
        -9.439697161246963
      ],
      [
        "▁saygı",
        -9.43970389379563
      ],
      [
        "▁The",
        -9.439927281817257
      ],
      [
        "▁Çocuk",
        -9.440484320284211
      ],
      [
        "lığa",
        -9.44165347100347
      ],
      [
        "▁olun",
        -9.441705381258306
      ],
      [
        "▁senin",
        -9.441960200699384
      ],
      [
        "▁kişilerin",
        -9.442358033333596
      ],
      [
        "▁günde",
        -9.443213712040142
      ],
      [
        "▁Halk",
        -9.445545674103474
      ],
      [
        "▁Kadın",
        -9.446128985999284
      ],
      [
        "▁yapar",
        -9.44766586455451
      ],
      [
        "eli",
        -9.447805839885186
      ],
      [
        "▁reklam",
        -9.447827641056938
      ],
      [
        "dik",
        -9.450269525030487
      ],
      [
        "▁gider",
        -9.450477413662613
      ],
      [
        "▁öğretim",
        -9.450548213637845
      ],
      [
        "▁üniversite",
        -9.45079786814886
      ],
      [
        "▁isim",
        -9.451157768934182
      ],
      [
        "▁darbe",
        -9.451877402425268
      ],
      [
        "▁sınıf",
        -9.452987660125018
      ],
      [
        "▁arkadaş",
        -9.453054189600577
      ],
      [
        "kçe",
        -9.454759135053267
      ],
      [
        "▁yaşındaki",
        -9.454909032435795
      ],
      [
        "▁öncesi",
        -9.455285774562956
      ],
      [
        "▁kırmızı",
        -9.456112443798247
      ],
      [
        "lanan",
        -9.456883115506832
      ],
      [
        "▁olmaya",
        -9.45754665292297
      ],
      [
        "▁site",
        -9.46009912218905
      ],
      [
        "▁yerini",
        -9.463183006615276
      ],
      [
        "▁arka",
        -9.463355000317112
      ],
      [
        "▁Bey",
        -9.463717109523992
      ],
      [
        "▁ortadan",
        -9.464358604952425
      ],
      [
        "▁Madde",
        -9.46495921810352
      ],
      [
        "acağını",
        -9.466764076064395
      ],
      [
        "▁artış",
        -9.466904083083795
      ],
      [
        "▁Evet",
        -9.466916579763984
      ],
      [
        "▁olmasını",
        -9.46694320528866
      ],
      [
        "▁maç",
        -9.467642429430551
      ],
      [
        "bi",
        -9.46983806711368
      ],
      [
        "▁düşünüyorum",
        -9.470073602660284
      ],
      [
        "▁sona",
        -9.470623189215145
      ],
      [
        "▁sanayi",
        -9.4706440588594
      ],
      [
        "▁meslek",
        -9.4709624209783
      ],
      [
        "▁banka",
        -9.471299022820032
      ],
      [
        "▁Milletvekili",
        -9.47165641789906
      ],
      [
        "▁yaşama",
        -9.472228167909396
      ],
      [
        "▁kullandı",
        -9.47276548580296
      ],
      [
        "ter",
        -9.473242353016564
      ],
      [
        "▁Çin",
        -9.473754504311268
      ],
      [
        "▁yapacak",
        -9.473958026962617
      ],
      [
        "dım",
        -9.474334222424607
      ],
      [
        "ran",
        -9.47436051374818
      ],
      [
        "▁bende",
        -9.474642158063531
      ],
      [
        "▁Sanayi",
        -9.47597482401233
      ],
      [
        "▁Başkanlığı",
        -9.476066942804444
      ],
      [
        "▁boş",
        -9.476489803756186
      ],
      [
        "▁adını",
        -9.477082603065982
      ],
      [
        "▁üyesi",
        -9.477490625436833
      ],
      [
        "▁dosya",
        -9.477570738247428
      ],
      [
        "▁ihtiyacı",
        -9.478075326951624
      ],
      [
        "▁kapalı",
        -9.478840913965143
      ],
      [
        "▁kültür",
        -9.481773290505332
      ],
      [
        "▁süreci",
        -9.48192204524674
      ],
      [
        "▁güneş",
        -9.482038363692691
      ],
      [
        "▁Can",
        -9.482191379912145
      ],
      [
        "▁yalnızca",
        -9.482545360966752
      ],
      [
        "▁müdahale",
        -9.483051110166551
      ],
      [
        "▁öğrenciler",
        -9.483443133792347
      ],
      [
        "▁kaynak",
        -9.484182224056148
      ],
      [
        "▁güvenli",
        -9.484518466179898
      ],
      [
        "▁yan",
        -9.48521664972131
      ],
      [
        "▁Batı",
        -9.485299977390476
      ],
      [
        "muş",
        -9.48640697194554
      ],
      [
        "▁etmesi",
        -9.486798839962242
      ],
      [
        "▁kara",
        -9.48746748283169
      ],
      [
        "▁Er",
        -9.487719183808869
      ],
      [
        "▁üzerindeki",
        -9.488652090380068
      ],
      [
        "▁fiyatları",
        -9.48871904388854
      ],
      [
        "▁Z",
        -9.48872468921933
      ],
      [
        "▁belirli",
        -9.489928243743998
      ],
      [
        "▁yeşil",
        -9.49017950918322
      ],
      [
        "meli",
        -9.491884252811738
      ],
      [
        "▁aktif",
        -9.494062071725756
      ],
      [
        "▁güncel",
        -9.494591578847553
      ],
      [
        "sen",
        -9.49699586096165
      ],
      [
        "▁Proje",
        -9.497036097244507
      ],
      [
        "▁ilçesinde",
        -9.497182917177849
      ],
      [
        "▁De",
        -9.49749055866249
      ],
      [
        "▁memnun",
        -9.499261928840047
      ],
      [
        "▁kişilik",
        -9.499428372025552
      ],
      [
        "▁tatil",
        -9.5008906060994
      ],
      [
        "▁Aydın",
        -9.501228966365424
      ],
      [
        "▁Irak",
        -9.50199032039096
      ],
      [
        "▁Kıbrıs",
        -9.50271471196567
      ],
      [
        "▁eve",
        -9.50280975496944
      ],
      [
        "lığını",
        -9.503804151411916
      ],
      [
        "▁bak",
        -9.504578516816036
      ],
      [
        "▁tahmin",
        -9.50705691292958
      ],
      [
        "▁İngilizce",
        -9.50734419154676
      ],
      [
        "▁taşıma",
        -9.507942799839672
      ],
      [
        "sından",
        -9.507968559714492
      ],
      [
        "▁emin",
        -9.508806093891184
      ],
      [
        "▁doğrudan",
        -9.509641137361214
      ],
      [
        "▁görüş",
        -9.510157811809696
      ],
      [
        "▁altın",
        -9.510499189946382
      ],
      [
        "▁bölgede",
        -9.5107443850323
      ],
      [
        "▁kalp",
        -9.5111286697073
      ],
      [
        "sak",
        -9.512722961623636
      ],
      [
        "▁gören",
        -9.51283869343226
      ],
      [
        "▁almış",
        -9.513006201199822
      ],
      [
        "▁tatlı",
        -9.513126465178326
      ],
      [
        "▁of",
        -9.514269431651735
      ],
      [
        "▁Hava",
        -9.514767262354354
      ],
      [
        "▁yönetimi",
        -9.515860194295463
      ],
      [
        "▁İran",
        -9.517368266753373
      ],
      [
        "▁işlemleri",
        -9.51744575800622
      ],
      [
        "imiz",
        -9.517932574888889
      ],
      [
        "▁J",
        -9.519246397337014
      ],
      [
        "▁getirdi",
        -9.519401173674858
      ],
      [
        "▁seni",
        -9.520407905769185
      ],
      [
        "▁kalite",
        -9.520814585503558
      ],
      [
        "▁işçi",
        -9.522706273603202
      ],
      [
        "▁oldukları",
        -9.522749362492927
      ],
      [
        "mek",
        -9.524233300517375
      ],
      [
        "▁görme",
        -9.524399567698376
      ],
      [
        "▁akıllı",
        -9.524657798998383
      ],
      [
        "larınızı",
        -9.524778828670923
      ],
      [
        "▁Türkiyeye",
        -9.525031658103492
      ],
      [
        "▁fayda",
        -9.525373999548576
      ],
      [
        "▁filmi",
        -9.52659771522134
      ],
      [
        "▁yargı",
        -9.527122376522623
      ],
      [
        "▁düzenli",
        -9.527312880350976
      ],
      [
        "▁Yılmaz",
        -9.527905334271775
      ],
      [
        "▁eğitimi",
        -9.528303053894584
      ],
      [
        "▁modelleri",
        -9.528334566864595
      ],
      [
        "▁rol",
        -9.528615269503264
      ],
      [
        "mızda",
        -9.529383354918446
      ],
      [
        "▁olmadan",
        -9.530083154852695
      ],
      [
        "▁diş",
        -9.531092139709454
      ],
      [
        "▁test",
        -9.53179885513286
      ],
      [
        "anlamına",
        -9.532313421642192
      ],
      [
        "▁bebek",
        -9.532328831164468
      ],
      [
        "▁Hatta",
        -9.532400697046985
      ],
      [
        "▁içeren",
        -9.533518941497846
      ],
      [
        "malıdır",
        -9.53415252696108
      ],
      [
        "lerdir",
        -9.534202073768425
      ],
      [
        "lerinizi",
        -9.53437566017186
      ],
      [
        "▁kendilerine",
        -9.53680273679113
      ],
      [
        "▁herkesin",
        -9.537026385615937
      ],
      [
        "▁yazar",
        -9.537076203989924
      ],
      [
        "▁Küçük",
        -9.53746386313112
      ],
      [
        "▁yalnız",
        -9.537767495249216
      ],
      [
        "▁sert",
        -9.537894075554725
      ],
      [
        "yım",
        -9.537923612807743
      ],
      [
        "▁ücret",
        -9.538152673660068
      ],
      [
        "▁kur",
        -9.539002246969746
      ],
      [
        "▁yapılmış",
        -9.539888845716034
      ],
      [
        "▁Ana",
        -9.541324690202748
      ],
      [
        "▁doğrultusunda",
        -9.541527352114969
      ],
      [
        "▁gücü",
        -9.541550429553093
      ],
      [
        "▁Teknik",
        -9.542132922407424
      ],
      [
        "▁personel",
        -9.54387936983039
      ],
      [
        "acaktır",
        -9.544394726140526
      ],
      [
        "▁yaparken",
        -9.544992607316384
      ],
      [
        "▁Antalya",
        -9.545916677598411
      ],
      [
        "▁açıkladı",
        -9.546742901683754
      ],
      [
        "▁Bölge",
        -9.547071072747215
      ],
      [
        "▁kapı",
        -9.547801849497686
      ],
      [
        "▁okuma",
        -9.548006277567891
      ],
      [
        "▁kitabı",
        -9.548169721818722
      ],
      [
        "▁hepsi",
        -9.548401099895605
      ],
      [
        "▁sıkıntı",
        -9.550085617324056
      ],
      [
        "▁ismi",
        -9.55209545124097
      ],
      [
        "▁Amerika",
        -9.552535010069386
      ],
      [
        "▁aşk",
        -9.553024044152531
      ],
      [
        "▁ayı",
        -9.553375436395598
      ],
      [
        "▁geldiği",
        -9.553722863549002
      ],
      [
        "▁insanları",
        -9.554028578956276
      ],
      [
        "▁mobil",
        -9.554279450365572
      ],
      [
        "▁sebebi",
        -9.555204061374296
      ],
      [
        "▁alacak",
        -9.55705339004891
      ],
      [
        "▁çift",
        -9.557141794806476
      ],
      [
        "▁kafa",
        -9.557805127056206
      ],
      [
        "▁ekran",
        -9.55839372730872
      ],
      [
        "▁ticaret",
        -9.55897316025312
      ],
      [
        "▁kullanıcı",
        -9.559819141389704
      ],
      [
        "▁kazan",
        -9.559960962464183
      ],
      [
        "▁cm",
        -9.560025520210226
      ],
      [
        "▁araba",
        -9.560563799372837
      ],
      [
        "▁kalma",
        -9.561913697751958
      ],
      [
        "▁söyleyen",
        -9.561924237980277
      ],
      [
        "▁cinsel",
        -9.563038519181497
      ],
      [
        "▁Güney",
        -9.563228187221004
      ],
      [
        "▁hata",
        -9.563421455376997
      ],
      [
        "▁yap",
        -9.563894829738576
      ],
      [
        "▁büyüme",
        -9.564481531339275
      ],
      [
        "▁düşünce",
        -9.565586376283855
      ],
      [
        "▁asıl",
        -9.565665960504134
      ],
      [
        "▁desteği",
        -9.56634126741216
      ],
      [
        "▁Aslında",
        -9.566412227488351
      ],
      [
        "bu",
        -9.566525269062982
      ],
      [
        "eceğini",
        -9.568315839001722
      ],
      [
        "w",
        -9.568468206756757
      ],
      [
        "iye",
        -9.568707160461637
      ],
      [
        "cu",
        -9.569525311859342
      ],
      [
        "▁vakit",
        -9.56961611323866
      ],
      [
        "▁Herkes",
        -9.569904512415617
      ],
      [
        "▁olduğundan",
        -9.5700590117961
      ],
      [
        "▁Recep",
        -9.572033831806612
      ],
      [
        "▁gerçekleştiril",
        -9.572474745367062
      ],
      [
        "▁çerçevesinde",
        -9.573085944351297
      ],
      [
        "▁toplantı",
        -9.574980749433577
      ],
      [
        "▁engel",
        -9.57517233493428
      ],
      [
        "▁cok",
        -9.575570050438955
      ],
      [
        "▁zamanlarda",
        -9.576772250538278
      ],
      [
        "▁malzeme",
        -9.57699585891315
      ],
      [
        "ından",
        -9.576999634813689
      ],
      [
        "▁Güvenlik",
        -9.577172713992976
      ],
      [
        "layarak",
        -9.578958385469765
      ],
      [
        "▁bölüm",
        -9.57920249697199
      ],
      [
        "▁Kuzey",
        -9.57936023641786
      ],
      [
        "▁neredeyse",
        -9.579642774336492
      ],
      [
        "▁Kürt",
        -9.580172643122427
      ],
      [
        "can",
        -9.580473465299995
      ],
      [
        "▁temsil",
        -9.581161846656224
      ],
      [
        "▁çocukların",
        -9.583003040927368
      ],
      [
        "▁faiz",
        -9.58326548600005
      ],
      [
        "▁dedim",
        -9.583597747279317
      ],
      [
        "tik",
        -9.584383647178466
      ],
      [
        "▁verme",
        -9.586525437886005
      ],
      [
        "▁idi",
        -9.587256451012276
      ],
      [
        "▁geçiş",
        -9.587699170385834
      ],
      [
        "▁Aile",
        -9.58875485286922
      ],
      [
        "▁çay",
        -9.58895619366966
      ],
      [
        "▁değişik",
        -9.591312929576072
      ],
      [
        "▁yıllar",
        -9.59145906855863
      ],
      [
        "▁sefer",
        -9.592937303500223
      ],
      [
        "▁halkın",
        -9.593882231925388
      ],
      [
        "▁sınav",
        -9.593930018486429
      ],
      [
        "▁verildi",
        -9.594412894417424
      ],
      [
        "▁noktada",
        -9.594830453739222
      ],
      [
        "▁toplumsal",
        -9.595818317411146
      ],
      [
        "▁dünyaya",
        -9.596118288949407
      ],
      [
        "▁yerli",
        -9.596154126207969
      ],
      [
        "yorum",
        -9.596384757923843
      ],
      [
        "▁yasa",
        -9.59649989968326
      ],
      [
        "▁fırsat",
        -9.598407925440773
      ],
      [
        "▁bölümü",
        -9.599472985428706
      ],
      [
        "▁soğuk",
        -9.600113892149832
      ],
      [
        "▁lisans",
        -9.600138444210875
      ],
      [
        "maya",
        -9.601741893514914
      ],
      [
        "▁kaynağı",
        -9.602372854155186
      ],
      [
        "mda",
        -9.602632523097204
      ],
      [
        "▁alınması",
        -9.602743079874076
      ],
      [
        "▁sonu",
        -9.60430225054182
      ],
      [
        "▁Onlar",
        -9.604635022316591
      ],
      [
        "▁saha",
        -9.605126317661986
      ],
      [
        "▁Güzel",
        -9.605234432218548
      ],
      [
        "▁Almanya",
        -9.607693191619791
      ],
      [
        "▁önceden",
        -9.607770004835766
      ],
      [
        "▁ilave",
        -9.607994152251583
      ],
      [
        "▁edebilirsiniz",
        -9.608241466868392
      ],
      [
        "▁gelmiş",
        -9.608371682005377
      ],
      [
        "▁konut",
        -9.608583127089682
      ],
      [
        "▁işin",
        -9.608859047839996
      ],
      [
        "▁metre",
        -9.608979282281066
      ],
      [
        "▁sevgi",
        -9.609189656010278
      ],
      [
        "seniz",
        -9.610672469436803
      ],
      [
        "▁Gül",
        -9.610980302981108
      ],
      [
        "▁içindeki",
        -9.61123762132703
      ],
      [
        "▁hayatı",
        -9.611312591400068
      ],
      [
        "▁binlerce",
        -9.6114272047724
      ],
      [
        "▁gizli",
        -9.611510720759462
      ],
      [
        "▁Hasan",
        -9.61237892662995
      ],
      [
        "▁koy",
        -9.6148436689774
      ],
      [
        "▁Müslüman",
        -9.61591961823876
      ],
      [
        "▁süt",
        -9.616333743765582
      ],
      [
        "▁kurulan",
        -9.616591407003067
      ],
      [
        "▁otomatik",
        -9.617126598250715
      ],
      [
        "▁bulunur",
        -9.618335901197314
      ],
      [
        "▁sivil",
        -9.618407397130913
      ],
      [
        "▁Lig",
        -9.618839413816236
      ],
      [
        "▁Nasıl",
        -9.619217298312575
      ],
      [
        "▁gösteriyor",
        -9.619434643137396
      ],
      [
        "▁Genç",
        -9.619573053791814
      ],
      [
        "▁La",
        -9.619675737673358
      ],
      [
        "▁seks",
        -9.62058462914847
      ],
      [
        "▁yarı",
        -9.620662978177416
      ],
      [
        "▁taşıyan",
        -9.622274903589677
      ],
      [
        "▁İkinci",
        -9.62234611635231
      ],
      [
        "▁Yıldırım",
        -9.622595068026207
      ],
      [
        "▁olanlar",
        -9.624112330536022
      ],
      [
        "▁çalışması",
        -9.62427822206811
      ],
      [
        "▁işbirliği",
        -9.624388097485443
      ],
      [
        "▁silah",
        -9.624958155497128
      ],
      [
        "▁gol",
        -9.625535158226691
      ],
      [
        "▁Haber",
        -9.627198044902682
      ],
      [
        "▁detaylı",
        -9.627422234578658
      ],
      [
        "▁olacağını",
        -9.62749101928016
      ],
      [
        "▁yöntem",
        -9.627865928700212
      ],
      [
        "▁kullanılır",
        -9.628586484617824
      ],
      [
        "▁giderek",
        -9.630942936741516
      ],
      [
        "larımızı",
        -9.631673308971608
      ],
      [
        "▁seyahat",
        -9.632133721819876
      ],
      [
        "▁online",
        -9.632145212747387
      ],
      [
        "▁pazar",
        -9.632296423585274
      ],
      [
        "▁otel",
        -9.6323620169264
      ],
      [
        "▁Tayyip",
        -9.632843424491542
      ],
      [
        "▁korku",
        -9.6341358796071
      ],
      [
        "▁demektir",
        -9.634405674432305
      ],
      [
        "▁Araştırma",
        -9.63522403271976
      ],
      [
        "▁imkanı",
        -9.635540649048927
      ],
      [
        "▁ilaç",
        -9.635959529844612
      ],
      [
        "▁iken",
        -9.636134025734792
      ],
      [
        "▁belge",
        -9.637026464501618
      ],
      [
        "▁değeri",
        -9.63733840768906
      ],
      [
        "▁ışık",
        -9.637357338463096
      ],
      [
        "▁başlıyor",
        -9.637526137184237
      ],
      [
        "▁yaygın",
        -9.637728791372204
      ],
      [
        "▁yaşadığı",
        -9.63882018243889
      ],
      [
        "▁parçası",
        -9.639862272260473
      ],
      [
        "▁eş",
        -9.639936510544183
      ],
      [
        "▁almaktadır",
        -9.639969956024556
      ],
      [
        "▁hukuk",
        -9.640015862148635
      ],
      [
        "▁fiyatı",
        -9.640334051805867
      ],
      [
        "or",
        -9.640938697364396
      ],
      [
        "▁hayvan",
        -9.641252134626065
      ],
      [
        "sunu",
        -9.641279960237926
      ],
      [
        "▁modeli",
        -9.642300783112756
      ],
      [
        "▁kadınlar",
        -9.643243632080145
      ],
      [
        "sonuna",
        -9.64330552471854
      ],
      [
        "▁görülen",
        -9.643588967206584
      ],
      [
        "▁anlamı",
        -9.64370228830086
      ],
      [
        "▁sol",
        -9.644126175372602
      ],
      [
        "▁bas",
        -9.644834827022777
      ],
      [
        "▁ekibi",
        -9.64561534856921
      ],
      [
        "▁top",
        -9.646189940335804
      ],
      [
        "▁girdi",
        -9.6475617571972
      ],
      [
        "▁ayak",
        -9.647896454247215
      ],
      [
        "lük",
        -9.648329448718956
      ],
      [
        "▁bölgesinde",
        -9.651132120808231
      ],
      [
        "yken",
        -9.651776962706666
      ],
      [
        "▁uygulaması",
        -9.651817961269918
      ],
      [
        "kan",
        -9.651842381964986
      ],
      [
        "yiz",
        -9.652188005098074
      ],
      [
        "▁durumlarda",
        -9.654032841167709
      ],
      [
        "▁yapısı",
        -9.655311673451177
      ],
      [
        "▁İbrahim",
        -9.655878452943968
      ],
      [
        "▁olmalı",
        -9.656767836218169
      ],
      [
        "▁fikir",
        -9.65681026271349
      ],
      [
        "▁işler",
        -9.657065339510773
      ],
      [
        "▁kere",
        -9.658427977047078
      ],
      [
        "▁lütfen",
        -9.65851700061444
      ],
      [
        "iniz",
        -9.659458931223591
      ],
      [
        "▁hızla",
        -9.660430758282752
      ],
      [
        "▁Çalışma",
        -9.660817379142184
      ],
      [
        "▁bütçe",
        -9.660891135614198
      ],
      [
        "▁ettiğini",
        -9.661241884528517
      ],
      [
        "▁Ara",
        -9.661649627428742
      ],
      [
        "▁gıda",
        -9.661652766222977
      ],
      [
        "▁başkanı",
        -9.661919624097902
      ],
      [
        "▁Fakültesi",
        -9.662665002107737
      ],
      [
        "▁kişiye",
        -9.663164648085974
      ],
      [
        "▁alındı",
        -9.66389757390666
      ],
      [
        "▁baba",
        -9.66464086336116
      ],
      [
        "▁yaptıkları",
        -9.66519106038046
      ],
      [
        "▁öncelikle",
        -9.66524273680445
      ],
      [
        "▁Kanun",
        -9.66548077453627
      ],
      [
        "▁performans",
        -9.665702493239444
      ],
      [
        "▁sorumlu",
        -9.665816031996822
      ],
      [
        "▁ticari",
        -9.665933466959263
      ],
      [
        "▁taş",
        -9.666180308983174
      ],
      [
        "▁geçerli",
        -9.668311223803611
      ],
      [
        "▁bağlantı",
        -9.668824424083828
      ],
      [
        "▁dolayısıyla",
        -9.669762748055316
      ],
      [
        "▁Sultan",
        -9.669896295541196
      ],
      [
        "nizin",
        -9.670313114873712
      ],
      [
        "▁şarkı",
        -9.671241848903051
      ],
      [
        "▁bakış",
        -9.67227789927036
      ],
      [
        "▁kullanmak",
        -9.6727401738743
      ],
      [
        "▁cilt",
        -9.67320364500844
      ],
      [
        "▁ürünü",
        -9.67601760697604
      ],
      [
        "▁bence",
        -9.676091623308231
      ],
      [
        "▁tip",
        -9.676748311764712
      ],
      [
        "▁mesaj",
        -9.67721362181749
      ],
      [
        "▁Çevre",
        -9.67922335715181
      ],
      [
        "▁hazırlanan",
        -9.679409735153715
      ],
      [
        "lerimizi",
        -9.681036314218458
      ],
      [
        "▁bina",
        -9.68158907966339
      ],
      [
        "▁siyah",
        -9.682060800955174
      ],
      [
        "▁Murat",
        -9.682280342432778
      ],
      [
        "gerçekleştirilen",
        -9.682559273235864
      ],
      [
        "▁İsrail",
        -9.684333098713935
      ],
      [
        "▁dikkate",
        -9.68555341737545
      ],
      [
        "▁öğretmen",
        -9.686155242476252
      ],
      [
        "▁kaydetti",
        -9.686502073953308
      ],
      [
        "▁taşı",
        -9.686724684304236
      ],
      [
        "▁transfer",
        -9.6875753453725
      ],
      [
        "▁Baş",
        -9.6878258620856
      ],
      [
        "▁amaç",
        -9.688340840456023
      ],
      [
        "▁Fatih",
        -9.68955115923137
      ],
      [
        "▁gösterir",
        -9.690868127828464
      ],
      [
        "▁Merhaba",
        -9.692025272627724
      ],
      [
        "▁hız",
        -9.692236735754433
      ],
      [
        "▁Film",
        -9.69227875011747
      ],
      [
        "nızın",
        -9.693161872491608
      ],
      [
        "▁sağlıyor",
        -9.693673027899258
      ],
      [
        "▁öğrencilerin",
        -9.695269942996736
      ],
      [
        "▁inşaat",
        -9.696100168352984
      ],
      [
        "▁sorunları",
        -9.69665711920129
      ],
      [
        "▁çek",
        -9.69732942155108
      ],
      [
        "▁bağımsız",
        -9.69755564161447
      ],
      [
        "▁projesi",
        -9.697993465364142
      ],
      [
        "▁almaya",
        -9.698078381286596
      ],
      [
        "▁sinema",
        -9.698103953769296
      ],
      [
        "▁çaba",
        -9.7004119075303
      ],
      [
        "▁yasal",
        -9.700479527952076
      ],
      [
        "liğine",
        -9.701609720211806
      ],
      [
        "ğını",
        -9.702069622277184
      ],
      [
        "▁şeker",
        -9.70265912572214
      ],
      [
        "▁inci",
        -9.703259484237469
      ],
      [
        "▁renkli",
        -9.703367820679462
      ],
      [
        "▁olmayı",
        -9.704113862169272
      ],
      [
        "▁yetkili",
        -9.704424813670997
      ],
      [
        "▁süreç",
        -9.704851734945317
      ],
      [
        "▁ekipleri",
        -9.709645386102332
      ],
      [
        "▁savunma",
        -9.710615172190092
      ],
      [
        "▁etkin",
        -9.710696209690216
      ],
      [
        "▁kendilerini",
        -9.710896981333198
      ],
      [
        "▁teklif",
        -9.711014118845045
      ],
      [
        "▁popüler",
        -9.711157094989533
      ],
      [
        "▁ediliyor",
        -9.711930143401052
      ],
      [
        "▁mü",
        -9.7121022305056
      ],
      [
        "▁edilmiştir",
        -9.712757218046963
      ],
      [
        "▁değişiklik",
        -9.713203325517467
      ],
      [
        "▁sözleşme",
        -9.713389189463651
      ],
      [
        "yse",
        -9.713880779087376
      ],
      [
        "▁ortamda",
        -9.716855778995756
      ],
      [
        "▁Bankası",
        -9.716996380120406
      ],
      [
        "ği",
        -9.717585438237544
      ],
      [
        "▁itibariyle",
        -9.718070843476449
      ],
      [
        "▁resim",
        -9.71858546839932
      ],
      [
        "▁Dolayısıyla",
        -9.7186435856635
      ],
      [
        "nizde",
        -9.721013448092634
      ],
      [
        "▁kamera",
        -9.72112594159546
      ],
      [
        "▁Rus",
        -9.72186701826074
      ],
      [
        "▁Bilgi",
        -9.721902942505537
      ],
      [
        "▁kadro",
        -9.721908896815528
      ],
      [
        "ha",
        -9.721976885982585
      ],
      [
        "▁istediği",
        -9.723666960783786
      ],
      [
        "▁Tarım",
        -9.723729239660578
      ],
      [
        "▁İç",
        -9.724441930975836
      ],
      [
        "▁kaza",
        -9.72467278249364
      ],
      [
        "▁sahne",
        -9.726196536113072
      ],
      [
        "▁olmaktadır",
        -9.727101383673778
      ],
      [
        "▁diyen",
        -9.728121533233043
      ],
      [
        "▁Paşa",
        -9.728841689743524
      ],
      [
        "▁bakımından",
        -9.729317896582373
      ],
      [
        "▁olmalıdır",
        -9.729342582851322
      ],
      [
        "▁çalışıyor",
        -9.729574675904006
      ],
      [
        "▁kartı",
        -9.730393439680098
      ],
      [
        "▁Ramazan",
        -9.73068523260628
      ],
      [
        "▁iyice",
        -9.731350148662369
      ],
      [
        "▁katılan",
        -9.73241978963111
      ],
      [
        "▁sonuçlar",
        -9.732513988146168
      ],
      [
        "▁nefes",
        -9.732772523453589
      ],
      [
        "▁sonuçları",
        -9.732926587290274
      ],
      [
        "▁ateş",
        -9.733120944183783
      ],
      [
        "▁istiyor",
        -9.734021189898124
      ],
      [
        "▁benzeri",
        -9.73501817097139
      ],
      [
        "▁üyeleri",
        -9.735645594966012
      ],
      [
        "▁dönemi",
        -9.7358547680431
      ],
      [
        "▁boya",
        -9.736045514723855
      ],
      [
        "▁cam",
        -9.736446714790567
      ],
      [
        "▁sizler",
        -9.736461074753691
      ],
      [
        "▁görevi",
        -9.73664982153063
      ],
      [
        "▁Oyun",
        -9.737386271738655
      ],
      [
        "▁yapımı",
        -9.73778472836526
      ],
      [
        "▁istiyorsanız",
        -9.738043141225258
      ],
      [
        "▁ekonomi",
        -9.738273165782443
      ],
      [
        "▁kart",
        -9.739524203732143
      ],
      [
        "▁yöntemi",
        -9.73988900057455
      ],
      [
        "▁zamanı",
        -9.740081993324193
      ],
      [
        "▁insanı",
        -9.740262431728876
      ],
      [
        "▁ucuz",
        -9.740518346282633
      ],
      [
        "▁sunuyor",
        -9.741664819377664
      ],
      [
        "▁Meclis",
        -9.741823648425592
      ],
      [
        "▁terk",
        -9.741854944080377
      ],
      [
        "▁güvenilir",
        -9.742018829473206
      ],
      [
        "▁Ömer",
        -9.743499406325189
      ],
      [
        "birbirinden",
        -9.743976948286996
      ],
      [
        "▁tarihli",
        -9.74404935256563
      ],
      [
        "▁Sanat",
        -9.744155966325344
      ],
      [
        "▁arkadaşlar",
        -9.744252691982105
      ],
      [
        "▁genelinde",
        -9.745020577680002
      ],
      [
        "▁turizm",
        -9.74545672599844
      ],
      [
        "▁düzenleme",
        -9.74573290455677
      ],
      [
        "▁sorunlar",
        -9.746202439700394
      ],
      [
        "▁ihale",
        -9.74674803432182
      ],
      [
        "▁Yapılan",
        -9.746780737191267
      ],
      [
        "anlar",
        -9.74719599526157
      ],
      [
        "▁ederken",
        -9.747217109138743
      ],
      [
        "▁yapıldığı",
        -9.7472989651233
      ],
      [
        "lanmış",
        -9.747468204654377
      ],
      [
        "▁asker",
        -9.74770107242028
      ],
      [
        "▁muhteşem",
        -9.747815106678685
      ],
      [
        "▁beslenme",
        -9.748676853563389
      ],
      [
        "▁Odası",
        -9.74882466008162
      ],
      [
        "▁Hüseyin",
        -9.749953011833783
      ],
      [
        "▁şehit",
        -9.750179104382516
      ],
      [
        "▁futbol",
        -9.751527486891977
      ],
      [
        "▁yapabilirsiniz",
        -9.753709732893205
      ],
      [
        "▁Turizm",
        -9.754569412698649
      ],
      [
        "lanır",
        -9.75465405263174
      ],
      [
        "▁sınır",
        -9.75493403116861
      ],
      [
        "▁bilimsel",
        -9.755136917944023
      ],
      [
        "▁Pazar",
        -9.755935723042318
      ],
      [
        "▁inceleme",
        -9.755942173308217
      ],
      [
        "▁kelime",
        -9.756010472688937
      ],
      [
        "▁takdirde",
        -9.756289839583388
      ],
      [
        "tür",
        -9.756327663711891
      ],
      [
        "bet",
        -9.756622427078089
      ],
      [
        "▁risk",
        -9.756673502858732
      ],
      [
        "▁istiyoruz",
        -9.756718213477912
      ],
      [
        "▁grubu",
        -9.75756219654541
      ],
      [
        "mis",
        -9.757715903514203
      ],
      [
        "men",
        -9.75825074248555
      ],
      [
        "▁aldım",
        -9.758422788337915
      ],
      [
        "▁vücut",
        -9.758728650340633
      ],
      [
        "▁başlama",
        -9.76020528075007
      ],
      [
        "▁Dünyanın",
        -9.761053929922
      ],
      [
        "sek",
        -9.761977222316078
      ],
      [
        "▁elektronik",
        -9.76251254370814
      ],
      [
        "▁yangın",
        -9.764202178297529
      ],
      [
        "▁kimi",
        -9.76521309695182
      ],
      [
        "▁eşi",
        -9.766286921888186
      ],
      [
        "▁verecek",
        -9.766593536466194
      ],
      [
        "▁Cumhuriyeti",
        -9.766704221952637
      ],
      [
        "▁şık",
        -9.767378471992137
      ],
      [
        "▁gelin",
        -9.767379716028746
      ],
      [
        "▁süren",
        -9.767462338934228
      ],
      [
        "▁hastalık",
        -9.7678314988522
      ],
      [
        "▁kampanya",
        -9.767843995933111
      ],
      [
        "lanıyor",
        -9.76793915964612
      ],
      [
        "▁gelip",
        -9.769504729294654
      ],
      [
        "▁tarım",
        -9.77018015181535
      ],
      [
        "▁dua",
        -9.771508447751636
      ],
      [
        "▁teşvik",
        -9.771669150042277
      ],
      [
        "▁merkez",
        -9.77184760270609
      ],
      [
        "▁kış",
        -9.771950635649064
      ],
      [
        "lenen",
        -9.772115129124671
      ],
      [
        "▁ölüm",
        -9.77246635249946
      ],
      [
        "ünün",
        -9.77301283308535
      ],
      [
        "▁Partisi",
        -9.77416718556997
      ],
      [
        "Pnin",
        -9.77438617420885
      ],
      [
        "▁Tam",
        -9.776827322353276
      ],
      [
        "▁konularda",
        -9.776889800269428
      ],
      [
        "▁Galatasaray",
        -9.776910350248158
      ],
      [
        "▁mahkeme",
        -9.777291914230233
      ],
      [
        "▁meyve",
        -9.777371817532854
      ],
      [
        "▁Web",
        -9.778733106213693
      ],
      [
        "▁görüşme",
        -9.778772231681886
      ],
      [
        "▁düşen",
        -9.778821293122016
      ],
      [
        "▁bünyesinde",
        -9.779143474586544
      ],
      [
        "▁kültürel",
        -9.779233895576995
      ],
      [
        "▁açılan",
        -9.78056290310828
      ],
      [
        "▁dönemin",
        -9.780818792047132
      ],
      [
        "▁dini",
        -9.781599190875829
      ],
      [
        "▁duvar",
        -9.781864899596384
      ],
      [
        "▁olduğumuz",
        -9.782255882356637
      ],
      [
        "▁adeta",
        -9.783322476992463
      ],
      [
        "▁Emniyet",
        -9.784078365181006
      ],
      [
        "▁Fenerbahçe",
        -9.784673040166073
      ],
      [
        "▁şart",
        -9.785024451009688
      ],
      [
        "▁sektöründe",
        -9.78573363108374
      ],
      [
        "acağı",
        -9.786373801421044
      ],
      [
        "▁kızı",
        -9.786502558013405
      ],
      [
        "▁çıkma",
        -9.786528847134017
      ],
      [
        "▁sanki",
        -9.78663854965436
      ],
      [
        "▁Beşiktaş",
        -9.786691972528557
      ],
      [
        "▁amaçlı",
        -9.786697354524687
      ],
      [
        "▁Alman",
        -9.786960484799588
      ],
      [
        "▁yumurta",
        -9.787741924030264
      ],
      [
        "▁bekliyor",
        -9.78896875886225
      ],
      [
        "▁kahve",
        -9.78907922538439
      ],
      [
        "▁geçer",
        -9.789666051227307
      ],
      [
        "ol",
        -9.78978228777162
      ],
      [
        "▁uçak",
        -9.78983836776292
      ],
      [
        "▁olacağı",
        -9.790315718723528
      ],
      [
        "▁der",
        -9.790440163029691
      ],
      [
        "▁iptal",
        -9.790440992718342
      ],
      [
        "▁tarihleri",
        -9.791368279657425
      ],
      [
        "▁ilginç",
        -9.79137556253966
      ],
      [
        "▁Demir",
        -9.792353592721074
      ],
      [
        "▁toplu",
        -9.796484490005833
      ],
      [
        "▁buraya",
        -9.79680831568521
      ],
      [
        "▁eksik",
        -9.797141849820068
      ],
      [
        "▁kadınların",
        -9.797698470742334
      ],
      [
        "▁Süper",
        -9.79783982270636
      ],
      [
        "▁gaz",
        -9.79801757615303
      ],
      [
        "▁trafik",
        -9.798531053129004
      ],
      [
        "▁çıkacak",
        -9.798664368350124
      ],
      [
        "▁geçtiğimiz",
        -9.7988962724611
      ],
      [
        "▁motor",
        -9.800008198130444
      ],
      [
        "▁yazılım",
        -9.8004705341687
      ],
      [
        "▁gereği",
        -9.80086233784325
      ],
      [
        "▁toplumun",
        -9.80153089922138
      ],
      [
        "▁makine",
        -9.801536446495714
      ],
      [
        "▁tehdit",
        -9.80238778200913
      ],
      [
        "melidir",
        -9.803558337458933
      ],
      [
        "▁Para",
        -9.804259356366062
      ],
      [
        "▁öncesinde",
        -9.804612086531838
      ],
      [
        "▁çeşit",
        -9.804672715365529
      ],
      [
        "▁birer",
        -9.804749760312085
      ],
      [
        "▁Osman",
        -9.804824525919132
      ],
      [
        "▁yaptık",
        -9.8078903456192
      ],
      [
        "▁gelişme",
        -9.808476910484645
      ],
      [
        "▁çıkış",
        -9.80860413572613
      ],
      [
        "▁sipariş",
        -9.809311103922616
      ],
      [
        "▁devletin",
        -9.809391089860886
      ],
      [
        "▁tabii",
        -9.809452143486928
      ],
      [
        "▁hükümet",
        -9.809575122149718
      ],
      [
        "▁konuşan",
        -9.809579153112654
      ],
      [
        "▁hakim",
        -9.809597454520912
      ],
      [
        "▁çocuğun",
        -9.809854498630909
      ],
      [
        "cak",
        -9.810252953551425
      ],
      [
        "▁açıdan",
        -9.81056640746774
      ],
      [
        "▁Cuma",
        -9.811485734327208
      ],
      [
        "▁hakları",
        -9.81160353616485
      ],
      [
        "▁karşılık",
        -9.81184935355673
      ],
      [
        "spor",
        -9.812073825902372
      ],
      [
        "▁çizgi",
        -9.81257034760804
      ],
      [
        "▁sağlığı",
        -9.812831623575384
      ],
      [
        "▁sağlayacak",
        -9.812993616622125
      ],
      [
        "▁Neden",
        -9.813885595777425
      ],
      [
        "▁soruşturma",
        -9.81416181162164
      ],
      [
        "▁sabit",
        -9.814445585953209
      ],
      [
        "▁yerlerde",
        -9.814762102440074
      ],
      [
        "▁yüzünden",
        -9.815440249198884
      ],
      [
        "▁Amerikan",
        -9.815475214758754
      ],
      [
        "▁Ha",
        -9.816647908016837
      ],
      [
        "ist",
        -9.816671336654275
      ],
      [
        "▁kolayca",
        -9.817158523377632
      ],
      [
        "▁elbette",
        -9.818948333379556
      ],
      [
        "▁ulusal",
        -9.819737559882268
      ],
      [
        "iyi",
        -9.819987780122894
      ],
      [
        "▁cep",
        -9.820071714992013
      ],
      [
        "▁bitki",
        -9.820463235260153
      ],
      [
        "▁günler",
        -9.821068066358944
      ],
      [
        "▁İçin",
        -9.82156704921381
      ],
      [
        "sü",
        -9.821691535679385
      ],
      [
        "▁ruh",
        -9.821723846737996
      ],
      [
        "▁bölümünde",
        -9.82175369057184
      ],
      [
        "▁verilmesi",
        -9.822132165921625
      ],
      [
        "▁sunan",
        -9.822348915741784
      ],
      [
        "▁yük",
        -9.823199233030184
      ],
      [
        "▁Bakan",
        -9.824491065096693
      ],
      [
        "▁Windows",
        -9.824508541828909
      ],
      [
        "▁tedavisi",
        -9.825159153267125
      ],
      [
        "▁hali",
        -9.825165596351836
      ],
      [
        "der",
        -9.825321727957338
      ],
      [
        "▁Teknoloji",
        -9.825463131657092
      ],
      [
        "▁oranında",
        -9.825868553235818
      ],
      [
        "▁Gün",
        -9.82589208295484
      ],
      [
        "▁Enerji",
        -9.827063809519576
      ],
      [
        "▁sağlam",
        -9.827643053019257
      ],
      [
        "dum",
        -9.828964026821245
      ],
      [
        "sam",
        -9.829000988376844
      ],
      [
        "tü",
        -9.829160292097074
      ],
      [
        "▁aşağıda",
        -9.829369602280794
      ],
      [
        "▁yoluyla",
        -9.829414949975778
      ],
      [
        "inizi",
        -9.829546805239564
      ],
      [
        "▁Anayasa",
        -9.829993731144924
      ],
      [
        "▁karşıya",
        -9.830755407032726
      ],
      [
        "▁gelmesi",
        -9.831661888629226
      ],
      [
        "▁Site",
        -9.83184155310068
      ],
      [
        "▁vermeye",
        -9.83212442279978
      ],
      [
        "▁kadının",
        -9.832292056414795
      ],
      [
        "ince",
        -9.832443330258547
      ],
      [
        "▁ideal",
        -9.832875681023966
      ],
      [
        "▁üretimi",
        -9.833199809279495
      ],
      [
        "▁taraf",
        -9.833239339197254
      ],
      [
        "▁olmadı",
        -9.833387535464174
      ],
      [
        "▁Altın",
        -9.833678204027692
      ],
      [
        "ğı",
        -9.833717385970289
      ],
      [
        "▁yarın",
        -9.833718702928516
      ],
      [
        "▁çekti",
        -9.834289563944816
      ],
      [
        "eceği",
        -9.83456069985111
      ],
      [
        "▁sistemleri",
        -9.83510589396285
      ],
      [
        "▁maddi",
        -9.835870429573674
      ],
      [
        "▁vermiş",
        -9.836429762406889
      ],
      [
        "▁zevk",
        -9.836489233371449
      ],
      [
        "▁Ek",
        -9.83681118920571
      ],
      [
        "▁Kamu",
        -9.837830512165292
      ],
      [
        "▁sebebiyle",
        -9.838293787585052
      ],
      [
        "▁Konya",
        -9.838339758935229
      ],
      [
        "ndeki",
        -9.838927232404629
      ],
      [
        "▁hayatta",
        -9.839182017520017
      ],
      [
        "▁Gazete",
        -9.839512382182546
      ],
      [
        "▁CH",
        -9.839793539691527
      ],
      [
        "▁böylece",
        -9.840332627446475
      ],
      [
        "▁Tabi",
        -9.84139953029296
      ],
      [
        "▁kullanan",
        -9.84145595487994
      ],
      [
        "▁ülkemizde",
        -9.842440957654578
      ],
      [
        "▁dönüş",
        -9.84288128333476
      ],
      [
        "▁yara",
        -9.843115843737708
      ],
      [
        "▁AKP",
        -9.843285556555678
      ],
      [
        "▁Söz",
        -9.844461416529365
      ],
      [
        "▁boyu",
        -9.844960141329413
      ],
      [
        "▁otomobil",
        -9.845086567498209
      ],
      [
        "▁VE",
        -9.845538216061158
      ],
      [
        "▁Konu",
        -9.84593696293577
      ],
      [
        "▁işletme",
        -9.84833130644882
      ],
      [
        "ver",
        -9.848745648253068
      ],
      [
        "▁olduğunuz",
        -9.849158898942107
      ],
      [
        "▁Güneş",
        -9.849349584764733
      ],
      [
        "▁söylüyor",
        -9.849411232027402
      ],
      [
        "▁birbirine",
        -9.849419023767668
      ],
      [
        "▁Re",
        -9.849781389620947
      ],
      [
        "▁düzey",
        -9.850537769670533
      ],
      [
        "larımızın",
        -9.85139160008434
      ],
      [
        "▁Kanunun",
        -9.852031507844435
      ],
      [
        "▁yalan",
        -9.852787996679714
      ],
      [
        "▁olduklarını",
        -9.852930425158608
      ],
      [
        "▁mezun",
        -9.853181175429224
      ],
      [
        "▁toprak",
        -9.853534625384189
      ],
      [
        "▁bulma",
        -9.853555165397058
      ],
      [
        "▁öz",
        -9.85374127752383
      ],
      [
        "ysa",
        -9.854542852876136
      ],
      [
        "▁emekli",
        -9.854995889855932
      ],
      [
        "▁herkese",
        -9.855046842022563
      ],
      [
        "▁Geçen",
        -9.856449299635855
      ],
      [
        "▁ettim",
        -9.856613258120635
      ],
      [
        "▁faydalı",
        -9.858251401214122
      ],
      [
        "▁adayı",
        -9.85853482272352
      ],
      [
        "▁biridir",
        -9.859044029306162
      ],
      [
        "▁Meslek",
        -9.859462336257067
      ],
      [
        "▁yönünde",
        -9.859539654646737
      ],
      [
        "▁anlatan",
        -9.85969765674098
      ],
      [
        "eyi",
        -9.860655347533756
      ],
      [
        "▁üstünde",
        -9.860660226788305
      ],
      [
        "▁liste",
        -9.86106307091014
      ],
      [
        "ton",
        -9.86128619613043
      ],
      [
        "▁kanun",
        -9.861917087366235
      ],
      [
        "▁yanına",
        -9.861924322868012
      ],
      [
        "▁yolunda",
        -9.862376360239702
      ],
      [
        "▁Peygamber",
        -9.863031038215675
      ],
      [
        "▁Muhammed",
        -9.863113041799163
      ],
      [
        "▁gösterdi",
        -9.863639300022864
      ],
      [
        "▁maddesi",
        -9.863722373751528
      ],
      [
        "▁esnasında",
        -9.863755543652156
      ],
      [
        "▁sayede",
        -9.864093994558402
      ],
      [
        "▁seri",
        -9.864186044010973
      ],
      [
        "▁Yapı",
        -9.864878339561804
      ],
      [
        "▁televizyon",
        -9.864891489474376
      ],
      [
        "▁uyum",
        -9.86609109048405
      ],
      [
        "▁not",
        -9.866361964360216
      ],
      [
        "▁ulaşım",
        -9.86644268494688
      ],
      [
        "▁açılış",
        -9.86682603545125
      ],
      [
        "▁maçı",
        -9.86716427494076
      ],
      [
        "▁eşya",
        -9.867782925891053
      ],
      [
        "▁Öncelikle",
        -9.869018732760718
      ],
      [
        "▁Adana",
        -9.869704834828132
      ],
      [
        "▁paket",
        -9.870034451635672
      ],
      [
        "▁falan",
        -9.870329268153547
      ],
      [
        "▁İnternet",
        -9.870561532860885
      ],
      [
        "▁ulaşabilirsiniz",
        -9.870764682125651
      ],
      [
        "▁gerektiği",
        -9.870972960651423
      ],
      [
        "▁doğa",
        -9.871934746085504
      ],
      [
        "▁rapor",
        -9.872063859432725
      ],
      [
        "▁No",
        -9.872342286859158
      ],
      [
        "▁insanlara",
        -9.873144109596334
      ],
      [
        "▁görsel",
        -9.873418956262189
      ],
      [
        "▁istedi",
        -9.873471393213473
      ],
      [
        "▁ondan",
        -9.873595875323486
      ],
      [
        "▁analiz",
        -9.873779926929918
      ],
      [
        "▁isterseniz",
        -9.874007551785605
      ],
      [
        "▁acil",
        -9.874304742799632
      ],
      [
        "▁gidip",
        -9.875079142841768
      ],
      [
        "▁edilecek",
        -9.87520210558175
      ],
      [
        "▁Grup",
        -9.875933655901369
      ],
      [
        "▁üstüne",
        -9.876027344520736
      ],
      [
        "lerimizin",
        -9.87625452806431
      ],
      [
        "▁takımı",
        -9.876572763938867
      ],
      [
        "▁Zaman",
        -9.876914898790528
      ],
      [
        "▁rahatsız",
        -9.878060233909858
      ],
      [
        "▁piyasa",
        -9.879105236099978
      ],
      [
        "▁Erdoğanın",
        -9.879251965641927
      ],
      [
        "▁Şube",
        -9.88007022738994
      ],
      [
        "▁TV",
        -9.880894614576638
      ],
      [
        "▁Nur",
        -9.88126170347464
      ],
      [
        "▁gelme",
        -9.88151287835844
      ],
      [
        "kar",
        -9.881532516193005
      ],
      [
        "▁millet",
        -9.881997744790867
      ],
      [
        "▁edildiği",
        -9.883261512076796
      ],
      [
        "▁önde",
        -9.88438879046292
      ],
      [
        "▁Önce",
        -9.885105951892816
      ],
      [
        "şunları",
        -9.886528605621706
      ],
      [
        "▁çağrı",
        -9.887072149465846
      ],
      [
        "▁şehrin",
        -9.8871543691925
      ],
      [
        "▁yoktu",
        -9.887450639285683
      ],
      [
        "▁keyifli",
        -9.88794319192832
      ],
      [
        "▁deneyim",
        -9.88798600491342
      ],
      [
        "▁Yaz",
        -9.888447882188707
      ],
      [
        "▁fiziksel",
        -9.889371328357166
      ],
      [
        "▁demokrasi",
        -9.88992613715316
      ],
      [
        "K",
        -9.890295309395205
      ],
      [
        "▁vermektedir",
        -9.89032251854741
      ],
      [
        "▁uyku",
        -9.890959584535944
      ],
      [
        "▁halkı",
        -9.89365922098838
      ],
      [
        "▁birini",
        -9.893920192988803
      ],
      [
        "▁süreçte",
        -9.894052359241208
      ],
      [
        "▁namaz",
        -9.89455871066646
      ],
      [
        "▁alanları",
        -9.894937881439224
      ],
      [
        "▁kullanılması",
        -9.894938862334389
      ],
      [
        "▁sarı",
        -9.89497283965346
      ],
      [
        "▁oyunları",
        -9.895685929007849
      ],
      [
        "▁Gençlik",
        -9.895994841543375
      ],
      [
        "onun",
        -9.89620410087482
      ],
      [
        "▁Phone",
        -9.896274121907137
      ],
      [
        "▁ufak",
        -9.896404070773327
      ],
      [
        "▁babası",
        -9.896435230579948
      ],
      [
        "▁eşit",
        -9.89658694029174
      ],
      [
        "▁İngiliz",
        -9.89675081553573
      ],
      [
        "▁katı",
        -9.897274495372626
      ],
      [
        "▁elinde",
        -9.897402710891006
      ],
      [
        "▁genelde",
        -9.897590526987631
      ],
      [
        "▁yanıt",
        -9.897755690105452
      ],
      [
        "▁beyin",
        -9.89889385909602
      ],
      [
        "yen",
        -9.900212683016973
      ],
      [
        "▁kal",
        -9.900675079850268
      ],
      [
        "▁kalın",
        -9.901370001542729
      ],
      [
        "▁İngiltere",
        -9.902420291996982
      ],
      [
        "▁şirketi",
        -9.902696025763584
      ],
      [
        "son",
        -9.902767043219963
      ],
      [
        "▁Tarihi",
        -9.903738936797849
      ],
      [
        "▁tanesi",
        -9.904588869443876
      ],
      [
        "▁civarında",
        -9.90460872612416
      ],
      [
        "▁Okul",
        -9.90464502252994
      ],
      [
        "ıyla",
        -9.904815672362854
      ],
      [
        "▁hastalığı",
        -9.906959641018402
      ],
      [
        "▁siteleri",
        -9.907064236388695
      ],
      [
        "▁günümüzde",
        -9.907768836613077
      ],
      [
        "▁bulmak",
        -9.90838395035681
      ],
      [
        "▁sigorta",
        -9.9093044780076
      ],
      [
        "▁Arap",
        -9.909907706678156
      ],
      [
        "▁Uygulama",
        -9.910476534438786
      ],
      [
        "Dnin",
        -9.91167317237936
      ],
      [
        "▁vererek",
        -9.911940220469896
      ],
      [
        "▁yayınlanan",
        -9.91273130266642
      ],
      [
        "▁onay",
        -9.913168325062406
      ],
      [
        "▁sektör",
        -9.913701666373475
      ],
      [
        "▁aşağı",
        -9.914009466924892
      ],
      [
        "lanması",
        -9.91490553180494
      ],
      [
        "▁Doğru",
        -9.915062524393525
      ],
      [
        "▁aralarında",
        -9.915066991976506
      ],
      [
        "lenmiş",
        -9.915554006594984
      ],
      [
        "▁indirim",
        -9.916951975378572
      ],
      [
        "▁seçenekleri",
        -9.917018928813436
      ],
      [
        "▁etmiştir",
        -9.917673344084772
      ],
      [
        "▁the",
        -9.919706755610653
      ],
      [
        "▁kilometre",
        -9.919978007725891
      ],
      [
        "leyerek",
        -9.921067620073964
      ],
      [
        "unda",
        -9.921133556649467
      ],
      [
        "▁verilir",
        -9.921171280320902
      ],
      [
        "▁pratik",
        -9.921351541572523
      ],
      [
        "▁barış",
        -9.923148521588043
      ],
      [
        "▁başlayacak",
        -9.923161872095127
      ],
      [
        "▁ölçüde",
        -9.92333172931478
      ],
      [
        "▁daire",
        -9.924166490438717
      ],
      [
        "▁geçici",
        -9.92421153352026
      ],
      [
        "▁ödül",
        -9.924239201148383
      ],
      [
        "van",
        -9.924258514264318
      ],
      [
        "liğin",
        -9.924308017986556
      ],
      [
        "▁ekip",
        -9.924964527133474
      ],
      [
        "▁dijital",
        -9.925891521321772
      ],
      [
        "▁birinin",
        -9.925903520084171
      ],
      [
        "▁Euro",
        -9.92691240215207
      ],
      [
        "▁Android",
        -9.927699552969315
      ],
      [
        "▁doktor",
        -9.92776614389538
      ],
      [
        "▁gelişmeler",
        -9.927969206738975
      ],
      [
        "▁yaşamak",
        -9.928651648730884
      ],
      [
        "▁Kuran",
        -9.929728544816143
      ],
      [
        "▁düzeyde",
        -9.930133534828354
      ],
      [
        "▁edilebilir",
        -9.930197918582843
      ],
      [
        "▁cezası",
        -9.930316851448582
      ],
      [
        "Bundan",
        -9.930482642220364
      ],
      [
        "▁heyecan",
        -9.93069972853744
      ],
      [
        "▁Anne",
        -9.931588241263864
      ],
      [
        "▁temizlik",
        -9.93169576382484
      ],
      [
        "▁final",
        -9.932556188280332
      ],
      [
        "▁şeyin",
        -9.932726289589365
      ],
      [
        "▁güvenliği",
        -9.932834875000344
      ],
      [
        "▁yarım",
        -9.93338900843164
      ],
      [
        "▁yatak",
        -9.933749071830164
      ],
      [
        "▁Başka",
        -9.934376715788682
      ],
      [
        "▁San",
        -9.934661438852086
      ],
      [
        "▁anlam",
        -9.934699923603503
      ],
      [
        "▁ağrı",
        -9.93505131358162
      ],
      [
        "▁Akdeniz",
        -9.935182463727068
      ],
      [
        "▁iade",
        -9.935336058554457
      ],
      [
        "▁acaba",
        -9.93666900279536
      ],
      [
        "▁gir",
        -9.93741411377312
      ],
      [
        "▁deri",
        -9.9374480432508
      ],
      [
        "▁sorumluluk",
        -9.937618617021858
      ],
      [
        "▁standart",
        -9.938349865546073
      ],
      [
        "nuz",
        -9.938359522069824
      ],
      [
        "▁sigara",
        -9.940790328764338
      ],
      [
        "▁yetki",
        -9.94081528281042
      ],
      [
        "▁Fransa",
        -9.941324629538403
      ],
      [
        "▁Escort",
        -9.941855947387888
      ],
      [
        "lığına",
        -9.94242278561542
      ],
      [
        "▁Kim",
        -9.943614090356771
      ],
      [
        "▁alabilirsiniz",
        -9.944011016016086
      ],
      [
        "▁huzur",
        -9.944170257560984
      ],
      [
        "▁eğlenceli",
        -9.94482002980848
      ],
      [
        "▁alanlarda",
        -9.944948423236571
      ],
      [
        "▁kimlik",
        -9.945364235177518
      ],
      [
        "▁Otel",
        -9.945402634987254
      ],
      [
        "▁balık",
        -9.945887877946092
      ],
      [
        "▁Ulusal",
        -9.946332112575131
      ],
      [
        "▁geçir",
        -9.946335383316995
      ],
      [
        "▁zemin",
        -9.946355237758818
      ],
      [
        "▁New",
        -9.946437739610316
      ],
      [
        "▁işleri",
        -9.9470613136546
      ],
      [
        "abilecek",
        -9.947240846172946
      ],
      [
        "▁alternatif",
        -9.947397830794223
      ],
      [
        "▁cihaz",
        -9.94771732694162
      ],
      [
        "▁II",
        -9.947991959061584
      ],
      [
        "▁yerden",
        -9.948384756259038
      ],
      [
        "▁Facebook",
        -9.94873461265794
      ],
      [
        "▁değildi",
        -9.9490533810254
      ],
      [
        "▁Kar",
        -9.94906989368156
      ],
      [
        "▁sıvı",
        -9.949181653006397
      ],
      [
        "anı",
        -9.949489283128615
      ],
      [
        "▁Belki",
        -9.950038915883953
      ],
      [
        "▁katılım",
        -9.950383572638998
      ],
      [
        "▁Bana",
        -9.95058601046678
      ],
      [
        "▁Asya",
        -9.950771381486469
      ],
      [
        "▁akıl",
        -9.950776265104292
      ],
      [
        "▁yönde",
        -9.95090210306113
      ],
      [
        "▁iktidar",
        -9.950984229708943
      ],
      [
        "▁Allaha",
        -9.951367661080518
      ],
      [
        "▁verimli",
        -9.951389441779629
      ],
      [
        "▁açma",
        -9.951526778510608
      ],
      [
        "▁Tarih",
        -9.953340965854403
      ],
      [
        "▁yedi",
        -9.953353892341449
      ],
      [
        "▁bilgiye",
        -9.953392937940858
      ],
      [
        "▁hayır",
        -9.95376025134042
      ],
      [
        "▁farkı",
        -9.953987958249911
      ],
      [
        "▁tarz",
        -9.954438898407084
      ],
      [
        "▁alınarak",
        -9.954886997846904
      ],
      [
        "▁tehlike",
        -9.95492519528342
      ],
      [
        "▁Apple",
        -9.954973381843486
      ],
      [
        "▁aracılığıyla",
        -9.95527488623524
      ],
      [
        "▁nerede",
        -9.955514374647189
      ],
      [
        "▁işlemler",
        -9.95553661870531
      ],
      [
        "to",
        -9.956102917175176
      ],
      [
        "▁evet",
        -9.956655029247464
      ],
      [
        "▁zayıf",
        -9.956914212539411
      ],
      [
        "ifadelerini",
        -9.956955072784176
      ],
      [
        "▁sınırlı",
        -9.957044040264334
      ],
      [
        "▁sermaye",
        -9.959133657969751
      ],
      [
        "▁zorunlu",
        -9.959237227607236
      ],
      [
        "▁idare",
        -9.959314236835567
      ],
      [
        "▁çekici",
        -9.959709230297914
      ],
      [
        "gündeme",
        -9.960013822150607
      ],
      [
        "▁gazete",
        -9.960353070820162
      ],
      [
        "▁derecede",
        -9.960788689323383
      ],
      [
        "▁yapmanız",
        -9.96079094493321
      ],
      [
        "▁duruma",
        -9.960803853965851
      ],
      [
        "▁kol",
        -9.96098046356768
      ],
      [
        "▁çocukları",
        -9.96101378080732
      ],
      [
        "▁kanser",
        -9.961033847594598
      ],
      [
        "▁çekiyor",
        -9.962126115767674
      ],
      [
        "▁şiddet",
        -9.962306341500224
      ],
      [
        "▁Ey",
        -9.96271526705542
      ],
      [
        "▁belirlenen",
        -9.96292284099157
      ],
      [
        "▁Bilim",
        -9.964116097880426
      ],
      [
        "gözaltına",
        -9.964255746860657
      ],
      [
        "▁tasarımı",
        -9.96444090988292
      ],
      [
        "▁geleneksel",
        -9.96450381426076
      ],
      [
        "▁bırak",
        -9.964802846495676
      ],
      [
        "▁Ba",
        -9.964898401097138
      ],
      [
        "▁garanti",
        -9.96502394847455
      ],
      [
        "▁numara",
        -9.965254690003016
      ],
      [
        "▁Karadeniz",
        -9.965674949428651
      ],
      [
        "▁Şehir",
        -9.9660230772819
      ],
      [
        "▁altını",
        -9.966103770658338
      ],
      [
        "▁şekli",
        -9.966400610340402
      ],
      [
        "▁yapın",
        -9.966403252284822
      ],
      [
        "▁Çelik",
        -9.967178066748016
      ],
      [
        "nci",
        -9.967360748529725
      ],
      [
        "▁karşılaşma",
        -9.967911468642258
      ],
      [
        "▁tecrübe",
        -9.968042934094832
      ],
      [
        "▁Ankarada",
        -9.968461649576106
      ],
      [
        "▁Sizler",
        -9.968499871161104
      ],
      [
        "▁gitmek",
        -9.969647056022946
      ],
      [
        "▁Polis",
        -9.970136858055136
      ],
      [
        "bir",
        -9.970280649161555
      ],
      [
        "▁gördü",
        -9.970786957695244
      ],
      [
        "▁Sonuç",
        -9.971080116940524
      ],
      [
        "▁edilmektedir",
        -9.971207456853772
      ],
      [
        "▁getirmek",
        -9.971222383835912
      ],
      [
        "▁küresel",
        -9.971415335466284
      ],
      [
        "ren",
        -9.971440991411134
      ],
      [
        "▁belgesi",
        -9.971744302002216
      ],
      [
        "▁Öyle",
        -9.9733071399902
      ],
      [
        "▁kalmış",
        -9.973581383708726
      ],
      [
        "▁temin",
        -9.97417002812348
      ],
      [
        "▁duygu",
        -9.974345759337336
      ],
      [
        "Ü",
        -9.97482597010036
      ],
      [
        "▁değişim",
        -9.97482845355441
      ],
      [
        "▁atan",
        -9.97493147309718
      ],
      [
        "▁eylem",
        -9.974989611496088
      ],
      [
        "▁öğrenme",
        -9.975271901591375
      ],
      [
        "▁mevcuttur",
        -9.975388480945306
      ],
      [
        "▁gerekse",
        -9.975512617082762
      ],
      [
        "▁ürünlerin",
        -9.976069262830537
      ],
      [
        "▁yolda",
        -9.97616068559716
      ],
      [
        "landı",
        -9.977055871872167
      ],
      [
        "▁buradan",
        -9.977108871904983
      ],
      [
        "▁ton",
        -9.977470871099383
      ],
      [
        "▁Trump",
        -9.978055733606356
      ],
      [
        "▁klasik",
        -9.97856869946669
      ],
      [
        "▁günün",
        -9.979000715002696
      ],
      [
        "▁yön",
        -9.97904225756442
      ],
      [
        "▁uyumlu",
        -9.97948858378949
      ],
      [
        "▁anlattı",
        -9.97963302270546
      ],
      [
        "▁başladığı",
        -9.980478844109092
      ],
      [
        "▁istihdam",
        -9.981552209541384
      ],
      [
        "▁Hiç",
        -9.981577604961233
      ],
      [
        "▁başkan",
        -9.983022037975402
      ],
      [
        "ımız",
        -9.983863021246131
      ],
      [
        "▁şiir",
        -9.984163920937824
      ],
      [
        "▁zamanında",
        -9.984278247522914
      ],
      [
        "▁şekil",
        -9.984846814146312
      ],
      [
        "▁belirtildi",
        -9.984978767348329
      ],
      [
        "▁olunca",
        -9.98518321902076
      ],
      [
        "▁gayet",
        -9.98536449341751
      ],
      [
        "iş",
        -9.986419504232574
      ],
      [
        "layan",
        -9.986732464030124
      ],
      [
        "▁adamı",
        -9.987080604745715
      ],
      [
        "▁eser",
        -9.988241310181731
      ],
      [
        "▁miktar",
        -9.988489873593725
      ],
      [
        "▁uygulamaları",
        -9.9885060179889
      ],
      [
        "▁makale",
        -9.988678637331397
      ],
      [
        "▁yaptım",
        -9.988808912220405
      ],
      [
        "▁Kurumu",
        -9.989107588643831
      ],
      [
        "▁Gece",
        -9.989421813637463
      ],
      [
        "ili",
        -9.990271061270358
      ],
      [
        "▁Ön",
        -9.9906313934539
      ],
      [
        "▁Etiketler",
        -9.990802333688146
      ],
      [
        "▁geliştirme",
        -9.99094787466206
      ],
      [
        "▁kazanan",
        -9.99137143996966
      ],
      [
        "gan",
        -9.992097453954177
      ],
      [
        "▁gelişmiş",
        -9.993206145384232
      ],
      [
        "▁çalışır",
        -9.993207683286908
      ],
      [
        "▁kimsenin",
        -9.993338149445504
      ],
      [
        "▁farkında",
        -9.993458352142106
      ],
      [
        "layabilirsiniz",
        -9.993691683848684
      ],
      [
        "▁kuruluş",
        -9.993857609808426
      ],
      [
        "▁Beyaz",
        -9.994297540519218
      ],
      [
        "▁sergi",
        -9.994752832205744
      ],
      [
        "▁aykırı",
        -9.994807953957496
      ],
      [
        "▁sunduğu",
        -9.99500538696346
      ],
      [
        "yo",
        -9.99619892751657
      ],
      [
        "▁Tabii",
        -9.996578921975464
      ],
      [
        "▁be",
        -9.996586105702612
      ],
      [
        "▁ihracat",
        -9.996715217394454
      ],
      [
        "▁arz",
        -9.997022890437284
      ],
      [
        "suz",
        -9.998479821984194
      ],
      [
        "▁miktarda",
        -9.998540454829296
      ],
      [
        "▁vatandaşlar",
        -9.999446543685156
      ],
      [
        "▁Samsun",
        -9.999461467081016
      ],
      [
        "▁maruz",
        -9.999513169316202
      ],
      [
        "cık",
        -9.999542765737589
      ],
      [
        "▁örgütü",
        -9.999783831198595
      ],
      [
        "▁gidiyor",
        -10.000226122071991
      ],
      [
        "dık",
        -10.00053196259546
      ],
      [
        "▁sevgili",
        -10.00094434064928
      ],
      [
        "▁halka",
        -10.001102147245431
      ],
      [
        "▁sanırım",
        -10.00113657138889
      ],
      [
        "▁Ege",
        -10.001179426965376
      ],
      [
        "▁mümkündür",
        -10.001237123066772
      ],
      [
        "▁olmaması",
        -10.002134700549147
      ],
      [
        "lanmıştır",
        -10.002399314992468
      ],
      [
        "▁icin",
        -10.002522017608923
      ],
      [
        "▁Kitap",
        -10.002713828269824
      ],
      [
        "▁alması",
        -10.002795878739317
      ],
      [
        "malı",
        -10.00340135526172
      ],
      [
        "▁kendimi",
        -10.00370036267389
      ],
      [
        "▁kalır",
        -10.004639467843967
      ],
      [
        "▁üstün",
        -10.006172931921803
      ],
      [
        "▁sakin",
        -10.006353087596722
      ],
      [
        "▁Açık",
        -10.00685780851329
      ],
      [
        "▁and",
        -10.00705052841952
      ],
      [
        "▁deneme",
        -10.007189688886402
      ],
      [
        "▁problem",
        -10.007690473224503
      ],
      [
        "▁düz",
        -10.008283582349604
      ],
      [
        "▁bulabilirsiniz",
        -10.008733770385586
      ],
      [
        "▁Kan",
        -10.0093567941666
      ],
      [
        "▁yazma",
        -10.0095150897196
      ],
      [
        "▁yaptığımız",
        -10.009725114823004
      ],
      [
        "oğlunun",
        -10.010051228571166
      ],
      [
        "▁lider",
        -10.010380975355949
      ],
      [
        "▁başı",
        -10.01130797195611
      ],
      [
        "mıyor",
        -10.01160514562155
      ],
      [
        "▁tarzı",
        -10.011644192636874
      ],
      [
        "▁mutluluk",
        -10.011936236734185
      ],
      [
        "▁Yıldız",
        -10.012321305233572
      ],
      [
        "▁hizmetler",
        -10.01246127282051
      ],
      [
        "▁operasyon",
        -10.012500056044583
      ],
      [
        "▁telefonu",
        -10.012719982382064
      ],
      [
        "ber",
        -10.013303234765662
      ],
      [
        "▁Oys",
        -10.013424997342884
      ],
      [
        "▁oldum",
        -10.013829878414452
      ],
      [
        "▁sürü",
        -10.013982304057016
      ],
      [
        "▁yasak",
        -10.014744780921912
      ],
      [
        "▁tamam",
        -10.015404923157073
      ],
      [
        "▁Kısa",
        -10.016180000964193
      ],
      [
        "▁geçiyor",
        -10.0167209091001
      ],
      [
        "▁düşman",
        -10.016984185073175
      ],
      [
        "▁do",
        -10.017736134838412
      ],
      [
        "▁ameliyat",
        -10.018275388073514
      ],
      [
        "▁tiyatro",
        -10.01869040522107
      ],
      [
        "▁sürecinde",
        -10.019485089288793
      ],
      [
        "▁sinir",
        -10.0201973265056
      ],
      [
        "▁kent",
        -10.020197454737907
      ],
      [
        "▁deprem",
        -10.020530432273242
      ],
      [
        "▁olayı",
        -10.021103105420156
      ],
      [
        "▁anlat",
        -10.021138970579583
      ],
      [
        "▁Günü",
        -10.021329902361762
      ],
      [
        "▁Oda",
        -10.022238646556511
      ],
      [
        "▁gitme",
        -10.022418500035988
      ],
      [
        "▁Orman",
        -10.022473860094369
      ],
      [
        "▁bulunması",
        -10.023135613975736
      ],
      [
        "▁olmasa",
        -10.023244853627713
      ],
      [
        "▁kalıcı",
        -10.02363914240133
      ],
      [
        "müz",
        -10.023876239855442
      ],
      [
        "▁çalışmalarını",
        -10.024118514596395
      ],
      [
        "▁milletvekili",
        -10.02483542267226
      ],
      [
        "▁Kaya",
        -10.024862875601052
      ],
      [
        "▁alınır",
        -10.024929867460289
      ],
      [
        "▁Türkiyedeki",
        -10.025259663252466
      ],
      [
        "▁köy",
        -10.025297546472771
      ],
      [
        "▁tutar",
        -10.025500386876685
      ],
      [
        "▁İsmail",
        -10.026357916468427
      ],
      [
        "▁anında",
        -10.026523479762815
      ],
      [
        "▁fırsatı",
        -10.026639357723448
      ],
      [
        "Dışişleri",
        -10.026743050711012
      ],
      [
        "▁kazanma",
        -10.02762535541307
      ],
      [
        "▁hal",
        -10.027778735428422
      ],
      [
        "▁sevk",
        -10.027928898481546
      ],
      [
        "▁çocuğu",
        -10.029096769723605
      ],
      [
        "▁yapıp",
        -10.029748719881542
      ],
      [
        "▁adresi",
        -10.029844632559128
      ],
      [
        "Bunların",
        -10.029961634934455
      ],
      [
        "▁noktası",
        -10.030348389776837
      ],
      [
        "▁temas",
        -10.030587367051565
      ],
      [
        "tepe",
        -10.03130600701953
      ],
      [
        "▁yapması",
        -10.03137341862885
      ],
      [
        "▁gerçekleşen",
        -10.03174897646273
      ],
      [
        "▁rengi",
        -10.031819825989784
      ],
      [
        "▁kas",
        -10.03193153368018
      ],
      [
        "▁gelişim",
        -10.031955506562944
      ],
      [
        "▁Hizmet",
        -10.032110324811594
      ],
      [
        "layıp",
        -10.032329654698415
      ],
      [
        "▁sıkı",
        -10.032820330982837
      ],
      [
        "▁Öte",
        -10.032848361489307
      ],
      [
        "lanma",
        -10.032906838112249
      ],
      [
        "▁Van",
        -10.03320320815747
      ],
      [
        "▁yazık",
        -10.03329051173711
      ],
      [
        "▁kullandığı",
        -10.03354748687632
      ],
      [
        "önümüzdeki",
        -10.03362126462243
      ],
      [
        "▁geldiğini",
        -10.03399212530567
      ],
      [
        "▁gelince",
        -10.034237013794046
      ],
      [
        "▁Fransız",
        -10.034514886320208
      ],
      [
        "▁Yıl",
        -10.034539685209795
      ],
      [
        "▁yarar",
        -10.035189633179424
      ],
      [
        "▁verici",
        -10.035537395221214
      ],
      [
        "▁bayram",
        -10.035573975818703
      ],
      [
        "▁denetim",
        -10.035670510782683
      ],
      [
        "▁Ge",
        -10.035837780532963
      ],
      [
        "▁yaşlı",
        -10.03781268092703
      ],
      [
        "▁hikaye",
        -10.038055940909569
      ],
      [
        "▁Saat",
        -10.03871850139041
      ],
      [
        "tim",
        -10.039256621302563
      ],
      [
        "▁kurumsal",
        -10.039368913096126
      ],
      [
        "▁artan",
        -10.039597137957838
      ],
      [
        "▁teşekkürler",
        -10.039613591778387
      ],
      [
        "▁gel",
        -10.039751800801968
      ],
      [
        "taş",
        -10.040113755858872
      ],
      [
        "▁anlama",
        -10.041154278367593
      ],
      [
        "▁ettik",
        -10.04170871078933
      ],
      [
        "▁Süleyman",
        -10.041781184208748
      ],
      [
        "▁dayalı",
        -10.042346301610536
      ],
      [
        "▁ortam",
        -10.0424118307349
      ],
      [
        "▁Dil",
        -10.043125063041296
      ],
      [
        "▁girer",
        -10.043314707989952
      ],
      [
        "üne",
        -10.043451473088536
      ],
      [
        "▁Le",
        -10.043477511566437
      ],
      [
        "▁tamamı",
        -10.043803189248765
      ],
      [
        "▁yaşıyor",
        -10.0438674392157
      ],
      [
        "▁edebilir",
        -10.044019410294394
      ],
      [
        "▁Futbol",
        -10.044042401514234
      ],
      [
        "▁tesis",
        -10.044170167008652
      ],
      [
        "▁hoca",
        -10.044556224682747
      ],
      [
        "▁birden",
        -10.045341755858196
      ],
      [
        "▁mesele",
        -10.047277057402818
      ],
      [
        "▁içerik",
        -10.047729733955023
      ],
      [
        "▁İşleri",
        -10.04903114900683
      ],
      [
        "▁hastane",
        -10.049090113067727
      ],
      [
        "▁Vakfı",
        -10.04970838793378
      ],
      [
        "▁tarafı",
        -10.050269977107927
      ],
      [
        "▁vurgu",
        -10.050338850390824
      ],
      [
        "▁is",
        -10.050368256220564
      ],
      [
        "▁Zira",
        -10.050544382131877
      ],
      [
        "▁düş",
        -10.051143488025698
      ],
      [
        "▁ücreti",
        -10.051186663048892
      ],
      [
        "▁dili",
        -10.051804981859595
      ],
      [
        "▁açı",
        -10.05248916923908
      ],
      [
        "gen",
        -10.052939908227758
      ],
      [
        "▁kira",
        -10.0530197811014
      ],
      [
        "▁sürece",
        -10.05316576077465
      ],
      [
        "▁Üniversite",
        -10.053200929228405
      ],
      [
        "▁sunulan",
        -10.053268200162291
      ],
      [
        "▁geçme",
        -10.05363704070516
      ],
      [
        "ama",
        -10.054250595781928
      ],
      [
        "▁yolcu",
        -10.054331025852033
      ],
      [
        "▁Hemen",
        -10.054418814805928
      ],
      [
        "yakından",
        -10.054651756849422
      ],
      [
        "▁olduğum",
        -10.05507196087089
      ],
      [
        "▁başlıklı",
        -10.055790555522652
      ],
      [
        "▁Temel",
        -10.056077174645464
      ],
      [
        "▁zamanlar",
        -10.056114554299745
      ],
      [
        "▁Abdullah",
        -10.056399632972418
      ],
      [
        "▁politika",
        -10.056401632554584
      ],
      [
        "▁Ceza",
        -10.056924374197717
      ],
      [
        "▁uyarı",
        -10.057116918768536
      ],
      [
        "▁hayırlı",
        -10.058229620143544
      ],
      [
        "▁paylaş",
        -10.058635666663342
      ],
      [
        "▁gezi",
        -10.058821735856034
      ],
      [
        "▁boy",
        -10.059446381695448
      ],
      [
        "▁talebi",
        -10.059581320472848
      ],
      [
        "▁Birçok",
        -10.06100395812639
      ],
      [
        "▁sözü",
        -10.061207062340069
      ],
      [
        "▁bakın",
        -10.063280299550774
      ],
      [
        "▁çıktığı",
        -10.063389395994744
      ],
      [
        "▁sanatçı",
        -10.063518948962376
      ],
      [
        "▁yıllardır",
        -10.063982196040676
      ],
      [
        "▁bağ",
        -10.064205552675952
      ],
      [
        "▁demir",
        -10.064243245326242
      ],
      [
        "müş",
        -10.064861647215237
      ],
      [
        "▁An",
        -10.064940190302943
      ],
      [
        "▁köşe",
        -10.065047779330254
      ],
      [
        "▁tartışma",
        -10.065190607067962
      ],
      [
        "▁sebeple",
        -10.065510416583324
      ],
      [
        "▁kendinizi",
        -10.065541904762386
      ],
      [
        "▁korumak",
        -10.06612154435496
      ],
      [
        "▁ederiz",
        -10.066239440766562
      ],
      [
        "▁Pro",
        -10.066253326816565
      ],
      [
        "▁evlilik",
        -10.066443736036954
      ],
      [
        "▁firması",
        -10.066525266699465
      ],
      [
        "▁Kredi",
        -10.067308011225546
      ],
      [
        "mde",
        -10.068077545307569
      ],
      [
        "▁olaylar",
        -10.0694804938449
      ],
      [
        "▁miktarı",
        -10.070184535318896
      ],
      [
        "▁Doğan",
        -10.070308675496554
      ],
      [
        "▁Sa",
        -10.070389949170854
      ],
      [
        "▁Tıp",
        -10.070556425896363
      ],
      [
        "▁çıkmış",
        -10.070830501962307
      ],
      [
        "▁kaybı",
        -10.07085412969061
      ],
      [
        "▁taze",
        -10.071228344750203
      ],
      [
        "ize",
        -10.071565290305276
      ],
      [
        "▁girme",
        -10.071610970020528
      ],
      [
        "▁bazıları",
        -10.072096917264648
      ],
      [
        "▁ol",
        -10.072683008834142
      ],
      [
        "▁Rum",
        -10.072766932118004
      ],
      [
        "▁gördüğü",
        -10.07360547883541
      ],
      [
        "▁borç",
        -10.073702074131685
      ],
      [
        "▁bulun",
        -10.074176345091717
      ],
      [
        "▁fatura",
        -10.074298696203387
      ],
      [
        "▁görünüyor",
        -10.074299623658018
      ],
      [
        "▁Günümüzde",
        -10.0744944673325
      ],
      [
        "▁bireysel",
        -10.074782239766192
      ],
      [
        "▁dikkatli",
        -10.074827438860002
      ],
      [
        "▁Sabah",
        -10.07562001509364
      ],
      [
        "lıyor",
        -10.075707773120527
      ],
      [
        "▁katıl",
        -10.07659664794703
      ],
      [
        "▁arkadaşı",
        -10.076931185965776
      ],
      [
        "▁Sarı",
        -10.077045830378603
      ],
      [
        "mekte",
        -10.07752484744682
      ],
      [
        "yordu",
        -10.077587385785971
      ],
      [
        "▁mavi",
        -10.077964679886549
      ],
      [
        "▁Park",
        -10.078044382210996
      ],
      [
        "▁moda",
        -10.078610447348735
      ],
      [
        "▁getirdiği",
        -10.079545951851069
      ],
      [
        "▁ısı",
        -10.07962591347192
      ],
      [
        "▁olabilirsiniz",
        -10.080155504376004
      ],
      [
        "▁dönüşüm",
        -10.080262341537964
      ],
      [
        "▁Ardında",
        -10.08030600004867
      ],
      [
        "▁pazarlama",
        -10.080810790568393
      ],
      [
        "▁kurul",
        -10.081115031743694
      ],
      [
        "▁otobüs",
        -10.081307504394228
      ],
      [
        "▁Baba",
        -10.081557701632637
      ],
      [
        "lıdır",
        -10.082055580349556
      ],
      [
        "▁sorunun",
        -10.082083648268627
      ],
      [
        "ch",
        -10.082217635599775
      ],
      [
        "▁sizleri",
        -10.082302071389943
      ],
      [
        "▁bal",
        -10.083189025804948
      ],
      [
        "▁görünüm",
        -10.083595489712351
      ],
      [
        "▁Hafta",
        -10.083705594999088
      ],
      [
        "▁Koç",
        -10.083835568467764
      ],
      [
        "▁yapılıyor",
        -10.083836101372786
      ],
      [
        "▁merkezinde",
        -10.084381093979069
      ],
      [
        "▁kazandı",
        -10.08445159221849
      ],
      [
        "▁çiçek",
        -10.084583203548297
      ],
      [
        "▁Kişi",
        -10.08517317054943
      ],
      [
        "▁ha",
        -10.085747641086982
      ],
      [
        "▁özgür",
        -10.085994513012876
      ],
      [
        "▁Gazi",
        -10.08649850755735
      ],
      [
        "▁attı",
        -10.086709816056604
      ],
      [
        "▁Mısır",
        -10.086870605359117
      ],
      [
        "▁buldu",
        -10.087347359515675
      ],
      [
        "eri",
        -10.087551542431008
      ],
      [
        "anın",
        -10.087596178006203
      ],
      [
        "▁azından",
        -10.0876571060971
      ],
      [
        "▁ekmek",
        -10.08794502816832
      ],
      [
        "▁büyü",
        -10.088142014455125
      ],
      [
        "▁suretiyle",
        -10.088830907851492
      ],
      [
        "▁isteyenler",
        -10.088896426331312
      ],
      [
        "▁masa",
        -10.089019093826058
      ],
      [
        "▁olanak",
        -10.089225222205416
      ],
      [
        "▁mahalle",
        -10.09047160021645
      ],
      [
        "arı",
        -10.090644272415284
      ],
      [
        "▁servisi",
        -10.091330910383508
      ],
      [
        "▁çalışmak",
        -10.091781625745076
      ],
      [
        "abi",
        -10.09193385091866
      ],
      [
        "ör",
        -10.09201051978576
      ],
      [
        "▁dön",
        -10.092070349314158
      ],
      [
        "▁tanı",
        -10.09279728713422
      ],
      [
        "▁kargo",
        -10.09351505357143
      ],
      [
        "▁gösterdiği",
        -10.093620142469206
      ],
      [
        "▁kalitesi",
        -10.094467114394218
      ],
      [
        "imizin",
        -10.094697255437245
      ],
      [
        "▁hayatın",
        -10.094943522064586
      ],
      [
        "▁In",
        -10.095474864022808
      ],
      [
        "▁Gıda",
        -10.096249869099822
      ],
      [
        "▁tipi",
        -10.096363454347529
      ],
      [
        "▁tarif",
        -10.096689034591
      ],
      [
        "▁yukarıda",
        -10.097120907678924
      ],
      [
        "▁odası",
        -10.097175625980125
      ],
      [
        "Zate",
        -10.097179271360943
      ],
      [
        "▁anlaşma",
        -10.097288392423128
      ],
      [
        "▁sağlama",
        -10.097599462475742
      ],
      [
        "▁kriz",
        -10.097907062540084
      ],
      [
        "▁batı",
        -10.098357298455513
      ],
      [
        "▁aşı",
        -10.0988110919863
      ],
      [
        "▁kulak",
        -10.09976952957834
      ],
      [
        "▁örgüt",
        -10.09988217519612
      ],
      [
        "▁çalışmaya",
        -10.10069397742683
      ],
      [
        "▁cami",
        -10.100986228934897
      ],
      [
        "▁MHP",
        -10.101222907019324
      ],
      [
        "lerdi",
        -10.101430423871667
      ],
      [
        "▁yararlan",
        -10.10167822493524
      ],
      [
        "▁uygulanan",
        -10.102432675174484
      ],
      [
        "amaz",
        -10.102508372330176
      ],
      [
        "lardaki",
        -10.103014669852442
      ],
      [
        "▁kullanılabilir",
        -10.1030648288228
      ],
      [
        "ana",
        -10.103132295294248
      ],
      [
        "▁ölü",
        -10.103174801617897
      ],
      [
        "▁kon",
        -10.103357489652126
      ],
      [
        "▁usta",
        -10.103373592440589
      ],
      [
        "▁iman",
        -10.104111263681302
      ],
      [
        "B",
        -10.104214957575916
      ],
      [
        "▁denir",
        -10.104548410326018
      ],
      [
        "▁Ona",
        -10.10516601494715
      ],
      [
        "▁Yayın",
        -10.105296607195353
      ],
      [
        "▁Şahin",
        -10.1055957941793
      ],
      [
        "▁Bi",
        -10.105966558359931
      ],
      [
        "▁Çanakkale",
        -10.106164723831007
      ],
      [
        "▁engelli",
        -10.106790854348937
      ],
      [
        "▁güne",
        -10.106795365084915
      ],
      [
        "▁olduk",
        -10.106890824264214
      ],
      [
        "▁milletin",
        -10.107236621284686
      ],
      [
        "▁çıkması",
        -10.107291562420512
      ],
      [
        "▁şehri",
        -10.107316355089434
      ],
      [
        "▁Hakkında",
        -10.107742789180673
      ],
      [
        "▁eğlence",
        -10.108493205381627
      ],
      [
        "▁maalesef",
        -10.109491836848564
      ],
      [
        "▁hakkını",
        -10.109855368855424
      ],
      [
        "▁ülkeler",
        -10.109892846970276
      ],
      [
        "▁HD",
        -10.110169543268103
      ],
      [
        "şunu",
        -10.110449343675963
      ],
      [
        "▁özen",
        -10.110601927150032
      ],
      [
        "▁katıldığı",
        -10.111585462439107
      ],
      [
        "▁çerçeve",
        -10.112050917466028
      ],
      [
        "▁nüfus",
        -10.112582220548914
      ],
      [
        "▁firmalar",
        -10.112612003140988
      ],
      [
        "▁Kocaeli",
        -10.112768662403209
      ],
      [
        "▁haberi",
        -10.1130892447692
      ],
      [
        "▁Bölüm",
        -10.11371660538497
      ],
      [
        "▁şirketin",
        -10.11442979644928
      ],
      [
        "▁forma",
        -10.114563959601895
      ],
      [
        "▁Var",
        -10.114586485895224
      ],
      [
        "ici",
        -10.114720705595822
      ],
      [
        "▁sizlerle",
        -10.114832960841955
      ],
      [
        "medi",
        -10.11495628766986
      ],
      [
        "▁Mersin",
        -10.114997877917643
      ],
      [
        "indeki",
        -10.115176894430055
      ],
      [
        "▁düğün",
        -10.115451721136507
      ],
      [
        "▁gemi",
        -10.116110580699146
      ],
      [
        "▁düşünme",
        -10.116785115695247
      ],
      [
        "▁mutfak",
        -10.117392820419589
      ],
      [
        "▁karakter",
        -10.118257394339643
      ],
      [
        "▁indir",
        -10.118373864986951
      ],
      [
        "miyor",
        -10.118430918478587
      ],
      [
        "▁ofis",
        -10.118899465051909
      ],
      [
        "iyoruz",
        -10.119830219760065
      ],
      [
        "yarak",
        -10.120365896748783
      ],
      [
        "▁Kent",
        -10.120964018371083
      ],
      [
        "▁Roma",
        -10.121830369117584
      ],
      [
        "▁futbolcu",
        -10.122554554585928
      ],
      [
        "▁Sistemi",
        -10.122610159593584
      ],
      [
        "▁gördüm",
        -10.122968876320597
      ],
      [
        "▁işgal",
        -10.12337660622879
      ],
      [
        "▁olmaları",
        -10.123507045612133
      ],
      [
        "▁kap",
        -10.12386238658254
      ],
      [
        "Geçtiğimiz",
        -10.124589916160437
      ],
      [
        "▁seçimi",
        -10.124925311961942
      ],
      [
        "▁Bak",
        -10.125004077824617
      ],
      [
        "▁Adalet",
        -10.12534120838648
      ],
      [
        "▁araçlar",
        -10.125429820860244
      ],
      [
        "▁rekabet",
        -10.125844185176886
      ],
      [
        "▁altyapı",
        -10.12595491676474
      ],
      [
        "sem",
        -10.126196556212529
      ],
      [
        "▁dev",
        -10.126348284718324
      ],
      [
        "▁göç",
        -10.12670407819554
      ],
      [
        "makta",
        -10.126863446870583
      ],
      [
        "iyorum",
        -10.126928896086808
      ],
      [
        "▁Resmi",
        -10.126968437378942
      ],
      [
        "▁arzu",
        -10.127133145151014
      ],
      [
        "▁Sayfa",
        -10.127384730996267
      ],
      [
        "▁com",
        -10.127698448060768
      ],
      [
        "▁Üç",
        -10.12792415211207
      ],
      [
        "▁siyaset",
        -10.12803433196495
      ],
      [
        "▁Hayat",
        -10.128110230313554
      ],
      [
        "▁gelmektedir",
        -10.128692856168572
      ],
      [
        "▁hasar",
        -10.128758137137169
      ],
      [
        "▁beklenen",
        -10.12889729881782
      ],
      [
        "▁dakikada",
        -10.12908863942804
      ],
      [
        "▁mekan",
        -10.130089816933298
      ],
      [
        "▁aracın",
        -10.130107101694518
      ],
      [
        "▁paylaşım",
        -10.130153994642193
      ],
      [
        "▁sesi",
        -10.130379822770132
      ],
      [
        "▁yılları",
        -10.13056629837086
      ],
      [
        "▁döviz",
        -10.131586672945572
      ],
      [
        "▁kurma",
        -10.131629344012284
      ],
      [
        "▁göstermektedir",
        -10.132011236755194
      ],
      [
        "▁içeri",
        -10.13206220736036
      ],
      [
        "▁İnce",
        -10.132925579922508
      ],
      [
        "▁rahatlıkla",
        -10.134054824967963
      ],
      [
        "▁olası",
        -10.134686236596112
      ],
      [
        "tin",
        -10.134700319593463
      ],
      [
        "▁olmaktan",
        -10.134857797680157
      ],
      [
        "▁izni",
        -10.134950361116775
      ],
      [
        "▁öğrencileri",
        -10.135115848402563
      ],
      [
        "▁saatlerinde",
        -10.135157321226796
      ],
      [
        "▁kahvaltı",
        -10.135193106060573
      ],
      [
        "▁süper",
        -10.135674574148522
      ],
      [
        "▁noktasında",
        -10.135734985540427
      ],
      [
        "▁dik",
        -10.135903169333428
      ],
      [
        "▁Tanrı",
        -10.13605491976662
      ],
      [
        "▁gençler",
        -10.13641495723317
      ],
      [
        "▁Gerçek",
        -10.136670447635128
      ],
      [
        "▁yapmayı",
        -10.1368274283141
      ],
      [
        "▁düştü",
        -10.136880991997312
      ],
      [
        "▁bilgisi",
        -10.13721399393646
      ],
      [
        "▁adres",
        -10.137214905758508
      ],
      [
        "▁kimyasal",
        -10.13825929453994
      ],
      [
        "▁Da",
        -10.138413689135383
      ],
      [
        "▁firmamız",
        -10.138800993142002
      ],
      [
        "▁Din",
        -10.138814498294291
      ],
      [
        "▁Hoca",
        -10.139660295949998
      ],
      [
        "▁maçta",
        -10.14006959134794
      ],
      [
        "kları",
        -10.141795388271987
      ],
      [
        "▁araçları",
        -10.142056444361568
      ],
      [
        "▁edilerek",
        -10.142196926241738
      ],
      [
        "▁konular",
        -10.143209591695328
      ],
      [
        "▁Kanunu",
        -10.14322860139684
      ],
      [
        "▁bey",
        -10.143424039393844
      ],
      [
        "LER",
        -10.143646230383288
      ],
      [
        "▁görüyoruz",
        -10.144973811715728
      ],
      [
        "leniyor",
        -10.145265808948606
      ],
      [
        "▁kiralama",
        -10.145403154552978
      ],
      [
        "▁hızı",
        -10.146331989027717
      ],
      [
        "▁başladım",
        -10.146385550626457
      ],
      [
        "▁söylemek",
        -10.146642370102429
      ],
      [
        "▁oluşturan",
        -10.146804505146358
      ],
      [
        "▁Malatya",
        -10.147249496709229
      ],
      [
        "▁ettikleri",
        -10.147423020873635
      ],
      [
        "▁Programı",
        -10.147520412786552
      ],
      [
        "▁Göz",
        -10.147547247795275
      ],
      [
        "▁düşün",
        -10.14797502232572
      ],
      [
        "▁düzenlediği",
        -10.148210900839976
      ],
      [
        "▁ulaşmak",
        -10.148504006218802
      ],
      [
        "▁Hizmetleri",
        -10.148637533981224
      ],
      [
        "▁tablo",
        -10.149182703907158
      ],
      [
        "▁açtı",
        -10.150148082355615
      ],
      [
        "▁sunar",
        -10.150466505687366
      ],
      [
        "▁Hukuk",
        -10.150579204502652
      ],
      [
        "▁üretilen",
        -10.150622238806768
      ],
      [
        "▁Ad",
        -10.15074413686277
      ],
      [
        "▁etkinlik",
        -10.150769473876055
      ],
      [
        "▁Dış",
        -10.151425354426223
      ],
      [
        "▁koyu",
        -10.151529108982698
      ],
      [
        "▁projeler",
        -10.151557812888102
      ],
      [
        "▁bilen",
        -10.15178624666241
      ],
      [
        "▁olabilecek",
        -10.152024237881903
      ],
      [
        "▁tehlikeli",
        -10.152406358062962
      ],
      [
        "▁imkan",
        -10.15296841831216
      ],
      [
        "▁Onu",
        -10.15326457580612
      ],
      [
        "▁pay",
        -10.15333354779474
      ],
      [
        "▁Ordu",
        -10.154061190002576
      ],
      [
        "M",
        -10.154388172759695
      ],
      [
        "▁başlangıç",
        -10.154766505124732
      ],
      [
        "▁Yusuf",
        -10.154789990682994
      ],
      [
        "▁algı",
        -10.154803643933269
      ],
      [
        "▁bizlere",
        -10.155762706583184
      ],
      [
        "▁ayda",
        -10.15642634891446
      ],
      [
        "▁anlatıyor",
        -10.156535369065695
      ],
      [
        "▁Ma",
        -10.157188248463584
      ],
      [
        "▁taraftan",
        -10.157471923826934
      ],
      [
        "▁çık",
        -10.157676786383089
      ],
      [
        "▁hariç",
        -10.158243934641002
      ],
      [
        "▁Se",
        -10.15825889328501
      ],
      [
        "▁lise",
        -10.158307400460206
      ],
      [
        "▁Grubu",
        -10.160502237589291
      ],
      [
        "▁yemeği",
        -10.160533323566142
      ],
      [
        "▁şeyleri",
        -10.160694576698363
      ],
      [
        "▁önemi",
        -10.161067837671617
      ],
      [
        "▁sorular",
        -10.16114453811531
      ],
      [
        "▁sıfır",
        -10.161150159769468
      ],
      [
        "A",
        -10.161244409139869
      ],
      [
        "▁geldiğinde",
        -10.161678737040177
      ],
      [
        "isi",
        -10.16175072188959
      ],
      [
        "▁mali",
        -10.161854220787154
      ],
      [
        "▁görülür",
        -10.161918959880392
      ],
      [
        "▁özellikler",
        -10.16211520284422
      ],
      [
        "▁Taş",
        -10.162746875350988
      ],
      [
        "▁uygulamalar",
        -10.16297521413756
      ],
      [
        "▁ayar",
        -10.163183639356085
      ],
      [
        "▁Üyesi",
        -10.163595559421552
      ],
      [
        "▁dost",
        -10.165331734550987
      ],
      [
        "▁Ata",
        -10.165422150326677
      ],
      [
        "larındaki",
        -10.16548294289331
      ],
      [
        "▁görevli",
        -10.16651068289416
      ],
      [
        "▁harekete",
        -10.166696814098437
      ],
      [
        "▁yağı",
        -10.167159640510173
      ],
      [
        "▁kaldığı",
        -10.167440307057433
      ],
      [
        "▁bilir",
        -10.16881503186828
      ],
      [
        "▁oranda",
        -10.168912813405829
      ],
      [
        "köy",
        -10.169427600215805
      ],
      [
        "▁oyunlar",
        -10.169646379459536
      ],
      [
        "▁aylarında",
        -10.16985553867199
      ],
      [
        "▁oluşur",
        -10.170066505322174
      ],
      [
        "▁Doç",
        -10.170649578782074
      ],
      [
        "Üstelik",
        -10.170781163667067
      ],
      [
        "▁örneğin",
        -10.170862219637202
      ],
      [
        "▁beğeni",
        -10.171047383242527
      ],
      [
        "▁yazdığı",
        -10.171284533952692
      ],
      [
        "▁kavga",
        -10.17145437980237
      ],
      [
        "▁yapıyoruz",
        -10.171674725466866
      ],
      [
        "▁petrol",
        -10.171814817309803
      ],
      [
        "▁şartları",
        -10.1724507306212
      ],
      [
        "▁bölümde",
        -10.172591372001344
      ],
      [
        "▁sözleri",
        -10.172941312925186
      ],
      [
        "ettin",
        -10.174139282625651
      ],
      [
        "▁tanıtım",
        -10.174345172993872
      ],
      [
        "▁bizler",
        -10.174416202180884
      ],
      [
        "lanarak",
        -10.174480698309305
      ],
      [
        "▁toz",
        -10.174900348416417
      ],
      [
        "co",
        -10.175017361290648
      ],
      [
        "▁yerler",
        -10.175115995583448
      ],
      [
        "▁Yeşil",
        -10.175290759910112
      ],
      [
        "▁tuz",
        -10.175322224963766
      ],
      [
        "karşımıza",
        -10.175346381151348
      ],
      [
        "▁söyler",
        -10.175484461801624
      ],
      [
        "▁haklı",
        -10.175759691710562
      ],
      [
        "▁derken",
        -10.175844337454116
      ],
      [
        "▁getirme",
        -10.17674385311295
      ],
      [
        "▁süreli",
        -10.176778839154055
      ],
      [
        "asyon",
        -10.176782467696915
      ],
      [
        "▁Ekonomi",
        -10.177033501062112
      ],
      [
        "▁isterim",
        -10.1773857267223
      ],
      [
        "▁ilişkiler",
        -10.177473564348697
      ],
      [
        "▁Farklı",
        -10.177528096073312
      ],
      [
        "▁edeceğiz",
        -10.177666030418218
      ],
      [
        "▁olmuştu",
        -10.178797890309864
      ],
      [
        "▁oyna",
        -10.178952136472272
      ],
      [
        "▁Kız",
        -10.17897695437546
      ],
      [
        "▁aşkın",
        -10.179312979739755
      ],
      [
        "cılık",
        -10.179643426173277
      ],
      [
        "▁olduğunda",
        -10.179702302407652
      ],
      [
        "▁yapım",
        -10.179772522663274
      ],
      [
        "▁lideri",
        -10.180239055459422
      ],
      [
        "▁takdir",
        -10.180444436959524
      ],
      [
        "▁Mi",
        -10.180870015815122
      ],
      [
        "mayın",
        -10.18087845755752
      ],
      [
        "▁cümle",
        -10.18105710713528
      ],
      [
        "▁yapılmaktadır",
        -10.181238954332851
      ],
      [
        "▁kitle",
        -10.181402729299508
      ],
      [
        "▁Afrika",
        -10.181837756311646
      ],
      [
        "▁demokratik",
        -10.182735344517743
      ],
      [
        "bugüne",
        -10.183289380876644
      ],
      [
        "▁türü",
        -10.183357671594054
      ],
      [
        "▁ettiler",
        -10.183461541459364
      ],
      [
        "Ç",
        -10.183888181157542
      ],
      [
        "▁hazırlık",
        -10.183978846101844
      ],
      [
        "▁Twitter",
        -10.184368400339306
      ],
      [
        "▁Yakın",
        -10.184557310449794
      ],
      [
        "▁beyan",
        -10.18469791311107
      ],
      [
        "▁Merkezinde",
        -10.185386611900002
      ],
      [
        "▁eposta",
        -10.185704376097195
      ],
      [
        "dıkları",
        -10.186120043615237
      ],
      [
        "▁kesim",
        -10.186412172928163
      ],
      [
        "▁yağmur",
        -10.186463727345217
      ],
      [
        "▁Kuranı",
        -10.18664862129584
      ],
      [
        "▁gelmiştir",
        -10.186841342328869
      ],
      [
        "Yaklaşık",
        -10.187265058232526
      ],
      [
        "ildi",
        -10.18765163986447
      ],
      [
        "▁Mesela",
        -10.187835253684849
      ],
      [
        "▁park",
        -10.187895236102287
      ],
      [
        "ılır",
        -10.18790419213414
      ],
      [
        "ali",
        -10.187962357431234
      ],
      [
        "▁Öğretim",
        -10.188273158476903
      ],
      [
        "▁sağlanması",
        -10.1883522157639
      ],
      [
        "▁payı",
        -10.18901749488887
      ],
      [
        "▁İletişim",
        -10.189096184467411
      ],
      [
        "Ş",
        -10.18924973740251
      ],
      [
        "▁birlik",
        -10.189292573840303
      ],
      [
        "S",
        -10.189304399338088
      ],
      [
        "LAR",
        -10.18981835556612
      ],
      [
        "▁Projesi",
        -10.189875328635113
      ],
      [
        "▁değişiklikler",
        -10.190428904720171
      ],
      [
        "▁istedim",
        -10.19045016800069
      ],
      [
        "▁ibadet",
        -10.191060132674217
      ],
      [
        "▁seçeneği",
        -10.191743402089989
      ],
      [
        "▁MADDE",
        -10.19177885788924
      ],
      [
        "▁ülkelerin",
        -10.191940520755614
      ],
      [
        "▁bit",
        -10.192194154550254
      ],
      [
        "▁bildirdi",
        -10.192375844297397
      ],
      [
        "▁üstü",
        -10.192576137777538
      ],
      [
        "▁olmanın",
        -10.19302359368498
      ],
      [
        "yum",
        -10.19379191651757
      ],
      [
        "▁gelerek",
        -10.1938539913959
      ],
      [
        "▁İnsanlar",
        -10.19390857617696
      ],
      [
        "▁çekme",
        -10.194299835132448
      ],
      [
        "▁öğren",
        -10.194641863129176
      ],
      [
        "▁Öğrenci",
        -10.194782535833632
      ],
      [
        "▁yıldız",
        -10.194857525843084
      ],
      [
        "▁ülkelerde",
        -10.195231530381326
      ],
      [
        "▁ailesi",
        -10.195389709282436
      ],
      [
        "▁Ta",
        -10.197427865116484
      ],
      [
        "acağız",
        -10.19802232289658
      ],
      [
        "▁dışarı",
        -10.198047477683872
      ],
      [
        "▁yukarı",
        -10.198161688152656
      ],
      [
        "▁sınırları",
        -10.19824979658268
      ],
      [
        "▁Ürün",
        -10.19869702997964
      ],
      [
        "▁ülkemiz",
        -10.199367016841276
      ],
      [
        "▁girdiği",
        -10.199904326269644
      ],
      [
        "▁emek",
        -10.200497350063578
      ],
      [
        "▁psikolojik",
        -10.2006047201723
      ],
      [
        "▁arasına",
        -10.200708026347964
      ],
      [
        "▁zararlı",
        -10.200781996245896
      ],
      [
        "▁yüzlerce",
        -10.20186190496152
      ],
      [
        "ova",
        -10.201969208090976
      ],
      [
        "▁ayakkabı",
        -10.202274058724656
      ],
      [
        "▁maddeler",
        -10.202364203671737
      ],
      [
        "▁gurur",
        -10.203653202475111
      ],
      [
        "▁ağ",
        -10.203767713207398
      ],
      [
        "▁getiriyor",
        -10.203813802258836
      ],
      [
        "▁onunla",
        -10.204465773722111
      ],
      [
        "Ä",
        -10.205404291525404
      ],
      [
        "▁Program",
        -10.205851131566405
      ],
      [
        "cilik",
        -10.20592700210831
      ],
      [
        "▁Bar",
        -10.206392870679592
      ],
      [
        "▁Birinci",
        -10.206825312652704
      ],
      [
        "lenir",
        -10.207821849085304
      ],
      [
        "▁saf",
        -10.208370116223811
      ],
      [
        "▁geleceği",
        -10.208795059233353
      ],
      [
        "▁içeriği",
        -10.20890161797324
      ],
      [
        "▁Toplantı",
        -10.20917969644978
      ],
      [
        "▁Meclisi",
        -10.20956892070171
      ],
      [
        "▁Do",
        -10.209846969925549
      ],
      [
        "▁kısmını",
        -10.209997391927049
      ],
      [
        "▁sisteminin",
        -10.210078365550906
      ],
      [
        "▁gönül",
        -10.210190634271504
      ],
      [
        "▁numaralı",
        -10.21025545622288
      ],
      [
        "ımızın",
        -10.210500911492394
      ],
      [
        "▁hesabı",
        -10.21109169786045
      ],
      [
        "▁Mahallesi",
        -10.211210483550367
      ],
      [
        "▁kedi",
        -10.211481338369158
      ],
      [
        "▁Di",
        -10.211856783289834
      ],
      [
        "Türkiyeyi",
        -10.211946836301538
      ],
      [
        "▁oluşturma",
        -10.212104510753049
      ],
      [
        "▁hassas",
        -10.21221354780806
      ],
      [
        "rek",
        -10.212583878104455
      ],
      [
        "▁ilişkileri",
        -10.213312229215209
      ],
      [
        "lığın",
        -10.213579902048304
      ],
      [
        "▁İstanbulun",
        -10.21381279317586
      ],
      [
        "▁Kulübü",
        -10.214135002460608
      ],
      [
        "▁bilmiyorum",
        -10.214854272210609
      ],
      [
        "▁kaybetti",
        -10.21498810849957
      ],
      [
        "▁değişikliği",
        -10.215642073510846
      ],
      [
        "▁dar",
        -10.216223818841152
      ],
      [
        "▁bekleniyor",
        -10.216644720909724
      ],
      [
        "▁İnşaat",
        -10.21668745447517
      ],
      [
        "▁erişim",
        -10.216713087936908
      ],
      [
        "▁fabrika",
        -10.217138975430718
      ],
      [
        "▁ayakta",
        -10.217155621284256
      ],
      [
        "▁Fi",
        -10.217236687166746
      ],
      [
        "▁biliyor",
        -10.217309990268449
      ],
      [
        "▁maçında",
        -10.217460639233536
      ],
      [
        "▁Hakan",
        -10.218244838414874
      ],
      [
        "▁beden",
        -10.218517397213994
      ],
      [
        "imizi",
        -10.218841091868937
      ],
      [
        "▁programları",
        -10.218877332824755
      ],
      [
        "▁endişe",
        -10.218958124804995
      ],
      [
        "▁yarış",
        -10.219322947942072
      ],
      [
        "▁Si",
        -10.21975105045815
      ],
      [
        "▁konuk",
        -10.21980461352395
      ],
      [
        "▁Sizin",
        -10.219819633460563
      ],
      [
        "landığı",
        -10.220026977194768
      ],
      [
        "▁nesil",
        -10.220057141736568
      ],
      [
        "abiliyor",
        -10.220776715390944
      ],
      [
        "▁bitti",
        -10.221416064036474
      ],
      [
        "▁Seçim",
        -10.221739637592483
      ],
      [
        "go",
        -10.222311739502222
      ],
      [
        "lanmaktadır",
        -10.22330425303226
      ],
      [
        "üz",
        -10.224655879878576
      ],
      [
        "▁üzeri",
        -10.224766094781348
      ],
      [
        "▁Toplam",
        -10.224777902237856
      ],
      [
        "▁sektörü",
        -10.225097628990904
      ],
      [
        "▁rüya",
        -10.225351414665022
      ],
      [
        "▁metal",
        -10.225411254396215
      ],
      [
        "▁döner",
        -10.225460897850342
      ],
      [
        "▁öte",
        -10.225565624491963
      ],
      [
        "▁kurmak",
        -10.22560018566795
      ],
      [
        "▁Gaziantep",
        -10.225955483410049
      ],
      [
        "▁açıklaması",
        -10.22605792393687
      ],
      [
        "▁durumun",
        -10.226485939675817
      ],
      [
        "▁düzen",
        -10.226855521234372
      ],
      [
        "▁evinde",
        -10.228459615898622
      ],
      [
        "▁özellik",
        -10.229384342101564
      ],
      [
        "almıştır",
        -10.22952275415618
      ],
      [
        "▁satışa",
        -10.22973293795662
      ],
      [
        "▁Bilgisayar",
        -10.230023274156853
      ],
      [
        "▁Yazı",
        -10.230035866259204
      ],
      [
        "▁Yönetimi",
        -10.230821928589256
      ],
      [
        "▁yürüyüş",
        -10.231702042684676
      ],
      [
        "Bazen",
        -10.23172502979169
      ],
      [
        "▁izleme",
        -10.231999072614318
      ],
      [
        "▁uçuş",
        -10.23282779516509
      ],
      [
        "▁verilecek",
        -10.233100941510074
      ],
      [
        "▁şikayet",
        -10.233480382842965
      ],
      [
        "▁yerleşim",
        -10.233661551878535
      ],
      [
        "▁bakan",
        -10.233878622543465
      ],
      [
        "▁hattı",
        -10.233896109968802
      ],
      [
        "▁konuyu",
        -10.234001029271218
      ],
      [
        "▁planı",
        -10.235025494741876
      ],
      [
        "▁numarası",
        -10.235616119933631
      ],
      [
        "▁dönemlerde",
        -10.23604868647178
      ],
      [
        "masını",
        -10.236324190041833
      ],
      [
        "▁devre",
        -10.236377748705245
      ],
      [
        "▁sürecin",
        -10.23644945284971
      ],
      [
        "▁adalet",
        -10.2369110353623
      ],
      [
        "▁edici",
        -10.236951885366656
      ],
      [
        "▁öğrenmek",
        -10.237045248222516
      ],
      [
        "▁kişiyi",
        -10.237074146005623
      ],
      [
        "▁etmeyi",
        -10.237212834049972
      ],
      [
        "lendi",
        -10.238266020545412
      ],
      [
        "▁seçenek",
        -10.238353480502475
      ],
      [
        "▁tutma",
        -10.238800006471951
      ],
      [
        "▁İmam",
        -10.238842761888732
      ],
      [
        "▁eşliğinde",
        -10.239023462323722
      ],
      [
        "▁blog",
        -10.239074658478918
      ],
      [
        "▁Karşı",
        -10.239118601961566
      ],
      [
        "▁inan",
        -10.239145402714154
      ],
      [
        "adıyla",
        -10.240981972315176
      ],
      [
        "▁umut",
        -10.241097260582023
      ],
      [
        "▁görür",
        -10.241807813397015
      ],
      [
        "▁besin",
        -10.24234604984527
      ],
      [
        "▁manevi",
        -10.242354335111376
      ],
      [
        "▁geride",
        -10.24254643463937
      ],
      [
        "▁davranış",
        -10.242552319814548
      ],
      [
        "▁kısmında",
        -10.242638937038672
      ],
      [
        "▁çalıştığı",
        -10.24291774511522
      ],
      [
        "▁FETÖ",
        -10.242994072634287
      ],
      [
        "▁mail",
        -10.243258241044972
      ],
      [
        "▁işleme",
        -10.244022122826353
      ],
      [
        "▁birliği",
        -10.244224706902727
      ],
      [
        "▁maaş",
        -10.244516813588367
      ],
      [
        "dışına",
        -10.244862963735486
      ],
      [
        "ğini",
        -10.245192980299086
      ],
      [
        "▁Barış",
        -10.245223326280623
      ],
      [
        "▁yedek",
        -10.245858357296948
      ],
      [
        "ğunu",
        -10.246397428131912
      ],
      [
        "▁stres",
        -10.246993661262332
      ],
      [
        "▁alıcı",
        -10.247104548519395
      ],
      [
        "▁ters",
        -10.247625434511743
      ],
      [
        "▁hayatında",
        -10.24825699619283
      ],
      [
        "▁kıl",
        -10.248411004375129
      ],
      [
        "▁alanlar",
        -10.248702591874263
      ],
      [
        "▁haftada",
        -10.2489844120132
      ],
      [
        "▁değerleri",
        -10.249052710740353
      ],
      [
        "▁vermesi",
        -10.249067038506904
      ],
      [
        "▁emniyet",
        -10.249236220673982
      ],
      [
        "▁olamaz",
        -10.250199965793708
      ],
      [
        "lidir",
        -10.250384650655988
      ],
      [
        "meye",
        -10.251995140101975
      ],
      [
        "ebilecek",
        -10.25233010183967
      ],
      [
        "▁erkekler",
        -10.252497526953134
      ],
      [
        "▁hüküm",
        -10.252533652532916
      ],
      [
        "▁banyo",
        -10.252859591304349
      ],
      [
        "▁Sevgili",
        -10.253015406332675
      ],
      [
        "▁Ka",
        -10.25335026708924
      ],
      [
        "▁Cumartesi",
        -10.253651623483188
      ],
      [
        "▁kanal",
        -10.254075899677826
      ],
      [
        "▁gül",
        -10.254211655174226
      ],
      [
        "▁Savaş",
        -10.254249796767755
      ],
      [
        "▁başlamış",
        -10.254270208879497
      ],
      [
        "▁yapabilir",
        -10.25436424923226
      ],
      [
        "▁sağlan",
        -10.25458312690488
      ],
      [
        "ınız",
        -10.254779661916984
      ],
      [
        "kta",
        -10.254995119735538
      ],
      [
        "▁bilet",
        -10.255263627257635
      ],
      [
        "▁denilen",
        -10.255556239145928
      ],
      [
        "▁bekleme",
        -10.255842929964082
      ],
      [
        "▁Bay",
        -10.256112355634128
      ],
      [
        "▁Diyarbakır",
        -10.256339260548636
      ],
      [
        "▁evden",
        -10.256721671969007
      ],
      [
        "▁hitap",
        -10.257025992375976
      ],
      [
        "▁yumuşak",
        -10.258077450753373
      ],
      [
        "▁seksi",
        -10.258242761167873
      ],
      [
        "lerimize",
        -10.258473835388392
      ],
      [
        "sunmaktadır",
        -10.258658706362512
      ],
      [
        "mın",
        -10.26001393465094
      ],
      [
        "▁Bin",
        -10.260085060330676
      ],
      [
        "▁Olay",
        -10.260293737868151
      ],
      [
        "▁şüphe",
        -10.260497031349166
      ],
      [
        "▁getirir",
        -10.26069299557519
      ],
      [
        "▁örneği",
        -10.26069441002121
      ],
      [
        "▁Devamı",
        -10.261264560084122
      ],
      [
        "▁mağaza",
        -10.261526180487916
      ],
      [
        "▁gününde",
        -10.262343176223762
      ],
      [
        "▁konuş",
        -10.262387071461475
      ],
      [
        "▁isimler",
        -10.262747550332426
      ],
      [
        "▁tanıma",
        -10.263000437140834
      ],
      [
        "▁ilçesi",
        -10.263830877540586
      ],
      [
        "▁doğu",
        -10.264227736757777
      ],
      [
        "▁döndü",
        -10.265100509664297
      ],
      [
        "▁yerleri",
        -10.265372528207823
      ],
      [
        "tar",
        -10.265385433334872
      ],
      [
        "▁konaklama",
        -10.26610121989525
      ],
      [
        "aksine",
        -10.266427343559494
      ],
      [
        "leyen",
        -10.267023839783546
      ],
      [
        "▁filmin",
        -10.267038795371988
      ],
      [
        "▁makinesi",
        -10.268309458512826
      ],
      [
        "▁Kore",
        -10.268589648805165
      ],
      [
        "▁pahalı",
        -10.268700491162887
      ],
      [
        "▁hisse",
        -10.268740508283122
      ],
      [
        "▁Yalnız",
        -10.26876462071418
      ],
      [
        "▁işletim",
        -10.268800508881329
      ],
      [
        "▁verdim",
        -10.269067975473405
      ],
      [
        "▁Ülke",
        -10.26948357401091
      ],
      [
        "▁tutan",
        -10.269494429855504
      ],
      [
        "▁anlamlı",
        -10.269519738509532
      ],
      [
        "▁Hasta",
        -10.269620805572572
      ],
      [
        "larsa",
        -10.26969637044928
      ],
      [
        "▁ikili",
        -10.26997288287468
      ],
      [
        "▁açan",
        -10.27046111716344
      ],
      [
        "▁çapında",
        -10.270480994113711
      ],
      [
        "▁hapis",
        -10.27073857704102
      ],
      [
        "▁itiraz",
        -10.270953203785911
      ],
      [
        "▁çıkarma",
        -10.271228924603877
      ],
      [
        "▁Beni",
        -10.271443454147873
      ],
      [
        "▁seviyorum",
        -10.271887980743305
      ],
      [
        "▁arazi",
        -10.271964233777224
      ],
      [
        "▁Cami",
        -10.272054193398436
      ],
      [
        "▁kendileri",
        -10.272221877972266
      ],
      [
        "▁malzemeleri",
        -10.272392467151226
      ],
      [
        "▁görevini",
        -10.272440979290115
      ],
      [
        "▁yardımı",
        -10.273036585047429
      ],
      [
        "▁Yer",
        -10.273206139150869
      ],
      [
        "▁tarifi",
        -10.273862897386202
      ],
      [
        "▁Za",
        -10.273896678652026
      ],
      [
        "▁Han",
        -10.274029490852866
      ],
      [
        "▁tamamladı",
        -10.274767083963784
      ],
      [
        "I",
        -10.274861915622042
      ],
      [
        "▁istifa",
        -10.275081352263788
      ],
      [
        "▁Savaşı",
        -10.275099618387468
      ],
      [
        "▁bunlara",
        -10.275405101848788
      ],
      [
        "▁selam",
        -10.2754983047861
      ],
      [
        "▁Suudi",
        -10.275819877007644
      ],
      [
        "▁annesi",
        -10.276053137776064
      ],
      [
        "▁arkasında",
        -10.27639843872308
      ],
      [
        "lısınız",
        -10.27639950248877
      ],
      [
        "▁koyun",
        -10.276512487601371
      ],
      [
        "▁çeviri",
        -10.276784603492723
      ],
      [
        "lerdeki",
        -10.277141206802812
      ],
      [
        "▁haberleri",
        -10.277219642823306
      ],
      [
        "▁denge",
        -10.277703978121806
      ],
      [
        "▁görüyor",
        -10.277711597705268
      ],
      [
        "▁görün",
        -10.277736000095388
      ],
      [
        "▁görünce",
        -10.277767569240444
      ],
      [
        "▁Kadınlar",
        -10.277823077182656
      ],
      [
        "▁sürücü",
        -10.27802432497161
      ],
      [
[...]
