{
  "version": "1.0",
  "truncation": null,
  "padding": null,
  "added_tokens": [
    {
      "id": 0,
      "content": "<pad>",
      "single_word": false,
      "lstrip": false,
      "rstrip": false,
      "normalized": false,
      "special": true
    },
    {
      "id": 1,
      "content": "<unk>",
      "single_word": false,
      "lstrip": false,
      "rstrip": false,
      "normalized": false,
      "special": true
    },
    {
      "id": 2,
      "content": "<eos>",
      "single_word": false,
      "lstrip": false,
      "rstrip": false,
      "normalized": false,
      "special": true
    }
  ],
  "normalizer": {
    "type": "Sequence",
    "normalizers": [
      {
        "type": "NFKC"
      },
      {
        "type": "Replace",
        "pattern": {
          "Regex": "[^\\'\\n\\ \\!\\\"\\#\\$\\%\\&\\'\\(\\)\\*\\+\\,\\-\\.\\/0123456789\\:\\;\\<\\=\\>\\?\\@ABCDEFGHIJKLMNOPQRSTUVWXYZ\\[\\\\\\]\\^\\_\\`abcdefghijklmnopqrstuvwxyz\\{\\|\\}\\~\\±\\´\\·ÂÃÄÅÇÖÜâçéêîöûüĞğ\\İ\\ıŞş\\‘\\’\\…\\′\\']"
        },
        "content": ""
      }
    ]
  },
  "pre_tokenizer": {
    "type": "Sequence",
    "pretokenizers": [
      {
        "type": "Digits",
        "individual_digits": true
      },
      {
        "type": "Whitespace"
      },
      {
        "type": "Punctuation",
        "behavior": "Isolated"
      },
      {
        "type": "Metaspace",
        "replacement": "▁",
        "add_prefix_space": true
      }
    ]
  },
  "post_processor": {
    "type": "TemplateProcessing",
    "single": [
      {
        "Sequence": {
          "id": "A",
          "type_id": 0
        }
      },
      {
        "SpecialToken": {
          "id": "<eos>",
          "type_id": 0
        }
      }
    ],
    "pair": [
      {
        "Sequence": {
          "id": "A",
          "type_id": 0
        }
      },
      {
        "Sequence": {
          "id": "B",
          "type_id": 1
        }
      }
    ],
    "special_tokens": {
      "<eos>": {
        "id": "<eos>",
        "ids": [
          2
        ],
        "tokens": [
          "<eos>"
        ]
      }
    }
  },
  "decoder": {
    "type": "Metaspace",
    "replacement": "▁",
    "add_prefix_space": true
  },
  "model": {
    "type": "BPE",
    "dropout": null,
    "unk_token": null,
    "continuing_subword_prefix": null,
    "end_of_word_suffix": null,
    "fuse_unk": false,
    "vocab": {
      "<pad>": 0,
      "<unk>": 1,
      "<eos>": 2,
      ",": 3,
      ".": 4,
      "A": 5,
      "B": 6,
      "C": 7,
      "D": 8,
      "E": 9,
      "F": 10,
      "G": 11,
      "H": 12,
      "I": 13,
      "J": 14,
      "K": 15,
      "L": 16,
      "M": 17,
      "N": 18,
      "O": 19,
      "P": 20,
      "Q": 21,
      "R": 22,
      "S": 23,
      "T": 24,
      "U": 25,
      "V": 26,
      "W": 27,
      "X": 28,
      "Y": 29,
      "Z": 30,
      "a": 31,
      "b": 32,
      "c": 33,
      "d": 34,
      "e": 35,
      "f": 36,
      "g": 37,
      "h": 38,
      "i": 39,
      "j": 40,
      "k": 41,
      "l": 42,
      "m": 43,
      "n": 44,
      "o": 45,
      "p": 46,
      "q": 47,
      "r": 48,
      "s": 49,
      "t": 50,
      "u": 51,
      "v": 52,
      "w": 53,
      "x": 54,
      "y": 55,
      "z": 56,
      "·": 57,
      "Â": 58,
      "Ã": 59,
      "Ä": 60,
      "Å": 61,
      "Ç": 62,
      "Ö": 63,
      "Ü": 64,
      "â": 65,
      "ç": 66,
      "é": 67,
      "ê": 68,
      "î": 69,
      "ö": 70,
      "û": 71,
      "ü": 72,
      "Ğ": 73,
      "ğ": 74,
      "İ": 75,
      "ı": 76,
      "Ş": 77,
      "ş": 78,
      "▁": 79,
      "ar": 80,
      "er": 81,
      "an": 82,
      "in": 83,
      "▁b": 84,
      "▁.": 85,
      "en": 86,
      "ın": 87,
      "il": 88,
      "ir": 89,
      "▁k": 90,
      "▁d": 91,
      "▁s": 92,
      "▁,": 93,
      "▁y": 94,
      "al": 95,
      "ak": 96,
      "▁g": 97,
      "lar": 98,
      "ek": 99,
      "el": 100,
      "▁o": 101,
      "▁v": 102,
      "ay": 103,
      "et": 104,
      "▁t": 105,
      "▁i": 106,
      "am": 107,
      "un": 108,
      "de": 109,
      "as": 110,
      "da": 111,
      "ler": 112,
      "▁ve": 113,
      "▁h": 114,
      "or": 115,
      "at": 116,
      "es": 117,
      "iy": 118,
      "im": 119,
      "iz": 120,
      "▁bir": 121,
      "em": 122,
      "ik": 123,
      "ır": 124,
      "▁B": 125,
      "▁m": 126,
      "on": 127,
      "▁ol": 128,
      "aş": 129,
      "ur": 130,
      "ıl": 131,
      "ul": 132,
      "ed": 133,
      "ad": 134,
      "ün": 135,
      "▁ç": 136,
      "▁A": 137,
      "ık": 138,
      "ür": 139,
      "ey": 140,
      "ım": 141,
      "az": 142,
      "is": 143,
      "ap": 144,
      "ah": 145,
      "▁K": 146,
      "ış": 147,
      "iş": 148,
      "▁de": 149,
      "le": 150,
      "▁ö": 151,
      "um": 152,
      "ab": 153,
      "▁S": 154,
      "▁il": 155,
      "it": 156,
      "ız": 157,
      "▁T": 158,
      "▁p": 159,
      "ağ": 160,
      "li": 161,
      "▁M": 162,
      "▁iç": 163,
      "ol": 164,
      "ların": 165,
      "▁f": 166,
      "ac": 167,
      "▁gö": 168,
      "▁al": 169,
      "üz": 170,
      "dan": 171,
      "ok": 172,
      "st": 173,
      "ığ": 174,
      "lan": 175,
      "ini": 176,
      "inde": 177,
      "ında": 178,
      "▁D": 179,
      "▁ş": 180,
      "ine": 181,
      "▁n": 182,
      "▁yap": 183,
      "di": 184,
      "ev": 185,
      "ıy": 186,
      "du": 187,
      "▁ar": 188,
      "ec": 189,
      "▁İ": 190,
      "▁bu": 191,
      "▁E": 192,
      "la": 193,
      "den": 194,
      "▁H": 195,
      "uy": 196,
      "ları": 197,
      "ük": 198,
      "ası": 199,
      "uz": 200,
      "▁Y": 201,
      "▁G": 202,
      "▁da": 203,
      "▁için": 204,
      "iler": 205,
      "aç": 206,
      "üm": 207,
      "esi": 208,
      "eler": 209,
      "alar": 210,
      "leri": 211,
      "iyor": 212,
      "ti": 213,
      "inin": 214,
      "ını": 215,
      "▁ile": 216,
      "▁z": 217,
      "af": 218,
      "lı": 219,
      "mak": 220,
      "▁r": 221,
      "▁gör": 222,
      "eğ": 223,
      "▁baş": 224,
      "▁ed": 225,
      "▁et": 226,
      "ül": 227,
      "uş": 228,
      "▁P": 229,
      "lik": 230,
      "ıs": 231,
      "ına": 232,
      "▁an": 233,
      "dir": 234,
      "oğ": 235,
      "ut": 236,
      "▁son": 237,
      "eç": 238,
      "tir": 239,
      "▁gel": 240,
      "▁c": 241,
      "ilir": 242,
      "▁kar": 243,
      "▁ver": 244,
      "ilm": 245,
      "▁ger": 246,
      "▁O": 247,
      "eb": 248,
      "ma": 249,
      "▁ön": 250,
      "lam": 251,
      "ez": 252,
      "ön": 253,
      "uk": 254,
      "üy": 255,
      "dır": 256,
      "iniz": 257,
      "larak": 258,
      "us": 259,
      "av": 260,
      "üş": 261,
      "▁oldu": 262,
      "▁in": 263,
      "ya": 264,
      "len": 265,
      "▁kon": 266,
      "iye": 267,
      "▁olarak": 268,
      "eş": 269,
      "tır": 270,
      "ce": 271,
      "▁ay": 272,
      "ib": 273,
      "ığı": 274,
      "▁en": 275,
      "aya": 276,
      "▁Bu": 277,
      "ip": 278,
      "ta": 279,
      "▁C": 280,
      "iğ": 281,
      "▁bil": 282,
      "▁tar": 283,
      "ıyor": 284,
      "▁iş": 285,
      "acak": 286,
      "▁değ": 287,
      "ından": 288,
      "▁F": 289,
      "ro": 290,
      "te": 291,
      "mek": 292,
      "▁çok": 293,
      "▁olan": 294,
      "▁olm": 295,
      "▁bul": 296,
      "▁yer": 297,
      "aha": 298,
      "lık": 299,
      "ının": 300,
      "lem": 301,
      "anı": 302,
      "ürk": 303,
      "se": 304,
      "▁kul": 305,
      "imiz": 306,
      "unu": 307,
      "ayı": 308,
      "▁kal": 309,
      "▁kad": 310,
      "anın": 311,
      "▁or": 312,
      "▁ist": 313,
      "op": 314,
      "ede": 315,
      "dı": 316,
      "ibi": 317,
      "ada": 318,
      "▁yıl": 319,
      "▁gün": 320,
      "öy": 321,
      "om": 322,
      "▁aç": 323,
      "▁daha": 324,
      "▁ad": 325,
      "tan": 326,
      "▁Ç": 327,
      "eni": 328,
      "▁kullan": 329,
      "▁R": 330,
      "▁her": 331,
      "ih": 332,
      "▁olduğ": 333,
      "▁kur": 334,
      "mış": 335,
      "▁sür": 336,
      "ği": 337,
      "tı": 338,
      "▁Türk": 339,
      "ör": 340,
      "lerin": 341,
      "lu": 342,
      "alış": 343,
      "▁var": 344,
      "▁N": 345,
      "yon": 346,
      "▁uy": 347,
      "ecek": 348,
      "aki": 349,
      "eki": 350,
      "ark": 351,
      "▁bel": 352,
      "▁gibi": 353,
      "▁geç": 354,
      "ra": 355,
      "▁yaş": 356,
      "▁ken": 357,
      "ki": 358,
      "▁çık": 359,
      "▁çalış": 360,
      "▁Ö": 361,
      "ımız": 362,
      "aman": 363,
      "isi": 364,
      "man": 365,
      "▁yar": 366,
      "ca": 367,
      "eye": 368,
      "eden": 369,
      "▁üz": 370,
      "ilen": 371,
      "me": 372,
      "ama": 373,
      "ması": 374,
      "ic": 375,
      "san": 376,
      "ayan": 377,
      "▁gerek": 378,
      "ken": 379,
      "▁bulun": 380,
      "abilir": 381,
      "▁yapıl": 382,
      "▁üzer": 383,
      "üt": 384,
      "ğr": 385,
      "ist": 386,
      "▁el": 387,
      "eh": 388,
      "▁on": 389,
      "unda": 390,
      "asında": 391,
      "ep": 392,
      "▁öz": 393,
      "▁Ş": 394,
      "ili": 395,
      "leş": 396,
      "▁sağ": 397,
      "miş": 398,
      "▁An": 399,
      "▁V": 400,
      "alı": 401,
      "cı": 402,
      "inden": 403,
      "▁kadar": 404,
      "let": 405,
      "ekt": 406,
      "os": 407,
      "oy": 408,
      "laş": 409,
      "▁ek": 410,
      "unun": 411,
      "ers": 412,
      "▁L": 413,
      "ru": 414,
      "met": 415,
      "iyle": 416,
      "iyet": 417,
      "enin": 418,
      "ınız": 419,
      "ter": 420,
      "öz": 421,
      "▁zaman": 422,
      "▁yaz": 423,
      "lü": 424,
      "▁yön": 425,
      "sa": 426,
      "▁düş": 427,
      "▁sor": 428,
      "ıyla": 429,
      "▁dur": 430,
      "ade": 431,
      "tur": 432,
      "daki": 433,
      "▁tek": 434,
      "▁karş": 435,
      "eli": 436,
      "▁l": 437,
      "gi": 438,
      "▁hal": 439,
      "▁yan": 440,
      "▁dev": 441,
      "lara": 442,
      "arak": 443,
      "edi": 444,
      "▁pro": 445,
      "ef": 446,
      "id": 447,
      "▁büy": 448,
      "öl": 449,
      "▁taraf": 450,
      "▁ak": 451,
      "▁top": 452,
      "üc": 453,
      "▁doğ": 454,
      "▁oy": 455,
      "▁sonra": 456,
      "edir": 457,
      "if": 458,
      "larını": 459,
      "▁kat": 460,
      "▁ben": 461,
      "▁U": 462,
      "▁sah": 463,
      "▁Baş": 464,
      "oc": 465,
      "▁uyg": 466,
      "▁şek": 467,
      "▁ise": 468,
      "▁ür": 469,
      "▁say": 470,
      "▁dön": 471,
      "acağ": 472,
      "ot": 473,
      "üç": 474,
      "iç": 475,
      "eri": 476,
      "▁Bir": 477,
      "▁par": 478,
      "mas": 479,
      "ans": 480,
      "▁kap": 481,
      "▁hay": 482,
      "malar": 483,
      "▁Al": 484,
      "uyor": 485,
      "lerini": 486,
      "tad": 487,
      "erk": 488,
      "▁belir": 489,
      "imi": 490,
      "eceğ": 491,
      "erek": 492,
      "est": 493,
      "▁kay": 494,
      "esinde": 495,
      "deki": 496,
      "cak": 497,
      "▁siz": 498,
      "▁Ü": 499,
      "▁yak": 500,
      "▁at": 501,
      "▁özel": 502,
      "▁hak": 503,
      "lad": 504,
      "siniz": 505,
      "▁ev": 506,
      "▁öğr": 507,
      "▁Ar": 508,
      "▁veya": 509,
      "▁yeni": 510,
      "▁gerç": 511,
      "▁iy": 512,
      "▁yol": 513,
      "▁kend": 514,
      "▁den": 515,
      "larda": 516,
      "ley": 517,
      "una": 518,
      "▁sev": 519,
      "üs": 520,
      "lat": 521,
      "▁kiş": 522,
      "▁alan": 523,
      "elik": 524,
      "▁büyük": 525,
      "▁uz": 526,
      "▁yüz": 527,
      "▁ne": 528,
      "dür": 529,
      "lere": 530,
      "art": 531,
      "arı": 532,
      "▁düz": 533,
      "sel": 534,
      "▁gen": 535,
      "▁tak": 536,
      "kin": 537,
      "▁gir": 538,
      "eleri": 539,
      "ildi": 540,
      "▁ort": 541,
      "▁bak": 542,
      "lay": 543,
      "▁önem": 544,
      "▁ilg": 545,
      "ediğ": 546,
      "ram": 547,
      "iv": 548,
      "▁biz": 549,
      "ısı": 550,
      "▁hem": 551,
      "ster": 552,
      "tadır": 553,
      "▁değil": 554,
      "kan": 555,
      "▁ilk": 556,
      "iştir": 557,
      "ılan": 558,
      "eyi": 559,
      "ci": 560,
      "▁es": 561,
      "▁insan": 562,
      "▁durum": 563,
      "▁açık": 564,
      "▁ok": 565,
      "men": 566,
      "▁a": 567,
      "▁söy": 568,
      "ten": 569,
      "▁böl": 570,
      "uç": 571,
      "adan": 572,
      "od": 573,
      "▁tarafından": 574,
      "▁ki": 575,
      "▁tem": 576,
      "▁bağ": 577,
      "etim": 578,
      "asyon": 579,
      "▁yük": 580,
      "cu": 581,
      "▁şekil": 582,
      "▁göre": 583,
      "▁as": 584,
      "▁fark": 585,
      "izmet": 586,
      "▁eğ": 587,
      "▁I": 588,
      "dım": 589,
      "▁har": 590,
      "▁iyi": 591,
      "tık": 592,
      "▁olduğu": 593,
      "maya": 594,
      "▁tam": 595,
      "▁göster": 596,
      "▁gerçek": 597,
      "ebilir": 598,
      "aat": 599,
      "▁oluş": 600,
      "sun": 601,
      "uh": 602,
      "larının": 603,
      "abil": 604,
      "▁seç": 605,
      "ğu": 606,
      "▁der": 607,
      "ağı": 608,
      "tr": 609,
      "iyat": 610,
      "▁yok": 611,
      "▁tarih": 612,
      "oz": 613,
      "▁yet": 614,
      "ılı": 615,
      "▁san": 616,
      "ığını": 617,
      "mesi": 618,
      "etir": 619,
      "▁Ay": 620,
      "rı": 621,
      "ast": 622,
      "▁şekilde": 623,
      "ayın": 624,
      "▁mil": 625,
      "▁ul": 626,
      "▁ih": 627,
      "▁alt": 628,
      "▁ama": 629,
      "▁tüm": 630,
      "▁ya": 631,
      "▁ser": 632,
      "▁uygul": 633,
      "dur": 634,
      "▁hizmet": 635,
      "üst": 636,
      "▁getir": 637,
      "üzel": 638,
      "ileri": 639,
      "aret": 640,
      "▁ül": 641,
      "▁Z": 642,
      "up": 643,
      "bir": 644,
      "▁Er": 645,
      "▁göz": 646,
      "oş": 647,
      "▁neden": 648,
      "maktadır": 649,
      "liğ": 650,
      "▁dün": 651,
      "▁sır": 652,
      "▁aş": 653,
      "iğer": 654,
      "üv": 655,
      "▁öğren": 656,
      "▁çek": 657,
      "▁am": 658,
      "esine": 659,
      "▁iz": 660,
      "larına": 661,
      "ran": 662,
      "▁İn": 663,
      "ımı": 664,
      "lerde": 665,
      "▁şey": 666,
      "liği": 667,
      "mam": 668,
      "▁dol": 669,
      "dığı": 670,
      "nı": 671,
      "istem": 672,
      "▁düşün": 673,
      "▁az": 674,
      "▁sahip": 675,
      "▁kaz": 676,
      "▁bilg": 677,
      "▁devam": 678,
      "leştir": 679,
      "▁tut": 680,
      "▁ilgili": 681,
      "▁Kur": 682,
      "▁içer": 683,
      "▁Türkiye": 684,
      "üyor": 685,
      "itim": 686,
      "alık": 687,
      "ocuk": 688,
      "▁önemli": 689,
      "kanı": 690,
      "aber": 691,
      "iyorum": 692,
      "▁olduğunu": 693,
      "tar": 694,
      "raf": 695,
      "▁söz": 696,
      "▁değer": 697,
      "▁alın": 698,
      "ıp": 699,
      "ret": 700,
      "▁ter": 701,
      "▁faz": 702,
      "▁etti": 703,
      "▁İl": 704,
      "oj": 705,
      "▁haz": 706,
      "aları": 707,
      "lerinin": 708,
      "esini": 709,
      "▁ülk": 710,
      "ka": 711,
      "tür": 712,
      "▁bin": 713,
      "▁ağ": 714,
      "▁duy": 715,
      "emek": 716,
      "▁ede": 717,
      "▁düzen": 718,
      "üven": 719,
      "▁güzel": 720,
      "▁birlik": 721,
      "mekt": 722,
      "▁tan": 723,
      "lerine": 724,
      "öyle": 725,
      "lendir": 726,
      "▁kol": 727,
      "▁kıs": 728,
      "▁hayat": 729,
      "emiz": 730,
      "dü": 731,
      "▁içinde": 732,
      "azı": 733,
      "▁is": 734,
      "esin": 735,
      "ünde": 736,
      "▁olur": 737,
      "larında": 738,
      "▁iki": 739,
      "▁sun": 740,
      "re": 741,
      "▁önce": 742,
      "eniz": 743,
      "lığı": 744,
      "▁taş": 745,
      "usu": 746,
      "der": 747,
      "▁bas": 748,
      "siz": 749,
      "▁İst": 750,
      "likle": 751,
      "▁hiç": 752,
      "▁zor": 753,
      "▁arasında": 754,
      "ilik": 755,
      "han": 756,
      "sız": 757,
      "▁kor": 758,
      "▁Bel": 759,
      "erkez": 760,
      "sek": 761,
      "lığ": 762,
      "por": 763,
      "diğ": 764,
      "ob": 765,
      "lardan": 766,
      "ulu": 767,
      "lah": 768,
      "▁dış": 769,
      "ara": 770,
      "▁sat": 771,
      "▁sistem": 772,
      "oloj": 773,
      "ünü": 774,
      "▁Öz": 775,
      "dik": 776,
      "alan": 777,
      "▁hazır": 778,
      "▁hat": 779,
      "mektedir": 780,
      "▁bek": 781,
      "diği": 782,
      "▁öl": 783,
      "ide": 784,
      "gün": 785,
      "▁Gen": 786,
      "▁diğer": 787,
      "işim": 788,
      "▁etk": 789,
      "ça": 790,
      "▁sit": 791,
      "eyen": 792,
      "▁konuş": 793,
      "ındaki": 794,
      "▁tes": 795,
      "asıl": 796,
      "bul": 797,
      "▁gelen": 798,
      "tığı": 799,
      "▁ark": 800,
      "▁im": 801,
      "adece": 802,
      "▁dönem": 803,
      "meye": 804,
      "▁birlikte": 805,
      "▁Ak": 806,
      "tu": 807,
      "ig": 808,
      "tik": 809,
      "▁boy": 810,
      "▁oyun": 811,
      "▁olmak": 812,
      "si": 813,
      "▁aynı": 814,
      "▁Bak": 815,
      "▁kab": 816,
      "ilmesi": 817,
      "▁diye": 818,
      "▁hakk": 819,
      "▁fazla": 820,
      "og": 821,
      "▁kazan": 822,
      "ıcı": 823,
      "▁ör": 824,
      "▁kim": 825,
      "▁dik": 826,
      "▁olacak": 827,
      "ehir": 828,
      "▁kö": 829,
      "▁Kar": 830,
      "▁bur": 831,
      "rup": 832,
      "▁İş": 833,
      "muş": 834,
      "▁En": 835,
      "▁u": 836,
      "▁eden": 837,
      "çe": 838,
      "maz": 839,
      "gram": 840,
      "▁çocuk": 841,
      "▁mes": 842,
      "ütün": 843,
      "▁dil": 844,
      "▁ürün": 845,
      "▁yapılan": 846,
      "tü": 847,
      "asar": 848,
      "lama": 849,
      "ilerin": 850,
      "osy": 851,
      "ana": 852,
      "▁ulaş": 853,
      "üp": 854,
      "abilirsiniz": 855,
      "▁konu": 856,
      "ılık": 857,
      "esinin": 858,
      "anbul": 859,
      "larla": 860,
      "orm": 861,
      "▁if": 862,
      "lerinde": 863,
      "▁eş": 864,
      "▁İs": 865,
      "asına": 866,
      "▁güven": 867,
      "▁yat": 868,
      "▁kurul": 869,
      "▁saat": 870,
      "▁dest": 871,
      "ub": 872,
      "▁ot": 873,
      "kü": 874,
      "▁üst": 875,
      "▁kan": 876,
      "uv": 877,
      "acı": 878,
      "eği": 879,
      "▁kendi": 880,
      "iyon": 881,
      "▁işlem": 882,
      "▁çıkar": 883,
      "cel": 884,
      "tiğ": 885,
      "iyoruz": 886,
      "▁sen": 887,
      "bet": 888,
      "▁Ben": 889,
      "▁görün": 890,
      "▁bölg": 891,
      "▁karşı": 892,
      "▁farklı": 893,
      "▁tamam": 894,
      "▁görev": 895,
      "▁haf": 896,
      "▁Eğ": 897,
      "▁önc": 898,
      "ket": 899,
      "▁iliş": 900,
      "larımız": 901,
      "üne": 902,
      "▁W": 903,
      "▁Or": 904,
      "▁sadece": 905,
      "▁sık": 906,
      "isinde": 907,
      "dığ": 908,
      "▁doğru": 909,
      "▁tür": 910,
      "luk": 911,
      "dar": 912,
      "▁kit": 913,
      "▁mut": 914,
      "▁İstanbul": 915,
      "▁anlam": 916,
      "▁mod": 917,
      "▁mal": 918,
      "kat": 919,
      "adaş": 920,
      "iyas": 921,
      "▁er": 922,
      "dık": 923,
      "▁değiş": 924,
      "▁iht": 925,
      "ladı": 926,
      "▁kr": 927,
      "eket": 928,
      "ici": 929,
      "▁tekn": 930,
      "▁Cum": 931,
      "▁karar": 932,
      "hur": 933,
      "ivers": 934,
      "mıştır": 935,
      "▁Av": 936,
      "▁dav": 937,
      "▁tab": 938,
      "▁kam": 939,
      "▁tel": 940,
      "aştır": 941,
      "▁Pro": 942,
      "▁bun": 943,
      "asını": 944,
      "iversit": 945,
      "üdür": 946,
      "▁sal": 947,
      "ahat": 948,
      "▁art": 949,
      "▁nasıl": 950,
      "lerden": 951,
      "eg": 952,
      "▁yardım": 953,
      "ızı": 954,
      "▁J": 955,
      "▁Başkanı": 956,
      "▁bulunan": 957,
      "▁em": 958,
      "▁mad": 959,
      "anda": 960,
      "▁Kon": 961,
      "▁katıl": 962,
      "▁etm": 963,
      "▁eder": 964,
      "▁belirt": 965,
      "▁sav": 966,
      "▁git": 967,
      "▁dedi": 968,
      "net": 969,
      "▁eğitim": 970,
      "▁On": 971,
      "▁yüksek": 972,
      "ırak": 973,
      "▁olması": 974,
      "▁kullanıl": 975,
      "▁Türkiy": 976,
      "▁olduk": 977,
      "lak": 978,
      "▁Son": 979,
      "▁hav": 980,
      "usunda": 981,
      "▁uygun": 982,
      "▁gid": 983,
      "rak": 984,
      "▁oluştur": 985,
      "▁yaşam": 986,
      "layan": 987,
      "▁bit": 988,
      "▁mak": 989,
      "lüğ": 990,
      "end": 991,
      "▁bah": 992,
      "▁güç": 993,
      "unuz": 994,
      "▁te": 995,
      "sam": 996,
      "▁anlat": 997,
      "mad": 998,
      "▁çev": 999,
      "▁Beled": 1000,
      "▁proj": 1001,
      "▁dikkat": 1002,
      "okt": 1003,
      "eme": 1004,
      "▁ik": 1005,
      "lük": 1006,
      "ektör": 1007,
      "▁çalışmalar": 1008,
      "ece": 1009,
      "ort": 1010,
      "▁arkadaş": 1011,
      "lum": 1012,
      "▁yür": 1013,
      "▁bırak": 1014,
      "atı": 1015,
      "▁bile": 1016,
      "▁su": 1017,
      "lerinden": 1018,
      "▁biri": 1019,
      "ika": 1020,
      "ilecek": 1021,
      "▁söyl": 1022,
      "▁gön": 1023,
      "lerle": 1024,
      "▁üzere": 1025,
      "inizi": 1026,
      "▁genel": 1027,
      "▁Her": 1028,
      "▁hast": 1029,
      "larından": 1030,
      "lanan": 1031,
      "▁Bil": 1032,
      "▁kadın": 1033,
      "gil": 1034,
      "ümüz": 1035,
      "▁üzerine": 1036,
      "duğu": 1037,
      "▁Bur": 1038,
      "elerin": 1039,
      "▁düny": 1040,
      "▁gerçekleştir": 1041,
      "▁karşıl": 1042,
      "enk": 1043,
      "ost": 1044,
      "▁Mil": 1045,
      "▁Genel": 1046,
      "▁Biz": 1047,
      "▁pay": 1048,
      "▁kayn": 1049,
      "rıca": 1050,
      "▁destek": 1051,
      "umuz": 1052,
      "▁Gün": 1053,
      "▁program": 1054,
      "mi": 1055,
      "▁edilm": 1056,
      "ant": 1057,
      "▁üret": 1058,
      "▁sorun": 1059,
      "osyal": 1060,
      "▁kaç": 1061,
      "bar": 1062,
      "irket": 1063,
      "▁bütün": 1064,
      "edik": 1065,
      "▁üzerinde": 1066,
      "orum": 1067,
      "▁sonr": 1068,
      "▁geçir": 1069,
      "▁hız": 1070,
      "kı": 1071,
      "▁yılında": 1072,
      "amaz": 1073,
      "▁başar": 1074,
      "sal": 1075,
      "▁çöz": 1076,
      "ünkü": 1077,
      "▁din": 1078,
      "ırım": 1079,
      "▁ün": 1080,
      "▁muh": 1081,
      "▁Cumhur": 1082,
      "▁fiyat": 1083,
      "▁uzun": 1084,
      "▁ihtiy": 1085,
      "lerimiz": 1086,
      "ing": 1087,
      "▁kolay": 1088,
      "▁koy": 1089,
      "▁bazı": 1090,
      "▁hareket": 1091,
      "tığ": 1092,
      "gel": 1093,
      "▁mü": 1094,
      "lenen": 1095,
      "▁teş": 1096,
      "▁üy": 1097,
      "rar": 1098,
      "▁Ün": 1099,
      "akat": 1100,
      "▁oyn": 1101,
      "onom": 1102,
      "mayı": 1103,
      "▁dem": 1104,
      "▁seb": 1105,
      "▁merkez": 1106,
      "▁görüş": 1107,
      "▁fir": 1108,
      "▁un": 1109,
      "elim": 1110,
      "▁ortaya": 1111,
      "▁başka": 1112,
      "ov": 1113,
      "aba": 1114,
      "tım": 1115,
      "▁film": 1116,
      "▁diy": 1117,
      "▁uygulam": 1118,
      "eti": 1119,
      "iği": 1120,
      "sin": 1121,
      "▁hep": 1122,
      "▁sı": 1123,
      "ıyorum": 1124,
      "▁yönet": 1125,
      "▁Ek": 1126,
      "asının": 1127,
      "▁Allah": 1128,
      "▁üç": 1129,
      "▁tasar": 1130,
      "ent": 1131,
      "lamak": 1132,
      "leme": 1133,
      "▁geliş": 1134,
      "masını": 1135,
      "▁ifade": 1136,
      "▁can": 1137,
      "düğ": 1138,
      "may": 1139,
      "gan": 1140,
      "▁bölüm": 1141,
      "▁kabul": 1142,
      "çok": 1143,
      "indeki": 1144,
      "▁hakkında": 1145,
      "ri": 1146,
      "ucu": 1147,
      "aj": 1148,
      "▁olmad": 1149,
      "ank": 1150,
      "▁Dev": 1151,
      "▁AB": 1152,
      "▁etmek": 1153,
      "ektedir": 1154,
      "▁Am": 1155,
      "▁met": 1156,
      "▁kız": 1157,
      "▁benim": 1158,
      "baş": 1159,
      "bol": 1160,
      "ediği": 1161,
      "▁Ev": 1162,
      "▁ediyor": 1163,
      "▁kes": 1164,
      "▁bey": 1165,
      "▁Ancak": 1166,
      "cek": 1167,
      "▁kom": 1168,
      "ıya": 1169,
      "▁Es": 1170,
      "▁At": 1171,
      "▁El": 1172,
      "rik": 1173,
      "dından": 1174,
      "üçük": 1175,
      "▁mev": 1176,
      "▁öğrenc": 1177,
      "▁As": 1178,
      "▁Dün": 1179,
      "suz": 1180,
      "▁ayr": 1181,
      "ültür": 1182,
      "isini": 1183,
      "▁mi": 1184,
      "▁plan": 1185,
      "▁fa": 1186,
      "▁yay": 1187,
      "▁yaklaş": 1188,
      "urt": 1189,
      "▁Tek": 1190,
      "▁Müdür": 1191,
      "meler": 1192,
      "çi": 1193,
      "▁res": 1194,
      "atik": 1195,
      "dum": 1196,
      "siyon": 1197,
      "efon": 1198,
      "▁çeş": 1199,
      "▁böyle": 1200,
      "▁Ad": 1201,
      "▁rahat": 1202,
      "▁pol": 1203,
      "▁Başkan": 1204,
      "▁şu": 1205,
      "▁yakın": 1206,
      "▁yas": 1207,
      "gı": 1208,
      "▁haber": 1209,
      "acağı": 1210,
      "duğ": 1211,
      "▁ancak": 1212,
      "▁sağlık": 1213,
      "▁tal": 1214,
      "isine": 1215,
      "undan": 1216,
      "ıyoruz": 1217,
      "▁has": 1218,
      "azar": 1219,
      "▁yüzde": 1220,
      "▁paylaş": 1221,
      "ge": 1222,
      "ıştır": 1223,
      "sanız": 1224,
      "ne": 1225,
      "▁kişi": 1226,
      "▁ziy": 1227,
      "▁Kan": 1228,
      "ünün": 1229,
      "tem": 1230,
      "▁terc": 1231,
      "gin": 1232,
      "miştir": 1233,
      "oğraf": 1234,
      "▁han": 1235,
      "▁bilin": 1236,
      "▁tah": 1237,
      "masına": 1238,
      "▁yayın": 1239,
      "▁yerine": 1240,
      "ök": 1241,
      "eceği": 1242,
      "uc": 1243,
      "vur": 1244,
      "tal": 1245,
      "▁San": 1246,
      "▁edilen": 1247,
      "▁bilgi": 1248,
      "▁kav": 1249,
      "tif": 1250,
      "min": 1251,
      "trol": 1252,
      "edef": 1253,
      "mez": 1254,
      "▁mah": 1255,
      "▁içerisinde": 1256,
      "▁Yar": 1257,
      "ıma": 1258,
      "dav": 1259,
      "▁Bakan": 1260,
      "lim": 1261,
      "ver": 1262,
      "▁hes": 1263,
      "▁devlet": 1264,
      "abilm": 1265,
      "▁konusunda": 1266,
      "▁şirket": 1267,
      "olu": 1268,
      "ber": 1269,
      "acaktır": 1270,
      "▁yapan": 1271,
      "imdi": 1272,
      "▁kır": 1273,
      "▁vardır": 1274,
      "▁gönder": 1275,
      "▁Yıl": 1276,
      "nin": 1277,
      "gul": 1278,
      "▁kurum": 1279,
      "dim": 1280,
      "madan": 1281,
      "▁birçok": 1282,
      "yada": 1283,
      "▁ail": 1284,
      "ınır": 1285,
      "▁sonuç": 1286,
      "ele": 1287,
      "▁milyon": 1288,
      "▁inan": 1289,
      "▁mer": 1290,
      "ılması": 1291,
      "▁artık": 1292,
      "leyen": 1293,
      "▁Üniversit": 1294,
      "▁çeşit": 1295,
      "ye": 1296,
      "▁araç": 1297,
      "iliyor": 1298,
      "▁Büy": 1299,
      "oğlu": 1300,
      "▁kalit": 1301,
      "▁ardından": 1302,
      "▁kapsam": 1303,
      "ER": 1304,
      "▁tur": 1305,
      "▁edeb": 1306,
      "▁Yön": 1307,
      "unca": 1308,
      "üküm": 1309,
      "▁toplum": 1310,
      "van": 1311,
      "ilere": 1312,
      "üşter": 1313,
      "▁açıklam": 1314,
      "per": 1315,
      "▁Avrup": 1316,
      "▁bugün": 1317,
      "▁yarat": 1318,
      "sik": 1319,
      "ekk": 1320,
      "▁Doğ": 1321,
      "▁maç": 1322,
      "▁tercih": 1323,
      "▁telefon": 1324,
      "manın": 1325,
      "uştur": 1326,
      "▁değerlendir": 1327,
      "ternet": 1328,
      "uluk": 1329,
      "sil": 1330,
      "▁man": 1331,
      "▁görül": 1332,
      "ılır": 1333,
      "▁olabilir": 1334,
      "nek": 1335,
      "iyi": 1336,
      "▁üc": 1337,
      "erj": 1338,
      "▁his": 1339,
      "▁geliştir": 1340,
      "▁Özel": 1341,
      "▁Hal": 1342,
      "▁Ama": 1343,
      "kün": 1344,
      "▁ber": 1345,
      "ekli": 1346,
      "res": 1347,
      "▁yine": 1348,
      "oğun": 1349,
      "malı": 1350,
      "▁Ön": 1351,
      "AR": 1352,
      "▁ücret": 1353,
      "▁gelir": 1354,
      "▁tat": 1355,
      "▁Tar": 1356,
      "▁hedef": 1357,
      "▁ses": 1358,
      "ag": 1359,
      "▁olsun": 1360,
      "▁mey": 1361,
      "AN": 1362,
      "ali": 1363,
      "▁tav": 1364,
      "▁yen": 1365,
      "▁erk": 1366,
      "▁müm": 1367,
      "ust": 1368,
      "det": 1369,
      "anan": 1370,
      "▁isim": 1371,
      "alt": 1372,
      "▁ziyaret": 1373,
      "fa": 1374,
      "ıt": 1375,
      "ud": 1376,
      "▁id": 1377,
      "▁vat": 1378,
      "▁kez": 1379,
      "ale": 1380,
      "▁li": 1381,
      "▁iti": 1382,
      "▁sektör": 1383,
      "▁dah": 1384,
      "▁Par": 1385,
      "▁Büyük": 1386,
      "isinin": 1387,
      "▁öde": 1388,
      "▁Yap": 1389,
      "sunuz": 1390,
      "▁yaptığı": 1391,
      "azet": 1392,
      "▁adam": 1393,
      "▁kontrol": 1394,
      "ilmiş": 1395,
      "▁araştır": 1396,
      "▁hemen": 1397,
      "▁genç": 1398,
      "▁model": 1399,
      "▁yapmak": 1400,
      "arası": 1401,
      "ışı": 1402,
      "▁okul": 1403,
      "▁geçen": 1404,
      "eyin": 1405,
      "erli": 1406,
      "▁seçim": 1407,
      "ücad": 1408,
      "▁başvur": 1409,
      "las": 1410,
      "▁vur": 1411,
      "▁yağ": 1412,
      "doğ": 1413,
      "▁mem": 1414,
      "▁bunu": 1415,
      "ayet": 1416,
      "▁tr": 1417,
      "üb": 1418,
      "▁zamanda": 1419,
      "▁sosyal": 1420,
      "▁olay": 1421,
      "▁hiçbir": 1422,
      "▁toplan": 1423,
      "▁kaynak": 1424,
      "▁ekonom": 1425,
      "▁bar": 1426,
      "ize": 1427,
      "istan": 1428,
      "adı": 1429,
      "▁herk": 1430,
      "mem": 1431,
      "gu": 1432,
      "▁benz": 1433,
      "▁Bunun": 1434,
      "▁yanı": 1435,
      "▁mas": 1436,
      "duk": 1437,
      "▁fır": 1438,
      "▁küçük": 1439,
      "▁mı": 1440,
      "▁kil": 1441,
      "▁olup": 1442,
      "▁itibar": 1443,
      "▁pek": 1444,
      "▁bağlı": 1445,
      "▁altında": 1446,
      "▁diz": 1447,
      "▁Top": 1448,
      "edim": 1449,
      "abilecek": 1450,
      "▁zar": 1451,
      "▁od": 1452,
      "ıldı": 1453,
      "kinci": 1454,
      "▁oldukça": 1455,
      "▁incel": 1456,
      "abı": 1457,
      "▁av": 1458,
      "▁size": 1459,
      "aliyet": 1460,
      "aların": 1461,
      "▁Ayrıca": 1462,
      "landır": 1463,
      "tim": 1464,
      "ılmış": 1465,
      "▁günü": 1466,
      "▁kitap": 1467,
      "▁onun": 1468,
      "oh": 1469,
      "▁halk": 1470,
      "▁renk": 1471,
      "amak": 1472,
      "çı": 1473,
      "▁dönüş": 1474,
      "dığını": 1475,
      "tiği": 1476,
      "▁uç": 1477,
      "otoğraf": 1478,
      "ebilirsiniz": 1479,
      "▁ac": 1480,
      "▁süre": 1481,
      "▁gereken": 1482,
      "▁cev": 1483,
      "imde": 1484,
      "▁çalışan": 1485,
      "▁sınır": 1486,
      "acağını": 1487,
      "▁kısa": 1488,
      "▁mümkün": 1489,
      "▁Der": 1490,
      "▁Ank": 1491,
      "▁sab": 1492,
      "lemek": 1493,
      "mir": 1494,
      "andaş": 1495,
      "▁Merkez": 1496,
      "▁w": 1497,
      "▁siyas": 1498,
      "▁Türkiyenin": 1499,
      "imizin": 1500,
      "▁biraz": 1501,
      "uslar": 1502,
      "▁müz": 1503,
      "▁ait": 1504,
      "▁Dr": 1505,
      "▁Hay": 1506,
      "▁Yeni": 1507,
      "obil": 1508,
      "üf": 1509,
      "▁takım": 1510,
      "▁Tem": 1511,
      "ayıs": 1512,
      "▁temiz": 1513,
      "▁müşter": 1514,
      "▁dir": 1515,
      "▁tedav": 1516,
      "tiv": 1517,
      "▁e": 1518,
      "uyla": 1519,
      "▁kir": 1520,
      "▁İz": 1521,
      "▁per": 1522,
      "▁tekrar": 1523,
      "▁anlaş": 1524,
      "▁Daha": 1525,
      "▁üzerinden": 1526,
      "▁Ser": 1527,
      "▁oluyor": 1528,
      "gın": 1529,
      "▁Ne": 1530,
      "müş": 1531,
      "hangi": 1532,
      "▁bizim": 1533,
      "▁geri": 1534,
      "▁değişik": 1535,
      "esinden": 1536,
      "▁para": 1537,
      "▁indir": 1538,
      "eğin": 1539,
      "▁etkin": 1540,
      "aban": 1541,
      "▁veren": 1542,
      "▁mücad": 1543,
      "▁ders": 1544,
      "▁ilişk": 1545,
      "ekten": 1546,
      "uğ": 1547,
      "▁savaş": 1548,
      "▁beraber": 1549,
      "umlu": 1550,
      "▁Os": 1551,
      "tin": 1552,
      "ısında": 1553,
      "▁mark": 1554,
      "▁özellikle": 1555,
      "▁Mah": 1556,
      "▁eski": 1557,
      "▁ilet": 1558,
      "▁geldi": 1559,
      "▁bilm": 1560,
      "isyon": 1561,
      "▁nokt": 1562,
      "▁adet": 1563,
      "▁birbir": 1564,
      "▁dak": 1565,
      "▁Eğitim": 1566,
      "▁teknoloj": 1567,
      "elen": 1568,
      "▁koş": 1569,
      "▁Kad": 1570,
      "▁Ok": 1571,
      "▁söyledi": 1572,
      "▁bunun": 1573,
      "▁engel": 1574,
      "▁şeh": 1575,
      "▁değiştir": 1576,
      "▁özellik": 1577,
      "imizi": 1578,
      "▁hüküm": 1579,
      "▁Çünkü": 1580,
      "▁bildir": 1581,
      "▁tük": 1582,
      "▁kayı": 1583,
      "br": 1584,
      "akk": 1585,
      "▁erkek": 1586,
      "▁hafta": 1587,
      "ime": 1588,
      "▁ağır": 1589,
      "olar": 1590,
      "▁uzak": 1591,
      "▁çözüm": 1592,
      "▁Ey": 1593,
      "▁sar": 1594,
      "▁bana": 1595,
      "umu": 1596,
      "alım": 1597,
      "▁Haz": 1598,
      "ekkür": 1599,
      "▁yöntem": 1600,
      "▁ask": 1601,
      "▁sak": 1602,
      "▁sanat": 1603,
      "▁yani": 1604,
      "▁elde": 1605,
      "▁Kal": 1606,
      "▁faaliyet": 1607,
      "▁millet": 1608,
      "▁mik": 1609,
      "▁İlk": 1610,
      "ari": 1611,
      "cü": 1612,
      "▁istem": 1613,
      "▁takip": 1614,
      "for": 1615,
      "▁çevr": 1616,
      "▁Yan": 1617,
      "elere": 1618,
      "larıyla": 1619,
      "▁sey": 1620,
      "▁temel": 1621,
      "ınıf": 1622,
      "ünden": 1623,
      "▁Böl": 1624,
      "elerini": 1625,
      "inize": 1626,
      "▁cez": 1627,
      "eceğini": 1628,
      "▁onu": 1629,
      "▁Tur": 1630,
      "lardır": 1631,
      "alat": 1632,
      "▁kesin": 1633,
      "▁yönelik": 1634,
      "▁Kay": 1635,
      "of": 1636,
      "▁öğret": 1637,
      "▁kaldır": 1638,
      "▁sin": 1639,
      "▁otur": 1640,
      "amp": 1641,
      "▁kıy": 1642,
      "▁yatırım": 1643,
      "▁Belediy": 1644,
      "▁fay": 1645,
      "▁ilç": 1646,
      "deş": 1647,
      "▁İç": 1648,
      "▁boz": 1649,
      "▁gerekir": 1650,
      "▁AK": 1651,
      "elerde": 1652,
      "▁boş": 1653,
      "uyu": 1654,
      "ulan": 1655,
      "▁vatandaş": 1656,
      "▁ölç": 1657,
      "adaki": 1658,
      "▁nedeniyle": 1659,
      "▁kültür": 1660,
      "▁yorum": 1661,
      "bak": 1662,
      "▁başladı": 1663,
      "▁çağ": 1664,
      "ilerini": 1665,
      "▁rağ": 1666,
      "▁spor": 1667,
      "ince": 1668,
      "▁madde": 1669,
      "▁kut": 1670,
      "he": 1671,
      "▁geniş": 1672,
      "▁konusu": 1673,
      "itik": 1674,
      "▁Tr": 1675,
      "▁değildir": 1676,
      "▁herhangi": 1677,
      "▁gez": 1678,
      "üsü": 1679,
      "▁Ve": 1680,
      "▁fotoğraf": 1681,
      "▁olmayan": 1682,
      "▁bor": 1683,
      "▁mu": 1684,
      "▁Oy": 1685,
      "▁Eğer": 1686,
      "imize": 1687,
      "lında": 1688,
      "maları": 1689,
      "alarda": 1690,
      "aten": 1691,
      "▁parç": 1692,
      "yle": 1693,
      "leriyle": 1694,
      "sın": 1695,
      "sınız": 1696,
      "▁internet": 1697,
      "▁almak": 1698,
      "eyim": 1699,
      "ilerine": 1700,
      "▁ortam": 1701,
      "ınav": 1702,
      "▁yeniden": 1703,
      "▁şekl": 1704,
      "▁İngil": 1705,
      "erç": 1706,
      "▁rağmen": 1707,
      "▁edildi": 1708,
      "▁Devlet": 1709,
      "uma": 1710,
      "▁Kul": 1711,
      "meden": 1712,
      "ısından": 1713,
      "mel": 1714,
      "alet": 1715,
      "dın": 1716,
      "▁dolayı": 1717,
      "▁sil": 1718,
      "▁gerekli": 1719,
      "▁Ah": 1720,
      "▁Türkiyede": 1721,
      "▁bay": 1722,
      "▁çıkan": 1723,
      "▁rek": 1724,
      "meyi": 1725,
      "▁ner": 1726,
      "▁soru": 1727,
      "avaş": 1728,
      "fer": 1729,
      "▁ihtiyaç": 1730,
      "taj": 1731,
      "cut": 1732,
      "▁Belediye": 1733,
      "▁çalışma": 1734,
      "amız": 1735,
      "pr": 1736,
      "▁yal": 1737,
      "▁serv": 1738,
      "▁yüksel": 1739,
      "lıyor": 1740,
      "▁yönetim": 1741,
      "esel": 1742,
      "dül": 1743,
      "▁ortak": 1744,
      "din": 1745,
      "▁Has": 1746,
      "▁kah": 1747,
      "yanın": 1748,
      "izm": 1749,
      "uslararası": 1750,
      "ırken": 1751,
      "▁Uz": 1752,
      "▁uğr": 1753,
      "ow": 1754,
      "▁hiss": 1755,
      "▁giriş": 1756,
      "▁alış": 1757,
      "▁Sağ": 1758,
      "ron": 1759,
      "asından": 1760,
      "▁örg": 1761,
      "üğ": 1762,
      "▁dışında": 1763,
      "▁Erdoğ": 1764,
      "▁şart": 1765,
      "▁oran": 1766,
      "▁çiz": 1767,
      "▁tanım": 1768,
      "▁saç": 1769,
      "▁sizin": 1770,
      "▁yemek": 1771,
      "▁med": 1772,
      "▁hızlı": 1773,
      "▁suç": 1774,
      "lek": 1775,
      "▁Osman": 1776,
      "▁dair": 1777,
      "▁Siz": 1778,
      "icaret": 1779,
      "▁Mer": 1780,
      "esiyle": 1781,
      "▁teşekkür": 1782,
      "ukuk": 1783,
      "▁dok": 1784,
      "▁grup": 1785,
      "▁bağlan": 1786,
      "okr": 1787,
      "▁cih": 1788,
      "▁sürdür": 1789,
      "▁Öğr": 1790,
      "luğ": 1791,
      "asındaki": 1792,
      "▁Sur": 1793,
      "efer": 1794,
      "▁ilişkin": 1795,
      "▁Bey": 1796,
      "larınız": 1797,
      "▁inş": 1798,
      "▁bakım": 1799,
      "enek": 1800,
      "▁gec": 1801,
      "day": 1802,
      "▁doğr": 1803,
      "▁öner": 1804,
      "▁ayrı": 1805,
      "sat": 1806,
      "▁Muh": 1807,
      "▁isteyen": 1808,
      "▁Ab": 1809,
      "▁TL": 1810,
      "▁Cumhuriyet": 1811,
      "▁amac": 1812,
      "muz": 1813,
      "▁sayf": 1814,
      "▁sayı": 1815,
      "▁ikinci": 1816,
      "▁kısm": 1817,
      "▁sok": 1818,
      "▁enerj": 1819,
      "▁olsa": 1820,
      "▁şehir": 1821,
      "pan": 1822,
      "▁Kom": 1823,
      "▁gerçekleş": 1824,
      "nız": 1825,
      "lül": 1826,
      "▁boyunca": 1827,
      "▁amaç": 1828,
      "▁saldır": 1829,
      "▁istediğ": 1830,
      "▁açıl": 1831,
      "▁Avrupa": 1832,
      "ift": 1833,
      "acağız": 1834,
      "▁çeşitli": 1835,
      "▁iddi": 1836,
      "rim": 1837,
      "▁gider": 1838,
      "▁cin": 1839,
      "lüğü": 1840,
      "▁Bun": 1841,
      "▁sayesinde": 1842,
      "▁sıra": 1843,
      "▁imz": 1844,
      "afa": 1845,
      "▁yarar": 1846,
      "ch": 1847,
      "all": 1848,
      "▁yapı": 1849,
      "▁aday": 1850,
      "▁unut": 1851,
      "▁organ": 1852,
      "▁ister": 1853,
      "▁elekt": 1854,
      "iliğ": 1855,
      "▁toplam": 1856,
      "▁mek": 1857,
      "manız": 1858,
      "▁dayan": 1859,
      "şam": 1860,
      "▁üretim": 1861,
      "▁Gör": 1862,
      "▁burada": 1863,
      "eci": 1864,
      "ET": 1865,
      "laştır": 1866,
      "▁hey": 1867,
      "anlar": 1868,
      "▁Bay": 1869,
      "▁Gel": 1870,
      "▁yoğun": 1871,
      "▁sek": 1872,
      "isay": 1873,
      "kil": 1874,
      "dana": 1875,
      "▁satış": 1876,
      "▁Rus": 1877,
      "▁Amer": 1878,
      "ren": 1879,
      "rub": 1880,
      "▁yardımcı": 1881,
      "▁Mar": 1882,
      "▁tanı": 1883,
      "kın": 1884,
      "arken": 1885,
      "apor": 1886,
      "▁hesap": 1887,
      "▁Çok": 1888,
      "ân": 1889,
      "▁lis": 1890,
      "▁Meh": 1891,
      "utbol": 1892,
      "▁Uy": 1893,
      "ört": 1894,
      "▁gelecek": 1895,
      "▁kuruluş": 1896,
      "▁günde": 1897,
      "isk": 1898,
      "▁teh": 1899,
      "tiğini": 1900,
      "ezon": 1901,
      "▁kork": 1902,
      "ımda": 1903,
      "▁sınıf": 1904,
      "luluk": 1905,
      "▁Dem": 1906,
      "▁mevcut": 1907,
      "▁edin": 1908,
      "▁zarar": 1909,
      "ücü": 1910,
      "▁halinde": 1911,
      "mesini": 1912,
      "▁dünya": 1913,
      "▁ey": 1914,
      "edeki": 1915,
      "▁kas": 1916,
      "landı": 1917,
      "▁türlü": 1918,
      "▁bize": 1919,
      "▁edil": 1920,
      "▁yaklaşık": 1921,
      "▁Cumhurbaş": 1922,
      "▁beni": 1923,
      "enc": 1924,
      "▁uygulan": 1925,
      "▁biç": 1926,
      "▁sebep": 1927,
      "▁kapsamında": 1928,
      "▁ederek": 1929,
      "▁Har": 1930,
      "erson": 1931,
      "ere": 1932,
      "▁ekip": 1933,
      "▁Üniversitesi": 1934,
      "▁vak": 1935,
      "etin": 1936,
      "▁belg": 1937,
      "▁Ol": 1938,
      "▁aşağı": 1939,
      "pit": 1940,
      "emin": 1941,
      "▁sahibi": 1942,
      "▁mez": 1943,
      "▁Em": 1944,
      "▁çar": 1945,
      "lüm": 1946,
      "▁sıcak": 1947,
      "ışık": 1948,
      "▁edecek": 1949,
      "▁Ul": 1950,
      "▁olacaktır": 1951,
      "▁Alman": 1952,
      "▁istiyor": 1953,
      "▁Ör": 1954,
      "▁köy": 1955,
      "ıyı": 1956,
      "adığı": 1957,
      "▁ab": 1958,
      "inc": 1959,
      "be": 1960,
      "▁kayıt": 1961,
      "▁malz": 1962,
      "▁Kas": 1963,
      "▁hale": 1964,
      "▁Hat": 1965,
      "▁giy": 1966,
      "uya": 1967,
      "▁anda": 1968,
      "ıntı": 1969,
      "▁dar": 1970,
      "▁teknik": 1971,
      "▁işlet": 1972,
      "lilik": 1973,
      "▁Ot": 1974,
      "azi": 1975,
      "▁yazı": 1976,
      "▁beb": 1977,
      "mey": 1978,
      "▁karşılaş": 1979,
      "elerinin": 1980,
      "▁bekl": 1981,
      "▁tarihi": 1982,
      "▁Ko": 1983,
      "▁yanında": 1984,
      "ilerinin": 1985,
      "▁iler": 1986,
      "▁bab": 1987,
      "▁le": 1988,
      "lo": 1989,
      "▁hatır": 1990,
      "▁sağlay": 1991,
      "▁tep": 1992,
      "sak": 1993,
      "▁durumda": 1994,
      "▁Geç": 1995,
      "ınızı": 1996,
      "▁det": 1997,
      "alarında": 1998,
      "isayar": 1999,
      "▁kardeş": 2000,
      "▁doğal": 2001,
      "▁adım": 2002,
      "vek": 2003,
      "yi": 2004,
      "▁Hav": 2005,
      "▁kullanıcı": 2006,
      "▁gazet": 2007,
      "lanmış": 2008,
      "▁arac": 2009,
      "▁verilen": 2010,
      "▁aldı": 2011,
      "▁sürekli": 2012,
      "mayan": 2013,
      "vet": 2014,
      "diğini": 2015,
      "▁vüc": 2016,
      "▁ann": 2017,
      "üler": 2018,
      "▁Ali": 2019,
      "cısı": 2020,
      "▁anlay": 2021,
      "tay": 2022,
      "▁men": 2023,
      "▁ettiği": 2024,
      "▁ettiğ": 2025,
      "kaç": 2026,
      "▁otom": 2027,
      "▁dahil": 2028,
      "▁fik": 2029,
      "▁İnsan": 2030,
      "na": 2031,
      "▁yaptı": 2032,
      "▁talep": 2033,
      "▁davran": 2034,
      "ile": 2035,
      "lis": 2036,
      "▁şöyle": 2037,
      "▁özg": 2038,
      "▁ham": 2039,
      "▁olmuş": 2040,
      "▁yürüt": 2041,
      "▁örnek": 2042,
      "uvar": 2043,
      "▁num": 2044,
      "masının": 2045,
      "▁gerekiyor": 2046,
      "▁yaşan": 2047,
      "▁konuda": 2048,
      "alama": 2049,
      "eştir": 2050,
      "▁fayd": 2051,
      "▁tık": 2052,
      "oğu": 2053,
      "ült": 2054,
      "ite": 2055,
      "üle": 2056,
      "▁açısından": 2057,
      "▁ins": 2058,
      "▁yık": 2059,
      "oktor": 2060,
      "ayıp": 2061,
      "▁adı": 2062,
      "▁pazar": 2063,
      "▁geliyor": 2064,
      "▁Tekn": 2065,
      "meyen": 2066,
      "▁adına": 2067,
      "ej": 2068,
      "adık": 2069,
      "gun": 2070,
      "▁vide": 2071,
      "mesine": 2072,
      "şehir": 2073,
      "▁bilim": 2074,
      "uan": 2075,
      "▁verdi": 2076,
      "mal": 2077,
      "▁ona": 2078,
      "adığ": 2079,
      "abancı": 2080,
      "▁şimdi": 2081,
      "▁başlad": 2082,
      "elidir": 2083,
      "▁hangi": 2084,
      "▁şeklinde": 2085,
      "▁pat": 2086,
      "▁tespit": 2087,
      "▁konuştu": 2088,
      "▁mağ": 2089,
      "▁rak": 2090,
      "ırı": 2091,
      "▁başlam": 2092,
      "▁nedenle": 2093,
      "alarını": 2094,
      "▁nit": 2095,
      "▁Dünya": 2096,
      "ebil": 2097,
      "alara": 2098,
      "▁ABD": 2099,
      "▁cevap": 2100,
      "▁sezon": 2101,
      "▁beklen": 2102,
      "ira": 2103,
      "ormal": 2104,
      "ısını": 2105,
      "▁temsil": 2106,
      "izi": 2107,
      "ınca": 2108,
      "usal": 2109,
      "▁sol": 2110,
      "▁Sen": 2111,
      "▁cid": 2112,
      "▁herkes": 2113,
      "▁diyor": 2114,
      "anlı": 2115,
      "ülen": 2116,
      "▁ah": 2117,
      "▁Kür": 2118,
      "eceğiniz": 2119,
      "▁vardı": 2120,
      "▁terör": 2121,
      "▁tasarım": 2122,
      "▁Ankara": 2123,
      "▁part": 2124,
      "▁demek": 2125,
      "asyonu": 2126,
      "amı": 2127,
      "▁tabi": 2128,
      "atif": 2129,
      "elerine": 2130,
      "▁çoc": 2131,
      "inci": 2132,
      "▁sınav": 2133,
      "▁Tüm": 2134,
      "▁belli": 2135,
      "▁Mehmet": 2136,
      "▁ruh": 2137,
      "▁cihaz": 2138,
      "▁tart": 2139,
      "▁Yük": 2140,
      "▁kalan": 2141,
      "▁uzman": 2142,
      "▁ana": 2143,
      "▁artır": 2144,
      "▁kötü": 2145,
      "ildiğ": 2146,
      "▁tarihinde": 2147,
      "▁ip": 2148,
      "taş": 2149,
      "▁Anad": 2150,
      "menin": 2151,
      "ni": 2152,
      "▁tüket": 2153,
      "▁hava": 2154,
      "▁bilgiler": 2155,
      "ij": 2156,
      "▁Millet": 2157,
      "EN": 2158,
      "ümü": 2159,
      "▁yarış": 2160,
      "▁j": 2161,
      "ve": 2162,
      "▁üniversit": 2163,
      "▁Çocuk": 2164,
      "▁sırasında": 2165,
      "▁yurt": 2166,
      "▁baz": 2167,
      "▁başarılı": 2168,
      "yar": 2169,
      "▁Aç": 2170,
      "▁kişinin": 2171,
      "asa": 2172,
      "▁sağlan": 2173,
      "ilerek": 2174,
      "▁başkan": 2175,
      "▁yaptır": 2176,
      "▁seviy": 2177,
      "▁insanlar": 2178,
      "▁yalnız": 2179,
      "▁yum": 2180,
      "anış": 2181,
      "▁Res": 2182,
      "▁Şub": 2183,
      "hal": 2184,
      "emizde": 2185,
      "ılığ": 2186,
      "▁st": 2187,
      "elikle": 2188,
      "▁oyuncu": 2189,
      "▁Tab": 2190,
      "▁kullanım": 2191,
      "eder": 2192,
      "▁Af": 2193,
      "emi": 2194,
      "lış": 2195,
      "sı": 2196,
      "ayacak": 2197,
      "▁Hak": 2198,
      "▁İzmir": 2199,
      "▁net": 2200,
      "▁geçmiş": 2201,
      "oloji": 2202,
      "▁yapılacak": 2203,
      "▁bes": 2204,
      "ımıza": 2205,
      "▁kapat": 2206,
      "▁ma": 2207,
      "lif": 2208,
      "tep": 2209,
      "▁kullanılan": 2210,
      "▁verilm": 2211,
      "AL": 2212,
      "ılım": 2213,
      "▁hik": 2214,
      "▁sistemi": 2215,
      "▁Böyle": 2216,
      "▁Han": 2217,
      "ceğ": 2218,
      "▁Sev": 2219,
      "▁Yaş": 2220,
      "▁çünkü": 2221,
      "▁Bugün": 2222,
      "▁ıs": 2223,
      "▁piyas": 2224,
      "▁yüzden": 2225,
      "▁Kap": 2226,
      "nun": 2227,
      "▁Prof": 2228,
      "▁Söz": 2229,
      "adem": 2230,
      "ecektir": 2231,
      "▁aktar": 2232,
      "▁detay": 2233,
      "▁hastalık": 2234,
      "▁it": 2235,
      "▁yaptık": 2236,
      "▁olmaz": 2237,
      "yo": 2238,
      "liğini": 2239,
      "▁sonunda": 2240,
      "abiliyor": 2241,
      "▁key": 2242,
      "▁süreç": 2243,
      "▁In": 2244,
      "otor": 2245,
      "▁derece": 2246,
      "▁ko": 2247,
      "▁etkil": 2248,
      "ımızı": 2249,
      "▁öyle": 2250,
      "▁dal": 2251,
      "ener": 2252,
      "▁şah": 2253,
      "▁bayan": 2254,
      "▁iletişim": 2255,
      "lerce": 2256,
      "üslüm": 2257,
      "▁mesaj": 2258,
      "▁tartış": 2259,
      "▁yem": 2260,
      "elerinde": 2261,
      "▁Fakat": 2262,
      "iden": 2263,
      "▁Must": 2264,
      "▁don": 2265,
      "makta": 2266,
      "▁Bar": 2267,
      "imin": 2268,
      "▁kamu": 2269,
      "siy": 2270,
      "asıyla": 2271,
      "iliği": 2272,
      "▁itibaren": 2273,
      "▁gece": 2274,
      "ebilm": 2275,
      "▁of": 2276,
      "▁sonucu": 2277,
      "▁tamamen": 2278,
      "iyeti": 2279,
      "▁Milli": 2280,
      "▁sağlamak": 2281,
      "▁zaten": 2282,
      "▁düşünüyor": 2283,
      "adde": 2284,
      "▁rapor": 2285,
      "▁hoş": 2286,
      "iri": 2287,
      "ern": 2288,
      "▁Kr": 2289,
      "▁başlat": 2290,
      "ediye": 2291,
      "▁mis": 2292,
      "▁hukuk": 2293,
      "▁fakat": 2294,
      "▁Değ": 2295,
      "ayi": 2296,
      "▁örgüt": 2297,
      "▁oper": 2298,
      "imizde": 2299,
      "aması": 2300,
      "▁İşte": 2301,
      "▁bulunduğu": 2302,
      "▁canlı": 2303,
      "olojik": 2304,
      "▁Su": 2305,
      "tul": 2306,
      "▁birkaç": 2307,
      "ıda": 2308,
      "isel": 2309,
      "lâ": 2310,
      "▁sebeb": 2311,
      "▁kelim": 2312,
      "▁kaf": 2313,
      "▁Kat": 2314,
      "▁güçlü": 2315,
      "▁teslim": 2316,
      "ısına": 2317,
      "▁kaybet": 2318,
      "▁İslam": 2319,
      "▁Temmuz": 2320,
      "▁CH": 2321,
      "kem": 2322,
      "▁yerde": 2323,
      "düğü": 2324,
      "lin": 2325,
      "▁sig": 2326,
      "meleri": 2327,
      "▁haline": 2328,
      "uar": 2329,
      "▁Yani": 2330,
      "bi": 2331,
      "cort": 2332,
      "emez": 2333,
      "lerdir": 2334,
      "▁form": 2335,
      "▁çıktı": 2336,
      "▁ayrıca": 2337,
      "▁mutlak": 2338,
      "▁işaret": 2339,
      "▁düzenlenen": 2340,
      "▁kendini": 2341,
      "▁Kurulu": 2342,
      "▁yıllık": 2343,
      "▁Özellikle": 2344,
      "▁person": 2345,
      "▁varsa": 2346,
      "▁Ter": 2347,
      "blem": 2348,
      "▁cam": 2349,
      "onun": 2350,
      "▁orta": 2351,
      "▁belirlen": 2352,
      "▁ekonomik": 2353,
      "▁politik": 2354,
      "dük": 2355,
      "▁aslında": 2356,
      "ohbet": 2357,
      "▁vermek": 2358,
      "▁güvenlik": 2359,
      "▁servis": 2360,
      "▁Hem": 2361,
      "atör": 2362,
      "▁prof": 2363,
      "▁Sel": 2364,
      "▁eser": 2365,
      "▁ayak": 2366,
      "▁hatta": 2367,
      "▁sayılı": 2368,
      "▁Deniz": 2369,
      "▁oluşan": 2370,
      "gam": 2371,
      "ünüz": 2372,
      "ind": 2373,
      "▁kıl": 2374,
      "▁edilir": 2375,
      "▁kayb": 2376,
      "▁izin": 2377,
      "▁öğretmen": 2378,
      "etler": 2379,
      "▁soğ": 2380,
      "▁isten": 2381,
      "▁Spor": 2382,
      "▁katkı": 2383,
      "▁Bah": 2384,
      "izyon": 2385,
      "▁başlay": 2386,
      "▁Aş": 2387,
      "malıdır": 2388,
      "▁Mustafa": 2389,
      "engin": 2390,
      "▁yoktur": 2391,
      "ser": 2392,
      "▁str": 2393,
      "▁dep": 2394,
      "▁verir": 2395,
      "▁ele": 2396,
      "▁savun": 2397,
      "ımızda": 2398,
      "alarının": 2399,
      "▁verdiği": 2400,
      "▁arasındaki": 2401,
      "AT": 2402,
      "▁ic": 2403,
      "▁amacıyla": 2404,
      "▁Sar": 2405,
      "emal": 2406,
      "luğu": 2407,
      "▁Mes": 2408,
      "▁Tak": 2409,
      "▁yanlış": 2410,
      "lk": 2411,
      "▁meydana": 2412,
      "▁giz": 2413,
      "ros": 2414,
      "ıyorlar": 2415,
      "▁Yardım": 2416,
      "▁futbol": 2417,
      "▁aldığı": 2418,
      "▁gerçekten": 2419,
      "bah": 2420,
      "aca": 2421,
      "▁sağlam": 2422,
      "▁hayvan": 2423,
      "▁um": 2424,
      "▁Genç": 2425,
      "lıkla": 2426,
      "rafik": 2427,
      "mamız": 2428,
      "▁düzenlen": 2429,
      "▁X": 2430,
      "ınıza": 2431,
      "▁sorum": 2432,
      "▁şark": 2433,
      "ildiği": 2434,
      "▁akıl": 2435,
      "▁vaz": 2436,
      "▁fin": 2437,
      "▁Yaz": 2438,
      "▁Yönet": 2439,
      "ukarı": 2440,
      "▁asker": 2441,
      "▁list": 2442,
      "▁nak": 2443,
      "▁web": 2444,
      "miyor": 2445,
      "ağa": 2446,
      "sta": 2447,
      "▁Man": 2448,
      "larım": 2449,
      "▁Belediyesi": 2450,
      "▁kişiler": 2451,
      "▁bilgisayar": 2452,
      "▁end": 2453,
      "▁bi": 2454,
      "▁Parti": 2455,
      "forman": 2456,
      "▁ciddi": 2457,
      "atürk": 2458,
      "air": 2459,
      "▁ülke": 2460,
      "▁koşul": 2461,
      "eşil": 2462,
      "dız": 2463,
      "tiğimiz": 2464,
      "▁tip": 2465,
      "▁çift": 2466,
      "ba": 2467,
      "▁istiyorum": 2468,
      "yum": 2469,
      "lulu": 2470,
      "▁dost": 2471,
      "▁mutlu": 2472,
      "▁yapar": 2473,
      "fak": 2474,
      "▁Et": 2475,
      "▁Kurul": 2476,
      "▁grub": 2477,
      "▁Eylül": 2478,
      "▁İngiliz": 2479,
      "▁malzem": 2480,
      "▁tec": 2481,
      "İN": 2482,
      "veriş": 2483,
      "▁otel": 2484,
      "inizin": 2485,
      "▁ölüm": 2486,
      "▁dünyanın": 2487,
      "▁Mec": 2488,
      "▁Sağlık": 2489,
      "▁Mal": 2490,
      "▁yere": 2491,
      "inizde": 2492,
      "▁eksik": 2493,
      "▁Kor": 2494,
      "▁Sam": 2495,
      "▁insanların": 2496,
      "▁sizi": 2497,
      "EL": 2498,
      "▁etmiş": 2499,
      "ES": 2500,
      "▁kims": 2501,
      "▁düzey": 2502,
      "▁problem": 2503,
      "▁Amerik": 2504,
      "▁dört": 2505,
      "azım": 2506,
      "▁karak": 2507,
      "▁boyut": 2508,
      "▁okuy": 2509,
      "evi": 2510,
      "▁Kend": 2511,
      "▁miktar": 2512,
      "▁cil": 2513,
      "▁Yak": 2514,
      "▁stan": 2515,
      "▁katılım": 2516,
      "▁emek": 2517,
      "▁Erdoğan": 2518,
      "▁edebilir": 2519,
      "tığını": 2520,
      "▁Çalış": 2521,
      "▁satın": 2522,
      "▁güncel": 2523,
      "enler": 2524,
      "etik": 2525,
      "▁silah": 2526,
      "▁Haber": 2527,
      "▁düşük": 2528,
      "▁Atatürk": 2529,
      "▁oğ": 2530,
      "ersiz": 2531,
      "▁öldür": 2532,
      "▁dönemde": 2533,
      "▁dolar": 2534,
      "▁merak": 2535,
      "▁bağım": 2536,
      "▁doktor": 2537,
      "iir": 2538,
      "yan": 2539,
      "▁arada": 2540,
      "▁kuş": 2541,
      "▁başvuru": 2542,
      "▁Pol": 2543,
      "▁dakika": 2544,
      "▁ilaç": 2545,
      "▁olun": 2546,
      "▁sonrası": 2547,
      "aliz": 2548,
      "▁yaşayan": 2549,
      "▁Şimdi": 2550,
      "▁akşam": 2551,
      "▁eğlen": 2552,
      "▁tarz": 2553,
      "▁bl": 2554,
      "▁buna": 2555,
      "▁bal": 2556,
      "▁ir": 2557,
      "▁basın": 2558,
      "üncü": 2559,
      "osu": 2560,
      "▁ekran": 2561,
      "▁bahis": 2562,
      "▁Anadolu": 2563,
      "▁deniz": 2564,
      "mer": 2565,
      "▁başına": 2566,
      "▁yeterli": 2567,
      "▁günlük": 2568,
      "▁sözleş": 2569,
      "▁başlayan": 2570,
      "inç": 2571,
      "▁zorunda": 2572,
      "imleri": 2573,
      "ımızın": 2574,
      "▁bulunmaktadır": 2575,
      "AK": 2576,
      "uvvet": 2577,
      "▁kalk": 2578,
      "▁kart": 2579,
      "▁kent": 2580,
      "ediy": 2581,
      "▁Yönetim": 2582,
      "▁Başbak": 2583,
      "alarına": 2584,
      "▁memnun": 2585,
      "alıdır": 2586,
      "▁yazar": 2587,
      "mıştı": 2588,
      "one": 2589,
      "oda": 2590,
      "dığında": 2591,
      "▁beş": 2592,
      "▁nef": 2593,
      "▁içine": 2594,
      "ağıt": 2595,
      "▁Part": 2596,
      "▁nok": 2597,
      "▁yaptığ": 2598,
      "▁ateş": 2599,
      "▁Ch": 2600,
      "▁sürec": 2601,
      "ebilecek": 2602,
      "lılık": 2603,
      "▁toprak": 2604,
      "▁Hazir": 2605,
      "acağım": 2606,
      "▁polis": 2607,
      "muştur": 2608,
      "ılığı": 2609,
      "▁yılı": 2610,
      "▁Bul": 2611,
      "▁adlı": 2612,
      "▁söylem": 2613,
      "▁beğ": 2614,
      "▁götür": 2615,
      "▁Güven": 2616,
      "▁onlar": 2617,
      "ıyordu": 2618,
      "▁yana": 2619,
      "▁gar": 2620,
      "▁sonuc": 2621,
      "▁ediyorum": 2622,
      "neğin": 2623,
      "asın": 2624,
      "▁Ver": 2625,
      "eygam": 2626,
      "ga": 2627,
      "▁düşünc": 2628,
      "▁Mart": 2629,
      "▁yabancı": 2630,
      "imli": 2631,
      "IN": 2632,
      "▁sizlere": 2633,
      "fen": 2634,
      "amam": 2635,
      "gr": 2636,
      "ina": 2637,
      "▁Kı": 2638,
      "▁Proj": 2639,
      "▁bulundu": 2640,
      "▁mutlaka": 2641,
      "▁müzik": 2642,
      "mayın": 2643,
      "▁Nis": 2644,
      "▁Sosyal": 2645,
      "▁altına": 2646,
      "ıc": 2647,
      "▁Kadın": 2648,
      "üme": 2649,
      "▁diş": 2650,
      "erçev": 2651,
      "▁Aynı": 2652,
      "▁ettik": 2653,
      "manı": 2654,
      "▁bank": 2655,
      "▁milyar": 2656,
      "eksiyon": 2657,
      "▁bahs": 2658,
      "▁Ür": 2659,
      "AD": 2660,
      "▁Az": 2661,
      "▁kaliteli": 2662,
      "can": 2663,
      "▁normal": 2664,
      "▁dam": 2665,
      "taki": 2666,
      "▁Sal": 2667,
      "▁araya": 2668,
      "aket": 2669,
      "anız": 2670,
      "masında": 2671,
      "▁okum": 2672,
      "dağ": 2673,
      "▁önceki": 2674,
      "ayısıyla": 2675,
      "▁derec": 2676,
      "▁Ahmet": 2677,
      "eng": 2678,
      "line": 2679,
      "▁performan": 2680,
      "▁Tan": 2681,
      "▁zengin": 2682,
      "▁tarif": 2683,
      "▁alınan": 2684,
      "ati": 2685,
      "▁mücadel": 2686,
      "ene": 2687,
      "▁min": 2688,
      "abilmek": 2689,
      "▁puan": 2690,
      "▁Alt": 2691,
      "siye": 2692,
      "▁mücadele": 2693,
      "lığını": 2694,
      "▁belki": 2695,
      "▁fak": 2696,
      "▁Müslüm": 2697,
      "▁tesis": 2698,
      "▁çocuğ": 2699,
      "▁etkinlik": 2700,
      "vekili": 2701,
      "▁Kasım": 2702,
      "tör": 2703,
      "▁sur": 2704,
      "▁Say": 2705,
      "ampiyon": 2706,
      "▁Yüksek": 2707,
      "imler": 2708,
      "asi": 2709,
      "▁hayal": 2710,
      "▁başarı": 2711,
      "teki": 2712,
      "▁hastan": 2713,
      "uzur": 2714,
      "▁uyar": 2715,
      "▁bulunuyor": 2716,
      "bilir": 2717,
      "rol": 2718,
      "gisi": 2719,
      "seniz": 2720,
      "ladığı": 2721,
      "▁ban": 2722,
      "▁başlan": 2723,
      "eygamber": 2724,
      "▁alıyor": 2725,
      "ısının": 2726,
      "▁tedavi": 2727,
      "iddet": 2728,
      "▁sayısı": 2729,
      "iydi": 2730,
      "▁karakter": 2731,
      "▁Bakanı": 2732,
      "▁Osmanlı": 2733,
      "▁durumu": 2734,
      "▁dile": 2735,
      "uzey": 2736,
      "▁dağ": 2737,
      "▁özgür": 2738,
      "▁dek": 2739,
      "ığın": 2740,
      "▁değişiklik": 2741,
      "▁etkili": 2742,
      "âr": 2743,
      "dak": 2744,
      "▁ödül": 2745,
      "▁zam": 2746,
      "ata": 2747,
      "ook": 2748,
      "▁Kır": 2749,
      "▁Cumhurbaşkanı": 2750,
      "▁hizmeti": 2751,
      "AS": 2752,
      "▁Ağ": 2753,
      "▁beri": 2754,
      "▁yolu": 2755,
      "▁Kit": 2756,
      "madı": 2757,
      "lığına": 2758,
      "▁makin": 2759,
      "ilendir": 2760,
      "ınt": 2761,
      "ınızda": 2762,
      "▁Kim": 2763,
      "▁sohbet": 2764,
      "▁siyasi": 2765,
      "▁devr": 2766,
      "▁haft": 2767,
      "▁Tel": 2768,
      "▁edilmesi": 2769,
      "▁birey": 2770,
      "▁söyley": 2771,
      "▁mük": 2772,
      "med": 2773,
      "▁alır": 2774,
      "▁rol": 2775,
      "▁kum": 2776,
      "▁halde": 2777,
      "▁soy": 2778,
      "▁sağlıklı": 2779,
      "rac": 2780,
      "▁bizi": 2781,
      "▁dök": 2782,
      "▁çerçev": 2783,
      "mada": 2784,
      "onu": 2785,
      "mamış": 2786,
      "▁ileri": 2787,
      "ete": 2788,
      "▁Fr": 2789,
      "▁Kültür": 2790,
      "izik": 2791,
      "neği": 2792,
      "▁Diğer": 2793,
      "▁Ülk": 2794,
      "enüz": 2795,
      "▁idar": 2796,
      "▁dö": 2797,
      "▁ayında": 2798,
      "▁Bank": 2799,
      "▁motor": 2800,
      "▁deneyim": 2801,
      "▁taşım": 2802,
      "▁başında": 2803,
      "▁esn": 2804,
      "▁sene": 2805,
      "mar": 2806,
      "elerden": 2807,
      "▁çat": 2808,
      "▁nerede": 2809,
      "▁girişim": 2810,
      "▁sağlar": 2811,
      "eceğiz": 2812,
      "▁yandan": 2813,
      "▁uluslararası": 2814,
      "▁enerji": 2815,
      "esindeki": 2816,
      "▁zorun": 2817,
      "▁öğrenciler": 2818,
      "egor": 2819,
      "▁test": 2820,
      "meniz": 2821,
      "▁eğer": 2822,
      "▁seçenek": 2823,
      "▁risk": 2824,
      "ital": 2825,
      "▁mekan": 2826,
      "▁fırsat": 2827,
      "lenme": 2828,
      "hend": 2829,
      "▁ilan": 2830,
      "ümüzde": 2831,
      "▁Tarih": 2832,
      "▁şeyler": 2833,
      "▁kendisine": 2834,
      "▁ayır": 2835,
      "ult": 2836,
      "▁Sür": 2837,
      "▁yapılması": 2838,
      "▁sunul": 2839,
      "▁Kız": 2840,
      "▁nes": 2841,
      "▁olmadığını": 2842,
      "▁sonrasında": 2843,
      "▁kredi": 2844,
      "▁gerektiğini": 2845,
      "yıl": 2846,
      "▁Beş": 2847,
      "ullah": 2848,
      "rek": 2849,
      "▁sefer": 2850,
      "▁ayar": 2851,
      "▁arz": 2852,
      "▁St": 2853,
      "▁eg": 2854,
      "▁olmadığı": 2855,
      "▁demokr": 2856,
      "▁onların": 2857,
      "▁sabah": 2858,
      "▁Büyükşehir": 2859,
      "▁trans": 2860,
      "▁duyur": 2861,
      "form": 2862,
      "üyle": 2863,
      "▁benzer": 2864,
      "▁teklif": 2865,
      "▁hazırlan": 2866,
      "▁yaşanan": 2867,
      "▁bat": 2868,
      "▁belirten": 2869,
      "AM": 2870,
      "mamak": 2871,
      "▁sayıda": 2872,
      "istik": 2873,
      "▁personel": 2874,
      "▁beyaz": 2875,
      "▁dolu": 2876,
      "▁Müdürü": 2877,
      "ediğini": 2878,
      "lev": 2879,
      "▁sem": 2880,
      "eyn": 2881,
      "▁taşıy": 2882,
      "▁adres": 2883,
      "▁önünde": 2884,
      "▁yada": 2885,
      "esyon": 2886,
      "▁dosy": 2887,
      "▁alanında": 2888,
      "▁Yun": 2889,
      "mekte": 2890,
      "umsuz": 2891,
      "▁Lis": 2892,
      "▁Burada": 2893,
      "▁durumunda": 2894,
      "▁poz": 2895,
      "▁yetk": 2896,
      "▁artış": 2897,
      "dart": 2898,
      "▁buluş": 2899,
      "▁derin": 2900,
      "▁Demir": 2901,
      "mıyor": 2902,
      "▁kurtul": 2903,
      "▁kok": 2904,
      "ilmiştir": 2905,
      "▁ünlü": 2906,
      "▁Mayıs": 2907,
      "▁eğit": 2908,
      "eliğ": 2909,
      "spor": 2910,
      "▁numar": 2911,
      "▁Onun": 2912,
      "▁huzur": 2913,
      "usun": 2914,
      "▁merkezi": 2915,
      "▁aşam": 2916,
      "▁çevir": 2917,
      "▁yapıyor": 2918,
      "gar": 2919,
      "âh": 2920,
      "▁kural": 2921,
      "▁tehlik": 2922,
      "sen": 2923,
      "▁piş": 2924,
      "▁resmi": 2925,
      "▁esas": 2926,
      "▁Mak": 2927,
      "geç": 2928,
      "▁fikir": 2929,
      "▁süt": 2930,
      "▁doldur": 2931,
      "ayla": 2932,
      "▁ilgi": 2933,
      "▁Gül": 2934,
      "İR": 2935,
      "sızlık": 2936,
      "▁mar": 2937,
      "▁Benim": 2938,
      "▁yavaş": 2939,
      "▁Bakanlığı": 2940,
      "▁uygulama": 2941,
      "▁video": 2942,
      "▁pr": 2943,
      "üph": 2944,
      "▁şans": 2945,
      "▁Fak": 2946,
      "eyle": 2947,
      "su": 2948,
      "▁gay": 2949,
      "fi": 2950,
      "▁lazım": 2951,
      "▁yeri": 2952,
      "▁hala": 2953,
      "▁onları": 2954,
      "▁değerli": 2955,
      "▁yaparak": 2956,
      "▁Kemal": 2957,
      "▁yerleş": 2958,
      "▁reklam": 2959,
      "esyonel": 2960,
      "acağınız": 2961,
      "▁ücretsiz": 2962,
      "▁Ekim": 2963,
      "▁çab": 2964,
      "▁Kam": 2965,
      "niyet": 2966,
      "ören": 2967,
      "▁mobil": 2968,
      "▁Hizmet": 2969,
      "mişti": 2970,
      "▁azal": 2971,
      "▁aylık": 2972,
      "▁defa": 2973,
      "abet": 2974,
      "▁akl": 2975,
      "ansız": 2976,
      "▁vurgul": 2977,
      "▁alanda": 2978,
      "▁Kullan": 2979,
      "▁gül": 2980,
      "▁Haziran": 2981,
      "ekler": 2982,
      "alam": 2983,
      "▁Hz": 2984,
      "▁keş": 2985,
      "evk": 2986,
      "adım": 2987,
      "▁kampan": 2988,
      "▁Ocak": 2989,
      "▁Gir": 2990,
      "▁bitir": 2991,
      "▁onay": 2992,
      "uyorum": 2993,
      "▁çarp": 2994,
      "▁heyec": 2995,
      "▁Program": 2996,
      "EM": 2997,
      "▁operasyon": 2998,
      "ımın": 2999,
      "▁hastal": 3000,
      "▁hâ": 3001,
      "▁veriyor": 3002,
      "▁alacak": 3003,
      "esiz": 3004,
      "▁çalışmaları": 3005,
      "▁firmalar": 3006,
      "▁gerekmektedir": 3007,
      "▁Go": 3008,
      "▁Lig": 3009,
      "tadan": 3010,
      "▁şeyi": 3011,
      "liğinde": 3012,
      "larınızı": 3013,
      "▁çal": 3014,
      "kenin": 3015,
      "yal": 3016,
      "▁Fat": 3017,
      "amet": 3018,
      "ılıyor": 3019,
      "▁Bağ": 3020,
      "▁uc": 3021,
      "idi": 3022,
      "▁şiddet": 3023,
      "▁elektrik": 3024,
      "▁işi": 3025,
      "▁Od": 3026,
      "▁alışveriş": 3027,
      "▁arttır": 3028,
      "▁Kö": 3029,
      "▁yararlan": 3030,
      "aşır": 3031,
      "dem": 3032,
      "duğunu": 3033,
      "▁eylem": 3034,
      "▁Diy": 3035,
      "▁Ap": 3036,
      "▁olursa": 3037,
      "▁dakik": 3038,
      "▁proje": 3039,
      "lisi": 3040,
      "▁başta": 3041,
      "▁Antal": 3042,
      "▁yapacak": 3043,
      "anlık": 3044,
      "▁bol": 3045,
      "▁hikay": 3046,
      "▁Dol": 3047,
      "▁nokta": 3048,
      "▁davet": 3049,
      "İL": 3050,
      "lenmesi": 3051,
      "▁ef": 3052,
      "▁hayır": 3053,
      "▁ederim": 3054,
      "▁Sistem": 3055,
      "▁Oyun": 3056,
      "▁işç": 3057,
      "▁Bazı": 3058,
      "rüb": 3059,
      "▁Müdürlüğü": 3060,
      "▁Gazet": 3061,
      "allah": 3062,
      "▁hüc": 3063,
      "▁Yer": 3064,
      "lığa": 3065,
      "liyor": 3066,
      "iyim": 3067,
      "▁Müz": 3068,
      "▁görüntü": 3069,
      "▁def": 3070,
      "dikleri": 3071,
      "▁korum": 3072,
      "▁hisset": 3073,
      "▁ifad": 3074,
      "tül": 3075,
      "▁harc": 3076,
      "ılmaz": 3077,
      "▁alarak": 3078,
      "▁madd": 3079,
      "▁kararı": 3080,
      "▁mec": 3081,
      "▁sağlayan": 3082,
      "▁yapmış": 3083,
      "▁gide": 3084,
      "▁güneş": 3085,
      "▁lez": 3086,
      "▁tavsiye": 3087,
      "ılacak": 3088,
      "sim": 3089,
      "▁bed": 3090,
      "▁kop": 3091,
      "▁öğ": 3092,
      "dal": 3093,
      "tern": 3094,
      "▁gösteren": 3095,
      "▁müda": 3096,
      "▁toplant": 3097,
      "▁kavram": 3098,
      "▁Sin": 3099,
      "ton": 3100,
      "▁sel": 3101,
      "▁lider": 3102,
      "altı": 3103,
      "▁gol": 3104,
      "▁olmuştur": 3105,
      "yen": 3106,
      "lığın": 3107,
      "▁görüyor": 3108,
      "oya": 3109,
      "▁güc": 3110,
      "▁cep": 3111,
      "antaj": 3112,
      "ılarak": 3113,
      "▁eleştir": 3114,
      "▁sırada": 3115,
      "dıktan": 3116,
      "▁Bunu": 3117,
      "▁Kürt": 3118,
      "▁kanal": 3119,
      "ıldığı": 3120,
      "▁birisi": 3121,
      "ke": 3122,
      "işi": 3123,
      "diler": 3124,
      "larımızın": 3125,
      "▁Film": 3126,
      "nak": 3127,
      "latform": 3128,
      "AY": 3129,
      "▁Şu": 3130,
      "ivil": 3131,
      "▁kurtar": 3132,
      "▁pan": 3133,
      "ku": 3134,
      "▁hafif": 3135,
      "cılık": 3136,
      "▁henüz": 3137,
      "▁Halk": 3138,
      "atej": 3139,
      "▁beğen": 3140,
      "yas": 3141,
      "▁korun": 3142,
      "▁yapılır": 3143,
      "İK": 3144,
      "▁kür": 3145,
      "hendis": 3146,
      "▁Tay": 3147,
      "▁ikti": 3148,
      "▁Önc": 3149,
      "▁kullanarak": 3150,
      "▁mesel": 3151,
      "▁başk": 3152,
      "best": 3153,
      "EK": 3154,
      "▁fon": 3155,
      "tiler": 3156,
      "▁kayde": 3157,
      "▁Sor": 3158,
      "▁Açık": 3159,
      "amay": 3160,
      "düm": 3161,
      "▁ettir": 3162,
      "▁konum": 3163,
      "▁sap": 3164,
      "▁not": 3165,
      "aşa": 3166,
      "▁taşın": 3167,
      "▁bundan": 3168,
      "▁yiy": 3169,
      "▁kimse": 3170,
      "oman": 3171,
      "uyoruz": 3172,
      "▁yans": 3173,
      "▁yerleştir": 3174,
      "▁Can": 3175,
      "▁Ham": 3176,
      "▁aile": 3177,
      "▁Sayın": 3178,
      "UR": 3179,
      "▁Per": 3180,
      "▁ticaret": 3181,
      "▁oku": 3182,
      "estiv": 3183,
      "astik": 3184,
      "▁izley": 3185,
      "▁hayata": 3186,
      "▁kendine": 3187,
      "▁ihtiyac": 3188,
      "rin": 3189,
      "▁neler": 3190,
      "mür": 3191,
      "▁escort": 3192,
      "▁Nisan": 3193,
      "▁Dış": 3194,
      "tuk": 3195,
      "▁Ken": 3196,
      "▁şiir": 3197,
      "▁karış": 3198,
      "▁gal": 3199,
      "cil": 3200,
      "ack": 3201,
      "▁dünyada": 3202,
      "▁yıllarda": 3203,
      "ây": 3204,
      "▁Sanat": 3205,
      "terek": 3206,
      "▁karşısında": 3207,
      "daş": 3208,
      "adır": 3209,
      "▁ediyoruz": 3210,
      "▁başlık": 3211,
      "▁duygu": 3212,
      "▁Merkezi": 3213,
      "▁del": 3214,
      "▁taz": 3215,
      "mızı": 3216,
      "ogle": 3217,
      "▁Dur": 3218,
      "gili": 3219,
      "▁Ağu": 3220,
      "▁alanı": 3221,
      "▁toplantı": 3222,
      "▁Araştır": 3223,
      "ekim": 3224,
      "▁sitesi": 3225,
      "▁kapı": 3226,
      "▁Br": 3227,
      "▁önüne": 3228,
      "▁takdir": 3229,
      "▁du": 3230,
      "▁olumsuz": 3231,
      "▁İyi": 3232,
      "liğe": 3233,
      "evizyon": 3234,
      "▁dışı": 3235,
      "▁Mü": 3236,
      "▁insanın": 3237,
      "▁edilmiş": 3238,
      "▁olma": 3239,
      "▁yıldır": 3240,
      "▁başlar": 3241,
      "▁kı": 3242,
      "ladık": 3243,
      "▁döneminde": 3244,
      "▁borç": 3245,
      "diğimiz": 3246,
      "üper": 3247,
      "▁Bor": 3248,
      "▁görmek": 3249,
      "▁eklen": 3250,
      "emmel": 3251,
      "▁tecrüb": 3252,
      "▁basit": 3253,
      "elerinden": 3254,
      "▁kesinlikle": 3255,
      "dıkları": 3256,
      "▁Gök": 3257,
      "▁işe": 3258,
      "▁yoksa": 3259,
      "ii": 3260,
      "ha": 3261,
      "▁keyif": 3262,
      "▁bunlar": 3263,
      "▁ton": 3264,
      "▁Göz": 3265,
      "▁fil": 3266,
      "bur": 3267,
      "▁Aralık": 3268,
      "ledi": 3269,
      "elerle": 3270,
      "liğine": 3271,
      "▁kazandır": 3272,
      "▁yukarı": 3273,
      "▁kem": 3274,
      "sine": 3275,
      "▁mat": 3276,
      "▁Ağust": 3277,
      "har": 3278,
      "▁İh": 3279,
      "▁karşılık": 3280,
      "ediler": 3281,
      "yse": 3282,
      "gesi": 3283,
      "▁Bal": 3284,
      "erin": 3285,
      "▁kamer": 3286,
      "▁çoğu": 3287,
      "▁tatil": 3288,
      "▁Savaş": 3289,
      "▁anlamda": 3290,
      "▁Dav": 3291,
      "erler": 3292,
      "▁şik": 3293,
      "ipar": 3294,
      "▁Uluslararası": 3295,
      "sas": 3296,
      "▁bebek": 3297,
      "ilebilir": 3298,
      "▁nüf": 3299,
      "▁işte": 3300,
      "▁muht": 3301,
      "▁tutul": 3302,
      "▁Seç": 3303,
      "▁ış": 3304,
      "▁doğum": 3305,
      "▁Üst": 3306,
      "lediği": 3307,
      "▁Taş": 3308,
      "▁içi": 3309,
      "atın": 3310,
      "▁Kıbr": 3311,
      "▁senin": 3312,
      "▁edeceğ": 3313,
      "▁Sadece": 3314,
      "zet": 3315,
      "▁sonucunda": 3316,
      "layarak": 3317,
      "▁emin": 3318,
      "▁yolc": 3319,
      "▁arası": 3320,
      "▁adr": 3321,
      "liğin": 3322,
      "haba": 3323,
      "▁anne": 3324,
      "par": 3325,
      "iyah": 3326,
      "gör": 3327,
      "▁Çev": 3328,
      "▁yönetic": 3329,
      "▁asla": 3330,
      "▁yerinde": 3331,
      "masıyla": 3332,
      "▁Müslüman": 3333,
      "dam": 3334,
      "▁sahiptir": 3335,
      "▁aşk": 3336,
      "▁temsilc": 3337,
      "▁Okul": 3338,
      "▁amel": 3339,
      "▁Kol": 3340,
      "▁Buna": 3341,
      "▁yayım": 3342,
      "▁ödeme": 3343,
      "▁almış": 3344,
      "rail": 3345,
      "▁ib": 3346,
      "▁meş": 3347,
      "isinden": 3348,
      "▁Kaz": 3349,
      "▁Hastan": 3350,
      "▁vazgeç": 3351,
      "▁zevk": 3352,
      "▁fel": 3353,
      "abileceği": 3354,
      "▁ürünleri": 3355,
      "▁ted": 3356,
      "▁Kıbrıs": 3357,
      "▁psik": 3358,
      "alim": 3359,
      "▁etmektedir": 3360,
      "▁öğrenci": 3361,
      "lanması": 3362,
      "ayıcı": 3363,
      "lardı": 3364,
      "▁CHP": 3365,
      "▁standart": 3366,
      "▁had": 3367,
      "▁davranış": 3368,
      "▁performans": 3369,
      "işleri": 3370,
      "▁bazen": 3371,
      "▁gaz": 3372,
      "elt": 3373,
      "▁po": 3374,
      "uklu": 3375,
      "▁ceza": 3376,
      "▁Ankar": 3377,
      "maması": 3378,
      "▁sonraki": 3379,
      "▁Allahın": 3380,
      "▁onlara": 3381,
      "lığının": 3382,
      "▁taleb": 3383,
      "▁alıp": 3384,
      "err": 3385,
      "ore": 3386,
      "lerinizi": 3387,
      "▁Tes": 3388,
      "▁belirtti": 3389,
      "meli": 3390,
      "▁bilgileri": 3391,
      "▁Sonra": 3392,
      "▁açıklamada": 3393,
      "▁Ticaret": 3394,
      "▁kuvvet": 3395,
      "emizin": 3396,
      "▁yazılı": 3397,
      "uru": 3398,
      "▁karıştır": 3399,
      "▁yetiştir": 3400,
      "▁buy": 3401,
      "▁Yine": 3402,
      "ağan": 3403,
      "▁düşür": 3404,
      "larımızı": 3405,
      "say": 3406,
      "▁sokak": 3407,
      "ündeki": 3408,
      "▁sıkıntı": 3409,
      "▁la": 3410,
      "▁Bas": 3411,
      "▁Kurum": 3412,
      "▁Med": 3413,
      "ayıf": 3414,
      "▁hap": 3415,
      "ronik": 3416,
      "▁erken": 3417,
      "ahim": 3418,
      "ladığ": 3419,
      "▁aydın": 3420,
      "▁öden": 3421,
      "ultan": 3422,
      "▁ez": 3423,
      "▁tas": 3424,
      "▁genellikle": 3425,
      "▁Yol": 3426,
      "▁profesyonel": 3427,
      "▁gören": 3428,
      "▁işbir": 3429,
      "▁yerel": 3430,
      "ise": 3431,
      "▁Bizim": 3432,
      "▁af": 3433,
      "▁Sit": 3434,
      "dro": 3435,
      "ısır": 3436,
      "▁aldığ": 3437,
      "▁Gö": 3438,
      "▁yetiş": 3439,
      "▁kategor": 3440,
      "▁Yüz": 3441,
      "▁park": 3442,
      "eyh": 3443,
      "▁düzenlem": 3444,
      "▁Eş": 3445,
      "▁Yet": 3446,
      "▁pop": 3447,
      "▁lim": 3448,
      "▁nin": 3449,
      "▁kaş": 3450,
      "nam": 3451,
      "▁Suriye": 3452,
      "▁kitab": 3453,
      "▁nedir": 3454,
      "oğl": 3455,
      "▁odak": 3456,
      "dat": 3457,
      "dit": 3458,
      "▁şer": 3459,
      "pek": 3460,
      "▁aray": 3461,
      "▁olmasına": 3462,
      "utan": 3463,
      "▁bunların": 3464,
      "▁sürede": 3465,
      "gen": 3466,
      "diğim": 3467,
      "dikten": 3468,
      "▁day": 3469,
      "▁fizik": 3470,
      "▁Gerç": 3471,
      "▁Dön": 3472,
      "ütfen": 3473,
      "▁Orta": 3474,
      "▁günlerde": 3475,
      "ia": 3476,
      "▁kişisel": 3477,
      "larca": 3478,
      "▁yaygın": 3479,
      "lanır": 3480,
      "eceğim": 3481,
      "▁Başbakan": 3482,
      "▁Sab": 3483,
      "▁Cam": 3484,
      "afir": 3485,
      "▁isimli": 3486,
      "▁ara": 3487,
      "emiş": 3488,
      "▁belirterek": 3489,
      "▁düğ": 3490,
      "▁dahi": 3491,
      "go": 3492,
      "▁rad": 3493,
      "▁lisans": 3494,
      "hat": 3495,
      "▁altın": 3496,
      "medi": 3497,
      "▁kendisini": 3498,
      "▁öne": 3499,
      "▁İki": 3500,
      "İM": 3501,
      "▁modern": 3502,
      "▁enf": 3503,
      "▁çiç": 3504,
      "▁Mev": 3505,
      "▁içerik": 3506,
      "erseniz": 3507,
      "sini": 3508,
      "▁değişim": 3509,
      "▁oyunu": 3510,
      "▁Fakült": 3511,
      "▁medya": 3512,
      "▁müdür": 3513,
      "ıydı": 3514,
      "emey": 3515,
      "▁Ph": 3516,
      "▁Bütün": 3517,
      "▁Türkçe": 3518,
      "bette": 3519,
      "▁tutar": 3520,
      "▁ide": 3521,
      "▁ışık": 3522,
      "▁hesab": 3523,
      "▁prot": 3524,
      "▁duvar": 3525,
      "▁giden": 3526,
      "▁hayatını": 3527,
      "inal": 3528,
      "eğini": 3529,
      "▁Düz": 3530,
      "irken": 3531,
      "▁vb": 3532,
      "layıp": 3533,
      "ON": 3534,
      "▁edip": 3535,
      "sizlik": 3536,
      "▁şüph": 3537,
      "▁İk": 3538,
      "▁kendisi": 3539,
      "▁tane": 3540,
      "▁Mur": 3541,
      "yaya": 3542,
      "iyordu": 3543,
      "▁müşteri": 3544,
      "▁Böylece": 3545,
      "▁yor": 3546,
      "öyl": 3547,
      "▁ep": 3548,
      "▁ap": 3549,
      "▁Kıs": 3550,
      "▁Örneğin": 3551,
      "imar": 3552,
      "▁Val": 3553,
      "ılmıştır": 3554,
      "▁Gazi": 3555,
      "▁Ef": 3556,
      "▁programı": 3557,
      "▁kans": 3558,
      "▁saldırı": 3559,
      "omet": 3560,
      "▁yola": 3561,
      "▁danış": 3562,
      "▁Hol": 3563,
      "▁tahmin": 3564,
      "▁bunları": 3565,
      "▁kilo": 3566,
      "▁cinsel": 3567,
      "▁Peygamber": 3568,
      "ova": 3569,
      "▁istediğiniz": 3570,
      "▁sana": 3571,
      "▁Yal": 3572,
      "▁yapıldı": 3573,
      "▁eşit": 3574,
      "▁bilinen": 3575,
      "▁orada": 3576,
      "▁kaydet": 3577,
      "▁sert": 3578,
      "▁Vak": 3579,
      "▁bilir": 3580,
      "▁Fil": 3581,
      "▁Kah": 3582,
      "ink": 3583,
      "▁birinci": 3584,
      "▁çap": 3585,
      "▁yazılım": 3586,
      "izasyon": 3587,
      "▁tanış": 3588,
      "abz": 3589,
      "▁pas": 3590,
      "▁biçimde": 3591,
      "edeni": 3592,
      "oyu": 3593,
      "erken": 3594,
      "▁büt": 3595,
      "▁x": 3596,
      "▁yanıt": 3597,
      "diğinde": 3598,
      "▁kalp": 3599,
      "İT": 3600,
      "▁gerektir": 3601,
      "▁mükemmel": 3602,
      "artesi": 3603,
      "▁özelliği": 3604,
      "▁yılda": 3605,
      "▁İran": 3606,
      "▁aşağıdaki": 3607,
      "▁Google": 3608,
      "raman": 3609,
      "▁imza": 3610,
      "▁Ağustos": 3611,
      "ebook": 3612,
      "▁Doğu": 3613,
      "▁do": 3614,
      "osta": 3615,
      "▁Güney": 3616,
      "▁yürüy": 3617,
      "üny": 3618,
      "lerimizi": 3619,
      "▁İlçe": 3620,
      "racat": 3621,
      "▁paket": 3622,
      "isiyle": 3623,
      "▁hoc": 3624,
      "▁iddia": 3625,
      "▁kış": 3626,
      "▁olumlu": 3627,
      "▁Uygul": 3628,
      "▁Yardımcısı": 3629,
      "▁imk": 3630,
      "▁for": 3631,
      "▁Fir": 3632,
      "▁hus": 3633,
      "▁arab": 3634,
      "▁imkan": 3635,
      "▁sona": 3636,
      "▁Şubat": 3637,
      "▁şif": 3638,
      "ediğiniz": 3639,
      "AŞ": 3640,
      "▁Haf": 3641,
      "liler": 3642,
      "▁uçak": 3643,
      "mur": 3644,
      "▁sorunu": 3645,
      "▁İstanbulda": 3646,
      "rem": 3647,
      "▁altı": 3648,
      "▁İngilter": 3649,
      "▁ye": 3650,
      "usunu": 3651,
      "▁avantaj": 3652,
      "▁yapmaya": 3653,
      "alardan": 3654,
      "▁önemlidir": 3655,
      "▁sonu": 3656,
      "eytin": 3657,
      "▁araştırma": 3658,
      "meni": 3659,
      "▁diyerek": 3660,
      "▁çay": 3661,
      "▁harika": 3662,
      "imden": 3663,
      "▁Sah": 3664,
      "▁Birliği": 3665,
      "▁şar": 3666,
      "▁etmeye": 3667,
      "▁elem": 3668,
      "▁olduğuna": 3669,
      "▁yüzyıl": 3670,
      "▁Güzel": 3671,
      "urken": 3672,
      "madığı": 3673,
      "▁ülkenin": 3674,
      "▁lira": 3675,
      "acılık": 3676,
      "DE": 3677,
      "OR": 3678,
      "▁Rec": 3679,
      "▁Uzun": 3680,
      "▁gönül": 3681,
      "▁etraf": 3682,
      "▁gr": 3683,
      "tarı": 3684,
      "▁çıkış": 3685,
      "unları": 3686,
      "▁ta": 3687,
      "▁köş": 3688,
      "▁üçüncü": 3689,
      "▁çeken": 3690,
      "▁Bin": 3691,
      "▁kahv": 3692,
      "▁Te": 3693,
      "▁anlayış": 3694,
      "▁yasak": 3695,
      "▁Hep": 3696,
      "▁Eski": 3697,
      "▁söylüyor": 3698,
      "iktaş": 3699,
      "▁etme": 3700,
      "LAR": 3701,
      "▁yeter": 3702,
      "edikleri": 3703,
      "▁söylen": 3704,
      "▁serbest": 3705,
      "▁evde": 3706,
      "sinin": 3707,
      "giler": 3708,
      "▁Peki": 3709,
      "eğe": 3710,
      "▁Mod": 3711,
      "▁Galat": 3712,
      "▁vit": 3713,
      "▁belirtilen": 3714,
      "çak": 3715,
      "▁balık": 3716,
      "▁Ber": 3717,
      "▁giren": 3718,
      "▁kaldı": 3719,
      "▁Artık": 3720,
      "▁tuz": 3721,
      "ısıt": 3722,
      "▁koruy": 3723,
      "liğinin": 3724,
      "ulması": 3725,
      "▁us": 3726,
      "are": 3727,
      "▁Bat": 3728,
      "▁resim": 3729,
      "tak": 3730,
      "▁sp": 3731,
      "▁üye": 3732,
      "ediğimiz": 3733,
      "▁Fener": 3734,
      "▁Bayram": 3735,
      "▁azalt": 3736,
      "▁des": 3737,
      "▁İm": 3738,
      "▁Yunan": 3739,
      "▁döv": 3740,
      "▁Hiç": 3741,
      "üstü": 3742,
      "memiş": 3743,
      "▁Küçük": 3744,
      "▁TÜ": 3745,
      "▁beden": 3746,
      "gal": 3747,
      "▁kişilerin": 3748,
      "▁çıkart": 3749,
      "▁sahn": 3750,
      "▁çocuklar": 3751,
      "mayacak": 3752,
      "öğr": 3753,
      "▁ekley": 3754,
      "▁sivil": 3755,
      "▁birik": 3756,
      "ban": 3757,
      "ipariş": 3758,
      "▁konut": 3759,
      "▁Irak": 3760,
      "▁İsrail": 3761,
      "▁hakkı": 3762,
      "▁Arap": 3763,
      "▁faiz": 3764,
      "iber": 3765,
      "▁stratej": 3766,
      "▁dokun": 3767,
      "▁gelişim": 3768,
      "▁meslek": 3769,
      "▁ortadan": 3770,
      "▁kapas": 3771,
      "▁yaşındaki": 3772,
      "▁milli": 3773,
      "süz": 3774,
      "▁yapım": 3775,
      "▁inşa": 3776,
      "▁baskı": 3777,
      "▁bec": 3778,
      "ses": 3779,
      "▁Derneği": 3780,
      "liye": 3781,
      "▁getiren": 3782,
      "▁Un": 3783,
      "▁ayrıl": 3784,
      "▁oranı": 3785,
      "▁nedeni": 3786,
      "▁Sh": 3787,
      "▁Mahall": 3788,
      "▁Şah": 3789,
      "▁cen": 3790,
      "ığında": 3791,
      "fet": 3792,
      "ger": 3793,
      "▁öncesi": 3794,
      "kar": 3795,
      "ebiliriz": 3796,
      "bay": 3797,
      "▁Çin": 3798,
      "▁katıldı": 3799,
      "▁Alan": 3800,
      "ısınız": 3801,
      "▁Teknik": 3802,
      "▁yetkil": 3803,
      "▁Mut": 3804,
      "▁düşünüyorum": 3805,
      "▁Evet": 3806,
      "▁ölçü": 3807,
      "abilen": 3808,
      "▁şarkı": 3809,
      "ısız": 3810,
      "tis": 3811,
      "▁asıl": 3812,
      "▁platform": 3813,
      "▁Pazar": 3814,
      "abileceğiniz": 3815,
      "▁tanıt": 3816,
      "▁bö": 3817,
      "▁deney": 3818,
      "▁vakit": 3819,
      "diğiniz": 3820,
      "▁etkisi": 3821,
      "▁Samsun": 3822,
      "ons": 3823,
      "▁Beşiktaş": 3824,
      "▁olmasını": 3825,
      "▁Şeh": 3826,
      "▁işlemi": 3827,
      "▁Üy": 3828,
      "▁arama": 3829,
      "▁vücut": 3830,
      "▁bağımsız": 3831,
      "▁yeşil": 3832,
      "▁geçerli": 3833,
      "▁yalnızca": 3834,
      "▁göç": 3835,
      "ındır": 3836,
      "▁gelin": 3837,
      "▁şehit": 3838,
      "▁cüm": 3839,
      "▁kısmı": 3840,
      "▁aktif": 3841,
      "▁öğretim": 3842,
      "acebook": 3843,
      "▁kişilik": 3844,
      "▁namaz": 3845,
      "▁uyum": 3846,
      "▁açı": 3847,
      "▁Ark": 3848,
      "▁olmam": 3849,
      "▁peş": 3850,
      "▁salon": 3851,
      "▁aşırı": 3852,
      "▁gördüğ": 3853,
      "▁Fran": 3854,
      "▁Var": 3855,
      "▁nitelik": 3856,
      "▁heyecan": 3857,
      "▁türk": 3858,
      "▁otomobil": 3859,
      "▁alg": 3860,
      "▁üzerindeki": 3861,
      "iyer": 3862,
      "▁bende": 3863,
      "▁duyg": 3864,
      "▁otob": 3865,
      "▁Dair": 3866,
      "sur": 3867,
      "▁inşaat": 3868,
      "iklet": 3869,
      "▁doğrult": 3870,
      "▁civ": 3871,
      "icari": 3872,
      "çiler": 3873,
      "etleri": 3874,
      "▁acı": 3875,
      "▁tatlı": 3876,
      "▁zayıf": 3877,
      "▁maliyet": 3878,
      "▁Dil": 3879,
      "▁eve": 3880,
      "yap": 3881,
      "▁Madde": 3882,
      "▁doğrudan": 3883,
      "iyorlar": 3884,
      "ala": 3885,
      "▁suyu": 3886,
      "▁sorumlu": 3887,
      "▁yaşında": 3888,
      "▁ürünler": 3889,
      "▁Şirket": 3890,
      "ham": 3891,
      "isin": 3892,
      "▁istih": 3893,
      "▁Kanunun": 3894,
      "▁Milletvekili": 3895,
      "▁Yat": 3896,
      "▁ism": 3897,
      "▁dışarı": 3898,
      "▁temin": 3899,
      "▁parti": 3900,
      "atur": 3901,
      "▁Bölg": 3902,
      "ıza": 3903,
      "laması": 3904,
      "ilmektedir": 3905,
      "▁hatırlat": 3906,
      "gıç": 3907,
      "▁teknoloji": 3908,
      "ED": 3909,
      "▁güvenli": 3910,
      "▁ten": 3911,
      "▁Aydın": 3912,
      "▁etmesi": 3913,
      "▁hazırlık": 3914,
      "▁gelmiş": 3915,
      "▁kod": 3916,
      "ağın": 3917,
      "abrik": 3918,
      "▁süresi": 3919,
      "ebiliyor": 3920,
      "▁Hakk": 3921,
      "▁alma": 3922,
      "▁Ma": 3923,
      "▁The": 3924,
      "▁cilt": 3925,
      "▁Türkiyeye": 3926,
      "▁Trabz": 3927,
      "emen": 3928,
      "▁hizmetleri": 3929,
      "▁belirli": 3930,
      "▁Sultan": 3931,
      "▁büny": 3932,
      "▁uyan": 3933,
      "▁sinem": 3934,
      "▁önlem": 3935,
      "▁Sak": 3936,
      "ezi": 3937,
      "▁transfer": 3938,
      "▁Fenerbah": 3939,
      "ternatif": 3940,
      "▁Köy": 3941,
      "▁iyil": 3942,
      "▁açıklama": 3943,
      "ork": 3944,
      "▁ameliyat": 3945,
      "▁km": 3946,
      "▁Galatasar": 3947,
      "▁yıldız": 3948,
      "▁askeri": 3949,
      "layın": 3950,
      "▁düşman": 3951,
      "▁teb": 3952,
      "▁ince": 3953,
      "▁çoğ": 3954,
      "▁Ac": 3955,
      "▁kurulu": 3956,
      "▁Sat": 3957,
      "▁Nur": 3958,
      "▁mesaf": 3959,
      "▁Karş": 3960,
      "▁iktidar": 3961,
      "ahmet": 3962,
      "lamış": 3963,
      "▁olmadan": 3964,
      "masından": 3965,
      "alarından": 3966,
      "şey": 3967,
      "▁gur": 3968,
      "▁seni": 3969,
      "▁Gür": 3970,
      "▁olmaya": 3971,
      "ırlar": 3972,
      "▁zih": 3973,
      "▁Rusya": 3974,
      "▁oyunc": 3975,
      "▁alb": 3976,
      "▁kullanımı": 3977,
      "▁herkesin": 3978,
      "▁Hüs": 3979,
      "▁olduğumuz": 3980,
      "LER": 3981,
      "▁akıllı": 3982,
      "▁kadro": 3983,
      "▁anlamına": 3984,
      "▁kendilerine": 3985,
      "▁oda": 3986,
      "▁Erk": 3987,
      "▁Do": 3988,
      "maktan": 3989,
      "▁çıkıyor": 3990,
      "▁hükümet": 3991,
      "▁Den": 3992,
      "▁içeren": 3993,
      "macı": 3994,
      "▁Bit": 3995,
      "▁yerini": 3996,
      "▁diyen": 3997,
      "mesinin": 3998,
      "▁yapılmış": 3999,
      "▁edilecek": 4000,
      "irler": 4001,
      "leşme": 4002,
      "▁tören": 4003,
      "▁Rab": 4004,
      "abilmektedir": 4005,
      "▁bon": 4006,
      "▁seyahat": 4007,
      "▁Yayın": 4008,
      "▁HD": 4009,
      "▁kapalı": 4010,
      "▁soğuk": 4011,
      "▁yaparken": 4012,
      "▁yılın": 4013,
      "ılıç": 4014,
      "▁yatır": 4015,
      "ai": 4016,
      "ıb": 4017,
      "▁Yılmaz": 4018,
      "▁İtal": 4019,
      "▁geçti": 4020,
      "▁uğraş": 4021,
      "▁lezzet": 4022,
      "▁klas": 4023,
      "▁kanun": 4024,
      "ST": 4025,
      "liy": 4026,
      "▁dan": 4027,
      "▁yarg": 4028,
      "ayım": 4029,
      "▁mo": 4030,
      "LI": 4031,
      "▁Sanayi": 4032,
      "▁doğrultusunda": 4033,
      "▁amacı": 4034,
      "▁diren": 4035,
      "▁tad": 4036,
      "ze": 4037,
      "▁finans": 4038,
      "tüğ": 4039,
      "okul": 4040,
      "▁dedim": 4041,
      "asin": 4042,
      "▁Herk": 4043,
      "son": 4044,
      "▁bakış": 4045,
      "▁Bunlar": 4046,
      "pt": 4047,
      "▁Park": 4048,
      "▁marka": 4049,
      "▁olduğundan": 4050,
      "ediğim": 4051,
      "cılar": 4052,
      "amayan": 4053,
      "cilik": 4054,
      "ane": 4055,
      "▁Hatta": 4056,
      "▁yakal": 4057,
      "▁Tam": 4058,
      "▁Elekt": 4059,
      "▁üyesi": 4060,
      "▁alım": 4061,
      "▁kullandı": 4062,
      "▁App": 4063,
      "▁kanı": 4064,
      "kiler": 4065,
      "▁Suriy": 4066,
      "▁siyaset": 4067,
      "eyiz": 4068,
      "▁cm": 4069,
      "▁mon": 4070,
      "ıf": 4071,
      "▁özellikleri": 4072,
      "▁düzenli": 4073,
      "▁ces": 4074,
      "liliğ": 4075,
      "ard": 4076,
      "ılabilir": 4077,
      "▁eşy": 4078,
      "▁Aslında": 4079,
      "▁olanlar": 4080,
      "ijital": 4081,
      "arım": 4082,
      "▁com": 4083,
      "▁Sek": 4084,
      "leriniz": 4085,
      "lardaki": 4086,
      "abilmesi": 4087,
      "eşem": 4088,
      "dek": 4089,
      "▁çoğun": 4090,
      "▁söyleyen": 4091,
      "▁cok": 4092,
      "▁lir": 4093,
      "▁suy": 4094,
      "estor": 4095,
      "▁olanak": 4096,
      "▁Recep": 4097,
      "emesi": 4098,
      "▁kırmızı": 4099,
      "lerim": 4100,
      "▁Müdürlüğ": 4101,
      "▁olmay": 4102,
      "▁bahç": 4103,
      "▁Meclis": 4104,
      "▁misafir": 4105,
      "anet": 4106,
      "▁firma": 4107,
      "▁red": 4108,
      "luluğ": 4109,
      "lenmiş": 4110,
      "▁kampany": 4111,
      "▁mağaz": 4112,
      "▁Güvenlik": 4113,
      "unuzu": 4114,
      "▁Mark": 4115,
      "arında": 4116,
      "zu": 4117,
      "▁sıf": 4118,
      "larımıza": 4119,
      "aka": 4120,
      "▁verecek": 4121,
      "▁Cem": 4122,
      "▁televizyon": 4123,
      "▁fazl": 4124,
      "yip": 4125,
      "▁Yıldır": 4126,
      "▁Ekonom": 4127,
      "▁hasta": 4128,
      "öğretim": 4129,
      "▁Cen": 4130,
      "▁analiz": 4131,
      "ation": 4132,
      "vik": 4133,
      "▁neredeyse": 4134,
      "▁gelenek": 4135,
      "▁Trabzon": 4136,
      "▁saygı": 4137,
      "▁üstün": 4138,
      "▁geçiş": 4139,
      "▁mezun": 4140,
      "ümüzdeki": 4141,
      "▁önceden": 4142,
      "▁â": 4143,
      "▁II": 4144,
      "▁ortalama": 4145,
      "▁tanın": 4146,
      "▁Muham": 4147,
      "▁atan": 4148,
      "▁rakam": 4149,
      "▁müt": 4150,
      "▁çerçevesinde": 4151,
      "isiniz": 4152,
      "▁okun": 4153,
      "lığında": 4154,
      "▁dünyaya": 4155,
      "▁ülkede": 4156,
      "▁blog": 4157,
      "▁Sır": 4158,
      "▁kus": 4159,
      "▁Hayat": 4160,
      "iyan": 4161,
      "▁şikayet": 4162,
      "▁yaralan": 4163,
      "▁PK": 4164,
      "▁fer": 4165,
      "▁İnş": 4166,
      "▁eğitimi": 4167,
      "▁birden": 4168,
      "▁Eb": 4169,
      "ülebilir": 4170,
      "▁şık": 4171,
      "tuğ": 4172,
      "▁açıkladı": 4173,
      "▁Ürün": 4174,
      "alle": 4175,
      "▁sik": 4176,
      "▁eğlenc": 4177,
      "▁ordu": 4178,
      "▁bayram": 4179,
      "▁toplumsal": 4180,
      "udi": 4181,
      "▁hac": 4182,
      "likleri": 4183,
      "▁ihtiyacı": 4184,
      "▁Kuzey": 4185,
      "▁Cez": 4186,
      "▁fiyatları": 4187,
      "avi": 4188,
      "▁birim": 4189,
      "▁ucuz": 4190,
      "▁yönetimi": 4191,
      "rum": 4192,
      "▁ağaç": 4193,
      "▁eriş": 4194,
      "▁kalın": 4195,
      "▁ihtim": 4196,
      "▁itir": 4197,
      "AP": 4198,
      "ınızın": 4199,
      "▁ters": 4200,
      "emize": 4201,
      "ezer": 4202,
      "arlar": 4203,
      "▁Kab": 4204,
      "▁reh": 4205,
      "ilmek": 4206,
      "▁yatak": 4207,
      "▁tır": 4208,
      "▁öy": 4209,
      "ator": 4210,
      "▁sim": 4211,
      "usuna": 4212,
      "iyatro": 4213,
      "bin": 4214,
      "▁katılan": 4215,
      "▁Mas": 4216,
      "▁İbr": 4217,
      "▁gizli": 4218,
      "ates": 4219,
      "▁ilav": 4220,
      "▁soruştur": 4221,
      "▁adını": 4222,
      "▁rast": 4223,
      "▁yaşat": 4224,
      "▁yaşamak": 4225,
      "▁sorumluluk": 4226,
      "▁kapasit": 4227,
      "▁Re": 4228,
      "▁edebilirsiniz": 4229,
      "▁pozisyon": 4230,
      "▁şeker": 4231,
      "ord": 4232,
      "ilim": 4233,
      "▁belediye": 4234,
      "ıyız": 4235,
      "▁süreci": 4236,
      "▁verildi": 4237,
      "▁Bab": 4238,
      "▁Cumhurbaşkan": 4239,
      "▁dönüştür": 4240,
      "▁dolaş": 4241,
      "▁Dir": 4242,
      "▁vermiş": 4243,
      "▁şiş": 4244,
      "▁rahatsız": 4245,
      "▁siyah": 4246,
      "▁kurulan": 4247,
      "▁bölgede": 4248,
      "▁müşteriler": 4249,
      "estival": 4250,
      "▁otomatik": 4251,
      "▁komp": 4252,
      "yüz": 4253,
      "▁içindeki": 4254,
      "▁cum": 4255,
      "▁çocukların": 4256,
      "▁modelleri": 4257,
      "sem": 4258,
      "▁güvenilir": 4259,
      "▁Nasıl": 4260,
      "▁Düş": 4261,
      "▁zamanlarda": 4262,
      "▁dağıt": 4263,
      "▁barış": 4264,
      "▁Tah": 4265,
      "▁Üç": 4266,
      "▁biliyor": 4267,
      "▁veri": 4268,
      "▁Sav": 4269,
      "▁Kanun": 4270,
      "▁binlerce": 4271,
      "▁becer": 4272,
      "▁tarım": 4273,
      "▁insanları": 4274,
      "▁öt": 4275,
      "▁bağlantı": 4276,
      "▁detaylı": 4277,
      "iyiz": 4278,
      "▁hediye": 4279,
      "▁yönlendir": 4280,
      "▁sıv": 4281,
      "▁iken": 4282,
      "uf": 4283,
      "ekil": 4284,
      "▁İngilizce": 4285,
      "▁oldukları": 4286,
      "▁giderek": 4287,
      "▁sipariş": 4288,
      "esef": 4289,
      "▁ayı": 4290,
      "▁şampiyon": 4291,
      "▁site": 4292,
      "▁online": 4293,
      "▁Hava": 4294,
      "▁Tayyip": 4295,
      "▁idi": 4296,
      "▁kök": 4297,
      "▁demektir": 4298,
      "▁Şehir": 4299,
      "▁iptal": 4300,
      "▁Mad": 4301,
      "▁boğ": 4302,
      "▁Bilg": 4303,
      "▁filmi": 4304,
      "larındaki": 4305,
      "irin": 4306,
      "▁Q": 4307,
      "encer": 4308,
      "▁almaktadır": 4309,
      "▁ekib": 4310,
      "▁tez": 4311,
      "▁kullanmak": 4312,
      "elin": 4313,
      "▁Met": 4314,
      "ese": 4315,
      "▁Sp": 4316,
      "▁ediliyor": 4317,
      "▁tutuk": 4318,
      "adi": 4319,
      "▁özen": 4320,
      "▁Fatih": 4321,
      "▁pil": 4322,
      "ess": 4323,
      "▁saf": 4324,
      "mede": 4325,
      "▁vücud": 4326,
      "▁dikkate": 4327,
      "▁alternatif": 4328,
      "▁yalan": 4329,
      "▁bulundur": 4330,
      "▁taşıyan": 4331,
      "▁MH": 4332,
      "▁İnternet": 4333,
      "asız": 4334,
      "▁bahset": 4335,
      "▁Ban": 4336,
      "▁hassas": 4337,
      "▁ilçesinde": 4338,
      "▁yasal": 4339,
      "ond": 4340,
      "▁bozuk": 4341,
      "▁sonuna": 4342,
      "▁kaçır": 4343,
      "▁Eur": 4344,
      "▁Sey": 4345,
      "▁çevre": 4346,
      "▁vergi": 4347,
      "tepe": 4348,
      "UL": 4349,
      "▁Kitap": 4350,
      "adet": 4351,
      "▁kişiye": 4352,
      "hi": 4353,
      "▁Yok": 4354,
      "▁hakim": 4355,
      "▁hücr": 4356,
      "▁tehdit": 4357,
      "▁yıllar": 4358,
      "▁lütfen": 4359,
      "▁teşkil": 4360,
      "düz": 4361,
      "▁görsel": 4362,
      "▁İkinci": 4363,
      "▁yapabilir": 4364,
      "duğumuz": 4365,
      "uldu": 4366,
      "ksiyon": 4367,
      "▁varlık": 4368,
      "▁görülen": 4369,
      "▁mahk": 4370,
      "▁ilgilen": 4371,
      "int": 4372,
      "▁kriz": 4373,
      "ulur": 4374,
      "ınar": 4375,
      "ılıp": 4376,
      "▁hepsi": 4377,
      "▁bağlant": 4378,
      "▁Güneş": 4379,
      "▁büyüm": 4380,
      "▁işlemleri": 4381,
      "▁denetim": 4382,
      "▁Üz": 4383,
      "▁istek": 4384,
      "▁durdur": 4385,
      "▁duruş": 4386,
      "▁duyar": 4387,
      "iciler": 4388,
      "ows": 4389,
      "ülü": 4390,
      "▁Pnin": 4391,
      "▁bölge": 4392,
      "leyici": 4393,
      "ebek": 4394,
      "▁ref": 4395,
      "▁Murat": 4396,
      "üley": 4397,
      "▁çalıştır": 4398,
      "▁Hasan": 4399,
      "▁dolayısıyla": 4400,
      "▁Ya": 4401,
      "co": 4402,
      "▁şub": 4403,
      "▁unsur": 4404,
      "▁Mus": 4405,
      "ledik": 4406,
      "▁Yapılan": 4407,
      "imizden": 4408,
      "▁çalışıyor": 4409,
      "lendi": 4410,
      "▁uzat": 4411,
      "▁demiş": 4412,
      "▁bence": 4413,
      "▁Abd": 4414,
      "▁aracı": 4415,
      "▁seçen": 4416,
      "▁arkadaşlar": 4417,
      "▁No": 4418,
      "liyet": 4419,
      "▁öncelikle": 4420,
      "▁ismi": 4421,
      "▁hızla": 4422,
      "bal": 4423,
      "▁süs": 4424,
      "▁olacağını": 4425,
      "▁bulunur": 4426,
      "▁işin": 4427,
      "▁hük": 4428,
      "▁hazırlanan": 4429,
      "▁getirdi": 4430,
      "iter": 4431,
      "▁Ker": 4432,
      "▁gerçekleştirilen": 4433,
      "▁ettiğini": 4434,
      "▁ayn": 4435,
      "▁gücü": 4436,
      "anları": 4437,
      "▁mahkem": 4438,
      "▁kavuş": 4439,
      "▁Bl": 4440,
      "▁etik": 4441,
      "▁Mahkem": 4442,
      "▁vs": 4443,
      "▁Hast": 4444,
      "lanma": 4445,
      "▁seks": 4446,
      "uğu": 4447,
      "▁etkilen": 4448,
      "▁kullanılır": 4449,
      "lerimizin": 4450,
      "▁terk": 4451,
      "▁ihracat": 4452,
      "▁sebebi": 4453,
      "cisi": 4454,
      "▁aktiv": 4455,
      "▁Teş": 4456,
      "abileceğini": 4457,
      "▁sermay": 4458,
      "▁istik": 4459,
      "▁eb": 4460,
      "▁desteği": 4461,
      "▁şim": 4462,
      "▁kadınlar": 4463,
      "▁öngör": 4464,
      "luluğu": 4465,
      "ışma": 4466,
      "▁başlamış": 4467,
      "▁deng": 4468,
      "▁bilinç": 4469,
      "▁gem": 4470,
      "▁Merhaba": 4471,
      "▁ticari": 4472,
      "▁faydalan": 4473,
      "▁trafik": 4474,
      "▁Çağ": 4475,
      "▁Anay": 4476,
      "▁ürünü": 4477,
      "▁yerli": 4478,
      "▁Bundan": 4479,
      "ebilmek": 4480,
      "▁Hüküm": 4481,
      "▁yaşay": 4482,
      "avuz": 4483,
      "▁bilgilendir": 4484,
      "alarla": 4485,
      "▁Yah": 4486,
      "▁Mic": 4487,
      "▁ilişkiler": 4488,
      "dığımız": 4489,
      "▁Zaman": 4490,
      "▁dis": 4491,
      "▁yakalan": 4492,
      "ağını": 4493,
      "▁Kiş": 4494,
      "▁Din": 4495,
      "▁Bursa": 4496,
      "amik": 4497,
      "▁Bölüm": 4498,
      "sit": 4499,
      "▁işler": 4500,
      "▁değeri": 4501,
      "ulmuş": 4502,
      "apon": 4503,
      "wit": 4504,
      "▁kitabı": 4505,
      "amıyor": 4506,
      "▁kuru": 4507,
      "▁edilmiştir": 4508,
      "sinde": 4509,
      "yer": 4510,
      "etiyle": 4511,
      "▁taşı": 4512,
      "lemeye": 4513,
      "▁bom": 4514,
      "ire": 4515,
      "▁akadem": 4516,
      "▁Yas": 4517,
      "▁kesim": 4518,
      "▁popüler": 4519,
      "▁alınması": 4520,
      "▁kendilerini": 4521,
      "▁birer": 4522,
      "▁Fransız": 4523,
      "▁şaşır": 4524,
      "▁görünt": 4525,
      "▁fi": 4526,
      "undaki": 4527,
      "▁Dolayısıyla": 4528,
      "laşma": 4529,
      "▁durumlarda": 4530,
      "▁Pat": 4531,
      "▁itibariyle": 4532,
      "jans": 4533,
      "▁Antalya": 4534,
      "▁alk": 4535,
      "▁Sa": 4536,
      "ildiğini": 4537,
      "▁bölümü": 4538,
      "dukları": 4539,
      "▁Ramaz": 4540,
      "▁bekliyor": 4541,
      "▁Bahç": 4542,
      "▁süren": 4543,
      "edek": 4544,
      "ersin": 4545,
      "▁Web": 4546,
      "▁almaya": 4547,
      "▁sanatçı": 4548,
      "sey": 4549,
      "usunun": 4550,
      "▁kıyaf": 4551,
      "▁renkli": 4552,
      "▁Fakültesi": 4553,
      "▁olmaktadır": 4554,
      "▁hayatı": 4555,
      "▁Sig": 4556,
      "▁hır": 4557,
      "▁çalışması": 4558,
      "lanıyor": 4559,
      "▁olmalıdır": 4560,
      "▁bür": 4561,
      "▁bakımından": 4562,
      "▁yaşadığı": 4563,
      "▁Çan": 4564,
      "ikat": 4565,
      "▁sorgul": 4566,
      "▁Batı": 4567,
      "▁pet": 4568,
      "▁Le": 4569,
      "urum": 4570,
      "▁Dnin": 4571,
      "▁arka": 4572,
      "ciler": 4573,
      "▁buyur": 4574,
      "▁faktör": 4575,
      "ukat": 4576,
      "▁iyice": 4577,
      "▁yumuş": 4578,
      "▁İlç": 4579,
      "▁başlıyor": 4580,
      "▁besin": 4581,
      "▁üniversite": 4582,
      "▁uygulaması": 4583,
      "▁Ro": 4584,
      "▁parçası": 4585,
      "▁FET": 4586,
      "emizi": 4587,
      "lal": 4588,
      "dığım": 4589,
      "layıcı": 4590,
      "▁istiyorsanız": 4591,
      "▁yenilik": 4592,
      "▁organizasyon": 4593,
      "gre": 4594,
      "▁sakin": 4595,
      "▁gözlem": 4596,
      "▁ilişki": 4597,
      "▁Ann": 4598,
      "▁metre": 4599,
      "▁Mey": 4600,
      "eceksiniz": 4601,
      "▁kısım": 4602,
      "▁toz": 4603,
      "▁geldiği": 4604,
      "▁sunuyor": 4605,
      "▁Tat": 4606,
      "▁birbirinden": 4607,
      "▁ederken": 4608,
      "tansiy": 4609,
      "▁tarihli": 4610,
      "▁açılış": 4611,
      "▁gitti": 4612,
      "▁benzeri": 4613,
      "▁zorunlu": 4614,
      "▁İbrahim": 4615,
      "▁sevin": 4616,
      "▁aldım": 4617,
      "▁Sonuç": 4618,
      "▁Kir": 4619,
      "hane": 4620,
      "▁demir": 4621,
      "▁vitam": 4622,
      "droid": 4623,
      "▁muhteşem": 4624,
      "her": 4625,
      "▁Mac": 4626,
      "▁yenil": 4627,
      "▁Is": 4628,
      "biy": 4629,
      "▁çiçek": 4630,
      "▁Koca": 4631,
      "▁memur": 4632,
      "▁All": 4633,
      "▁roman": 4634,
      "indows": 4635,
      "▁dekor": 4636,
      "▁bilimsel": 4637,
      "▁muhal": 4638,
      "▁Cev": 4639,
      "▁re": 4640,
      "▁Dünyanın": 4641,
      "▁yapabilirsiniz": 4642,
      "▁kulak": 4643,
      "▁yapma": 4644,
      "▁donan": 4645,
      "▁mens": 4646,
      "▁Öğret": 4647,
      "▁Çar": 4648,
      "▁takdirde": 4649,
      "▁ilave": 4650,
      "▁Bek": 4651,
      "▁incelem": 4652,
      "▁işçi": 4653,
      "▁istiyoruz": 4654,
      "▁parça": 4655,
      "iki": 4656,
      "red": 4657,
      "▁Facebook": 4658,
      "qu": 4659,
      "▁Serv": 4660,
      "▁gündem": 4661,
      "▁FETÖ": 4662,
      "▁Kılıç": 4663,
      "uluğ": 4664,
      "müştür": 4665,
      "ner": 4666,
      "▁elektronik": 4667,
      "enizi": 4668,
      "▁turizm": 4669,
      "IR": 4670,
      "▁ağz": 4671,
      "acağına": 4672,
      "▁Altın": 4673,
      "▁sabit": 4674,
      "mesinde": 4675,
      "▁Bilim": 4676,
      "▁sizler": 4677,
      "▁adeta": 4678,
      "tığımız": 4679,
      "liliği": 4680,
      "ordin": 4681,
      "▁noktada": 4682,
      "lamaya": 4683,
      "▁birleştir": 4684,
      "▁New": 4685,
      "▁Tasar": 4686,
      "▁ağırlık": 4687,
      "▁kaydetti": 4688,
      "amaya": 4689,
      "ary": 4690,
      "▁Pr": 4691,
      "▁mül": 4692,
      "▁görünüm": 4693,
      "▁izle": 4694,
      "İY": 4695,
      "▁sigort": 4696,
      "itir": 4697,
      "▁Etik": 4698,
      "▁gelip": 4699,
      "▁tepki": 4700,
      "ice": 4701,
      "▁bölgesinde": 4702,
      "▁İdar": 4703,
      "▁teşvik": 4704,
      "▁belediy": 4705,
      "▁kamp": 4706,
      "oca": 4707,
      "sef": 4708,
      "emli": 4709,
      "▁kayded": 4710,
      "yasal": 4711,
      "engi": 4712,
      "▁sahib": 4713,
      "▁sam": 4714,
      "▁geçer": 4715,
      "▁kültürel": 4716,
      "▁Of": 4717,
      "AB": 4718,
      "▁tamamlan": 4719,
      "iyede": 4720,
      "▁açılan": 4721,
      "▁çeki": 4722,
      "▁kaps": 4723,
      "▁elb": 4724,
      "▁Erz": 4725,
      "▁Kendi": 4726,
      "▁lik": 4727,
      "▁fonksiyon": 4728,
      "▁Tarım": 4729,
      "▁otobüs": 4730,
      "▁kere": 4731,
      "▁bedel": 4732,
      "▁Feder": 4733,
      "ahtar": 4734,
      "▁verm": 4735,
      "▁verilir": 4736,
      "▁restor": 4737,
      "▁hissed": 4738,
      "▁ulusal": 4739,
      "▁maaş": 4740,
      "▁birini": 4741,
      "liyat": 4742,
      "▁imkanı": 4743,
      "ferans": 4744,
      "▁Ömer": 4745,
      "▁biçim": 4746,
      "▁ilçe": 4747,
      "▁sanki": 4748,
      "▁be": 4749,
      "işehir": 4750,
      "▁alındı": 4751,
      "bon": 4752,
      "▁tedbir": 4753,
      "▁ust": 4754,
      "▁Rum": 4755,
      "orta": 4756,
      "▁darbe": 4757,
      "▁ilginç": 4758,
      "▁tit": 4759,
      "▁iade": 4760,
      "▁se": 4761,
      "manlık": 4762,
      "▁Mat": 4763,
      "mos": 4764,
      "▁Galatasaray": 4765,
      "deniz": 4766,
      "▁istediği": 4767,
      "and": 4768,
      "▁harit": 4769,
      "eceğimiz": 4770,
      "▁müdah": 4771,
      "▁buraya": 4772,
      "▁gösteriyor": 4773,
      "▁projesi": 4774,
      "▁şef": 4775,
      "▁sorunun": 4776,
      "▁Arkadaş": 4777,
      "▁Mısır": 4778,
      "▁bakan": 4779,
      "▁Japon": 4780,
      "▁yapısı": 4781,
      "▁koruma": 4782,
      "ori": 4783,
      "▁diler": 4784,
      "▁Gerek": 4785,
      "fı": 4786,
      "▁kayıp": 4787,
      "▁Fır": 4788,
      "ular": 4789,
      "▁potansiy": 4790,
      "▁Kara": 4791,
      "aşık": 4792,
      "▁Ger": 4793,
      "▁Esk": 4794,
      "errah": 4795,
      "▁Şampiyon": 4796,
      "ht": 4797,
      "ağına": 4798,
      "▁kaynağı": 4799,
      "rop": 4800,
      "▁ayakk": 4801,
      "▁olmalı": 4802,
      "▁bugüne": 4803,
      "▁umut": 4804,
      "▁açıdan": 4805,
      "sul": 4806,
      "▁Kaymak": 4807,
      "ell": 4808,
      "▁gidi": 4809,
      "▁Emniyet": 4810,
      "▁başkanı": 4811,
      "▁Boz": 4812,
      "ığa": 4813,
      "▁Komisyon": 4814,
      "İS": 4815,
      "ülmesi": 4816,
      "▁Amerikan": 4817,
      "▁kaçın": 4818,
      "amış": 4819,
      "alesef": 4820,
      "oğlunun": 4821,
      "ıyım": 4822,
      "▁Birleş": 4823,
      "▁sağlayacak": 4824,
      "▁yüzünden": 4825,
      "▁Süper": 4826,
      "▁yarım": 4827,
      "başı": 4828,
      "lıklar": 4829,
      "▁geçtiğimiz": 4830,
      "mı": 4831,
      "lant": 4832,
      "bey": 4833,
      "altına": 4834,
      "▁Yıldırım": 4835,
      "▁kolayca": 4836,
      "kel": 4837,
      "▁endiş": 4838,
      "▁AKP": 4839,
      "▁yaklaşım": 4840,
      "▁Mem": 4841,
      "lıdır": 4842,
      "▁küt": 4843,
      "▁işlev": 4844,
      "▁etki": 4845,
      "▁dizi": 4846,
      "▁birleş": 4847,
      "▁yapımı": 4848,
      "▁öğrencilerin": 4849,
      "ınday": 4850,
      "▁yılından": 4851,
      "▁ağrı": 4852,
      "ilmez": 4853,
      "ock": 4854,
      "▁buz": 4855,
      "▁ortamda": 4856,
      "ğur": 4857,
      "lenir": 4858,
      "ilerden": 4859,
      "▁Str": 4860,
      "▁modeli": 4861,
      "▁Öğrenc": 4862,
      "▁kadının": 4863,
      "embe": 4864,
      "▁kullanan": 4865,
      "▁Yeşil": 4866,
      "mail": 4867,
      "▁incelen": 4868,
      "ayarak": 4869,
      "ümr": 4870,
      "▁paylaşım": 4871,
      "▁Enerj": 4872,
      "▁tabii": 4873,
      "▁birinin": 4874,
      "▁yaptıkları": 4875,
      "▁fatur": 4876,
      "mut": 4877,
      "▁gösterir": 4878,
      "malarını": 4879,
      "▁Yen": 4880,
      "▁olduğunuz": 4881,
      "▁yoluyla": 4882,
      "▁takv": 4883,
      "▁niyet": 4884,
      "▁Kil": 4885,
      "▁coğraf": 4886,
      "▁Karad": 4887,
      "▁İd": 4888,
      "▁Muhammed": 4889,
      "ezerv": 4890,
      "▁ettim": 4891,
      "▁sunan": 4892,
      "▁Tıp": 4893,
      "nik": 4894,
      "▁Hukuk": 4895,
      "▁ufak": 4896,
      "▁Kamu": 4897,
      "▁mm": 4898,
      "▁fık": 4899,
      "▁doy": 4900,
      "ou": 4901,
      "ump": 4902,
      "▁sinir": 4903,
      "▁Zaten": 4904,
      "▁herkese": 4905,
      "▁dönemi": 4906,
      "iğin": 4907,
      "▁alak": 4908,
      "▁tarihleri": 4909,
      "▁konuşan": 4910,
      "▁adalet": 4911,
      "▁Amerika": 4912,
      "▁Gaz": 4913,
      "▁göğ": 4914,
      "▁günümüz": 4915,
      "▁Sınav": 4916,
      "▁üyeleri": 4917,
      "▁Turizm": 4918,
      "▁böylece": 4919,
      "▁Hüseyin": 4920,
      "▁Sil": 4921,
      "▁görür": 4922,
      "▁karşılan": 4923,
      "▁gerekç": 4924,
      "IM": 4925,
      "▁TV": 4926,
      "▁Başkanlığı": 4927,
      "▁bask": 4928,
      "acaksınız": 4929,
      "▁sağlıyor": 4930,
      "▁elbette": 4931,
      "▁Fer": 4932,
      "▁uçuş": 4933,
      "▁refer": 4934,
      "▁biridir": 4935,
      "▁usul": 4936,
      "▁girdi": 4937,
      "▁kadınların": 4938,
      "▁insanı": 4939,
      "rika": 4940,
      "▁ideal": 4941,
      "▁Balık": 4942,
      "▁Ana": 4943,
      "▁gelişmeler": 4944,
      "▁göl": 4945,
      "▁Fark": 4946,
      "▁Araştırma": 4947,
      "▁rej": 4948,
      "▁sebebiyle": 4949,
      "mesiyle": 4950,
      "▁güçlendir": 4951,
      "▁rüy": 4952,
      "▁nefes": 4953,
      "▁altyap": 4954,
      "▁insanlara": 4955,
      "▁sonuçları": 4956,
      "▁beklent": 4957,
      "laj": 4958,
      "▁birbirine": 4959,
      "▁yüzey": 4960,
      "köy": 4961,
      "▁sergil": 4962,
      "irv": 4963,
      "▁Se": 4964,
      "▁sanayi": 4965,
      "ruf": 4966,
      "amadı": 4967,
      "arbak": 4968,
      "▁konak": 4969,
      "▁Grub": 4970,
      "▁istedi": 4971,
      "▁dip": 4972,
      "▁görevi": 4973,
      "▁Vat": 4974,
      "ümüş": 4975,
      "ılmasına": 4976,
      "▁tor": 4977,
      "▁mus": 4978,
      "▁maddi": 4979,
      "▁düzelt": 4980,
      "▁yolcu": 4981,
      "lerken": 4982,
      "▁Oğ": 4983,
      "▁tıp": 4984,
      "▁Tun": 4985,
      "anti": 4986,
      "▁mekt": 4987,
      "ever": 4988,
      "▁albüm": 4989,
      "▁çağır": 4990,
      "▁kilomet": 4991,
      "▁Geçen": 4992,
      "▁dini": 4993,
      "▁yanına": 4994,
      "▁genelinde": 4995,
      "▁Gön": 4996,
      "▁zamanı": 4997,
      "manızı": 4998,
      "▁Fin": 4999,
      "▁geleceğ": 5000,
      "▁inci": 5001,
      "vekil": 5002,
      "▁kanser": 5003,
      "▁sayede": 5004,
      "▁ondan": 5005,
      "▁Malat": 5006,
      "▁konser": 5007,
      "adığını": 5008,
      "lanmıştır": 5009,
      "▁çağr": 5010,
      "▁makam": 5011,
      "▁Plan": 5012,
      "▁bütç": 5013,
      "▁Arab": 5014,
      "▁anlatan": 5015,
      "▁değin": 5016,
      "tıkları": 5017,
      "▁ayk": 5018,
      "▁TB": 5019,
      "▁zek": 5020,
      "▁gıda": 5021,
      "abiliriz": 5022,
      "▁ulaşabilirsiniz": 5023,
      "acık": 5024,
      "▁araştırmalar": 5025,
      "▁Ed": 5026,
      "▁Bilgi": 5027,
      "ert": 5028,
      "▁halkın": 5029,
      "▁anti": 5030,
      "▁falan": 5031,
      "▁Windows": 5032,
      "▁üstüne": 5033,
      "▁fiyatı": 5034,
      "▁Demokr": 5035,
      "▁isterseniz": 5036,
      "▁gereği": 5037,
      "▁Yurt": 5038,
      "stit": 5039,
      "▁Öncelikle": 5040,
      "▁Erdoğanın": 5041,
      "▁gidip": 5042,
      "▁ır": 5043,
      "▁gök": 5044,
      "aza": 5045,
      "▁görm": 5046,
      "▁yerden": 5047,
      "▁sorunları": 5048,
      "witter": 5049,
      "▁Grup": 5050,
      "İZ": 5051,
      "▁amaçlı": 5052,
      "arbakır": 5053,
      "tren": 5054,
      "▁oğlu": 5055,
      "▁kalmış": 5056,
      "yaj": 5057,
      "▁toplu": 5058,
      "afer": 5059,
      "abilirler": 5060,
      "▁Neden": 5061,
      "▁istey": 5062,
      "▁Ders": 5063,
      "▁futbolcu": 5064,
      "land": 5065,
      "▁VE": 5066,
      "our": 5067,
      "▁ülkemizde": 5068,
      "▁mühendis": 5069,
      "ıntılı": 5070,
      "▁esnasında": 5071,
      "lerimize": 5072,
      "▁Dest": 5073,
      "▁İşlet": 5074,
      "▁Almanya": 5075,
      "ılığıyla": 5076,
      "▁oranında": 5077,
      "▁yürür": 5078,
      "▁kimlik": 5079,
      "▁pl": 5080,
      "tılar": 5081,
      "▁genelde": 5082,
      "▁gördük": 5083,
      "▁Boy": 5084,
      "▁ada": 5085,
      "▁beklem": 5086,
      "▁mutluluk": 5087,
      "▁şunları": 5088,
      "▁vermektedir": 5089,
      "▁fiziksel": 5090,
      "▁kanıt": 5091,
      "▁küresel": 5092,
      "▁edebiyat": 5093,
      "▁işbirliği": 5094,
      "▁cumhur": 5095,
      "▁olduklarını": 5096,
      "melik": 5097,
      "▁Odası": 5098,
      "▁Süley": 5099,
      "▁vir": 5100,
      "▁vermeye": 5101,
      "za": 5102,
      "irim": 5103,
      "▁yürüyüş": 5104,
      "▁olmadığ": 5105,
      "▁yetkili": 5106,
      "▁Otel": 5107,
      "▁devrim": 5108,
      "▁Futbol": 5109,
      "▁bulmak": 5110,
      "▁adlandır": 5111,
      "duğum": 5112,
      "▁düşen": 5113,
      "▁sevgil": 5114,
      "▁fayda": 5115,
      "istin": 5116,
      "▁KO": 5117,
      "▁sunu": 5118,
      "▁Men": 5119,
      "▁Kart": 5120,
      "▁İspan": 5121,
      "▁Ramazan": 5122,
      "▁mac": 5123,
      "▁dijital": 5124,
      "madığını": 5125,
      "▁yenilen": 5126,
      "▁Gerçek": 5127,
      "meyecek": 5128,
      "▁kaybol": 5129,
      "▁kurs": 5130,
      "▁koc": 5131,
      "▁nesil": 5132,
      "▁eşi": 5133,
      "isiklet": 5134,
      "▁Danış": 5135,
      "▁Kent": 5136,
      "▁Gençlik": 5137,
      "▁kuzey": 5138,
      "diklerini": 5139,
      "▁Onlar": 5140,
      "olog": 5141,
      "▁barındır": 5142,
      "▁daim": 5143,
      "▁AL": 5144,
      "▁Far": 5145,
      "▁ağr": 5146,
      "▁dava": 5147,
      "▁Siv": 5148,
      "▁bitk": 5149,
      "▁Kut": 5150,
      "▁yoktu": 5151,
      "▁sistemleri": 5152,
      "▁İliş": 5153,
      "▁Toplum": 5154,
      "▁gür": 5155,
      "▁gidiyor": 5156,
      "▁hit": 5157,
      "▁Ceza": 5158,
      "▁Yıldız": 5159,
      "▁etmiştir": 5160,
      "▁görüşmeler": 5161,
      "▁meydan": 5162,
      "▁kalite": 5163,
      "▁mür": 5164,
      "▁aşağıda": 5165,
      "▁gerektiği": 5166,
      "▁kimi": 5167,
      "siyet": 5168,
      "▁grubu": 5169,
      "▁Ödül": 5170,
      "▁bağır": 5171,
      "▁havuz": 5172,
      "▁Özg": 5173,
      "UN": 5174,
      "▁vererek": 5175,
      "ebe": 5176,
      "▁esk": 5177,
      "▁güzellik": 5178,
      "lıyoruz": 5179,
      "▁yayınlanan": 5180,
      "leyerek": 5181,
      "▁Phone": 5182,
      "▁Pl": 5183,
      "▁yakından": 5184,
      "▁sayfa": 5185,
      "▁ı": 5186,
      "ladım": 5187,
      "▁ob": 5188,
      "mit": 5189,
      "▁müdahale": 5190,
      "▁üretimi": 5191,
      "çuk": 5192,
      "üce": 5193,
      "▁istif": 5194,
      "▁Gar": 5195,
      "isyen": 5196,
      "▁kartı": 5197,
      "▁sevk": 5198,
      "▁mahall": 5199,
      "▁yansıt": 5200,
      "▁keyifli": 5201,
      "▁Öğren": 5202,
      "▁temizlik": 5203,
      "▁fabrik": 5204,
      "▁pratik": 5205,
      "sızın": 5206,
      "▁boyu": 5207,
      "▁Diyarbakır": 5208,
      "▁devletin": 5209,
      "▁ert": 5210,
      "▁tutan": 5211,
      "lerdi": 5212,
      "ahh": 5213,
      "▁yerlerde": 5214,
      "mekten": 5215,
      "str": 5216,
      "gah": 5217,
      "▁Dik": 5218,
      "▁yarın": 5219,
      "enn": 5220,
      "▁Allaha": 5221,
      "▁kahraman": 5222,
      "▁gündeme": 5223,
      "▁diyet": 5224,
      "duğunuz": 5225,
      "▁duruma": 5226,
      "üye": 5227,
      "lerindeki": 5228,
      "▁buradan": 5229,
      "oft": 5230,
      "▁manz": 5231,
      "▁bünyesinde": 5232,
      "▁şehr": 5233,
      "ağında": 5234,
      "▁farklılık": 5235,
      "▁Cuma": 5236,
      "▁şeyin": 5237,
      "▁nam": 5238,
      "▁Mobil": 5239,
      "▁ha": 5240,
      "masın": 5241,
      "▁makal": 5242,
      "otik": 5243,
      "isar": 5244,
      "▁nas": 5245,
      "▁ölçüde": 5246,
      "▁seyir": 5247,
      "▁olacağı": 5248,
      "▁mimar": 5249,
      "amın": 5250,
      "türk": 5251,
      "▁Tabi": 5252,
      "▁başlangıç": 5253,
      "▁beyan": 5254,
      "kon": 5255,
      "▁tuş": 5256,
      "düğünü": 5257,
      "▁edilebilir": 5258,
      "▁kusur": 5259,
      "▁çocuğun": 5260,
      "▁yükselt": 5261,
      "▁ifadelerini": 5262,
      "emeyen": 5263,
      "ılmaktadır": 5264,
      "ılmasını": 5265,
      "oto": 5266,
      "deb": 5267,
      "▁düşünül": 5268,
      "▁yiyecek": 5269,
      "▁önde": 5270,
      "▁ulaştır": 5271,
      "usuz": 5272,
      "▁Ge": 5273,
      "▁etkiley": 5274,
      "▁izlen": 5275,
      "ıldığında": 5276,
      "imle": 5277,
      "▁geçici": 5278,
      "▁günümüzde": 5279,
      "▁korumak": 5280,
      "▁mevzu": 5281,
      "▁galib": 5282,
      "ağının": 5283,
      "▁yaşadık": 5284,
      "oli": 5285,
      "▁Saat": 5286,
      "▁TO": 5287,
      "▁sektöründe": 5288,
      "▁günler": 5289,
      "▁depr": 5290,
      "parator": 5291,
      "gaz": 5292,
      "▁bilgiye": 5293,
      "▁est": 5294,
      "demir": 5295,
      "▁alabilirsiniz": 5296,
      "▁Mon": 5297,
      "▁çam": 5298,
      "▁Car": 5299,
      "deri": 5300,
      "▁Android": 5301,
      "▁Escort": 5302,
      "▁kalır": 5303,
      "ektörü": 5304,
      "▁tedavisi": 5305,
      "dığınız": 5306,
      "▁mel": 5307,
      "lendirme": 5308,
      "▁Port": 5309,
      "alandır": 5310,
      "▁Ulusal": 5311,
      "insel": 5312,
      "▁op": 5313,
      "ilip": 5314,
      "▁hakları": 5315,
      "▁zeytin": 5316,
      "▁Bunların": 5317,
      "▁Mel": 5318,
      "lüğe": 5319,
      "▁konuk": 5320,
      "▁acaba": 5321,
      "▁Müşter": 5322,
      "▁sever": 5323,
      "lor": 5324,
      "▁ker": 5325,
      "▁çıkacak": 5326,
      "▁tanesi": 5327,
      "▁hapis": 5328,
      "▁Turk": 5329,
      "▁Karadeniz": 5330,
      "▁Fet": 5331,
      "vel": 5332,
      "▁denet": 5333,
      "div": 5334,
      "muyor": 5335,
      "▁tanıtım": 5336,
      "eliği": 5337,
      "▁mutfak": 5338,
      "▁üretic": 5339,
      "▁yarı": 5340,
      "▁ekipleri": 5341,
      "▁dönüşüm": 5342,
      "▁acil": 5343,
      "ebilirim": 5344,
      "▁Belki": 5345,
      "▁sevgi": 5346,
      "▁bilen": 5347,
      "▁alınarak": 5348,
      "▁Çanakk": 5349,
      "▁edildiği": 5350,
      "▁aracılığıyla": 5351,
      "▁Çelik": 5352,
      "dev": 5353,
      "▁kup": 5354,
      "▁maruz": 5355,
      "▁karşılaştır": 5356,
      "▁Sem": 5357,
      "▁port": 5358,
      "seri": 5359,
      "▁İçin": 5360,
      "▁Cih": 5361,
      "▁biy": 5362,
      "▁hediy": 5363,
      "SO": 5364,
      "▁Ex": 5365,
      "▁Düny": 5366,
      "lari": 5367,
      "▁evet": 5368,
      "▁egz": 5369,
      "lav": 5370,
      "▁Kızıl": 5371,
      "ilmesini": 5372,
      "ker": 5373,
      "▁kapan": 5374,
      "▁cem": 5375,
      "▁karşıya": 5376,
      "leket": 5377,
      "▁mesl": 5378,
      "ıd": 5379,
      "▁görünüyor": 5380,
      "▁dey": 5381,
      "▁far": 5382,
      "▁belirlenen": 5383,
      "ani": 5384,
      "▁yönünde": 5385,
      "▁gözaltına": 5386,
      "▁hanım": 5387,
      "AZ": 5388,
      "▁geleneksel": 5389,
      "madığ": 5390,
      "▁kolaylaştır": 5391,
      "▁inceley": 5392,
      "▁rakip": 5393,
      "▁kalb": 5394,
      "▁the": 5395,
      "▁aralarında": 5396,
      "▁yöntemi": 5397,
      "▁yaşlı": 5398,
      "▁pişir": 5399,
      "▁yeten": 5400,
      "▁konularda": 5401,
      "▁ulaşım": 5402,
      "antep": 5403,
      "▁taraftar": 5404,
      "▁bilet": 5405,
      "▁çalışmak": 5406,
      "▁Öğretmen": 5407,
      "eya": 5408,
      "▁Partisi": 5409,
      "▁olmayı": 5410,
      "▁İr": 5411,
      "▁edilmektedir": 5412,
      "▁getirmek": 5413,
      "▁olduğum": 5414,
      "▁öncesinde": 5415,
      "eral": 5416,
      "eğine": 5417,
      "tın": 5418,
      "▁verilecek": 5419,
      "▁oldum": 5420,
      "▁alanları": 5421,
      "andar": 5422,
      "▁Hazır": 5423,
      "▁maddesi": 5424,
      "uda": 5425,
      "▁Pet": 5426,
      "▁klasik": 5427,
      "▁kazanç": 5428,
      "▁Mühendis": 5429,
      "▁DE": 5430,
      "▁mevcuttur": 5431,
      "▁yaptım": 5432,
      "▁Rabb": 5433,
      "▁bölümünde": 5434,
      "▁Iş": 5435,
      "▁yüküm": 5436,
      "▁Fenerbahçe": 5437,
      "▁gitmek": 5438,
      "▁plak": 5439,
      "▁Boğ": 5440,
      "▁istihdam": 5441,
      "▁Ziy": 5442,
      "▁Süleyman": 5443,
      "ox": 5444,
      "▁Trump": 5445,
      "▁aydınlat": 5446,
      "▁Otom": 5447,
      "ediklerini": 5448,
      "▁gerekse": 5449,
      "▁olmadı": 5450,
      "AH": 5451,
      "acağımız": 5452,
      "▁verilmesi": 5453,
      "▁eh": 5454,
      "amayacak": 5455,
      "▁aralık": 5456,
      "▁Beyaz": 5457,
      "▁kurumsal": 5458,
      "▁elinde": 5459,
      "▁Apple": 5460,
      "▁düzeyde": 5461,
      "▁hasar": 5462,
      "▁uyarı": 5463,
      "▁çor": 5464,
      "▁komş": 5465,
      "urta": 5466,
      "▁yapıldığı": 5467,
      "▁malzeme": 5468,
      "▁tablo": 5469,
      "▁tasarruf": 5470,
      "▁Mesel": 5471,
      "▁günden": 5472,
      "▁hab": 5473,
      "▁eğlenceli": 5474,
      "▁Fiyat": 5475,
      "▁Dar": 5476,
      "▁gayet": 5477,
      "▁aleyh": 5478,
      "▁konuşma": 5479,
      "▁ofis": 5480,
      "▁lok": 5481,
      "▁darb": 5482,
      "enkul": 5483,
      "▁kara": 5484,
      "▁kıv": 5485,
      "▁ü": 5486,
      "▁kimsenin": 5487,
      "ette": 5488,
      "eyse": 5489,
      "▁verim": 5490,
      "▁indirim": 5491,
      "PS": 5492,
      "diniz": 5493,
      "▁Kaf": 5494,
      "▁üstünde": 5495,
      "rens": 5496,
      "▁gazetec": 5497,
      "▁kitl": 5498,
      "okol": 5499,
      "▁Bana": 5500,
      "▁faydalı": 5501,
      "▁bet": 5502,
      "▁İb": 5503,
      "▁muhab": 5504,
      "▁Sonr": 5505,
      "ity": 5506,
      "▁derecede": 5507,
      "▁çekti": 5508,
      "▁yolunda": 5509,
      "▁verimli": 5510,
      "▁siteleri": 5511,
      "▁anal": 5512,
      "İD": 5513,
      "ansiyon": 5514,
      "▁belirtildi": 5515,
      "tayız": 5516,
      "▁yazık": 5517,
      "▁kimyasal": 5518,
      "▁inanç": 5519,
      "▁işleri": 5520,
      "▁bulunmak": 5521,
      "▁aldık": 5522,
      "▁babası": 5523,
      "▁taşıma": 5524,
      "adığımız": 5525,
      "kur": 5526,
      "▁Oysa": 5527,
      "▁yör": 5528,
      "▁Tabii": 5529,
      "▁mümkündür": 5530,
      "▁mağdur": 5531,
      "▁Tarihi": 5532,
      "▁uyumlu": 5533,
      "▁sanırım": 5534,
      "örü": 5535,
      "▁gelişmiş": 5536,
      "▁ekibi": 5537,
      "▁teşekkürler": 5538,
      "üldü": 5539,
      "▁Örg": 5540,
      "ematik": 5541,
      "melidir": 5542,
      "▁sevg": 5543,
      "▁yapın": 5544,
      "iğe": 5545,
      "▁hayran": 5546,
      "▁Yaklaş": 5547,
      "▁başken": 5548,
      "▁Avust": 5549,
      "melerin": 5550,
      "mis": 5551,
      "▁Burs": 5552,
      "▁por": 5553,
      "▁geril": 5554,
      "▁gurur": 5555,
      "▁Akdeniz": 5556,
      "▁Adana": 5557,
      "osya": 5558,
      "▁yangın": 5559,
      "▁Ort": 5560,
      "▁toplumun": 5561,
      "▁Aşağı": 5562,
      "▁Çevre": 5563,
      "▁oyunları": 5564,
      "▁okur": 5565,
      "▁bulabilirsiniz": 5566,
      "▁Kulüb": 5567,
      "ümrük": 5568,
      "▁konfor": 5569,
      "▁Kamp": 5570,
      "anların": 5571,
      "madık": 5572,
      "▁gayret": 5573,
      "▁köpr": 5574,
      "ann": 5575,
      "▁Baz": 5576,
      "rag": 5577,
      "▁Çalışma": 5578,
      "▁Con": 5579,
      "▁bahsed": 5580,
      "▁kalem": 5581,
      "▁orman": 5582,
      "▁De": 5583,
      "▁hata": 5584,
      "▁yitir": 5585,
      "üstr": 5586,
      "lâm": 5587,
      "▁halen": 5588,
      "▁Cumhuriyeti": 5589,
      "▁işgal": 5590,
      "▁üm": 5591,
      "lıkları": 5592,
      "▁Kup": 5593,
      "▁yolda": 5594,
      "arın": 5595,
      "▁and": 5596,
      "▁Etiketler": 5597,
      "▁Yağ": 5598,
      "▁süreçte": 5599,
      "▁günün": 5600,
      "▁civarında": 5601,
      "▁esnaf": 5602,
      "leğ": 5603,
      "▁güne": 5604,
      "▁şirketi": 5605,
      "▁kâ": 5606,
      "▁zorluk": 5607,
      "eğinin": 5608,
      "▁bez": 5609,
      "kır": 5610,
      "diye": 5611,
      "▁hayırlı": 5612,
      "▁çatış": 5613,
      "abor": 5614,
      "▁lig": 5615,
      "▁Değiş": 5616,
      "▁rüz": 5617,
      "▁banka": 5618,
      "▁Net": 5619,
      "▁Don": 5620,
      "▁Türkiyedeki": 5621,
      "▁Gaziantep": 5622,
      "▁selam": 5623,
      "▁Düzen": 5624,
      "▁AN": 5625,
      "ıklı": 5626,
      "satı": 5627,
      "▁Aile": 5628,
      "▁sl": 5629,
      "▁ülkeler": 5630,
      "▁rezerv": 5631,
      "▁dom": 5632,
      "▁süredir": 5633,
      "ende": 5634,
      "▁beyin": 5635,
      "elal": 5636,
      "▁alışkan": 5637,
      "▁Bod": 5638,
      "▁kendimi": 5639,
      "▁Kaynak": 5640,
      "▁yapıp": 5641,
      "rom": 5642,
      "ug": 5643,
      "▁Bankası": 5644,
      "led": 5645,
      "▁kızı": 5646,
      "▁koltuk": 5647,
      "▁Koç": 5648,
      "▁yetersiz": 5649,
      "ograf": 5650,
      "▁Organ": 5651,
      "▁zamanında": 5652,
      "▁parmak": 5653,
      "▁sonuçlar": 5654,
      "▁çıkmış": 5655,
      "isiz": 5656,
      "▁pah": 5657,
      "ly": 5658,
      "▁anahtar": 5659,
      "yalı": 5660,
      "tion": 5661,
      "▁İsv": 5662,
      "maların": 5663,
      "▁güney": 5664,
      "▁Öyle": 5665,
      "▁Eskişehir": 5666,
      "▁kalab": 5667,
      "▁halkı": 5668,
      "▁rahmet": 5669,
      "▁ın": 5670,
      "▁mensup": 5671,
      "▁bileş": 5672,
      "▁önümüzdeki": 5673,
      "zat": 5674,
      "▁Ner": 5675,
      "▁Kuran": 5676,
      "▁kağıt": 5677,
      "▁mor": 5678,
      "▁Yür": 5679,
      "ilerinden": 5680,
      "▁zamanlar": 5681,
      "▁erişim": 5682,
      "▁evlilik": 5683,
      "▁hastalığı": 5684,
      "▁gerçekleşen": 5685,
      "▁yağmur": 5686,
      "▁bağış": 5687,
      "▁meyv": 5688,
      "▁kumaş": 5689,
      "ray": 5690,
      "▁artan": 5691,
      "▁bozul": 5692,
      "▁gösterdi": 5693,
      "▁olunca": 5694,
      "anızı": 5695,
      "▁dalg": 5696,
      "adığınız": 5697,
      "▁çalışmalarını": 5698,
      "▁ayakkabı": 5699,
      "ral": 5700,
      "▁nüfus": 5701,
      "ry": 5702,
      "▁miktarda": 5703,
      "elerek": 5704,
      "▁yetenek": 5705,
      "lemesi": 5706,
      "▁aykırı": 5707,
      "▁hali": 5708,
      "ilmesine": 5709,
      "▁Dışişleri": 5710,
      "elendir": 5711,
      "mediği": 5712,
      "yol": 5713,
      "tt": 5714,
      "▁Siyas": 5715,
      "▁kred": 5716,
      "▁Yukarı": 5717,
      "▁altını": 5718,
      "▁göm": 5719,
      "▁yav": 5720,
      "▁fen": 5721,
      "▁Tal": 5722,
      "▁lük": 5723,
      "▁seven": 5724,
      "▁çök": 5725,
      "▁değildi": 5726,
      "▁adayı": 5727,
      "▁final": 5728,
      "▁Zira": 5729,
      "▁düşünce": 5730,
      "▁kenar": 5731,
      "▁denk": 5732,
      "▁inc": 5733,
      "▁olağan": 5734,
      "▁evlen": 5735,
      "▁krem": 5736,
      "▁Ordu": 5737,
      "▁Enerji": 5738,
      "▁Çık": 5739,
      "▁Hemen": 5740,
      "▁sorunlar": 5741,
      "rat": 5742,
      "▁gittik": 5743,
      "nın": 5744,
      "▁Rad": 5745,
      "▁baba": 5746,
      "▁başlıklı": 5747,
      "▁yurtd": 5748,
      "▁İsmail": 5749,
      "ürken": 5750,
      "▁sunulan": 5751,
      "▁Üzer": 5752,
      "▁sertif": 5753,
      "layacak": 5754,
      "MM": 5755,
      "▁rekabet": 5756,
      "SK": 5757,
      "▁Olay": 5758,
      "▁komisyon": 5759,
      "mr": 5760,
      "öp": 5761,
      "▁kısıt": 5762,
      "▁Birçok": 5763,
      "▁gerektiğ": 5764,
      "aylı": 5765,
      "▁yapmanız": 5766,
      "▁serg": 5767,
      "▁Mek": 5768,
      "▁Saç": 5769,
      "▁yıllardır": 5770,
      "▁tiyatro": 5771,
      "▁yel": 5772,
      "omp": 5773,
      "▁Abdullah": 5774,
      "▁istis": 5775,
      "▁muhtem": 5776,
      "▁yolculuk": 5777,
      "stagram": 5778,
      "▁link": 5779,
      "to": 5780,
      "▁büyüme": 5781,
      "▁Erkek": 5782,
      "▁yoğ": 5783,
      "▁ederiz": 5784,
      "tifak": 5785,
      "▁Ses": 5786,
      "atistik": 5787,
      "▁anında": 5788,
      "▁saha": 5789,
      "▁komut": 5790,
      "▁sarı": 5791,
      "▁icin": 5792,
      "▁denir": 5793,
      "▁si": 5794,
      "▁vad": 5795,
      "▁kıymet": 5796,
      "ail": 5797,
      "▁kalıcı": 5798,
      "▁hisse": 5799,
      "▁sk": 5800,
      "▁Bununla": 5801,
      "▁geldiğini": 5802,
      "▁itiraz": 5803,
      "▁öncelik": 5804,
      "▁Kav": 5805,
      "menizi": 5806,
      "▁tok": 5807,
      "▁kulüp": 5808,
      "▁dikkatli": 5809,
      "▁Hayır": 5810,
      "meyin": 5811,
      "▁TR": 5812,
      "umuzun": 5813,
      "▁metal": 5814,
      "▁kulüb": 5815,
      "ebilen": 5816,
      "▁maçı": 5817,
      "▁bireysel": 5818,
      "▁dayalı": 5819,
      "memesi": 5820,
      "▁Hayvan": 5821,
      "▁alanlarda": 5822,
      "▁çekici": 5823,
      "unma": 5824,
      "▁olabilirsiniz": 5825,
      "bek": 5826,
      "out": 5827,
      "▁metrek": 5828,
      "leyin": 5829,
      "▁dağı": 5830,
      "▁Efend": 5831,
      "▁Nak": 5832,
      "▁cezası": 5833,
      "▁depol": 5834,
      "▁sürece": 5835,
      "larımı": 5836,
      "▁sebeple": 5837,
      "landa": 5838,
      "▁Doç": 5839,
      "▁kullanılması": 5840,
      "▁takımı": 5841,
      "▁kazanan": 5842,
      "▁özgürlük": 5843,
      "▁hayatta": 5844,
      "▁sizleri": 5845,
      "▁gecik": 5846,
      "▁çocukları": 5847,
      "yiz": 5848,
      "▁olmaması": 5849,
      "▁alınır": 5850,
      "los": 5851,
      "OL": 5852,
      "▁gelmesi": 5853,
      "▁Karar": 5854,
      "▁tap": 5855,
      "▁azından": 5856,
      "▁Hır": 5857,
      "▁iman": 5858,
      "osk": 5859,
      "landığı": 5860,
      "▁tüketim": 5861,
      "ilerle": 5862,
      "▁Şube": 5863,
      "▁Sun": 5864,
      "▁muay": 5865,
      "▁talim": 5866,
      "▁araba": 5867,
      "▁suretiyle": 5868,
      "elle": 5869,
      "▁İlet": 5870,
      "▁Araç": 5871,
      "▁rehber": 5872,
      "oo": 5873,
      "tein": 5874,
      "▁böyl": 5875,
      "▁AR": 5876,
      "▁Temel": 5877,
      "▁alması": 5878,
      "▁bulan": 5879,
      "ikol": 5880,
      "▁meyve": 5881,
      "lasyon": 5882,
      "itesi": 5883,
      "▁mir": 5884,
      "▁günah": 5885,
      "▁tazmin": 5886,
      "▁End": 5887,
      "▁beslenme": 5888,
      "▁Öte": 5889,
      "likte": 5890,
      "▁yaptığımız": 5891,
      "▁Sınıf": 5892,
      "▁İmam": 5893,
      "▁demokratik": 5894,
      "ÜN": 5895,
      "▁İngiltere": 5896,
      "▁felsef": 5897,
      "▁sö": 5898,
      "▁taban": 5899,
      "▁petrol": 5900,
      "likler": 5901,
      "ısıyla": 5902,
      "▁ısı": 5903,
      "▁Li": 5904,
      "▁güvenliği": 5905,
      "▁yönel": 5906,
      "▁Ankarada": 5907,
      "▁sız": 5908,
      "ilerde": 5909,
      "▁Çek": 5910,
      "▁cüml": 5911,
      "▁Ardından": 5912,
      "▁Konya": 5913,
      "adir": 5914,
      "▁muhaf": 5915,
      "▁kendinizi": 5916,
      "▁sün": 5917,
      "▁beslen": 5918,
      "ilme": 5919,
      "cılığ": 5920,
      "▁MHP": 5921,
      "▁Vol": 5922,
      "şiv": 5923,
      "▁netic": 5924,
      "▁uygulamaları": 5925,
      "▁sınırlı": 5926,
      "▁avukat": 5927,
      "şap": 5928,
      "ükle": 5929,
      "▁İşleri": 5930,
      "▁Telefon": 5931,
      "▁Günü": 5932,
      "▁vesil": 5933,
      "▁Proje": 5934,
      "▁Öl": 5935,
      "▁ağız": 5936,
      "amadım": 5937,
      "▁Vali": 5938,
      "▁uygulanan": 5939,
      "▁başladık": 5940,
      "▁fet": 5941,
      "▁Cadde": 5942,
      "▁sağlığı": 5943,
      "▁anı": 5944,
      "ıldığını": 5945,
      "▁yanın": 5946,
      "▁başlayacak": 5947,
      "▁farkı": 5948,
      "yadan": 5949,
      "▁anay": 5950,
      "▁Tor": 5951,
      "les": 5952,
      "▁makyaj": 5953,
      "▁Görev": 5954,
      "uyordu": 5955,
      "▁Bet": 5956,
      "▁sırt": 5957,
      "▁adamı": 5958,
      "▁Hız": 5959,
      "▁projeler": 5960,
      "▁maalesef": 5961,
      "▁durumun": 5962,
      "▁kullandığı": 5963,
      "ceği": 5964,
      "▁AT": 5965,
      "▁köp": 5966,
      "ât": 5967,
      "▁Hoc": 5968,
      "▁kullanabilirsiniz": 5969,
      "▁Şim": 5970,
      "▁büyü": 5971,
      "IL": 5972,
      "▁metin": 5973,
      "▁Yazı": 5974,
      "fat": 5975,
      "▁başı": 5976,
      "▁gözük": 5977,
      "▁Günümüzde": 5978,
      "▁Bölge": 5979,
      "▁ürünlerin": 5980,
      "arya": 5981,
      "illi": 5982,
      "makla": 5983,
      "lerdeki": 5984,
      "▁sürücü": 5985,
      "▁noktası": 5986,
      "▁Orman": 5987,
      "leyecek": 5988,
      "▁ekmek": 5989,
      "▁zemin": 5990,
      "▁memleket": 5991,
      "▁oluşturul": 5992,
      "▁oynan": 5993,
      "▁dans": 5994,
      "▁olmaktan": 5995,
      "▁meclis": 5996,
      "▁iyileştir": 5997,
      "▁söylemek": 5998,
      "▁verme": 5999,
      "▁Önce": 6000,
      "cının": 6001,
      "▁Mez": 6002,
      "▁terörist": 6003,
      "▁sıfır": 6004,
      "▁Kısa": 6005,
      "unuzun": 6006,
      "▁gördüm": 6007,
      "▁nem": 6008,
      "ibe": 6009,
      "▁korku": 6010,
      "araj": 6011,
      "▁baktığ": 6012,
      "lemiş": 6013,
      "▁Pan": 6014,
      "▁harekete": 6015,
      "EB": 6016,
      "▁çalışır": 6017,
      "▁Mu": 6018,
      "uyum": 6019,
      "▁verici": 6020,
      "usuf": 6021,
      "▁olamaz": 6022,
      "▁Dep": 6023,
      "▁süper": 6024,
      "▁kullanılabilir": 6025,
      "▁sessiz": 6026,
      "▁Geçtiğimiz": 6027,
      "▁başladım": 6028,
      "▁Değer": 6029,
      "aborat": 6030,
      "kal": 6031,
      "▁husus": 6032,
      "▁gelmektedir": 6033,
      "▁bağlam": 6034,
      "▁kadros": 6035,
      "eydi": 6036,
      "▁Lim": 6037,
      "eceğine": 6038,
      "▁yapılıyor": 6039,
      "itler": 6040,
      "▁sunum": 6041,
      "▁gelince": 6042,
      "▁unutul": 6043,
      "▁ku": 6044,
      "ris": 6045,
      "▁göstermektedir": 6046,
      "▁aran": 6047,
      "▁Be": 6048,
      "▁şifr": 6049,
      "▁Uzman": 6050,
      "tıcı": 6051,
      "▁Alev": 6052,
      "▁katılımcı": 6053,
      "▁ulaşmak": 6054,
      "var": 6055,
      "▁Türkç": 6056,
      "▁yılının": 6057,
      "▁Van": 6058,
      "denin": 6059,
      "▁sıvı": 6060,
      "kınma": 6061,
      "ife": 6062,
      "▁sporcu": 6063,
      "▁Min": 6064,
      "dayız": 6065,
      "▁Devam": 6066,
      "▁Temiz": 6067,
      "▁müdahal": 6068,
      "larınıza": 6069,
      "▁yönde": 6070,
      "▁zinc": 6071,
      "▁rahatlıkla": 6072,
      "andarma": 6073,
      "▁harf": 6074,
      "▁aram": 6075,
      "danın": 6076,
      "tuğu": 6077,
      "▁bulunması": 6078,
      "▁tepk": 6079,
      "▁garant": 6080,
      "▁Sabah": 6081,
      "nan": 6082,
      "▁topr": 6083,
      "▁Not": 6084,
      "▁Başvur": 6085,
      "▁edildiğ": 6086,
      "▁OS": 6087,
      "tikten": 6088,
      "▁yedek": 6089,
      "▁Çift": 6090,
      "▁İt": 6091,
      "▁belgesi": 6092,
      "çisi": 6093,
      "▁şeyleri": 6094,
      "▁edilerek": 6095,
      "▁dilek": 6096,
      "▁Kuş": 6097,
      "▁bazıları": 6098,
      "▁oyunun": 6099,
      "▁savunma": 6100,
      "itli": 6101,
      "▁atık": 6102,
      "▁dili": 6103,
      "▁görüyoruz": 6104,
      "▁ayda": 6105,
      "▁MAD": 6106,
      "▁akış": 6107,
      "▁olabilecek": 6108,
      "lanacak": 6109,
      "▁anlamı": 6110,
      "iyetini": 6111,
      "▁bizlere": 6112,
      "▁örgütü": 6113,
      "▁sizlerle": 6114,
      "▁içinden": 6115,
      "▁masraf": 6116,
      "âm": 6117,
      "▁temas": 6118,
      "▁Polis": 6119,
      "▁Adalet": 6120,
      "UM": 6121,
      "▁firmamız": 6122,
      "▁taraftan": 6123,
      "▁vah": 6124,
      "unuza": 6125,
      "fik": 6126,
      "▁turist": 6127,
      "lukla": 6128,
      "▁parlak": 6129,
      "▁müs": 6130,
      "▁seçenekleri": 6131,
      "isindeki": 6132,
      "▁Takım": 6133,
      "▁Fotoğraf": 6134,
      "▁anlattı": 6135,
      "▁uygulamalar": 6136,
      "▁La": 6137,
      "▁donanım": 6138,
      "▁düğün": 6139,
      "ketbol": 6140,
      "▁üretilen": 6141,
      "▁Fransa": 6142,
      "▁çey": 6143,
      "bil": 6144,
      "▁yedi": 6145,
      "▁sendik": 6146,
      "▁Enstit": 6147,
      "▁güz": 6148,
      "▁BM": 6149,
      "▁köpek": 6150,
      "▁emekli": 6151,
      "▁Küt": 6152,
      "oter": 6153,
      "▁Şen": 6154,
      "▁kelime": 6155,
      "▁çekiyor": 6156,
      "tiy": 6157,
      "▁may": 6158,
      "▁Hik": 6159,
      "▁telefonu": 6160,
      "▁hariç": 6161,
      "▁ettiler": 6162,
      "▁sürecinde": 6163,
      "içi": 6164,
      "▁Teknoloji": 6165,
      "▁sonsuz": 6166,
      "▁Elektrik": 6167,
      "iplin": 6168,
      "▁SE": 6169,
      "▁derken": 6170,
      "▁birşey": 6171,
      "▁Rek": 6172,
      "▁Bilgisayar": 6173,
      "▁kemik": 6174,
      "▁oluşturan": 6175,
      "▁Gıda": 6176,
      "▁yönetmen": 6177,
      "▁Yazar": 6178,
      "▁şahıs": 6179,
      "▁sözü": 6180,
      "▁Kuvvet": 6181,
      "▁karşımıza": 6182,
      "▁nın": 6183,
      "mamaktadır": 6184,
      "▁Özgür": 6185,
      "▁imkân": 6186,
      "▁versiyon": 6187,
      "▁Pay": 6188,
      "▁vası": 6189,
      "▁antren": 6190,
      "jen": 6191,
      "▁fıkr": 6192,
      "▁cami": 6193,
      "▁adresi": 6194,
      "▁Resmi": 6195,
      "maktır": 6196,
      "nuv": 6197,
      "▁çalışmaya": 6198,
      "▁Pek": 6199,
      "▁dük": 6200,
      "▁Yatırım": 6201,
      "▁kov": 6202,
      "▁Çeş": 6203,
      "▁Th": 6204,
      "▁değerlendirme": 6205,
      "▁Sol": 6206,
      "▁Hareket": 6207,
      "▁Art": 6208,
      "▁yapıyoruz": 6209,
      "▁Üyesi": 6210,
      "dol": 6211,
      "▁ücreti": 6212,
      "larınızın": 6213,
      "▁olayı": 6214,
      "▁çekim": 6215,
      "▁Üstelik": 6216,
      "âl": 6217,
      "▁sayg": 6218,
      "AC": 6219,
      "▁yapması": 6220,
      "▁hekim": 6221,
      "▁olduğunda": 6222,
      "▁Kaç": 6223,
      "▁US": 6224,
      "tih": 6225,
      "▁vade": 6226,
      "▁İslâm": 6227,
      "tum": 6228,
      "ımdan": 6229,
      "ekte": 6230,
      "▁mali": 6231,
      "▁yılları": 6232,
      "▁görüntül": 6233,
      "▁milletvekili": 6234,
      "otel": 6235,
      "▁geçiyor": 6236,
      "▁kahve": 6237,
      "▁Sok": 6238,
      "lığından": 6239,
      "▁Yusuf": 6240,
      "▁taşımak": 6241,
      "▁keyf": 6242,
      "▁edeceğiz": 6243,
      "▁Hakkında": 6244,
      "azer": 6245,
      "amızda": 6246,
      "▁isterim": 6247,
      "▁kazandı": 6248,
      "▁tasarımı": 6249,
      "▁tev": 6250,
      "▁reng": 6251,
      "▁dür": 6252,
      "▁dedik": 6253,
      "▁olmasa": 6254,
      "▁araz": 6255,
      "▁Nec": 6256,
      "▁Havalim": 6257,
      "gat": 6258,
      "▁yapılmaktadır": 6259,
      "▁yargı": 6260,
      "▁Yarış": 6261,
      "▁rengi": 6262,
      "istanın": 6263,
      "▁şehrin": 6264,
      "▁yerler": 6265,
      "▁uyku": 6266,
      "▁pu": 6267,
      "▁firması": 6268,
      "bat": 6269,
      "▁yazıl": 6270,
      "▁mün": 6271,
      "▁çocuğu": 6272,
      "▁mantık": 6273,
      "▁buldu": 6274,
      "▁tarihinden": 6275,
      "cret": 6276,
      "▁Dig": 6277,
      "▁şük": 6278,
      "▁yapmayı": 6279,
      "priz": 6280,
      "▁olmanın": 6281,
      "irli": 6282,
      "▁tavsiy": 6283,
      "▁beklenen": 6284,
      "▁üstü": 6285,
      "▁Twitter": 6286,
      "▁gelmiştir": 6287,
      "uzu": 6288,
      "ecik": 6289,
      "▁Emek": 6290,
      "▁içeri": 6291,
      "▁Paşa": 6292,
      "▁Sekret": 6293,
      "▁ahlak": 6294,
      "▁istedim": 6295,
      "muştu": 6296,
      "ülür": 6297,
      "▁sisteminin": 6298,
      "▁Onu": 6299,
      "▁dakikada": 6300,
      "▁Mesela": 6301,
      "azartesi": 6302,
      "larken": 6303,
      "müyor": 6304,
      "▁Yaklaşık": 6305,
      "▁lan": 6306,
      "▁vatan": 6307,
      "▁yaşıyor": 6308,
      "▁panel": 6309,
      "▁teor": 6310,
      "▁stat": 6311,
      "▁yaprak": 6312,
      "▁arasından": 6313,
      "▁yukarıda": 6314,
      "▁oluşur": 6315,
      "▁Güç": 6316,
      "▁Pas": 6317,
      "▁denem": 6318,
      "mekteyiz": 6319,
      "▁içeriğ": 6320,
      "▁görmüş": 6321,
      "melerini": 6322,
      "▁küç": 6323,
      "▁akr": 6324,
      "gü": 6325,
      "isa": 6326,
      "umun": 6327,
      "lanın": 6328,
      "▁gelerek": 6329,
      "▁doğrul": 6330,
      "▁üstlen": 6331,
      "▁bilgisi": 6332,
      "▁Doğan": 6333,
      "▁damar": 6334,
      "▁yumuşak": 6335,
      "ebi": 6336,
      "▁yumurta": 6337,
      "▁Edeb": 6338,
      "▁nih": 6339,
      "umuzu": 6340,
      "▁halka": 6341,
      "▁döviz": 6342,
      "eğinde": 6343,
      "▁Adam": 6344,
      "▁İçer": 6345,
      "▁egemen": 6346,
      "▁psikolojik": 6347,
      "▁mikro": 6348,
      "▁arasına": 6349,
      "▁enfeksiyon": 6350,
      "▁Doktor": 6351,
      "▁oranda": 6352,
      "▁potansiyel": 6353,
      "▁Destek": 6354,
      "diy": 6355,
      "▁bı": 6356,
      "▁deri": 6357,
      "▁Fa": 6358,
      "▁bitki": 6359,
      "▁onunla": 6360,
      "dağı": 6361,
      "▁bisiklet": 6362,
      "eleriyle": 6363,
      "▁düşüş": 6364,
      "tıktan": 6365,
      "▁mini": 6366,
      "▁olmaları": 6367,
      "▁başlı": 6368,
      "▁yur": 6369,
      "iyel": 6370,
      "▁Kral": 6371,
      "▁Rapor": 6372,
      "lom": 6373,
      "inda": 6374,
      "▁geb": 6375,
      "▁şunu": 6376,
      "▁hükm": 6377,
      "▁aylarında": 6378,
      "mesinden": 6379,
      "imizle": 6380,
      "lanarak": 6381,
      "▁satışa": 6382,
      "▁milletvekil": 6383,
      "▁ka": 6384,
      "▁sabır": 6385,
      "▁fırsatı": 6386,
      "▁Saray": 6387,
      "▁hayatın": 6388,
      "udak": 6389,
      "▁Sarı": 6390,
      "▁cennet": 6391,
      "▁Karak": 6392,
      "▁prim": 6393,
      "▁Lond": 6394,
      "▁oynay": 6395,
      "▁Kons": 6396,
      "▁onur": 6397,
      "▁sözleşme": 6398,
      "İŞ": 6399,
      "tiğim": 6400,
      "▁süreli": 6401,
      "▁Stan": 6402,
      "eğiyle": 6403,
      "▁Bayan": 6404,
      "tüğü": 6405,
      "▁Ec": 6406,
      "▁odası": 6407,
      "▁muk": 6408,
      "ie": 6409,
      "▁Yalnız": 6410,
      "▁Türkiyeyi": 6411,
      "arik": 6412,
      "▁numaralı": 6413,
      "▁MADDE": 6414,
      "▁kamera": 6415,
      "▁bina": 6416,
      "▁silin": 6417,
      "▁Sı": 6418,
      "alel": 6419,
      "▁muhalef": 6420,
      "▁Kredi": 6421,
      "okulu": 6422,
      "▁bilmiyorum": 6423,
      "▁olası": 6424,
      "▁Şahin": 6425,
      "▁toh": 6426,
      "▁Fi": 6427,
      "▁İnşaat": 6428,
      "▁türü": 6429,
      "▁hakkını": 6430,
      "▁Euro": 6431,
      "▁Tav": 6432,
      "▁peygamber": 6433,
      "sesuar": 6434,
      "▁İstanbulun": 6435,
      "▁Op": 6436,
      "RK": 6437,
      "▁Doğru": 6438,
      "▁alanın": 6439,
      "▁Ücret": 6440,
      "▁kıyas": 6441,
      "▁evden": 6442,
      "▁öğrencileri": 6443,
      "▁Soy": 6444,
      "▁Zor": 6445,
      "▁cerrah": 6446,
      "▁katı": 6447,
      "▁önemi": 6448,
      "▁Öğretim": 6449,
      "▁Meydan": 6450,
      "▁dua": 6451,
      "▁Gelen": 6452,
      "▁rö": 6453,
      "▁attı": 6454,
      "▁mezar": 6455,
      "▁İletişim": 6456,
      "üğü": 6457,
      "▁yüzlerce": 6458,
      "duktan": 6459,
      "▁görülür": 6460,
      "▁Terör": 6461,
      "▁servisi": 6462,
      "esidir": 6463,
      "▁vel": 6464,
      "cık": 6465,
      "▁sanay": 6466,
      "ona": 6467,
      "▁düzenleme": 6468,
      "ısal": 6469,
      "▁alana": 6470,
      "▁saatlerinde": 6471,
      "▁Nit": 6472,
      "▁karanlık": 6473,
      "▁ikram": 6474,
      "lob": 6475,
      "▁çelik": 6476,
      "▁kariyer": 6477,
      "▁Barış": 6478,
      "▁sinema": 6479,
      "▁fuar": 6480,
      "▁Frans": 6481,
      "▁Kılıçdar": 6482,
      "▁kaçak": 6483,
      "▁Dağ": 6484,
      "▁ettikleri": 6485,
      "SY": 6486,
      "▁tipi": 6487,
      "▁adıyla": 6488,
      "▁yıla": 6489,
      "▁miktarı": 6490,
      "▁Ege": 6491,
      "▁Kanunu": 6492,
      "▁ört": 6493,
      "▁Ail": 6494,
      "AV": 6495,
      "▁Toplam": 6496,
      "ınan": 6497,
      "KT": 6498,
      "▁alkol": 6499,
      "▁karşın": 6500,
      "elli": 6501,
      "▁ente": 6502,
      "▁anlar": 6503,
      "▁Bodrum": 6504,
      "▁Filistin": 6505,
      "▁haklı": 6506,
      "▁hadis": 6507,
      "▁sığın": 6508,
      "▁Tut": 6509,
      "▁irade": 6510,
      "▁Sizin": 6511,
      "▁Hey": 6512,
      "▁mevsim": 6513,
      "▁bölün": 6514,
      "▁Kurumu": 6515,
      "▁horm": 6516,
      "▁konuyu": 6517,
      "▁Bül": 6518,
      "▁emniyet": 6519,
      "▁Hizmetleri": 6520,
      "▁geldiğinde": 6521,
      "ektif": 6522,
      "▁Şer": 6523,
      "▁inceleme": 6524,
      "▁keşf": 6525,
      "▁İstanbula": 6526,
      "▁ihal": 6527,
      "▁şeye": 6528,
      "▁ömr": 6529,
      "▁Beni": 6530,
      "▁Duy": 6531,
      "▁Hind": 6532,
      "▁izl": 6533,
      "▁deprem": 6534,
      "▁Bazen": 6535,
      "▁şekli": 6536,
      "rip": 6537,
      "▁Rüy": 6538,
      "▁ömür": 6539,
      "▁bakın": 6540,
      "▁sigara": 6541,
      "▁pen": 6542,
      "▁Tok": 6543,
      "▁Göl": 6544,
      "▁Görün": 6545,
      "istanda": 6546,
      "▁geride": 6547,
      "TÜ": 6548,
      "dün": 6549,
      "▁evren": 6550,
      "▁kalıp": 6551,
      "▁Müzik": 6552,
      "▁niteliğ": 6553,
      "DA": 6554,
      "sar": 6555,
      "▁sunduğu": 6556,
      "kim": 6557,
      "▁sahne": 6558,
      "▁merkezinde": 6559,
      "▁erkekler": 6560,
      "▁traf": 6561,
      "▁sanal": 6562,
      "▁Başka": 6563,
      "▁zirv": 6564,
      "▁eşliğinde": 6565,
      "▁seçimi": 6566,
      "▁Seçim": 6567,
      "▁verdim": 6568,
      "lup": 6569,
      "▁val": 6570,
      "▁Ona": 6571,
      "emem": 6572,
      "▁imzalan": 6573,
      "otos": 6574,
      "atlar": 6575,
      "▁sıkı": 6576,
      "▁eklem": 6577,
      "▁tehlikeli": 6578,
      "▁tanık": 6579,
      "▁isteyenler": 6580,
      "we": 6581,
      "▁bunlara": 6582,
      "▁katıldığı": 6583,
      "▁olmuştu": 6584,
      "iti": 6585,
      "▁rom": 6586,
      "▁sunmaktadır": 6587,
      "▁Doğal": 6588,
      "▁etmez": 6589,
      "▁Fik": 6590,
      "▁işyer": 6591,
      "itif": 6592,
      "▁Karab": 6593,
      "▁Herkes": 6594,
      "alog": 6595,
      "▁yorgun": 6596,
      "ebileceği": 6597,
      "ester": 6598,
      "▁Yaşam": 6599,
      "▁Reh": 6600,
      "▁dosya": 6601,
      "▁hitap": 6602,
      "▁sözleri": 6603,
      "adığım": 6604,
      "▁genişlet": 6605,
      "▁dışına": 6606,
      "▁Etkin": 6607,
      "tığım": 6608,
      "ilde": 6609,
      "bu": 6610,
      "▁Farklı": 6611,
      "lıkta": 6612,
      "▁büyüy": 6613,
      "▁sevgili": 6614,
      "▁ec": 6615,
      "soy": 6616,
      "▁öğrenmek": 6617,
      "lantı": 6618,
      "▁manevi": 6619,
      "ukur": 6620,
      "▁işletme": 6621,
      "kun": 6622,
      "etle": 6623,
      "▁Ajans": 6624,
      "▁soruşturma": 6625,
      "▁Kullanıcı": 6626,
      "ami": 6627,
      "▁denilen": 6628,
      "▁gördü": 6629,
      "▁kabil": 6630,
      "aşı": 6631,
      "▁belge": 6632,
      "lıyorum": 6633,
      "▁PKK": 6634,
      "▁icra": 6635,
      "ress": 6636,
      "▁Mo": 6637,
      "▁zararlı": 6638,
      "▁Cumartesi": 6639,
      "▁ris": 6640,
      "zi": 6641,
      "▁aksine": 6642,
      "leyip": 6643,
      "▁kişiyi": 6644,
      "▁edici": 6645,
      "▁düzenlediği": 6646,
      "▁çöp": 6647,
      "uşturucu": 6648,
      "▁bekleniyor": 6649,
      "▁ailen": 6650,
      "EF": 6651,
      "▁olaylar": 6652,
      "▁Size": 6653,
      "▁sunmak": 6654,
      "ull": 6655,
      "▁tay": 6656,
      "▁Çay": 6657,
      "▁Rob": 6658,
      "lerinize": 6659,
      "tral": 6660,
      "▁düşünür": 6661,
      "▁kırık": 6662,
      "▁mol": 6663,
      "▁getirdiği": 6664,
      "▁çağrı": 6665,
      "esince": 6666,
      "▁defter": 6667,
      "▁ülkelerin": 6668,
      "▁sigorta": 6669,
      "▁Maç": 6670,
      "▁seviyorum": 6671,
      "▁pencer": 6672,
      "▁Co": 6673,
      "▁ırk": 6674,
      "ate": 6675,
      "▁üs": 6676,
      "▁Yapı": 6677,
      "▁insana": 6678,
      "▁masa": 6679,
      "ayol": 6680,
      "▁yasa": 6681,
      "▁klim": 6682,
      "öly": 6683,
      "▁hip": 6684,
      "dılar": 6685,
      "▁Aşk": 6686,
      "iyorsunuz": 6687,
      "▁etken": 6688,
      "ick": 6689,
      "▁halı": 6690,
      "▁canlandır": 6691,
      "ıbbi": 6692,
      "▁yerleri": 6693,
      "▁sürpriz": 6694,
      "▁sıkınt": 6695,
      "▁hatt": 6696,
      "halat": 6697,
      "car": 6698,
      "▁çekir": 6699,
      "▁plana": 6700,
      "▁bacak": 6701,
      "memek": 6702,
      "▁almıştır": 6703,
      "▁Â": 6704,
      "▁Kocaeli": 6705,
      "▁kalitesi": 6706,
      "▁festival": 6707,
      "malısınız": 6708,
      "▁moda": 6709,
      "▁oluşum": 6710,
      "ezil": 6711,
      "▁kilit": 6712,
      "▁Adan": 6713,
      "▁alınacak": 6714,
      "▁diyorum": 6715,
      "▁kurmak": 6716,
      "veya": 6717,
      "▁dönemin": 6718,
      "▁vizyon": 6719,
      "▁ısıt": 6720,
      "▁etmeyi": 6721,
      "ilmelidir": 6722,
      "▁Yönetmel": 6723,
      "▁Hakan": 6724,
      "ebilmesi": 6725,
      "▁kaybı": 6726,
      "ding": 6727,
      "va": 6728,
      "▁koleksiyon": 6729,
      "▁tablet": 6730,
      "amuk": 6731,
      "▁veriler": 6732,
      "▁katkıda": 6733,
      "▁mekaniz": 6734,
      "ong": 6735,
      "▁sermaye": 6736,
      "▁karm": 6737,
      "▁birine": 6738,
      "▁gördüğü": 6739,
      "ment": 6740,
      "▁olasıl": 6741,
      "▁garanti": 6742,
      "▁görünce": 6743,
      "▁benden": 6744,
      "▁aşkın": 6745,
      "▁Sivas": 6746,
      "▁alırken": 6747,
      "▁Taraf": 6748,
      "▁kalabalık": 6749,
      "▁işlemler": 6750,
      "▁dernek": 6751,
      "▁işletim": 6752,
      "▁bölgeye": 6753,
      "aa": 6754,
      "▁elbis": 6755,
      "▁evr": 6756,
      "▁göstermek": 6757,
      "▁Gal": 6758,
      "des": 6759,
      "ünce": 6760,
      "▁yumurt": 6761,
      "▁sayısının": 6762,
      "ürr": 6763,
      "▁Meslek": 6764,
      "▁gib": 6765,
      "▁aktivit": 6766,
      "▁Boğaz": 6767,
      "amanın": 6768,
      "▁sembol": 6769,
      "sis": 6770,
      "▁konular": 6771,
      "▁prens": 6772,
      "▁yağı": 6773,
      "aydı": 6774,
      "▁sağlanması": 6775,
      "gari": 6776,
      "onik": 6777,
      "▁mail": 6778,
      "▁Konuş": 6779,
      "▁Çanakkale": 6780,
      "▁anlamak": 6781,
      "▁peyn": 6782,
      "▁Mahallesi": 6783,
      "▁gelişen": 6784,
      "bank": 6785,
      "▁evinde": 6786,
      "▁şartları": 6787,
      "▁anlaşıl": 6788,
      "cüsü": 6789,
      "▁kullanıc": 6790,
      "rimenkul": 6791,
      "▁sir": 6792,
      "▁Yemek": 6793,
      "paşa": 6794,
      "▁başladığı": 6795,
      "▁göğüs": 6796,
      "▁nö": 6797,
      "▁Uygulama": 6798,
      "▁arkadaşı": 6799,
      "▁birliği": 6800,
      "▁protokol": 6801,
      "andır": 6802,
      "▁Edebiyat": 6803,
      "▁üyelik": 6804,
      "▁görevl": 6805,
      "▁cesaret": 6806,
      "EC": 6807,
      "▁Tamam": 6808,
      "▁şehri": 6809,
      "liğiyle": 6810,
      "atları": 6811,
      "▁aral": 6812,
      "▁karbon": 6813,
      "▁okuma": 6814,
      "▁yah": 6815,
      "▁kamuoy": 6816,
      "udu": 6817,
      "▁sitesinde": 6818,
      "▁Bol": 6819,
      "ESİ": 6820,
      "▁kör": 6821,
      "▁gözden": 6822,
      "ttp": 6823,
      "uman": 6824,
      "▁çalışmalarına": 6825,
      "▁Devamı": 6826,
      "ach": 6827,
      "▁biliyorum": 6828,
      "balaj": 6829,
      "▁Kayseri": 6830,
      "▁engelli": 6831,
      "suzluk": 6832,
      "▁iklim": 6833,
      "▁tl": 6834,
      "abalar": 6835,
      "▁eşlik": 6836,
      "▁lideri": 6837,
      "slan": 6838,
      "▁veveya": 6839,
      "▁efsan": 6840,
      "▁kiralama": 6841,
      "▁macer": 6842,
      "▁Tasarım": 6843,
      "▁Ortak": 6844,
      "▁Akadem": 6845,
      "▁haftada": 6846,
      "▁Ruh": 6847,
      "zan": 6848,
      "▁arayan": 6849,
      "pat": 6850,
      "▁Ortad": 6851,
      "▁hizmetler": 6852,
      "ânı": 6853,
      "▁Programı": 6854,
      "IK": 6855,
      "▁Vakfı": 6856,
      "▁olmayacak": 6857,
      "▁Mersin": 6858,
      "▁örneğin": 6859,
      "▁som": 6860,
      "▁maçta": 6861,
      "▁grafik": 6862,
      "▁Orhan": 6863,
      "▁Erzurum": 6864,
      "asino": 6865,
      "▁öğrencilere": 6866,
      "▁sürüm": 6867,
      "▁Çak": 6868,
      "▁büyüt": 6869,
      "▁estetik": 6870,
      "▁tarzı": 6871,
      "▁akademik": 6872,
      "▁to": 6873,
      "▁Eğit": 6874,
      "▁nesn": 6875,
      "▁Kes": 6876,
      "▁Piyas": 6877,
      "▁merh": 6878,
      "▁açan": 6879,
      "▁kurban": 6880,
      "▁egzersiz": 6881,
      "▁ölü": 6882,
      "▁kısmını": 6883,
      "▁okumak": 6884,
      "▁beklet": 6885,
      "▁gidecek": 6886,
      "ıştı": 6887,
      "▁mavi": 6888,
      "▁görevlendir": 6889,
      "imini": 6890,
      "▁asit": 6891,
      "▁çıkması": 6892,
      "edeniyet": 6893,
      "▁ayakta": 6894,
      "oper": 6895,
      "▁kullanılmaktadır": 6896,
      "und": 6897,
      "▁gelişme": 6898,
      "▁rahatsızlık": 6899,
      "▁maçında": 6900,
      "lanmaktadır": 6901,
      "alın": 6902,
      "▁çıkıp": 6903,
      "▁demokrasi": 6904,
      "▁olmuyor": 6905,
      "▁Mimar": 6906,
      "▁doğur": 6907,
      "▁devreye": 6908,
      "▁mülk": 6909,
      "madım": 6910,
      "▁gereksin": 6911,
      "▁kendisinin": 6912,
      "ube": 6913,
      "▁ikin": 6914,
      "▁biliyoruz": 6915,
      "▁vatandaşlar": 6916,
      "▁veril": 6917,
      "▁aracın": 6918,
      "▁Yönetimi": 6919,
      "▁Biraz": 6920,
      "▁olmakla": 6921,
      "▁Hac": 6922,
      "▁kaşığı": 6923,
      "▁dönemlerde": 6924,
      "▁işver": 6925,
      "▁sesi": 6926,
      "▁Kış": 6927,
      "paz": 6928,
      "▁mit": 6929,
      "▁zul": 6930,
      "inizden": 6931,
      "▁ekonomi": 6932,
      "▁Merkezinde": 6933,
      "▁Birinci": 6934,
      "▁Şehit": 6935,
      "▁nci": 6936,
      "▁kapsamlı": 6937,
      "▁farkında": 6938,
      "▁nez": 6939,
      "rosoft": 6940,
      "▁kaza": 6941,
      "▁değilim": 6942,
      "▁olduğunun": 6943,
      "▁Hiçbir": 6944,
      "▁yılına": 6945,
      "▁bomb": 6946,
      "▁Haft": 6947,
      "▁idari": 6948,
      "▁doğan": 6949,
      "▁Suudi": 6950,
      "▁sürüyor": 6951,
      "▁sof": 6952,
      "▁alıcı": 6953,
      "▁hayatına": 6954,
      "▁bulur": 6955,
      "ılma": 6956,
      "▁cenaz": 6957,
      "▁Eg": 6958,
      "▁Ras": 6959,
      "▁bilgilere": 6960,
      "▁Şanlı": 6961,
      "ılaş": 6962,
      "▁ran": 6963,
      "▁buluştur": 6964,
      "▁noktasında": 6965,
      "▁Psik": 6966,
      "ijinal": 6967,
      "▁yaptığını": 6968,
      "▁finansal": 6969,
      "▁bildirdi": 6970,
      "▁bizler": 6971,
      "▁çıktığı": 6972,
      "▁lek": 6973,
      "▁doğa": 6974,
      "ruk": 6975,
      "▁başarısız": 6976,
      "▁piyasaya": 6977,
      "▁Kahraman": 6978,
      "▁benimle": 6979,
      "▁sürük": 6980,
      "▁Person": 6981,
      "▁yapılabilir": 6982,
      "▁masaj": 6983,
      "▁Sistemi": 6984,
      "▁iletişime": 6985,
      "âb": 6986,
      "üphan": 6987,
      "▁bizzat": 6988,
      "cük": 6989,
      "▁ortada": 6990,
      "ect": 6991,
      "▁bekleyen": 6992,
      "▁http": 6993,
      "▁bonus": 6994,
      "raz": 6995,
      "▁boya": 6996,
      "tip": 6997,
      "▁TC": 6998,
      "imet": 6999,
      "leştirme": 7000,
      "▁koordin": 7001,
      "▁endüstr": 7002,
      "ang": 7003,
      "ole": 7004,
      "çılık": 7005,
      "▁açıkça": 7006,
      "ebilmektedir": 7007,
      "ste": 7008,
      "▁geldiğ": 7009,
      "illa": 7010,
      "▁sektörü": 7011,
      "▁nakliyat": 7012,
      "▁sınırları": 7013,
      "▁tör": 7014,
      "lerimi": 7015,
      "▁siyasal": 7016,
      "▁zehir": 7017,
      "▁kendileri": 7018,
      "malarına": 7019,
      "▁Anne": 7020,
      "▁evine": 7021,
      "▁Tür": 7022,
      "linik": 7023,
      "▁Faz": 7024,
      "▁banyo": 7025,
      "▁gösterdiği": 7026,
      "▁lüks": 7027,
      "▁edebil": 7028,
      "▁inşallah": 7029,
      "▁aşağ": 7030,
      "▁Koc": 7031,
      "MA": 7032,
      "ill": 7033,
      "▁enflasyon": 7034,
      "sh": 7035,
      "▁duygusal": 7036,
      "▁geldik": 7037,
      "▁sorular": 7038,
      "▁bakalım": 7039,
      "▁mide": 7040,
      "▁kalmak": 7041,
      "▁anlamlı": 7042,
      "▁düştü": 7043,
      "dun": 7044,
      "▁ailesi": 7045,
      "▁kullanılarak": 7046,
      "icdan": 7047,
      "▁yıld": 7048,
      "bahar": 7049,
      "▁Azer": 7050,
      "▁hemş": 7051,
      "büs": 7052,
      "▁şimdiden": 7053,
      "▁tutum": 7054,
      "▁keşfet": 7055,
      "▁kahvaltı": 7056,
      "▁arkasında": 7057,
      "▁Festival": 7058,
      "ûl": 7059,
      "▁ihtimal": 7060,
      "▁Pen": 7061,
      "▁delil": 7062,
      "▁İşlem": 7063,
      "urun": 7064,
      "▁hid": 7065,
      "sever": 7066,
      "▁çizgi": 7067,
      "▁Sch": 7068,
      "▁gıd": 7069,
      "▁Nev": 7070,
      "▁şair": 7071,
      "andum": 7072,
      "▁tarafında": 7073,
      "▁kapak": 7074,
      "▁düzgün": 7075,
      "▁slog": 7076,
      "▁görülmektedir": 7077,
      "▁haberleri": 7078,
      "ükleer": 7079,
      "▁kiral": 7080,
      "şamba": 7081,
      "emiyor": 7082,
      "▁Soğ": 7083,
      "lamalar": 7084,
      "▁Mücad": 7085,
      "▁uzaklaş": 7086,
      "▁Diş": 7087,
      "▁bahar": 7088,
      "ıyorsunuz": 7089,
      "şembe": 7090,
      "▁açtı": 7091,
      "sk": 7092,
      "▁kons": 7093,
      "▁Mağ": 7094,
      "▁mim": 7095,
      "▁istenen": 7096,
      "▁yolculuğ": 7097,
      "uları": 7098,
      "▁kişilere": 7099,
      "▁olsay": 7100,
      "▁Oper": 7101,
      "▁haberi": 7102,
      "▁saati": 7103,
      "rist": 7104,
      "▁kısmında": 7105,
      "▁cinayet": 7106,
      "uyorlar": 7107,
      "ash": 7108,
      "lanabilir": 7109,
      "▁günleri": 7110,
      "▁protein": 7111,
      "▁mektup": 7112,
      "▁alanlar": 7113,
      "▁eşya": 7114,
      "mara": 7115,
      "▁ibadet": 7116,
      "ica": 7117,
      "lılığı": 7118,
      "▁Hes": 7119,
      "▁geriye": 7120,
      "ace": 7121,
      "▁Avrupada": 7122,
      "▁radyo": 7123,
      "▁Ulu": 7124,
      "çın": 7125,
      "ülmüş": 7126,
      "▁programları": 7127,
      "▁kargo": 7128,
      "▁Kontrol": 7129,
      "▁çak": 7130,
      "▁niş": 7131,
      "▁araçları": 7132,
      "▁çabuk": 7133,
      "▁Lisans": 7134,
      "utma": 7135,
      "▁Nih": 7136,
      "▁CE": 7137,
      "şe": 7138,
      "ülüyor": 7139,
      "bel": 7140,
      "▁derg": 7141,
      "▁Gerçekten": 7142,
      "ülecek": 7143,
      "▁tebrik": 7144,
      "▁Engel": 7145,
      "ımızdan": 7146,
      "usundaki": 7147,
      "▁Hükümet": 7148,
      "▁annesi": 7149,
      "▁evin": 7150,
      "yim": 7151,
      "▁karşılıklı": 7152,
      "▁ürünün": 7153,
      "▁görevini": 7154,
      "ww": 7155,
      "▁anlatıyor": 7156,
      "▁br": 7157,
      "▁Kaymakam": 7158,
      "cılığı": 7159,
      "▁Fuar": 7160,
      "▁sertifik": 7161,
      "▁gram": 7162,
      "mini": 7163,
      "▁katk": 7164,
      "api": 7165,
      "▁Şek": 7166,
      "▁değerleri": 7167,
      "▁kaldığı": 7168,
      "▁Yakın": 7169,
      "▁Salon": 7170,
      "tiğiniz": 7171,
      "▁yürürlüğe": 7172,
      "▁altındaki": 7173,
      "▁Birleşik": 7174,
      "ood": 7175,
      "tic": 7176,
      "▁geçirmek": 7177,
      "▁taze": 7178,
      "▁konul": 7179,
      "▁Anayasa": 7180,
      "amıyorum": 7181,
      "▁rekor": 7182,
      "ılmak": 7183,
      "▁ederler": 7184,
      "▁Sözleş": 7185,
      "▁dışındaki": 7186,
      "▁kilometre": 7187,
      "▁pazarlama": 7188,
      "LU": 7189,
      "▁sistemin": 7190,
      "▁konferans": 7191,
      "▁ST": 7192,
      "▁oluşturmak": 7193,
      "▁çocuklara": 7194,
      "luğunu": 7195,
      "▁AD": 7196,
      "ura": 7197,
      "▁inanılmaz": 7198,
      "▁değişen": 7199,
      "dular": 7200,
      "▁çizg": 7201,
      "amaktadır": 7202,
      "▁örneği": 7203,
      "▁Zeytin": 7204,
      "▁filmin": 7205,
      "▁ödey": 7206,
      "▁paralel": 7207,
      "lının": 7208,
      "▁seksi": 7209,
      "anıp": 7210,
      "▁yakış": 7211,
      "▁Cil": 7212,
      "▁sağlamaktadır": 7213,
      "üman": 7214,
      "▁Di": 7215,
      "▁mahalle": 7216,
      "▁yakıt": 7217,
      "▁Ağır": 7218,
      "▁iyileş": 7219,
      "▁Yabancı": 7220,
      "▁üncü": 7221,
      "memiz": 7222,
      "liğinden": 7223,
      "▁mesela": 7224,
      "▁kazanmak": 7225,
      "▁alanına": 7226,
      "leniyor": 7227,
      "luğa": 7228,
      "▁gerekirse": 7229,
      "amıza": 7230,
      "▁çel": 7231,
      "▁Değişik": 7232,
      "▁tren": 7233,
      "ektaş": 7234,
      "raç": 7235,
      "▁teknolojik": 7236,
      "▁geliştirme": 7237,
      "▁ayrıntı": 7238,
      "▁söyler": 7239,
      "▁Vüc": 7240,
      "▁eşsiz": 7241,
      "▁numarası": 7242,
      "▁zamanla": 7243,
      "enize": 7244,
      "▁tarafı": 7245,
      "▁Geçmiş": 7246,
      "umuza": 7247,
      "▁izlem": 7248,
      "▁ülkemizin": 7249,
      "▁içecek": 7250,
      "▁yaşama": 7251,
      "▁alabilir": 7252,
      "▁Metin": 7253,
      "▁Projesi": 7254,
      "▁Örnek": 7255,
      "LE": 7256,
      "lî": 7257,
      "▁tarihine": 7258,
      "▁sad": 7259,
      "▁Uk": 7260,
      "▁ceph": 7261,
      "▁fant": 7262,
      "▁protest": 7263,
      "▁çekin": 7264,
      "▁seri": 7265,
      "▁sizden": 7266,
      "▁değişikliği": 7267,
      "▁yerlere": 7268,
      "▁ısrar": 7269,
      "xy": 7270,
      "▁Tesis": 7271,
      "▁Dal": 7272,
      "ersiniz": 7273,
      "abildiğ": 7274,
      "▁organize": 7275,
      "▁malzemeleri": 7276,
      "âyet": 7277,
      "uşu": 7278,
      "▁dinamik": 7279,
      "▁ikisi": 7280,
      "tığınız": 7281,
      "▁Fen": 7282,
      "▁Vide": 7283,
      "▁saatleri": 7284,
      "▁müh": 7285,
      "▁harcam": 7286,
      "▁kullanma": 7287,
      "▁ahşap": 7288,
      "▁birinc": 7289,
      "▁Teb": 7290,
      "▁Tük": 7291,
      "diven": 7292,
      "▁mahkeme": 7293,
      "abilme": 7294,
      "▁başlamıştır": 7295,
      "▁sunar": 7296,
      "▁yeterince": 7297,
      "abak": 7298,
      "▁kaybeden": 7299,
      "▁Abdül": 7300,
      "▁York": 7301,
      "▁caz": 7302,
      "▁vermesi": 7303,
      "mu": 7304,
      "▁Kem": 7305,
      "▁İnsanlar": 7306,
      "▁aksesuar": 7307,
      "tıklarını": 7308,
      "▁dekorasyon": 7309,
      "▁uygulamaya": 7310,
      "▁öp": 7311,
      "ee": 7312,
      "üyü": 7313,
      "▁Satış": 7314,
      "▁anlamında": 7315,
      "▁bizimle": 7316,
      "▁kontrolü": 7317,
      "▁Bulgar": 7318,
      "▁lezzetli": 7319,
      "▁sürü": 7320,
      "▁çaba": 7321,
      "▁Diz": 7322,
      "▁Bebek": 7323,
      "▁örgütün": 7324,
      "▁tey": 7325,
      "liyoruz": 7326,
      "▁istanbul": 7327,
      "▁verilmiş": 7328,
      "lıktan": 7329,
      "▁sistemine": 7330,
      "lılar": 7331,
      "▁şirketin": 7332,
      "▁Asya": 7333,
      "▁etkileri": 7334,
      "iğeri": 7335,
      "▁oyunlar": 7336,
      "▁konuya": 7337,
      "idin": 7338,
      "▁alakalı": 7339,
      "▁Gec": 7340,
      "▁dediği": 7341,
      "▁yemeği": 7342,
      "▁açıklaması": 7343,
      "▁plastik": 7344,
      "▁teker": 7345,
      "▁devir": 7346,
      "▁çalışıyoruz": 7347,
      "▁Komutan": 7348,
      "▁bulunduğunu": 7349,
      "▁yolları": 7350,
      "▁ülkeye": 7351,
      "▁ülkemiz": 7352,
      "▁bilinc": 7353,
      "▁yazdığı": 7354,
      "▁düzenlenecek": 7355,
      "amadık": 7356,
      "▁arşiv": 7357,
      "▁çapında": 7358,
      "▁oraya": 7359,
      "▁gündüz": 7360,
      "▁yapılmıştır": 7361,
      "işe": 7362,
      "▁sistemini": 7363,
      "▁Digit": 7364,
      "▁Fu": 7365,
      "▁bunlardan": 7366,
      "ks": 7367,
      "▁Cumhurbaşkanlığı": 7368,
      "▁sığ": 7369,
      "▁Dünyada": 7370,
      "▁katli": 7371,
      "▁cevab": 7372,
      "▁dör": 7373,
      "▁tef": 7374,
      "▁ülkelerde": 7375,
      "▁Böyl": 7376,
      "▁tescil": 7377,
      "▁Elbette": 7378,
      "▁olgun": 7379,
      "şi": 7380,
      "▁Mir": 7381,
      "▁kalacak": 7382,
      "▁eline": 7383,
      "▁elinden": 7384,
      "ider": 7385,
      "▁Çöz": 7386,
      "▁Rom": 7387,
      "öv": 7388,
      "çilik": 7389,
      "▁Dde": 7390,
      "▁nis": 7391,
      "▁bölümde": 7392,
      "simum": 7393,
      "amadığı": 7394,
      "▁Atatürkün": 7395,
      "▁düşündüğ": 7396,
      "▁kutsal": 7397,
      "▁atmos": 7398,
      "▁demokras": 7399,
      "▁evi": 7400,
      "▁Günde": 7401,
      "malara": 7402,
      "▁Pa": 7403,
      "▁Vatandaş": 7404,
      "▁olmazsa": 7405,
      "▁bekliyoruz": 7406,
      "ive": 7407,
      "▁olmasının": 7408,
      "own": 7409,
      "▁Ermen": 7410,
      "▁koyun": 7411,
      "▁bakter": 7412,
      "▁istikrar": 7413,
      "▁emir": 7414,
      "▁öv": 7415,
      "▁Teknoloj": 7416,
      "▁Şanlıur": 7417,
      "▁tamamı": 7418,
      "▁küf": 7419,
      "▁verilmiştir": 7420,
      "yeni": 7421,
      "▁kalıyor": 7422,
      "▁göze": 7423,
      "▁Kud": 7424,
      "▁çekmek": 7425,
      "dıklarını": 7426,
      "OS": 7427,
      "mıyorum": 7428,
      "▁cemaat": 7429,
      "▁diliyorum": 7430,
      "▁yağış": 7431,
      "▁edecektir": 7432,
      "lobal": 7433,
      "▁ilişkileri": 7434,
      "▁Haberleri": 7435,
      "▁istediğini": 7436,
      "▁Sorum": 7437,
      "▁teşh": 7438,
      "▁şarj": 7439,
      "▁gününde": 7440,
      "▁Azerbay": 7441,
      "▁Com": 7442,
      "▁sön": 7443,
      "iraat": 7444,
      "ildiğinde": 7445,
      "▁yuvar": 7446,
      "▁dudak": 7447,
      "▁rob": 7448,
      "▁özgü": 7449,
      "▁getiriyor": 7450,
      "▁Grubu": 7451,
      "▁verg": 7452,
      "▁Yunanistan": 7453,
      "▁post": 7454,
      "▁makine": 7455,
      "▁riv": 7456,
      "larımızla": 7457,
      "▁tanıy": 7458,
      "▁uyk": 7459,
      "▁stres": 7460,
      "▁içerisine": 7461,
      "▁açıldı": 7462,
      "▁konuları": 7463,
      "lüğünü": 7464,
      "▁yargılan": 7465,
      "▁eleman": 7466,
      "▁coş": 7467,
      "▁delik": 7468,
      "▁laf": 7469,
      "▁görevli": 7470,
      "▁Sinem": 7471,
      "▁Roman": 7472,
      "▁redde": 7473,
      "▁yerleşim": 7474,
      "pa": 7475,
      "▁Malatya": 7476,
      "▁Lev": 7477,
      "▁adamın": 7478,
      "▁eğlence": 7479,
      "▁rüzgar": 7480,
      "▁içeriği": 7481,
      "itika": 7482,
      "▁hakkındaki": 7483,
      "▁ittifak": 7484,
      "▁Akıl": 7485,
      "▁eposta": 7486,
      "ebileceğiniz": 7487,
      "▁lay": 7488,
      "▁yardımı": 7489,
      "▁İmparator": 7490,
      "▁And": 7491,
      "▁burun": 7492,
      "▁suyun": 7493,
      "▁sizlerin": 7494,
      "▁akım": 7495,
      "▁Play": 7496,
      "▁yayımlanan": 7497,
      "▁blok": 7498,
      "▁Temsil": 7499,
      "▁daima": 7500,
      "▁Hastanesi": 7501,
      "▁kıyafet": 7502,
      "▁köken": 7503,
      "▁kolaylıkla": 7504,
      "▁yürütülen": 7505,
      "▁Kayı": 7506,
      "uvalet": 7507,
      "▁ihlal": 7508,
      "▁Microsoft": 7509,
      "▁algıl": 7510,
      "▁Silah": 7511,
      "▁arkadaşım": 7512,
      "yaspor": 7513,
      "▁ekipman": 7514,
      "ucusu": 7515,
      "▁doktora": 7516,
      "▁hukuki": 7517,
      "▁farkın": 7518,
      "▁arzu": 7519,
      "▁Yoksa": 7520,
      "▁forum": 7521,
      "▁baştan": 7522,
      "▁Dönem": 7523,
      "▁Başar": 7524,
      "▁di": 7525,
      "▁hepsini": 7526,
      "▁tabak": 7527,
      "▁Para": 7528,
      "▁Ada": 7529,
      "▁payı": 7530,
      "alarıyla": 7531,
      "avuş": 7532,
      "▁öğrenildi": 7533,
      "▁YÖ": 7534,
      "▁Bunlardan": 7535,
      "▁kuy": 7536,
      "ilecektir": 7537,
      "▁Ka": 7538,
      "osun": 7539,
      "medik": 7540,
      "▁verilmektedir": 7541,
      "▁bakar": 7542,
      "▁gerçekleşti": 7543,
      "▁dondur": 7544,
      "▁Uğur": 7545,
      "▁kafa": 7546,
      "▁geliştirmek": 7547,
      "▁yolunu": 7548,
      "▁verdik": 7549,
      "▁gücünü": 7550,
      "▁bulut": 7551,
      "▁merhaba": 7552,
      "▁dog": 7553,
      "umuzda": 7554,
      "▁kötül": 7555,
      "▁duruyor": 7556,
      "mamıştır": 7557,
      "▁Del": 7558,
      "▁Meclisi": 7559,
      "▁Paris": 7560,
      "▁mater": 7561,
      "▁çır": 7562,
      "▁bildirildi": 7563,
      "do": 7564,
      "▁Col": 7565,
      "▁geleceği": 7566,
      "▁görüşme": 7567,
      "espor": 7568,
      "▁log": 7569,
      "▁Naz": 7570,
      "▁önemlisi": 7571,
      "▁girer": 7572,
      "OT": 7573,
      "▁oradan": 7574,
      "abileceğ": 7575,
      "lon": 7576,
      "▁Mor": 7577,
      "▁Ünlü": 7578,
      "▁Çiç": 7579,
      "▁Sn": 7580,
      "▁Tim": 7581,
      "▁etmey": 7582,
      "▁istatistik": 7583,
      "▁kayıtlı": 7584,
      "▁budur": 7585,
      "▁öf": 7586,
      "▁belirgin": 7587,
      "▁ayrıntılı": 7588,
      "▁kaynakları": 7589,
      "mec": 7590,
      "▁Model": 7591,
      "çilerin": 7592,
      "ışıklık": 7593,
      "▁ismini": 7594,
      "ıköy": 7595,
      "▁Saf": 7596,
      "▁Ekonomi": 7597,
      "▁Kanununun": 7598,
      "türü": 7599,
      "▁çıkarak": 7600,
      "▁ikili": 7601,
      "▁Anadol": 7602,
      "▁Emre": 7603,
      "▁taşıyor": 7604,
      "▁Kuranı": 7605,
      "▁kaybetti": 7606,
      "▁Savunma": 7607,
      "cal": 7608,
      "▁yapmaktadır": 7609,
      "▁okula": 7610,
      "▁sömür": 7611,
      "▁paylaşmak": 7612,
      "▁AA": 7613,
      "laç": 7614,
      "▁yöntemleri": 7615,
      "▁mecbur": 7616,
      "duğunda": 7617,
      "▁Kongr": 7618,
      "nda": 7619,
      "oid": 7620,
      "▁disiplin": 7621,
      "▁edenler": 7622,
      "▁birlikt": 7623,
      "▁Hangi": 7624,
      "▁halkının": 7625,
      "▁Görüş": 7626,
      "▁semin": 7627,
      "dığına": 7628,
      "▁Basın": 7629,
      "ümin": 7630,
      "▁efend": 7631,
      "▁karşısına": 7632,
      "▁Form": 7633,
      "▁Yorum": 7634,
      "▁vurgulayan": 7635,
      "▁kriter": 7636,
      "▁ihale": 7637,
      "ME": 7638,
      "idir": 7639,
      "▁Ermeni": 7640,
      "▁kurulmuş": 7641,
      "▁sakın": 7642,
      "umda": 7643,
      "▁haş": 7644,
      "IZ": 7645,
      "▁tüketic": 7646,
      "▁hizmete": 7647,
      "ılış": 7648,
      "ko": 7649,
      "▁Kulübü": 7650,
      "laştırma": 7651,
      "▁bölgenin": 7652,
      "▁faaliyetleri": 7653,
      "▁Pak": 7654,
      "▁vitamin": 7655,
      "▁kek": 7656,
      "▁Türkmen": 7657,
      "▁etrafında": 7658,
      "▁alanlarında": 7659,
      "▁istasyon": 7660,
      "▁montaj": 7661,
      "▁milletin": 7662,
      "▁tahsil": 7663,
      "▁toplantısında": 7664,
      "▁obj": 7665,
      "▁diplom": 7666,
      "▁Finans": 7667,
      "▁Anayas": 7668,
      "▁liste": 7669,
      "oks": 7670,
      "lülük": 7671,
      "▁Pazartesi": 7672,
      "▁Çoc": 7673,
      "▁vefat": 7674,
      "▁dediler": 7675,
      "▁kullanıyor": 7676,
      "▁anlaşma": 7677,
      "▁Yay": 7678,
      "▁buton": 7679,
      "▁kg": 7680,
      "▁Aziz": 7681,
      "▁olanı": 7682,
      "▁Bölümü": 7683,
      "▁mutf": 7684,
      "▁sekiz": 7685,
      "ladığımız": 7686,
      "▁işini": 7687,
      "OĞ": 7688,
      "▁Kör": 7689,
      "▁seçeneği": 7690,
      "▁etiket": 7691,
      "▁pozitif": 7692,
      "▁olurdu": 7693,
      "▁bizleri": 7694,
      "▁utan": 7695,
      "▁aşamasında": 7696,
      "lament": 7697,
      "▁yatırımcı": 7698,
      "sü": 7699,
      "▁uyarınca": 7700,
      "ehr": 7701,
      "▁Online": 7702,
      "▁yansı": 7703,
      "▁zamandır": 7704,
      "▁Motor": 7705,
      "üyoruz": 7706,
      "▁pak": 7707,
      "▁vicdan": 7708,
      "▁makinesi": 7709,
      "▁sahipliği": 7710,
      "▁Ob": 7711,
      "▁getirir": 7712,
      "▁çant": 7713,
      "▁gözet": 7714,
      "▁etmeniz": 7715,
      "▁Başk": 7716,
      "caya": 7717,
      "▁çikol": 7718,
      "▁karşılığında": 7719,
      "▁Trans": 7720,
      "resyon": 7721,
      "▁planı": 7722,
      "▁Hanım": 7723,
      "▁merkezine": 7724,
      "ilin": 7725,
      "▁müslüm": 7726,
      "▁gibidir": 7727,
      "▁başkenti": 7728,
      "▁IŞ": 7729,
      "▁unutmayın": 7730,
      "▁özellikler": 7731,
      "▁tamir": 7732,
      "▁Mik": 7733,
      "lasman": 7734,
      "▁sonradan": 7735,
      "▁giyim": 7736,
      "▁Ülkemizde": 7737,
      "▁koruyucu": 7738,
      "▁Joh": 7739,
      "▁bastır": 7740,
      "▁özet": 7741,
      "▁evrak": 7742,
      "▁döndü": 7743,
      "▁tutun": 7744,
      "▁perde": 7745,
      "reti": 7746,
      "▁bugünkü": 7747,
      "luğun": 7748,
      "▁Kadınlar": 7749,
      "▁anlayışı": 7750,
      "▁Emin": 7751,
      "▁ilçesi": 7752,
      "▁ocak": 7753,
      "▁seviyede": 7754,
      "▁anket": 7755,
      "▁Işık": 7756,
      "IS": 7757,
      "▁yardımıyla": 7758,
      "▁karn": 7759,
      "eyt": 7760,
      "▁alınmış": 7761,
      "▁kombin": 7762,
      "▁odaklı": 7763,
      "▁yoksul": 7764,
      "▁projenin": 7765,
      "▁Bülent": 7766,
      "▁ithal": 7767,
      "▁ekst": 7768,
      "▁yurtdış": 7769,
      "▁direkt": 7770,
      "mamalıdır": 7771,
      "▁eks": 7772,
      "▁Öğrenci": 7773,
      "▁imam": 7774,
      "▁omuz": 7775,
      "▁karşılığı": 7776,
      "ürriyet": 7777,
      "▁hayatında": 7778,
      "▁riski": 7779,
      "▁olmas": 7780,
      "ydi": 7781,
      "▁bedeli": 7782,
      "▁kendime": 7783,
      "mus": 7784,
      "üsünü": 7785,
      "Lİ": 7786,
      "▁mesleki": 7787,
      "▁üzeri": 7788,
      "▁Tedav": 7789,
      "▁hazırlanmış": 7790,
      "▁lise": 7791,
      "▁çalıştığı": 7792,
      "▁kodu": 7793,
      "▁kayd": 7794,
      "amızı": 7795,
      "▁topluluk": 7796,
      "▁uyuşturucu": 7797,
      "▁değişiklikler": 7798,
      "▁tedarik": 7799,
      "▁ilah": 7800,
      "▁Giriş": 7801,
      "▁esnek": 7802,
      "▁dert": 7803,
      "MS": 7804,
      "▁direk": 7805,
      "▁etkiler": 7806,
      "▁Bize": 7807,
      "lit": 7808,
      "▁yaşamını": 7809,
      "▁samimi": 7810,
      "▁Trabzonspor": 7811,
      "ındık": 7812,
      "▁Tep": 7813,
      "emiyorum": 7814,
      "▁Dek": 7815,
      "▁Toplant": 7816,
      "▁vadeli": 7817,
      "▁Det": 7818,
      "▁taahh": 7819,
      "linin": 7820,
      "▁yıllarında": 7821,
      "▁fit": 7822,
      "▁yuv": 7823,
      "▁canım": 7824,
      "▁Normal": 7825,
      "▁irti": 7826,
      "▁AV": 7827,
      "▁ithalat": 7828,
      "uydu": 7829,
      "asıdır": 7830,
      "tek": 7831,
      "▁uzan": 7832,
      "otiv": 7833,
      "▁rezervasyon": 7834,
      "nn": 7835,
      "▁skor": 7836,
      "▁sakat": 7837,
      "lamaları": 7838,
      "▁hızlandır": 7839,
      "▁istedik": 7840,
      "▁seyr": 7841,
      "▁Sim": 7842,
      "▁kül": 7843,
      "▁kamyon": 7844,
      "▁Jandarma": 7845,
      "çu": 7846,
      "▁inf": 7847,
      "▁oynanan": 7848,
      "▁sektörünün": 7849,
      "▁zamana": 7850,
      "tre": 7851,
      "▁boşan": 7852,
      "▁Allahtan": 7853,
      "▁Kıy": 7854,
      "▁Türkiyeden": 7855,
      "▁İnan": 7856,
      "▁kalma": 7857,
      "salar": 7858,
      "▁ortamı": 7859,
      "▁kral": 7860,
      "▁tutmak": 7861,
      "▁hormon": 7862,
      "sed": 7863,
      "▁gönüllü": 7864,
      "▁sıradan": 7865,
      "▁misiniz": 7866,
      "sav": 7867,
      "▁medyada": 7868,
      "▁kaydeden": 7869,
      "▁Ziyaret": 7870,
      "ekom": 7871,
      "enlerin": 7872,
      "▁Edir": 7873,
      "▁manzar": 7874,
      "▁ihmal": 7875,
      "▁bizden": 7876,
      "▁Geliş": 7877,
      "▁sul": 7878,
      "▁sitemiz": 7879,
      "▁şeyden": 7880,
      "▁Sokak": 7881,
      "▁boyun": 7882,
      "▁Renk": 7883,
      "▁Aday": 7884,
      "▁şahit": 7885,
      "▁alımı": 7886,
      "▁idare": 7887,
      "▁Tanrı": 7888,
      "▁olayları": 7889,
      "▁Giz": 7890,
      "▁akla": 7891,
      "▁olmanız": 7892,
      "▁izni": 7893,
      "▁Gez": 7894,
      "▁koz": 7895,
      "▁olurken": 7896,
      "▁Def": 7897,
      "▁laborat": 7898,
      "ısın": 7899,
      "ütü": 7900,
      "▁yoluna": 7901,
      "▁söylemiş": 7902,
      "▁hikây": 7903,
      "▁Kardeş": 7904,
      "▁tavır": 7905,
      "▁şaş": 7906,
      "▁Afrika": 7907,
      "▁tatmin": 7908,
      "çası": 7909,
      "▁yüklen": 7910,
      "▁Ha": 7911,
      "▁set": 7912,
      "ilirken": 7913,
      "▁Ukray": 7914,
      "▁Mis": 7915,
      "▁sıcaklık": 7916,
      "▁Üret": 7917,
      "▁ayrım": 7918,
      "▁özgün": 7919,
      "▁ulaştı": 7920,
      "▁profil": 7921,
      "▁taksit": 7922,
      "▁tohum": 7923,
      "▁sahipleri": 7924,
      "▁Hastalık": 7925,
      "▁imzal": 7926,
      "düncü": 7927,
      "yayı": 7928,
      "▁bölgesi": 7929,
      "amamış": 7930,
      "▁geçmek": 7931,
      "▁olmasın": 7932,
      "▁Oda": 7933,
      "▁projeleri": 7934,
      "dirim": 7935,
      "▁Ven": 7936,
      "▁Kayıt": 7937,
      "▁oğlum": 7938,
      "▁etmem": 7939,
      "▁maddeler": 7940,
      "itasyon": 7941,
      "▁dinlen": 7942,
      "▁içerir": 7943,
      "▁Geliştir": 7944,
      "▁vatandaşların": 7945,
      "▁Federasyonu": 7946,
      "▁pir": 7947,
      "▁haftalık": 7948,
      "▁Kurtul": 7949,
      "yadaki": 7950,
      "▁Seb": 7951,
      "▁başından": 7952,
      "▁silahlı": 7953,
      "▁imalat": 7954,
      "▁sahil": 7955,
      "tığında": 7956,
      "dava": 7957,
      "ayolu": 7958,
      "▁Tanr": 7959,
      "▁TS": 7960,
      "▁korunması": 7961,
      "▁gerçekleştirildi": 7962,
      "ubu": 7963,
      "▁cumhurbaş": 7964,
      "amızın": 7965,
      "▁İlgili": 7966,
      "▁Dok": 7967,
      "▁Nitekim": 7968,
      "▁Bi": 7969,
      "▁daire": 7970,
      "hiş": 7971,
      "▁danışman": 7972,
      "▁tarifi": 7973,
      "▁Knın": 7974,
      "▁alet": 7975,
      "ikal": 7976,
      "▁Marmara": 7977,
      "▁niye": 7978,
      "▁müsa": 7979,
      "eciler": 7980,
      "▁ayet": 7981,
      "çılar": 7982,
      "▁sub": 7983,
      "▁Bakanlık": 7984,
      "▁bakımı": 7985,
      "▁maddesinin": 7986,
      "opark": 7987,
      "▁görme": 7988,
      "▁dünyayı": 7989,
      "▁Servis": 7990,
      "▁çıkarmak": 7991,
      "LAN": 7992,
      "▁ziyade": 7993,
      "▁kaybed": 7994,
      "▁ÖZ": 7995,
      "▁Denizli": 7996,
      "▁Avrupanın": 7997,
      "▁İtalyan": 7998,
      "▁almayı": 7999,
      "▁Doğum": 8000,
      "▁Günlük": 8001,
      "▁sünnet": 8002,
      "ümüze": 8003,
      "▁Cevap": 8004,
      "▁bulaş": 8005,
      "▁devamı": 8006,
      "▁Bakanlığının": 8007,
      "▁Cep": 8008,
      "▁sisteme": 8009,
      "▁yazarı": 8010,
      "▁senar": 8011,
      "▁çan": 8012,
      "▁dolarlık": 8013,
      "▁eşyalar": 8014,
      "▁konse": 8015,
      "▁Korum": 8016,
      "▁izlemek": 8017,
      "▁gereklidir": 8018,
      "▁talebi": 8019,
      "▁vurguladı": 8020,
      "US": 8021,
      "▁neticesinde": 8022,
      "▁medeniyet": 8023,
      "▁Roma": 8024,
      "iya": 8025,
      "yası": 8026,
      "▁Sektör": 8027,
      "▁girmek": 8028,
      "▁ihraç": 8029,
      "▁sizinle": 8030,
      "▁sanık": 8031,
      "▁matematik": 8032,
      "▁sus": 8033,
      "▁Muğ": 8034,
      "tük": 8035,
      "▁ısın": 8036,
      "lılığ": 8037,
      "▁devleti": 8038,
      "▁ötürü": 8039,
      "▁Gol": 8040,
      "▁doz": 8041,
      "▁ölçüm": 8042,
      "▁görebilirsiniz": 8043,
      "▁galibiyet": 8044,
      "▁eseri": 8045,
      "mat": 8046,
      "▁bilgilerin": 8047,
      "amda": 8048,
      "▁koşulları": 8049,
      "▁ilerleyen": 8050,
      "▁trend": 8051,
      "▁öğrenme": 8052,
      "aklı": 8053,
      "▁lit": 8054,
      "▁bardak": 8055,
      "▁TBMM": 8056,
      "HA": 8057,
      "âz": 8058,
      "▁endek": 8059,
      "▁Çarşamba": 8060,
      "▁satır": 8061,
      "▁olmasıdır": 8062,
      "▁takımın": 8063,
      "▁Bes": 8064,
      "inizle": 8065,
      "▁planda": 8066,
      "▁maz": 8067,
      "▁mekân": 8068,
      "elisiniz": 8069,
      "▁Hacı": 8070,
      "▁oluşturur": 8071,
      "ılığını": 8072,
      "▁olağanüstü": 8073,
      "portaj": 8074,
      "▁araçlar": 8075,
      "▁isimler": 8076,
      "▁geçerek": 8077,
      "▁özür": 8078,
      "çileri": 8079,
      "▁tüy": 8080,
      "beri": 8081,
      "IC": 8082,
      "▁sanatç": 8083,
      "▁raporu": 8084,
      "▁ettiğiniz": 8085,
      "▁ettiğimiz": 8086,
      "no": 8087,
      "▁Yavuz": 8088,
      "▁hâl": 8089,
      "▁Sün": 8090,
      "artman": 8091,
      "▁Selçuk": 8092,
      "▁tıkan": 8093,
      "lip": 8094,
      "▁aldığını": 8095,
      "▁Ateş": 8096,
      "▁İstik": 8097,
      "akar": 8098,
      "▁Kalkınma": 8099,
      "▁randev": 8100,
      "▁Köpr": 8101,
      "▁biber": 8102,
      "▁pahalı": 8103,
      "▁Hedef": 8104,
      "▁bozukluk": 8105,
      "▁neş": 8106,
      "▁kaynaklı": 8107,
      "▁Kazan": 8108,
      "▁sorunsuz": 8109,
      "▁hesabı": 8110,
      "▁Ur": 8111,
      "▁kel": 8112,
      "▁çevresinde": 8113,
      "▁Yerel": 8114,
      "sün": 8115,
      "▁evvel": 8116,
      "▁zorlu": 8117,
      "▁fı": 8118,
      "▁dağıtım": 8119,
      "lüğüne": 8120,
      "▁seyret": 8121,
      "▁Senin": 8122,
      "lub": 8123,
      "ph": 8124,
      "▁Gr": 8125,
      "▁Kürd": 8126,
      "▁Unut": 8127,
      "dinde": 8128,
      "▁Fenerbahç": 8129,
      "▁stratejik": 8130,
      "▁pis": 8131,
      "▁Belediyesinin": 8132,
      "▁hamur": 8133,
      "▁göv": 8134,
      "▁Selam": 8135,
      "▁sa": 8136,
      "▁Ortadoğu": 8137,
      "▁orijinal": 8138,
      "▁denen": 8139,
      "▁vol": 8140,
      "▁asgari": 8141,
      "▁kısaca": 8142,
      "▁uydur": 8143,
      "▁çözümler": 8144,
      "▁olacağız": 8145,
      "▁haksız": 8146,
      "▁Üniversite": 8147,
      "▁çağdaş": 8148,
      "▁rız": 8149,
      "▁referans": 8150,
      "▁gözler": 8151,
      "▁Muhar": 8152,
      "▁değişken": 8153,
      "ena": 8154,
      "▁Lisesi": 8155,
      "malıyız": 8156,
      "▁işlen": 8157,
      "engiz": 8158,
      "▁üyeler": 8159,
      "▁göreve": 8160,
      "kâr": 8161,
      "▁zorundadır": 8162,
      "▁Perşembe": 8163,
      "ino": 8164,
      "▁yetişkin": 8165,
      "▁çözümü": 8166,
      "▁yapılarak": 8167,
      "▁doku": 8168,
      "▁sunucu": 8169,
      "▁noktaya": 8170,
      "▁oluşturduğu": 8171,
      "▁batı": 8172,
      "ideki": 8173,
      "▁Forum": 8174,
      "▁çıkardı": 8175,
      "▁piyasa": 8176,
      "▁firmaları": 8177,
      "âhil": 8178,
      "▁Sayfa": 8179,
      "▁vasıt": 8180,
      "▁etkileş": 8181,
      "ülerek": 8182,
      "▁Güncel": 8183,
      "alarca": 8184,
      "▁bag": 8185,
      "▁çil": 8186,
      "▁meşhur": 8187,
      "▁Geb": 8188,
      "▁Qu": 8189,
      "ılmaya": 8190,
      "▁yararlı": 8191,
      "▁kapsamda": 8192,
      "ifi": 8193,
      "▁olanların": 8194,
      "▁müş": 8195,
      "▁sıklıkla": 8196,
      "▁yıldan": 8197,
      "has": 8198,
      "▁Yargı": 8199,
      "stil": 8200,
      "▁GB": 8201,
      "ji": 8202,
      "▁AY": 8203,
      "▁karın": 8204,
      "nu": 8205,
      "use": 8206,
      "▁IŞİD": 8207,
      "şet": 8208,
      "▁girmiş": 8209,
      "▁Benz": 8210,
      "▁konaklama": 8211,
      "▁Hotel": 8212,
      "onsor": 8213,
      "▁yapılandır": 8214,
      "▁kanat": 8215,
      "▁len": 8216,
      "▁hemde": 8217,
      "▁turnuv": 8218,
      "▁aşık": 8219,
      "▁olmasından": 8220,
      "likten": 8221,
      "alılar": 8222,
      "▁saatte": 8223,
      "tiğinde": 8224,
      "▁önlemek": 8225,
      "▁Jo": 8226,
      "▁görülüyor": 8227,
      "▁Dis": 8228,
      "▁Hollanda": 8229,
      "▁Gece": 8230,
      "▁Konu": 8231,
      "amanız": 8232,
      "▁kullanıcıların": 8233,
      "▁hamil": 8234,
      "▁nefret": 8235,
      "▁hakaret": 8236,
      "▁müst": 8237,
      "▁Maliye": 8238,
      "lex": 8239,
      "ame": 8240,
      "▁çıkmak": 8241,
      "▁metr": 8242,
      "▁nereye": 8243,
      "▁hayli": 8244,
      "▁gidiş": 8245,
      "yet": 8246,
      "▁Balıkes": 8247,
      "▁kendinize": 8248,
      "▁Pli": 8249,
      "▁soruları": 8250,
      "▁maksimum": 8251,
      "▁zincir": 8252,
      "▁ibaret": 8253,
      "▁yazan": 8254,
      "uki": 8255,
      "▁desen": 8256,
      "▁He": 8257,
      "▁Samsung": 8258,
      "mekle": 8259,
      "EY": 8260,
      "urk": 8261,
      "▁Eğitimi": 8262,
      "▁oyuncak": 8263,
      "▁satışı": 8264,
      "▁ortamında": 8265,
      "▁izleyen": 8266,
      "▁istemez": 8267,
      "▁emr": 8268,
      "▁kadını": 8269,
      "▁insanlık": 8270,
      "▁motiv": 8271,
      "▁konuyla": 8272,
      "▁Kesin": 8273,
      "▁kullanmaya": 8274,
      "▁uyandır": 8275,
      "▁onlarca": 8276,
      "▁mesleğ": 8277,
      "ılırken": 8278,
      "▁ambalaj": 8279,
      "ısındaki": 8280,
      "▁minik": 8281,
      "▁KKT": 8282,
      "▁ortasında": 8283,
      "▁duran": 8284,
      "manıza": 8285,
      "▁boşluk": 8286,
      "▁verileri": 8287,
      "▁Canlı": 8288,
      "▁toplantısı": 8289,
      "▁Sk": 8290,
      "▁Emir": 8291,
      "odu": 8292,
      "▁durumlar": 8293,
      "▁inanıyorum": 8294,
      "▁borc": 8295,
      "▁açıklamalarda": 8296,
      "▁Önemli": 8297,
      "▁Kum": 8298,
      "▁mevzuat": 8299,
      "▁vitamini": 8300,
      "▁Oku": 8301,
      "ebilirler": 8302,
      "▁getirilen": 8303,
      "▁varlığı": 8304,
      "▁istenilen": 8305,
      "▁kritik": 8306,
      "▁kimseye": 8307,
      "▁yapacağı": 8308,
      "▁sök": 8309,
      "▁Mahallesinde": 8310,
      "▁Kadıköy": 8311,
      "▁raf": 8312,
      "▁hocam": 8313,
      "zem": 8314,
      "▁oynayan": 8315,
      "▁organik": 8316,
      "▁bırakın": 8317,
      "▁Uç": 8318,
      "▁AS": 8319,
      "▁Balkan": 8320,
      "▁arayış": 8321,
      "▁Şark": 8322,
      "▁işten": 8323,
      "▁açma": 8324,
      "LÜ": 8325,
      "adiş": 8326,
      "▁ard": 8327,
      "▁yi": 8328,
      "estivali": 8329,
      "▁Star": 8330,
      "▁Onların": 8331,
      "▁memnuniyet": 8332,
      "▁deneyimi": 8333,
      "luğunda": 8334,
      "▁kiralık": 8335,
      "▁beraberinde": 8336,
      "▁açıklandı": 8337,
      "▁çıl": 8338,
      "mm": 8339,
      "▁toplamda": 8340,
      "▁işletmeler": 8341,
      "▁güv": 8342,
      "▁giderken": 8343,
      "▁tazminat": 8344,
      "▁fazlası": 8345,
      "▁fikr": 8346,
      "▁başlamak": 8347,
      "▁kampanya": 8348,
      "onya": 8349,
      "▁düzenlendi": 8350,
      "ledim": 8351,
      "▁ihtiyaçlarını": 8352,
      "▁materyal": 8353,
      "▁gösterilen": 8354,
      "▁bununla": 8355,
      "▁zem": 8356,
      "▁Boş": 8357,
      "▁verin": 8358,
      "name": 8359,
      "▁Politik": 8360,
      "▁tamamladı": 8361,
      "▁sözler": 8362,
      "▁ediyorlar": 8363,
      "▁çalışmaların": 8364,
      "▁lam": 8365,
      "ehenn": 8366,
      "▁nik": 8367,
      "▁Gümüş": 8368,
      "pe": 8369,
      "▁oluşturulan": 8370,
      "▁Dan": 8371,
      "▁anlatım": 8372,
      "▁bizde": 8373,
      "▁yansım": 8374,
      "değ": 8375,
      "▁antik": 8376,
      "▁kullanıcılar": 8377,
      "ux": 8378,
      "▁şok": 8379,
      "▁dilim": 8380,
      "▁Resul": 8381,
      "ülasyon": 8382,
      "▁yaratıcı": 8383,
      "eyince": 8384,
      "▁uygulanır": 8385,
      "indan": 8386,
      "OM": 8387,
      "▁gittim": 8388,
      "irt": 8389,
      "▁rejim": 8390,
      "▁köprü": 8391,
      "▁muc": 8392,
      "▁Sık": 8393,
      "▁pilot": 8394,
      "▁fot": 8395,
      "▁vermeden": 8396,
      "▁girecek": 8397,
      "▁müzak": 8398,
      "▁Selim": 8399,
      "▁hakem": 8400,
      "▁iğ": 8401,
      "▁bekliyorum": 8402,
      "lilerin": 8403,
      "▁semt": 8404,
      "▁layık": 8405,
      "▁girip": 8406,
      "azz": 8407,
      "ığına": 8408,
      "gül": 8409,
      "▁gerçeği": 8410,
      "tel": 8411,
      "ığının": 8412,
      "▁yaptığım": 8413,
      "▁sergilen": 8414,
      "▁bıçak": 8415,
      "▁görünen": 8416,
      "bo": 8417,
      "▁Bos": 8418,
      "▁istifa": 8419,
      "▁verip": 8420,
      "▁Gala": 8421,
      "▁arkadaşları": 8422,
      "tihar": 8423,
      "mediğini": 8424,
      "▁geçtik": 8425,
      "▁işit": 8426,
      "▁Bizler": 8427,
      "▁İnşallah": 8428,
      "▁döner": 8429,
      "▁birinde": 8430,
      "▁döş": 8431,
      "lığıyla": 8432,
      "▁Bayramı": 8433,
      "▁eur": 8434,
      "acaat": 8435,
      "▁bayr": 8436,
      "▁yarattığı": 8437,
      "lidir": 8438,
      "▁düzel": 8439,
      "▁cevabı": 8440,
      "▁Çocuğ": 8441,
      "▁sag": 8442,
      "▁titiz": 8443,
      "▁Çam": 8444,
      "UT": 8445,
      "▁reç": 8446,
      "uel": 8447,
      "▁yürüm": 8448,
      "adas": 8449,
      "▁olursunuz": 8450,
      "▁sizde": 8451,
      "▁karmaşık": 8452,
      "▁İçişleri": 8453,
      "üğün": 8454,
      "▁Cin": 8455,
      "▁şirketleri": 8456,
      "▁uzay": 8457,
      "▁Instagram": 8458,
      "▁bebeğ": 8459,
      "▁üreten": 8460,
      "▁sürdürülebilir": 8461,
      "▁itibarıyla": 8462,
      "▁teknolojisi": 8463,
      "▁referandum": 8464,
      "▁Keş": 8465,
      "▁altyapı": 8466,
      "cusu": 8467,
      "▁plaj": 8468,
      "brek": 8469,
      "▁duyduğu": 8470,
      "▁Ekonomik": 8471,
      "▁rot": 8472,
      "▁milyonlarca": 8473,
      "çek": 8474,
      "▁yaban": 8475,
      "▁Valisi": 8476,
      "kent": 8477,
      "▁Üniversitesinde": 8478,
      "▁musunuz": 8479,
      "▁ikna": 8480,
      "elif": 8481,
      "▁seçilen": 8482,
      "▁denize": 8483,
      "üsünde": 8484,
      "▁yapıyorum": 8485,
      "▁iktid": 8486,
      "▁kaynaklanan": 8487,
      "▁Herhangi": 8488,
      "▁KD": 8489,
      "▁onlardan": 8490,
      "▁boğaz": 8491,
      "▁açmak": 8492,
      "lamada": 8493,
      "▁isimleri": 8494,
      "ekili": 8495,
      "ilmeye": 8496,
      "ebir": 8497,
      "▁kurulum": 8498,
      "▁Öztürk": 8499,
      "▁Sc": 8500,
      "▁tabl": 8501,
      "▁Yum": 8502,
      "▁Kaya": 8503,
      "▁doğrusu": 8504,
      "▁koyu": 8505,
      "▁Kanal": 8506,
      "▁gergin": 8507,
      "▁yazmış": 8508,
      "▁konulu": 8509,
      "▁gençler": 8510,
      "▁Uygulam": 8511,
      "▁Üretim": 8512,
      "▁bayrak": 8513,
      "▁komşu": 8514,
      "▁başarılar": 8515,
      "▁köt": 8516,
      "▁Genellikle": 8517,
      "acaklar": 8518,
      "▁sürüc": 8519,
      "▁istediğim": 8520,
      "▁olabiliyor": 8521,
      "▁diğeri": 8522,
      "▁lak": 8523,
      "orit": 8524,
      "antol": 8525,
      "▁kavg": 8526,
      "▁virüs": 8527,
      "▁fazlas": 8528,
      "ünür": 8529,
      "▁şeref": 8530,
      "▁sandal": 8531,
      "▁saniye": 8532,
      "▁Daire": 8533,
      "▁hareketi": 8534,
      "▁minim": 8535,
      "▁bilgilerini": 8536,
      "▁zamanın": 8537,
      "▁yapacağız": 8538,
      "larımızda": 8539,
      "▁çalıştı": 8540,
      "▁milliyet": 8541,
      "acın": 8542,
      "▁oğl": 8543,
      "ladığını": 8544,
      "sanın": 8545,
      "▁atmosfer": 8546,
      "▁yaptığınız": 8547,
      "▁Teşkil": 8548,
      "▁Sakarya": 8549,
      "▁Kork": 8550,
      "▁Ziraat": 8551,
      "▁Sevgili": 8552,
      "▁markası": 8553,
      "▁bayanlar": 8554,
      "▁işleme": 8555,
      "▁çırp": 8556,
      "▁tarihte": 8557,
      "▁uzaklaştır": 8558,
      "▁Yönetmelik": 8559,
      "AĞ": 8560,
      "▁protesto": 8561,
      "▁deplasman": 8562,
      "▁zeytiny": 8563,
      "pınar": 8564,
      "▁Bence": 8565,
      "▁tarihten": 8566,
      "dukça": 8567,
      "LARI": 8568,
      "poz": 8569,
      "▁somut": 8570,
      "layınız": 8571,
      "▁SP": 8572,
      "▁abon": 8573,
      "▁Salih": 8574,
      "▁Salı": 8575,
      "▁lastik": 8576,
      "▁Bilin": 8577,
      "▁John": 8578,
      "▁Oğuz": 8579,
      "▁ikamet": 8580,
      "yeri": 8581,
      "▁sözlerine": 8582,
      "itör": 8583,
      "▁yapıldığını": 8584,
      "▁ajans": 8585,
      "▁limon": 8586,
      "▁yaşınday": 8587,
      "olik": 8588,
      "▁süz": 8589,
      "aport": 8590,
      "▁Beyin": 8591,
      "▁buğ": 8592,
      "▁çekil": 8593,
      "▁duyurdu": 8594,
      "▁robot": 8595,
      "layabilirsiniz": 8596,
      "▁tıklayın": 8597,
      "▁Ligi": 8598,
      "▁Sup": 8599,
      "şek": 8600,
      "▁Ayr": 8601,
      "▁Büyükel": 8602,
      "▁Çocuklar": 8603,
      "LERİ": 8604,
      "▁Üs": 8605,
      "ülük": 8606,
      "▁şiddetli": 8607,
      "şı": 8608,
      "amin": 8609,
      "▁hic": 8610,
      "unum": 8611,
      "▁sektörde": 8612,
      "▁politika": 8613,
      "▁Davut": 8614,
      "▁Komisyonu": 8615,
      "▁çatı": 8616,
      "iret": 8617,
      "▁Po": 8618,
      "▁şansı": 8619,
      "▁gerekçesiyle": 8620,
      "kas": 8621,
      "▁süresince": 8622,
      "iral": 8623,
      "▁duyul": 8624,
      "▁Modern": 8625,
      "▁açıklan": 8626,
      "▁kağı": 8627,
      "▁gönderilen": 8628,
      "▁hissettir": 8629,
      "▁çoğunlukla": 8630,
      "▁yuk": 8631,
      "▁disk": 8632,
      "▁yazın": 8633,
      "▁yapay": 8634,
      "▁tıbbi": 8635,
      "▁Koordin": 8636,
      "▁Müf": 8637,
      "IŞ": 8638,
      "▁tadını": 8639,
      "▁sahte": 8640,
      "▁olayın": 8641,
      "▁gelmez": 8642,
      "▁yüzü": 8643,
      "▁onlarla": 8644,
      "▁hastanın": 8645,
      "▁tüp": 8646,
      "fendi": 8647,
      "▁Uzmanı": 8648,
      "▁Akşam": 8649,
      "▁Tanı": 8650,
      "▁tuvalet": 8651,
      "▁dükkan": 8652,
      "incan": 8653,
      "lusu": 8654,
      "▁gereksiz": 8655,
      "▁dünyasında": 8656,
      "▁sinyal": 8657,
      "▁gebelik": 8658,
      "▁Sohbet": 8659,
      "▁tavuk": 8660,
      "▁iftar": 8661,
      "▁firmaların": 8662,
      "▁veriyoruz": 8663,
      "▁vazgeçilmez": 8664,
      "▁dâhil": 8665,
      "▁sayısını": 8666,
      "▁Şekil": 8667,
      "▁inanc": 8668,
      "▁suya": 8669,
      "▁Tuz": 8670,
      "ilerinde": 8671,
      "▁Git": 8672,
      "▁Air": 8673,
      "▁Kişisel": 8674,
      "▁yerinden": 8675,
      "▁zorlan": 8676,
      "▁bütçe": 8677,
      "▁kurumlar": 8678,
      "▁Tiyatro": 8679,
      "▁Halil": 8680,
      "▁yir": 8681,
      "▁etmekte": 8682,
      "▁dürüst": 8683,
      "▁dahilinde": 8684,
      "cuk": 8685,
      "▁gezeg": 8686,
      "▁Toplantı": 8687,
      "aseb": 8688,
      "▁Elaz": 8689,
      "mesin": 8690,
      "emeyecek": 8691,
      "▁ch": 8692,
      "▁getirerek": 8693,
      "▁İŞ": 8694,
      "ald": 8695,
      "▁hastane": 8696,
      "▁Turg": 8697,
      "▁malzemeler": 8698,
      "ranın": 8699,
      "▁Ask": 8700,
      "ınızdan": 8701,
      "▁muhafaza": 8702,
      "▁tutuklu": 8703,
      "▁bakıldığında": 8704,
      "▁aldığım": 8705,
      "▁haric": 8706,
      "▁May": 8707,
      "▁kesi": 8708,
      "▁sorunların": 8709,
      "▁Bolu": 8710,
      "▁aldıkları": 8711,
      "▁ilham": 8712,
      "▁Dost": 8713,
      "▁kullanır": 8714,
      "▁maden": 8715,
      "▁Sıcak": 8716,
      "▁Had": 8717,
      "▁durumuna": 8718,
      "▁Koruma": 8719,
      "▁Paş": 8720,
      "luğunun": 8721,
      "▁ER": 8722,
      "▁go": 8723,
      "▁zamanlı": 8724,
      "▁günümüze": 8725,
      "▁menf": 8726,
      "▁garip": 8727,
      "▁rivayet": 8728,
      "▁Baba": 8729,
      "▁ilgilendir": 8730,
      "akal": 8731,
      "ich": 8732,
      "▁dayanıklı": 8733,
      "ld": 8734,
      "▁hastaneye": 8735,
      "elinin": 8736,
      "▁fikri": 8737,
      "▁alerj": 8738,
      "▁Hafta": 8739,
      "▁personeli": 8740,
      "▁sayıl": 8741,
      "▁cezalandır": 8742,
      "▁zik": 8743,
      "▁dönüm": 8744,
      "▁Galaxy": 8745,
      "▁For": 8746,
      "▁tartışma": 8747,
      "cin": 8748,
      "eleme": 8749,
      "gur": 8750,
      "otosiklet": 8751,
      "iller": 8752,
      "▁gülüm": 8753,
      "▁oranları": 8754,
      "▁Sınır": 8755,
      "▁muhalefet": 8756,
      "▁ailenin": 8757,
      "▁ayrılan": 8758,
      "▁Brezil": 8759,
      "▁vize": 8760,
      "▁ağırlıklı": 8761,
      "▁tac": 8762,
      "mes": 8763,
      "▁bilmek": 8764,
      "culuk": 8765,
      "iliğin": 8766,
      "▁Konferans": 8767,
      "▁dünyadaki": 8768,
      "Kİ": 8769,
      "▁uzaktan": 8770,
      "▁başlığı": 8771,
      "▁topar": 8772,
      "igür": 8773,
      "▁Hindistan": 8774,
      "▁Dayan": 8775,
      "▁tarafta": 8776,
      "▁casino": 8777,
      "▁gelişimi": 8778,
      "ıysa": 8779,
      "▁Zar": 8780,
      "▁nükleer": 8781,
      "ularak": 8782,
      "▁Anın": 8783,
      "uncu": 8784,
      "▁Bakım": 8785,
      "▁öykü": 8786,
      "▁mask": 8787,
      "▁Avustur": 8788,
      "desi": 8789,
      "▁ispat": 8790,
      "▁Mahmut": 8791,
      "▁beton": 8792,
      "▁Dikkat": 8793,
      "▁heyet": 8794,
      "▁Suç": 8795,
      "▁yazdı": 8796,
      "▁talimat": 8797,
      "edin": 8798,
      "▁NAT": 8799,
      "▁haberler": 8800,
      "▁karışık": 8801,
      "âlâ": 8802,
      "▁Mün": 8803,
      "▁hafız": 8804,
      "▁hastalıkları": 8805,
      "isti": 8806,
      "▁kimin": 8807,
      "halde": 8808,
      "unç": 8809,
      "▁atılan": 8810,
      "▁Tev": 8811,
      "▁arız": 8812,
      "▁girdiği": 8813,
      "acası": 8814,
      "▁havalim": 8815,
      "▁sayılır": 8816,
      "▁Umar": 8817,
      "▁Bon": 8818,
      "▁Şeyh": 8819,
      "▁Tip": 8820,
      "▁Aslan": 8821,
      "laşması": 8822,
      "ebileceğini": 8823,
      "▁sh": 8824,
      "▁Konut": 8825,
      "▁leh": 8826,
      "▁kasab": 8827,
      "▁varmış": 8828,
      "▁müthiş": 8829,
      "dilik": 8830,
      "▁Müşteri": 8831,
      "arda": 8832,
      "▁sade": 8833,
      "▁elini": 8834,
      "▁yaratan": 8835,
      "▁Dam": 8836,
      "utin": 8837,
      "▁dizisi": 8838,
      "▁Teşekkür": 8839,
      "▁organiz": 8840,
      "set": 8841,
      "▁Kırmızı": 8842,
      "▁konusundaki": 8843,
      "▁vekil": 8844,
      "▁Savaşı": 8845,
      "▁isyan": 8846,
      "▁Akın": 8847,
      "▁forma": 8848,
      "▁mesajı": 8849,
      "▁açar": 8850,
      "ışlı": 8851,
      "▁Siyah": 8852,
      "▁gazete": 8853,
      "▁edilmelidir": 8854,
      "▁HDP": 8855,
      "uluğu": 8856,
      "▁Kadir": 8857,
      "üldüğü": 8858,
      "▁önder": 8859,
      "▁kitabın": 8860,
      "▁tarihinin": 8861,
      "ımlar": 8862,
      "▁gerektiren": 8863,
      "▁gecesi": 8864,
      "▁isteği": 8865,
      "▁stok": 8866,
      "▁yetki": 8867,
      "▁cinsiyet": 8868,
      "▁attığı": 8869,
      "ağından": 8870,
      "▁Konseyi": 8871,
      "▁sağladığı": 8872,
      "tikleri": 8873,
      "▁okuyan": 8874,
      "▁taahhüt": 8875,
      "▁herkesi": 8876,
      "rah": 8877,
      "▁yeryüz": 8878,
      "▁çalışırken": 8879,
      "▁Hızlı": 8880,
      "▁hızı": 8881,
      "▁verdiğini": 8882,
      "▁Suriyede": 8883,
      "▁Merh": 8884,
      "▁Da": 8885,
      "▁PR": 8886,
      "ümde": 8887,
      "▁fiz": 8888,
      "▁uğur": 8889,
      "▁ülkeleri": 8890,
      "▁artması": 8891,
      "▁Almanyada": 8892,
      "ola": 8893,
      "▁TÜRK": 8894,
      "▁dediğ": 8895,
      "▁Geri": 8896,
      "▁bitti": 8897,
      "▁döndür": 8898,
      "▁sözcük": 8899,
      "▁gor": 8900,
      "jan": 8901,
      "▁Dern": 8902,
      "kaya": 8903,
      "▁ilim": 8904,
      "▁kardeşi": 8905,
      "▁yaralandı": 8906,
      "▁Gay": 8907,
      "▁boşal": 8908,
      "▁yarısı": 8909,
      "alısınız": 8910,
      "metik": 8911,
      "▁gerçekleştirilecek": 8912,
      "▁uzmanı": 8913,
      "▁oynadığı": 8914,
      "cell": 8915,
      "ight": 8916,
      "▁Birlik": 8917,
      "▁erkeklerin": 8918,
      "alarımız": 8919,
      "▁olursak": 8920,
      "▁vurgu": 8921,
      "▁sürdü": 8922,
      "ırt": 8923,
      "▁başa": 8924,
      "▁Ül": 8925,
      "▁boyutu": 8926,
      "▁uzanan": 8927,
      "▁Nef": 8928,
      "▁verebilir": 8929,
      "▁yapıştır": 8930,
      "▁göçmen": 8931,
      "▁Amaç": 8932,
      "▁emper": 8933,
      "▁kanaat": 8934,
      "▁So": 8935,
      "▁dolara": 8936,
      "▁resmen": 8937,
      "era": 8938,
      "▁gümrük": 8939,
      "adişah": 8940,
      "operatif": 8941,
      "gini": 8942,
      "medim": 8943,
      "avüz": 8944,
      "▁yazmak": 8945,
      "eveyn": 8946,
      "istler": 8947,
      "▁tıpkı": 8948,
      "▁hâlâ": 8949,
      "▁naz": 8950,
      "▁özelliklerini": 8951,
      "▁ila": 8952,
      "▁teşkilat": 8953,
      "eysel": 8954,
      "▁düşünen": 8955,
      "▁etkileyen": 8956,
      "▁Holding": 8957,
      "▁tarihlerinde": 8958,
      "▁öğrencisi": 8959,
      "▁cadde": 8960,
      "vat": 8961,
      "▁sınırsız": 8962,
      "▁toplantıda": 8963,
      "▁röportaj": 8964,
      "▁Çetin": 8965,
      "▁şehirde": 8966,
      "▁usta": 8967,
      "▁Bahçeli": 8968,
      "▁ulaşan": 8969,
      "abrika": 8970,
      "yurt": 8971,
      "asal": 8972,
      "▁müracaat": 8973,
      "▁Kartal": 8974,
      "▁depolama": 8975,
      "▁olsaydı": 8976,
      "▁hepimiz": 8977,
      "▁temsilcisi": 8978,
      "dil": 8979,
      "▁ihtiyacınız": 8980,
      "osunu": 8981,
      "▁Çavuş": 8982,
      "▁krizi": 8983,
      "th": 8984,
      "▁Birbir": 8985,
      "▁oldug": 8986,
      "▁Yüksel": 8987,
      "▁yılların": 8988,
      "▁hedefi": 8989,
      "alarak": 8990,
      "▁sunuyoruz": 8991,
      "▁uygulanması": 8992,
      "▁kitaplar": 8993,
      "▁gerçekleştirdi": 8994,
      "▁performansı": 8995,
      "▁varsay": 8996,
      "▁bölgelerde": 8997,
      "▁önemini": 8998,
      "▁İzmirde": 8999,
      "melisiniz": 9000,
      "abın": 9001,
      "▁sosy": 9002,
      "▁gemi": 9003,
      "▁kendimizi": 9004,
      "▁kuruluşları": 9005,
      "▁dönük": 9006,
      "▁cezaev": 9007,
      "▁sorumluluğ": 9008,
      "▁öğrenim": 9009,
      "▁oyuna": 9010,
      "▁Lye": 9011,
      "▁intik": 9012,
      "▁Bunları": 9013,
      "İH": 9014,
      "▁Başvuru": 9015,
      "▁restoran": 9016,
      "▁tarihe": 9017,
      "▁Öde": 9018,
      "▁Sağlığı": 9019,
      "▁hattı": 9020,
      "atür": 9021,
      "hid": 9022,
      "▁varlığını": 9023,
      "▁Toprak": 9024,
      "▁Orada": 9025,
      "▁format": 9026,
      "ure": 9027,
      "▁tutk": 9028,
      "▁ilişkisi": 9029,
      "▁İnce": 9030,
      "▁klima": 9031,
      "▁vesile": 9032,
      "▁olurlar": 9033,
      "▁sevdik": 9034,
      "endi": 9035,
      "▁sağlayacaktır": 9036,
      "EV": 9037,
      "▁iştir": 9038,
      "▁ölen": 9039,
      "▁Sendik": 9040,
      "▁yoldan": 9041,
      "▁SS": 9042,
      "▁eyalet": 9043,
      "▁temizliği": 9044,
      "▁birbirlerine": 9045,
      "ÜR": 9046,
      "lenerek": 9047,
      "▁kuvvetli": 9048,
      "▁Tec": 9049,
      "▁heykel": 9050,
      "▁Kılıçdaroğlu": 9051,
      "▁İsveç": 9052,
      "sör": 9053,
      "▁Cami": 9054,
      "▁Platform": 9055,
      "▁koku": 9056,
      "▁temsilcileri": 9057,
      "lini": 9058,
      "▁Mücadele": 9059,
      "▁Elektronik": 9060,
      "▁miras": 9061,
      "oot": 9062,
      "▁sarf": 9063,
      "▁ekstra": 9064,
      "▁savaşı": 9065,
      "▁yaralı": 9066,
      "▁fazlasıyla": 9067,
      "▁EN": 9068,
      "▁Kategor": 9069,
      "▁muhabbet": 9070,
      "▁getirildi": 9071,
      "▁toplanan": 9072,
      "▁Lütfen": 9073,
      "▁programına": 9074,
      "▁Sürekli": 9075,
      "▁Kilis": 9076,
      "▁yağlı": 9077,
      "▁geçiren": 9078,
      "▁kurucu": 9079,
      "▁konularında": 9080,
      "▁düşer": 9081,
      "▁Öy": 9082,
      "▁Müst": 9083,
      "▁dk": 9084,
      "▁oruç": 9085,
      "▁gitmiş": 9086,
      "▁Alış": 9087,
      "▁yalı": 9088,
      "▁bileti": 9089,
      "▁gun": 9090,
      "▁oynamak": 9091,
      "▁Medya": 9092,
      "▁muhtemelen": 9093,
      "usa": 9094,
      "▁arıyor": 9095,
      "▁rady": 9096,
      "▁şirketler": 9097,
      "ASI": 9098,
      "▁Personel": 9099,
      "▁sınıfı": 9100,
      "▁Mag": 9101,
      "mac": 9102,
      "▁Adnan": 9103,
      "▁görünür": 9104,
      "▁danışmanlık": 9105,
      "▁hükümeti": 9106,
      "▁Sigort": 9107,
      "▁mahal": 9108,
      "▁Arslan": 9109,
      "larımızdan": 9110,
      "▁sektörün": 9111,
      "▁geçecek": 9112,
      "▁edildiğini": 9113,
      "▁nitelikli": 9114,
      "▁listesi": 9115,
      "larıdır": 9116,
      "▁yükselen": 9117,
      "▁maddenin": 9118,
      "▁Onur": 9119,
      "▁seviş": 9120,
      "▁Me": 9121,
      "▁bölgesel": 9122,
      "▁ağrısı": 9123,
      "▁entegre": 9124,
      "▁stil": 9125,
      "menize": 9126,
      "ula": 9127,
      "▁bilmiyor": 9128,
      "▁Ta": 9129,
      "▁mezh": 9130,
      "▁aşamada": 9131,
      "eten": 9132,
      "▁Pal": 9133,
      "▁Sad": 9134,
      "▁Kahv": 9135,
      "▁hil": 9136,
      "malarının": 9137,
      "▁Kuruluş": 9138,
      "yn": 9139,
      "▁müte": 9140,
      "▁içerisindeki": 9141,
      "▁ima": 9142,
      "ecilik": 9143,
      "▁Çank": 9144,
      "ett": 9145,
      "▁opsiyon": 9146,
      "▁imal": 9147,
      "▁Aksi": 9148,
      "için": 9149,
      "▁bölgedeki": 9150,
      "▁kalitesini": 9151,
      "▁koca": 9152,
      "▁çiğ": 9153,
      "tah": 9154,
      "ılmıştı": 9155,
      "üleb": 9156,
      "▁imkansız": 9157,
      "üyorum": 9158,
      "aklar": 9159,
      "▁yaşandı": 9160,
      "ason": 9161,
      "ızda": 9162,
      "▁içe": 9163,
      "▁haberine": 9164,
      "▁santral": 9165,
      "▁kararlar": 9166,
      "▁teklifi": 9167,
      "▁başarıyla": 9168,
      "▁Kurban": 9169,
      "▁nereden": 9170,
      "▁periy": 9171,
      "▁anlamıyla": 9172,
      "▁kategorisinde": 9173,
      "▁Stad": 9174,
      "▁aittir": 9175,
[...]
