{
  "version": "1.0",
  "truncation": null,
  "padding": null,
  "added_tokens": [
    {
      "id": 0,
      "content": "<pad>",
      "single_word": false,
      "lstrip": false,
      "rstrip": false,
      "normalized": false,
      "special": true
    },
    {
      "id": 1,
      "content": "<unk>",
      "single_word": false,
      "lstrip": false,
      "rstrip": false,
      "normalized": false,
      "special": true
    },
    {
      "id": 2,
      "content": "<eos>",
      "single_word": false,
      "lstrip": false,
      "rstrip": false,
      "normalized": false,
      "special": true
    }
  ],
  "normalizer": {
    "type": "Sequence",
    "normalizers": [
      {
        "type": "NFKC"
      },
      {
        "type": "Replace",
        "pattern": {
          "Regex": "[^\\'\\n\\ \\!\\\"\\#\\$\\%\\&\\'\\(\\)\\*\\+\\,\\-\\.\\/0123456789\\:\\;\\<\\=\\>\\?\\@ABCDEFGHIJKLMNOPQRSTUVWXYZ\\[\\\\\\]\\^\\_\\`abcdefghijklmnopqrstuvwxyz\\{\\|\\}\\~\\±\\´\\·ÂÃÄÅÇÖÜâçéêîöûüĞğ\\İ\\ıŞş\\‘\\’\\…\\′\\']"
        },
        "content": ""
      }
    ]
  },
  "pre_tokenizer": {
    "type": "Sequence",
    "pretokenizers": [
      {
        "type": "Digits",
        "individual_digits": true
      },
      {
        "type": "Whitespace"
      },
      {
        "type": "Punctuation",
        "behavior": "Isolated"
      },
      {
        "type": "Metaspace",
        "replacement": "▁",
        "add_prefix_space": true
      }
    ]
  },
  "post_processor": {
    "type": "TemplateProcessing",
    "single": [
      {
        "Sequence": {
          "id": "A",
          "type_id": 0
        }
      },
      {
        "SpecialToken": {
          "id": "<eos>",
          "type_id": 0
        }
      }
    ],
    "pair": [
      {
        "Sequence": {
          "id": "A",
          "type_id": 0
        }
      },
      {
        "Sequence": {
          "id": "B",
          "type_id": 1
        }
      }
    ],
    "special_tokens": {
      "<eos>": {
        "id": "<eos>",
        "ids": [
          2
        ],
        "tokens": [
          "<eos>"
        ]
      }
    }
  },
  "decoder": {
    "type": "Metaspace",
    "replacement": "▁",
    "add_prefix_space": true
  },
  "model": {
    "type": "Unigram",
    "unk_id": null,
    "vocab": [
      [
        "<pad>",
        0.0
      ],
      [
        "<unk>",
        0.0
      ],
      [
        "<eos>",
        0.0
      ],
      [
        "▁",
        -2.1439593246633315
      ],
      [
        ".",
        -3.0933997524503596
      ],
      [
        ",",
        -3.4299638122235265
      ],
      [
        "▁ve",
        -4.095662315912648
      ],
      [
        "▁bir",
        -4.433185669396753
      ],
      [
        "n",
        -4.480857850479147
      ],
      [
        "e",
        -4.623025726788722
      ],
      [
        "a",
        -4.7466300356097655
      ],
      [
        "i",
        -4.854995265555377
      ],
      [
        "▁bu",
        -5.3161599759210105
      ],
      [
        "▁için",
        -5.36780146195839
      ],
      [
        "m",
        -5.456280212164458
      ],
      [
        "▁ile",
        -5.4951310596801015
      ],
      [
        "▁de",
        -5.553548341671316
      ],
      [
        "k",
        -5.55881303044162
      ],
      [
        "▁da",
        -5.607178321879676
      ],
      [
        "da",
        -5.696685392862392
      ],
      [
        "de",
        -5.804683745414959
      ],
      [
        "lar",
        -5.808963686588555
      ],
      [
        "▁olarak",
        -5.839681683230724
      ],
      [
        "▁Bu",
        -5.882781982284037
      ],
      [
        "ler",
        -5.916967872852094
      ],
      [
        "l",
        -5.942047841388204
      ],
      [
        "s",
        -5.971895947206807
      ],
      [
        "▁çok",
        -5.973787788103348
      ],
      [
        "in",
        -6.050823165257709
      ],
      [
        "▁olan",
        -6.05602756645262
      ],
      [
        "nin",
        -6.065328004890542
      ],
      [
        "ı",
        -6.098935359730042
      ],
      [
        "nın",
        -6.1468432713567935
      ],
      [
        "o",
        -6.16661684586953
      ],
      [
        "▁daha",
        -6.1715002644086585
      ],
      [
        "t",
        -6.172207315555754
      ],
      [
        "▁en",
        -6.189802752889957
      ],
      [
        "r",
        -6.2089648328322
      ],
      [
        "den",
        -6.274912383966502
      ],
      [
        "▁gibi",
        -6.284611689465443
      ],
      [
        "ya",
        -6.287543969746345
      ],
      [
        "leri",
        -6.311555176649199
      ],
      [
        "dan",
        -6.3119281697492315
      ],
      [
        "ları",
        -6.340358841844711
      ],
      [
        "p",
        -6.370656854360686
      ],
      [
        "y",
        -6.3973612696784095
      ],
      [
        "u",
        -6.413709435793702
      ],
      [
        "▁kadar",
        -6.488280113779126
      ],
      [
        "le",
        -6.497101009255795
      ],
      [
        "z",
        -6.507768070359175
      ],
      [
        "ye",
        -6.516596579494422
      ],
      [
        "la",
        -6.519412454119701
      ],
      [
        "d",
        -6.521608664211703
      ],
      [
        "▁her",
        -6.523184131169996
      ],
      [
        "ın",
        -6.523404861861312
      ],
      [
        "si",
        -6.591625665446246
      ],
      [
        "▁sonra",
        -6.623127949195812
      ],
      [
        "dir",
        -6.682027673396458
      ],
      [
        "▁ise",
        -6.683993454117063
      ],
      [
        "ki",
        -6.795909844210037
      ],
      [
        "▁var",
        -6.850830588080223
      ],
      [
        "lı",
        -6.85249037295063
      ],
      [
        "▁veya",
        -6.868922082197841
      ],
      [
        "▁göre",
        -6.919554150312612
      ],
      [
        "dır",
        -6.929534802511583
      ],
      [
        "▁yer",
        -6.944220742164756
      ],
      [
        "te",
        -6.953397805662547
      ],
      [
        "▁büyük",
        -6.958226296334191
      ],
      [
        "▁yeni",
        -6.966602992209637
      ],
      [
        "lerin",
        -6.981183355450806
      ],
      [
        "▁tarafından",
        -6.988903068649769
      ],
      [
        "▁zaman",
        -6.997289709478787
      ],
      [
        "sı",
        -7.001741828175998
      ],
      [
        "ta",
        -7.006936754503224
      ],
      [
        "▁olduğu",
        -7.010088847800327
      ],
      [
        "▁ilk",
        -7.036040091816169
      ],
      [
        "▁iyi",
        -7.0417090260472115
      ],
      [
        "ların",
        -7.0496577981095125
      ],
      [
        "▁ki",
        -7.052754843014798
      ],
      [
        "yla",
        -7.083902418871759
      ],
      [
        "▁A",
        -7.0847933173041735
      ],
      [
        "b",
        -7.094833114319579
      ],
      [
        "▁şekilde",
        -7.12071846492446
      ],
      [
        "▁ama",
        -7.122633915792246
      ],
      [
        "▁Bir",
        -7.1237567705406555
      ],
      [
        "yı",
        -7.1541286246271945
      ],
      [
        "▁ilgili",
        -7.200086890803126
      ],
      [
        "yle",
        -7.201780307639591
      ],
      [
        "▁tüm",
        -7.2020602108169545
      ],
      [
        "▁olduğunu",
        -7.202381510308653
      ],
      [
        "▁ya",
        -7.249839617981966
      ],
      [
        "larını",
        -7.261516389688525
      ],
      [
        "▁iki",
        -7.268367299146549
      ],
      [
        "▁son",
        -7.270085108287677
      ],
      [
        "▁önce",
        -7.277134464971114
      ],
      [
        "nda",
        -7.280355833364258
      ],
      [
        "lerini",
        -7.28125076535534
      ],
      [
        "v",
        -7.302274982671179
      ],
      [
        "▁devam",
        -7.318631793468901
      ],
      [
        "▁değil",
        -7.319588059623872
      ],
      [
        "▁içinde",
        -7.324718729784536
      ],
      [
        "▁gün",
        -7.32778507311418
      ],
      [
        "▁O",
        -7.336136946159314
      ],
      [
        "▁önemli",
        -7.336236614532043
      ],
      [
        "▁arasında",
        -7.352493067062603
      ],
      [
        "▁yıl",
        -7.363291777368117
      ],
      [
        "ü",
        -7.366216441880725
      ],
      [
        "▁hem",
        -7.369854748491349
      ],
      [
        "ç",
        -7.374668630635178
      ],
      [
        "lik",
        -7.379375533949483
      ],
      [
        "un",
        -7.389639324132991
      ],
      [
        "arak",
        -7.393574505732042
      ],
      [
        "▁diye",
        -7.394667006113238
      ],
      [
        "▁fazla",
        -7.395275146350439
      ],
      [
        "▁karşı",
        -7.408231639992302
      ],
      [
        "ken",
        -7.408314928769274
      ],
      [
        "lara",
        -7.4160428776597715
      ],
      [
        "sine",
        -7.416252684329416
      ],
      [
        "lere",
        -7.418533565439391
      ],
      [
        "h",
        -7.420916586083415
      ],
      [
        "▁S",
        -7.430221630273341
      ],
      [
        "▁birlikte",
        -7.434633393803715
      ],
      [
        "▁diğer",
        -7.435217376812037
      ],
      [
        "▁aynı",
        -7.439642248426093
      ],
      [
        "▁B",
        -7.447766700018546
      ],
      [
        "▁Türk",
        -7.457436649962764
      ],
      [
        "▁güzel",
        -7.46397761539294
      ],
      [
        "ine",
        -7.479079364377737
      ],
      [
        "▁kendi",
        -7.487769855075911
      ],
      [
        "▁sahip",
        -7.491593161688305
      ],
      [
        "ten",
        -7.491918837998561
      ],
      [
        "g",
        -7.495479995989989
      ],
      [
        "▁iş",
        -7.5020519229284055
      ],
      [
        "larına",
        -7.5065658910654545
      ],
      [
        "ini",
        -7.506972944430551
      ],
      [
        "▁Türkiye",
        -7.509820072512873
      ],
      [
        "tan",
        -7.515891991279135
      ],
      [
        "ca",
        -7.525469224181457
      ],
      [
        "c",
        -7.553986538042583
      ],
      [
        "▁K",
        -7.5602703316871125
      ],
      [
        "▁farklı",
        -7.57343966062027
      ],
      [
        "▁alan",
        -7.576677007378537
      ],
      [
        "▁eden",
        -7.579132644685888
      ],
      [
        "▁yapılan",
        -7.579872579597607
      ],
      [
        "▁oldu",
        -7.585812003547186
      ],
      [
        "lerine",
        -7.587620348613886
      ],
      [
        "▁gelen",
        -7.603315360022714
      ],
      [
        "▁Başkanı",
        -7.605295090374732
      ],
      [
        "ş",
        -7.605984987718141
      ],
      [
        "er",
        -7.609490138637723
      ],
      [
        "larının",
        -7.610957881558711
      ],
      [
        "▁sadece",
        -7.611382374337117
      ],
      [
        "sına",
        -7.613086673587471
      ],
      [
        "▁T",
        -7.615072353415025
      ],
      [
        "▁özel",
        -7.623690669060744
      ],
      [
        "tır",
        -7.626038893315444
      ],
      [
        "f",
        -7.627225377857114
      ],
      [
        "▁yok",
        -7.630853354708604
      ],
      [
        "▁bin",
        -7.638098144340731
      ],
      [
        "ına",
        -7.644373515243904
      ],
      [
        "sini",
        -7.6463380474092695
      ],
      [
        "▁tek",
        -7.653545615614377
      ],
      [
        "ını",
        -7.655608198227766
      ],
      [
        "▁ben",
        -7.661512612523435
      ],
      [
        "▁M",
        -7.661736107820277
      ],
      [
        "▁olmak",
        -7.662332816223962
      ],
      [
        "▁bile",
        -7.675992928827455
      ],
      [
        "▁bulunan",
        -7.676190693051746
      ],
      [
        "lerinin",
        -7.67835808264177
      ],
      [
        "lerde",
        -7.679352017468519
      ],
      [
        "▁dedi",
        -7.679977057123896
      ],
      [
        "ndan",
        -7.681010011438902
      ],
      [
        "▁nasıl",
        -7.682457673412182
      ],
      [
        "lık",
        -7.690234570792876
      ],
      [
        "sını",
        -7.6902777242406035
      ],
      [
        "▁şey",
        -7.695157944728221
      ],
      [
        "erek",
        -7.7033558457081135
      ],
      [
        "▁doğru",
        -7.712429117915832
      ],
      [
        "larda",
        -7.713848093951679
      ],
      [
        "▁yılında",
        -7.716555475090251
      ],
      [
        "daki",
        -7.719133401162123
      ],
      [
        "ce",
        -7.7203965032384225
      ],
      [
        "▁E",
        -7.72499598848804
      ],
      [
        "▁olması",
        -7.73407700758405
      ],
      [
        "tir",
        -7.761722147921292
      ],
      [
        "▁D",
        -7.764840577982081
      ],
      [
        "▁üzere",
        -7.765126674074963
      ],
      [
        "mız",
        -7.787492452575163
      ],
      [
        "miz",
        -7.790314535737224
      ],
      [
        "nde",
        -7.791312953388994
      ],
      [
        "▁üzerine",
        -7.799443104349363
      ],
      [
        "▁başka",
        -7.806468989702891
      ],
      [
        "▁uygun",
        -7.808388643981884
      ],
      [
        "deki",
        -7.819866670579362
      ],
      [
        "niz",
        -7.83085801432318
      ],
      [
        "▁C",
        -7.834105395474587
      ],
      [
        "▁üzerinde",
        -7.835397325615766
      ],
      [
        "▁yüksek",
        -7.841077039566825
      ],
      [
        "▁süre",
        -7.854203903515661
      ],
      [
        "▁az",
        -7.868541205481495
      ],
      [
        "▁Her",
        -7.875891377958936
      ],
      [
        "▁su",
        -7.8767946133228115
      ],
      [
        "▁etti",
        -7.878251250819893
      ],
      [
        "dı",
        -7.879859521687582
      ],
      [
        "inin",
        -7.88375924372308
      ],
      [
        "▁olur",
        -7.885892887222733
      ],
      [
        "▁hiç",
        -7.8895067965730785
      ],
      [
        "▁hizmet",
        -7.891018700126915
      ],
      [
        "nız",
        -7.895974177601293
      ],
      [
        "▁ortaya",
        -7.900078807043302
      ],
      [
        "▁bilgi",
        -7.902512935795279
      ],
      [
        "nun",
        -7.916983978290821
      ],
      [
        "mış",
        -7.920182415317431
      ],
      [
        "lerden",
        -7.924914328814353
      ],
      [
        "▁Genel",
        -7.933468653337904
      ],
      [
        "▁hakkında",
        -7.935937336963354
      ],
      [
        "▁mi",
        -7.939956488636195
      ],
      [
        "▁bütün",
        -7.956259834525804
      ],
      [
        "▁uzun",
        -7.963412593904989
      ],
      [
        "lardan",
        -7.9697390759742675
      ],
      [
        "lerle",
        -7.970670199041852
      ],
      [
        "▁Ancak",
        -7.974675999268811
      ],
      [
        "▁insan",
        -7.976442148015698
      ],
      [
        "larla",
        -7.983235796453341
      ],
      [
        "▁kişi",
        -7.989911718668434
      ],
      [
        "▁kabul",
        -7.99579037275325
      ],
      [
        "▁bazı",
        -8.002767353403154
      ],
      [
        "▁yüzde",
        -8.00787530035611
      ],
      [
        "▁ifade",
        -8.01378515638901
      ],
      [
        "lerinden",
        -8.018584958984068
      ],
      [
        "▁ancak",
        -8.02226577273735
      ],
      [
        "▁biri",
        -8.026484655196576
      ],
      [
        "▁G",
        -8.029750954894062
      ],
      [
        "larında",
        -8.030731039143316
      ],
      [
        "▁Ben",
        -8.031353587705112
      ],
      [
        "▁olacak",
        -8.032460883342377
      ],
      [
        "▁içerisinde",
        -8.037165784109737
      ],
      [
        "▁eğitim",
        -8.037694888230659
      ],
      [
        "▁tam",
        -8.040245693891007
      ],
      [
        "inde",
        -8.042589480703223
      ],
      [
        "▁neden",
        -8.046042234553656
      ],
      [
        "▁saat",
        -8.049545603226019
      ],
      [
        "▁yerine",
        -8.053726677871685
      ],
      [
        "▁İstanbul",
        -8.053903960252192
      ],
      [
        "▁edilen",
        -8.05739515677262
      ],
      [
        "uz",
        -8.06087061475663
      ],
      [
        "▁konusunda",
        -8.066385692060395
      ],
      [
        "▁para",
        -8.070928549832347
      ],
      [
        "dur",
        -8.086513311988565
      ],
      [
        "▁açık",
        -8.08867642228404
      ],
      [
        "▁böyle",
        -8.089913550817805
      ],
      [
        "▁vardır",
        -8.092675377657464
      ],
      [
        "▁birçok",
        -8.10182808859467
      ],
      [
        "▁Ama",
        -8.111624238071334
      ],
      [
        "mektedir",
        -8.112880670003836
      ],
      [
        "▁artık",
        -8.114107477617594
      ],
      [
        "larından",
        -8.11611066446627
      ],
      [
        "▁şu",
        -8.119185770359683
      ],
      [
        "lerinde",
        -8.119782436839401
      ],
      [
        "▁ardından",
        -8.121358293003617
      ],
      [
        "du",
        -8.121615318207729
      ],
      [
        "▁yaptığı",
        -8.133915612838516
      ],
      [
        "▁yine",
        -8.142091524053168
      ],
      [
        "▁etmek",
        -8.149603856325752
      ],
      [
        "▁ay",
        -8.150453207260506
      ],
      [
        "▁En",
        -8.151266401531238
      ],
      [
        "▁yapan",
        -8.152246982876921
      ],
      [
        "▁yol",
        -8.17431325980408
      ],
      [
        "▁olsun",
        -8.175490385240288
      ],
      [
        "▁P",
        -8.176255545368695
      ],
      [
        "▁H",
        -8.177074442257036
      ],
      [
        "▁söz",
        -8.177136333351251
      ],
      [
        "▁karar",
        -8.178574841212109
      ],
      [
        "maktadır",
        -8.185084932404672
      ],
      [
        "▁benim",
        -8.189251890437124
      ],
      [
        "um",
        -8.190271974963842
      ],
      [
        "▁kez",
        -8.193038229129307
      ],
      [
        "▁geri",
        -8.193710269606655
      ],
      [
        "ir",
        -8.194686318452673
      ],
      [
        "miş",
        -8.198867427332472
      ],
      [
        "▁göz",
        -8.202986848784551
      ],
      [
        "▁zamanda",
        -8.205753188676887
      ],
      [
        "▁yakın",
        -8.205977477986863
      ],
      [
        "▁hemen",
        -8.20966339906857
      ],
      [
        "ci",
        -8.21350557175528
      ],
      [
        "▁bunu",
        -8.214720888844852
      ],
      [
        "▁geçen",
        -8.22103808130127
      ],
      [
        "▁altında",
        -8.221245645913212
      ],
      [
        "▁kısa",
        -8.22150988071713
      ],
      [
        "▁dikkat",
        -8.224804006458475
      ],
      [
        "▁milyon",
        -8.226774638905447
      ],
      [
        "▁günü",
        -8.230468479324527
      ],
      [
        "▁Ve",
        -8.23250611050426
      ],
      [
        "▁geldi",
        -8.234186316433462
      ],
      [
        "▁çalışma",
        -8.235958576577062
      ],
      [
        "▁ediyor",
        -8.238067534701266
      ],
      [
        "▁tercih",
        -8.241806761715312
      ],
      [
        "iz",
        -8.243574966011852
      ],
      [
        "sinin",
        -8.244625674809729
      ],
      [
        "▁olup",
        -8.246452541594621
      ],
      [
        "▁Bunun",
        -8.24864454613306
      ],
      [
        "▁olabilir",
        -8.249794507653679
      ],
      [
        "sinde",
        -8.250681485754129
      ],
      [
        "▁oldukça",
        -8.254019012019764
      ],
      [
        "▁Ayrıca",
        -8.254211137750119
      ],
      [
        "▁size",
        -8.256840479768774
      ],
      [
        "▁küçük",
        -8.256908915528554
      ],
      [
        "▁sıra",
        -8.258703804620035
      ],
      [
        "▁Yeni",
        -8.26806169853151
      ],
      [
        "▁Ne",
        -8.2707977214029
      ],
      [
        "▁hiçbir",
        -8.272519024567577
      ],
      [
        "siz",
        -8.27630929200132
      ],
      [
        "nden",
        -8.286899546776109
      ],
      [
        "▁F",
        -8.288703986997291
      ],
      [
        "▁bağlı",
        -8.289242142155706
      ],
      [
        "▁hafta",
        -8.289333393923869
      ],
      [
        "▁Daha",
        -8.291881711086212
      ],
      [
        "▁elde",
        -8.295288836530679
      ],
      [
        "▁destek",
        -8.297226682686118
      ],
      [
        "▁Türkiyenin",
        -8.297563659875324
      ],
      [
        "▁Dr",
        -8.297919568027279
      ],
      [
        "oğlu",
        -8.30203005508955
      ],
      [
        "sin",
        -8.304396969021075
      ],
      [
        "▁gereken",
        -8.306988316081519
      ],
      [
        "▁biraz",
        -8.309190710088803
      ],
      [
        "▁pek",
        -8.311675236796026
      ],
      [
        "▁söyledi",
        -8.312159239380128
      ],
      [
        "▁sosyal",
        -8.315102451677962
      ],
      [
        "▁biz",
        -8.315430635353414
      ],
      [
        "▁eski",
        -8.32420667980982
      ],
      [
        "▁I",
        -8.325390637702387
      ],
      [
        "ün",
        -8.326514100073586
      ],
      [
        "▁Belediye",
        -8.328433711267964
      ],
      [
        "lan",
        -8.328845797835081
      ],
      [
        "▁üzerinden",
        -8.340217766046823
      ],
      [
        "▁özellikle",
        -8.347556952675616
      ],
      [
        "▁yani",
        -8.360942783314126
      ],
      [
        "▁Eğitim",
        -8.362324287461252
      ],
      [
        "▁ev",
        -8.363421334808974
      ],
      [
        "▁dünya",
        -8.364127702282168
      ],
      [
        "▁bana",
        -8.365311959109352
      ],
      [
        "▁yapmak",
        -8.36697420161329
      ],
      [
        "▁Çünkü",
        -8.369612841123972
      ],
      [
        "▁L",
        -8.370565119466697
      ],
      [
        "▁olsa",
        -8.373176014730655
      ],
      [
        "▁tekrar",
        -8.375629550555491
      ],
      [
        "▁veren",
        -8.376283901857388
      ],
      [
        "▁üç",
        -8.3768971624801
      ],
      [
        "▁ait",
        -8.384915927461138
      ],
      [
        "▁onu",
        -8.388831787029742
      ],
      [
        "▁bugün",
        -8.392187788364556
      ],
      [
        "▁Türkiyede",
        -8.397392777120332
      ],
      [
        "▁kadın",
        -8.401167473396098
      ],
      [
        "▁yönelik",
        -8.407797009453349
      ],
      [
        "▁mı",
        -8.41109493440077
      ],
      [
        "▁başladı",
        -8.414745847857946
      ],
      [
        "ında",
        -8.420930795617771
      ],
      [
        "▁genel",
        -8.421024655035222
      ],
      [
        "▁gerek",
        -8.424774795152809
      ],
      [
        "▁nedeniyle",
        -8.42484713116233
      ],
      [
        "nizi",
        -8.426259924807795
      ],
      [
        "▁durum",
        -8.426987931702493
      ],
      [
        "▁dışında",
        -8.431540852223684
      ],
      [
        "nızı",
        -8.434307746132559
      ],
      [
        "▁herhangi",
        -8.434728045337598
      ],
      [
        "▁zor",
        -8.437265286168563
      ],
      [
        "▁kolay",
        -8.441426568093533
      ],
      [
        "▁değildir",
        -8.442794898977514
      ],
      [
        "▁Eğer",
        -8.448334596228948
      ],
      [
        "▁konusu",
        -8.44999830326745
      ],
      [
        "î",
        -8.450446264852582
      ],
      [
        "▁iç",
        -8.451734594349617
      ],
      [
        "▁gelir",
        -8.45280371684026
      ],
      [
        "▁N",
        -8.453326701836865
      ],
      [
        "▁dolayı",
        -8.455464738961313
      ],
      [
        "▁gerçek",
        -8.462326515675931
      ],
      [
        "▁onun",
        -8.463208041531427
      ],
      [
        "▁çıkan",
        -8.464798840456556
      ],
      [
        "▁Biz",
        -8.46585903445975
      ],
      [
        "▁rağmen",
        -8.466072086626069
      ],
      [
        "▁bizim",
        -8.469218673841773
      ],
      [
        "▁olmayan",
        -8.471524690345243
      ],
      [
        "▁yeniden",
        -8.47208342025473
      ],
      [
        "▁ikinci",
        -8.475749826851096
      ],
      [
        "▁Son",
        -8.47756987009597
      ],
      [
        "▁sağlık",
        -8.480866804719996
      ],
      [
        "x",
        -8.482339557833857
      ],
      [
        "sız",
        -8.484108197828542
      ],
      [
        "▁bunun",
        -8.484582341989368
      ],
      [
        "acak",
        -8.485042753798929
      ],
      [
        "▁Avrupa",
        -8.48616892225755
      ],
      [
        "man",
        -8.488263120858697
      ],
      [
        "sında",
        -8.490770235333201
      ],
      [
        "▁burada",
        -8.492450582341885
      ],
      [
        "su",
        -8.493380116049003
      ],
      [
        "▁ilişkin",
        -8.50169460675071
      ],
      [
        "▁durumda",
        -8.501719323744693
      ],
      [
        "▁mümkün",
        -8.509512943235883
      ],
      [
        "liği",
        -8.511272668330228
      ],
      [
        "▁ürün",
        -8.512412943381932
      ],
      [
        "abilirsiniz",
        -8.51323798829599
      ],
      [
        "cı",
        -8.51473883887848
      ],
      [
        "▁eder",
        -8.514892604658701
      ],
      [
        "▁hızlı",
        -8.517434687145416
      ],
      [
        "▁temel",
        -8.521530628760951
      ],
      [
        "▁hale",
        -8.521590960300726
      ],
      [
        "▁takip",
        -8.524769663360297
      ],
      [
        "▁derece",
        -8.527239132925397
      ],
      [
        "▁Allah",
        -8.52800609004739
      ],
      [
        "▁hava",
        -8.528903852141623
      ],
      [
        "sın",
        -8.530345499421296
      ],
      [
        "▁sahibi",
        -8.530605340075128
      ],
      [
        "▁çeşitli",
        -8.532276110888615
      ],
      [
        "▁çocuk",
        -8.53267078795412
      ],
      [
        "▁Ankara",
        -8.533669587621082
      ],
      [
        "▁kontrol",
        -8.534520936140954
      ],
      [
        "▁konu",
        -8.535297940892583
      ],
      [
        "▁üst",
        -8.539668729557793
      ],
      [
        "▁yanı",
        -8.540361932273804
      ],
      [
        "▁ön",
        -8.548647810755682
      ],
      [
        "▁gece",
        -8.550392528920762
      ],
      [
        "lama",
        -8.550837485497247
      ],
      [
        "▁ara",
        -8.552888677829577
      ],
      [
        "▁boyunca",
        -8.553882410807823
      ],
      [
        "▁hareket",
        -8.554828374962213
      ],
      [
        "▁yardımcı",
        -8.555650487858935
      ],
      [
        "▁TL",
        -8.55639759164717
      ],
      [
        "▁ana",
        -8.556537763790601
      ],
      [
        "▁yanında",
        -8.557147327402424
      ],
      [
        "▁İl",
        -8.557756951898607
      ],
      [
        "mı",
        -8.558532647071859
      ],
      [
        "yan",
        -8.559701875063109
      ],
      [
        "▁sayesinde",
        -8.560525267019129
      ],
      [
        "miştir",
        -8.561612881058604
      ],
      [
        "lığı",
        -8.564747278198551
      ],
      [
        "▁anda",
        -8.567330319747873
      ],
      [
        "▁Dünya",
        -8.568590096378825
      ],
      [
        "▁görev",
        -8.568899872601367
      ],
      [
        "▁halinde",
        -8.570395291363091
      ],
      [
        "▁almak",
        -8.573336020717464
      ],
      [
        "▁tarihi",
        -8.573676802908249
      ],
      [
        "▁Üniversitesi",
        -8.57689072045955
      ],
      [
        "ecek",
        -8.582954340437736
      ],
      [
        "▁gerekli",
        -8.585166241111798
      ],
      [
        "▁V",
        -8.585559060611157
      ],
      [
        "▁gerekir",
        -8.587128670441595
      ],
      [
        "▁oluyor",
        -8.589260214028464
      ],
      [
        "mıştır",
        -8.589867603309855
      ],
      [
        "dığı",
        -8.590941558153748
      ],
      [
        "▁hep",
        -8.591300346647227
      ],
      [
        "ması",
        -8.593960996413081
      ],
      [
        "▁Y",
        -8.59495911017764
      ],
      [
        "▁ayrı",
        -8.597166037140981
      ],
      [
        "▁ziyaret",
        -8.59898091056369
      ],
      [
        "▁ülke",
        -8.602446762816232
      ],
      [
        "▁kapsamında",
        -8.605227705973057
      ],
      [
        "▁Ali",
        -8.606479155405491
      ],
      [
        "▁İlk",
        -8.610422745733219
      ],
      [
        "▁Parti",
        -8.610630380920183
      ],
      [
        "▁türlü",
        -8.611186260711406
      ],
      [
        "▁adet",
        -8.611288198130833
      ],
      [
        "▁R",
        -8.612516168523896
      ],
      [
        "▁hazır",
        -8.612950573520246
      ],
      [
        "▁Çok",
        -8.613150626530667
      ],
      [
        "▁yaklaşık",
        -8.614985099054865
      ],
      [
        "ktan",
        -8.616873691666044
      ],
      [
        "▁oyun",
        -8.61817889146622
      ],
      [
        "▁bize",
        -8.621823696721076
      ],
      [
        "sal",
        -8.622981703747753
      ],
      [
        "▁ederek",
        -8.623285216150608
      ],
      [
        "▁AB",
        -8.62339239652979
      ],
      [
        "▁kötü",
        -8.623920107087558
      ],
      [
        "ve",
        -8.62403113182524
      ],
      [
        "▁beni",
        -8.62620149921143
      ],
      [
        "▁tarihinde",
        -8.626820737233217
      ],
      [
        "▁konuda",
        -8.629493065627571
      ],
      [
        "dığını",
        -8.634562731459564
      ],
      [
        "▁ettiği",
        -8.636693691810736
      ],
      [
        "▁olacaktır",
        -8.637193757425896
      ],
      [
        "▁hangi",
        -8.638110191543033
      ],
      [
        "▁sürekli",
        -8.640063830384404
      ],
      [
        "il",
        -8.642983326107972
      ],
      [
        "yor",
        -8.643286326102276
      ],
      [
        "▁adı",
        -8.647572222358649
      ],
      [
        "▁yaz",
        -8.649800506838698
      ],
      [
        "sının",
        -8.651589915149296
      ],
      [
        "▁aldı",
        -8.653613935618274
      ],
      [
        "sanız",
        -8.655490141454841
      ],
      [
        "▁beraber",
        -8.658182194603981
      ],
      [
        "▁Başkan",
        -8.658305604065779
      ],
      [
        "▁verdi",
        -8.658688175855076
      ],
      [
        "▁yaptı",
        -8.660725326145073
      ],
      [
        "▁sizin",
        -8.661428532405843
      ],
      [
        "▁devlet",
        -8.66220335844673
      ],
      [
        "mak",
        -8.662665650599322
      ],
      [
        "▁U",
        -8.664100481333092
      ],
      [
        "lü",
        -8.666027220056556
      ],
      [
        "▁ona",
        -8.666908605920948
      ],
      [
        "▁sık",
        -8.670261097297987
      ],
      [
        "▁olma",
        -8.673687518332539
      ],
      [
        "sel",
        -8.674430497938653
      ],
      [
        "▁verilen",
        -8.677091235923116
      ],
      [
        "▁mu",
        -8.677150714812855
      ],
      [
        "▁sistemi",
        -8.68218107898938
      ],
      [
        "▁şöyle",
        -8.68304001650092
      ],
      [
        "▁fark",
        -8.686324915073707
      ],
      [
        "unu",
        -8.687044910609504
      ],
      [
        "siniz",
        -8.700795152485197
      ],
      [
        "▁çalışan",
        -8.70251663642731
      ],
      [
        "▁internet",
        -8.703055978591852
      ],
      [
        "▁tedavi",
        -8.704095265904533
      ],
      [
        "▁yardım",
        -8.705685086593869
      ],
      [
        "▁vardı",
        -8.70647841396354
      ],
      [
        "▁açısından",
        -8.71011999426836
      ],
      [
        "▁baş",
        -8.710377973437621
      ],
      [
        "▁çıkar",
        -8.710514872063902
      ],
      [
        "ının",
        -8.711370790354792
      ],
      [
        "▁adına",
        -8.71304623273859
      ],
      [
        "iyor",
        -8.713207119050727
      ],
      [
        "▁konuştu",
        -8.7152788737819
      ],
      [
        "▁nedenle",
        -8.7183382085397
      ],
      [
        "▁sene",
        -8.719080320047974
      ],
      [
        "leriyle",
        -8.72159992313212
      ],
      [
        "▁bi",
        -8.721698393840057
      ],
      [
        "▁genç",
        -8.728527097020631
      ],
      [
        "▁belli",
        -8.729132078068725
      ],
      [
        "tur",
        -8.731377368061496
      ],
      [
        "▁dakika",
        -8.731746329201261
      ],
      [
        "▁ABD",
        -8.733942612132733
      ],
      [
        "▁kalan",
        -8.73449955381373
      ],
      [
        "▁şeklinde",
        -8.735598346385382
      ],
      [
        "▁kat",
        -8.74105765728148
      ],
      [
        "san",
        -8.749175767439516
      ],
      [
        "larıyla",
        -8.750357779360629
      ],
      [
        "▁teknik",
        -8.751692887266255
      ],
      [
        "▁sırasında",
        -8.752302376502216
      ],
      [
        "▁proje",
        -8.755416773594709
      ],
      [
        "▁çıktı",
        -8.756240653216949
      ],
      [
        "▁bulunduğu",
        -8.756337746457543
      ],
      [
        "▁insanlar",
        -8.75695818709598
      ],
      [
        "▁AK",
        -8.757843867891582
      ],
      [
        "▁mücadele",
        -8.759083745573898
      ],
      [
        "▁başarılı",
        -8.760299543076163
      ],
      [
        "▁sorun",
        -8.760754551712207
      ],
      [
        "▁yaşam",
        -8.762296999744926
      ],
      [
        "▁yemek",
        -8.763611324800461
      ],
      [
        "▁Ak",
        -8.764422573919505
      ],
      [
        "▁İş",
        -8.76443177084335
      ],
      [
        "▁teşekkür",
        -8.765495133495085
      ],
      [
        "▁Kurulu",
        -8.767984296469175
      ],
      [
        "▁hak",
        -8.773033264899047
      ],
      [
        "▁sonunda",
        -8.77379516930923
      ],
      [
        "▁doğal",
        -8.780155780000909
      ],
      [
        "▁araç",
        -8.780902332482839
      ],
      [
        "▁geniş",
        -8.7810250046567
      ],
      [
        "▁Devlet",
        -8.781212031527652
      ],
      [
        "▁kişinin",
        -8.782607505517312
      ],
      [
        "▁İ",
        -8.784312444219742
      ],
      [
        "▁başarı",
        -8.785998588896064
      ],
      [
        "▁Tüm",
        -8.787221342586552
      ],
      [
        "ydi",
        -8.789795841752447
      ],
      [
        "sun",
        -8.789806601234739
      ],
      [
        "▁enerji",
        -8.790990055788242
      ],
      [
        "▁yapılacak",
        -8.79206052217059
      ],
      [
        "▁yana",
        -8.793018583247326
      ],
      [
        "▁ortak",
        -8.79428423228765
      ],
      [
        "▁kullanılan",
        -8.796059151541003
      ],
      [
        "▁varsa",
        -8.798374379863825
      ],
      [
        "▁öyle",
        -8.798419016177371
      ],
      [
        "▁ele",
        -8.799794459484982
      ],
      [
        "▁çünkü",
        -8.802726908492568
      ],
      [
        "▁Mehmet",
        -8.803129660813072
      ],
      [
        "▁Milli",
        -8.804079977815299
      ],
      [
        "▁sonucu",
        -8.805968811370748
      ],
      [
        "▁haber",
        -8.809805006447817
      ],
      [
        "▁giriş",
        -8.814745365646434
      ],
      [
        "▁geliyor",
        -8.815099895914516
      ],
      [
        "▁değer",
        -8.816937015142159
      ],
      [
        "▁güçlü",
        -8.820502073817668
      ],
      [
        "▁sağ",
        -8.826849770788337
      ],
      [
        "▁tür",
        -8.82749435198402
      ],
      [
        "▁ayrıca",
        -8.828028870125012
      ],
      [
        "▁Fakat",
        -8.828804143880141
      ],
      [
        "▁verdiği",
        -8.828944978672817
      ],
      [
        "luk",
        -8.830968778639622
      ],
      [
        "▁rahat",
        -8.831707976243688
      ],
      [
        "▁İşte",
        -8.832398168547885
      ],
      [
        "▁alt",
        -8.834563127529593
      ],
      [
        "▁yüzden",
        -8.834773258507328
      ],
      [
        "▁kredi",
        -8.834860370961518
      ],
      [
        "▁seçim",
        -8.834997038466994
      ],
      [
        "▁itibaren",
        -8.835219753805982
      ],
      [
        "▁ilgi",
        -8.83597438711939
      ],
      [
        "▁uygulama",
        -8.836583573029094
      ],
      [
        "▁tamamen",
        -8.839234251834597
      ],
      [
        "▁Özellikle",
        -8.840698674293707
      ],
      [
        "▁zaten",
        -8.841228479714514
      ],
      [
        "▁dahil",
        -8.84135427106566
      ],
      [
        "▁sayılı",
        -8.843288643305348
      ],
      [
        "▁fakat",
        -8.844814452282714
      ],
      [
        "▁aldığı",
        -8.84595164147876
      ],
      [
        "ıyor",
        -8.846514652349533
      ],
      [
        "diği",
        -8.84710426412784
      ],
      [
        "▁birkaç",
        -8.850629127459085
      ],
      [
        "▁kan",
        -8.851213954813538
      ],
      [
        "▁gerekiyor",
        -8.851988378234314
      ],
      [
        "▁aile",
        -8.852381706696496
      ],
      [
        "▁yerde",
        -8.852738507248091
      ],
      [
        "▁kitap",
        -8.853343400808589
      ],
      [
        "▁Burada",
        -8.854790756285832
      ],
      [
        "▁dile",
        -8.856023685461318
      ],
      [
        "▁Temmuz",
        -8.856205167075322
      ],
      [
        "▁kız",
        -8.857196759412062
      ],
      [
        "▁Bugün",
        -8.857331138650759
      ],
      [
        "▁kendini",
        -8.857620974843483
      ],
      [
        "▁tespit",
        -8.857867048469277
      ],
      [
        "mızı",
        -8.857898440422272
      ],
      [
        "▁arada",
        -8.859311708873767
      ],
      [
        "▁Yani",
        -8.860465664213658
      ],
      [
        "▁hatta",
        -8.861538876066946
      ],
      [
        "▁haline",
        -8.86247383463863
      ],
      [
        "▁Mustafa",
        -8.8639482693083
      ],
      [
        "inden",
        -8.865278195557602
      ],
      [
        "ebilir",
        -8.86734957470748
      ],
      [
        "▁toplam",
        -8.867548924650553
      ],
      [
        "▁canlı",
        -8.868278307746605
      ],
      [
        "▁düzenlenen",
        -8.868878857498276
      ],
      [
        "▁aslında",
        -8.868990477138167
      ],
      [
        "▁edin",
        -8.871501541643124
      ],
      [
        "▁yıllık",
        -8.872278479599744
      ],
      [
        "ö",
        -8.873176491644548
      ],
      [
        "▁Belediyesi",
        -8.873443131544953
      ],
      [
        "▁ekonomik",
        -8.874652329135465
      ],
      [
        "mesi",
        -8.876987831692892
      ],
      [
        "▁güç",
        -8.87760093770626
      ],
      [
        "▁oluşan",
        -8.878473878511965
      ],
      [
        "▁izin",
        -8.878908190454883
      ],
      [
        "▁güvenlik",
        -8.879337385833534
      ],
      [
        "▁bulundu",
        -8.879529391210978
      ],
      [
        "▁dönemde",
        -8.88060653008475
      ],
      [
        "▁gelecek",
        -8.881021654202923
      ],
      [
        "▁isteyen",
        -8.881287097175065
      ],
      [
        "▁mutlu",
        -8.884452492269148
      ],
      [
        "diğini",
        -8.886038211592293
      ],
      [
        "▁geç",
        -8.888709741993942
      ],
      [
        "▁telefon",
        -8.890851277227707
      ],
      [
        "▁kaç",
        -8.891117856653748
      ],
      [
        "ter",
        -8.892961036633418
      ],
      [
        "▁şimdi",
        -8.896001652470506
      ],
      [
        "▁yoktur",
        -8.896422951154937
      ],
      [
        "▁adam",
        -8.897632838879469
      ],
      [
        "▁yoğun",
        -8.89919312001906
      ],
      [
        "▁amacıyla",
        -8.90025885409387
      ],
      [
        "▁mevcut",
        -8.900301196194215
      ],
      [
        "▁arasındaki",
        -8.901124483403136
      ],
      [
        "▁Su",
        -8.901861591386732
      ],
      [
        "mizi",
        -8.901938217807947
      ],
      [
        "▁Cumhurbaşkanı",
        -8.902223581208698
      ],
      [
        "▁meydana",
        -8.906097305369258
      ],
      [
        "▁siz",
        -8.906727867070174
      ],
      [
        "▁insanların",
        -8.907886163139285
      ],
      [
        "▁yönetim",
        -8.908061314306979
      ],
      [
        "▁al",
        -8.909043096029283
      ],
      [
        "▁erkek",
        -8.909404256523093
      ],
      [
        "▁gerçekten",
        -8.910574207408887
      ],
      [
        "▁yazı",
        -8.910775405076285
      ],
      [
        "▁ciddi",
        -8.9114749961792
      ],
      [
        "▁buna",
        -8.911589620147858
      ],
      [
        "▁kullan",
        -8.912181488351642
      ],
      [
        "▁ses",
        -8.912522951768976
      ],
      [
        "▁takım",
        -8.913986296974887
      ],
      [
        "nıza",
        -8.914780830601304
      ],
      [
        "▁yanlış",
        -8.917737962062198
      ],
      [
        "meyi",
        -8.919569082658287
      ],
      [
        "j",
        -8.920328368529702
      ],
      [
        "▁film",
        -8.920720368350798
      ],
      [
        "sinden",
        -8.920888164215043
      ],
      [
        "▁Eylül",
        -8.923587775002664
      ],
      [
        "▁imza",
        -8.926691176716805
      ],
      [
        "▁Büyük",
        -8.927599316433701
      ],
      [
        "▁işlem",
        -8.927774862442485
      ],
      [
        "▁dış",
        -8.931819497835212
      ],
      [
        "▁istiyorum",
        -8.93183583300985
      ],
      [
        "▁üretim",
        -8.933494469606712
      ],
      [
        "▁zarar",
        -8.93518070688663
      ],
      [
        "▁adım",
        -8.93600035167888
      ],
      [
        "▁edildi",
        -8.936250261450098
      ],
      [
        "▁sizi",
        -8.937149929554579
      ],
      [
        "▁Erdoğan",
        -8.939023125975336
      ],
      [
        "sınız",
        -8.93968118220981
      ],
      [
        "▁yılı",
        -8.940029355418446
      ],
      [
        "▁servis",
        -8.941555656699467
      ],
      [
        "▁yüz",
        -8.942586372472402
      ],
      [
        "â",
        -8.943129954068691
      ],
      [
        "▁Bakanı",
        -8.943864365376342
      ],
      [
        "▁dünyanın",
        -8.944530349773498
      ],
      [
        "▁yabancı",
        -8.945634084051866
      ],
      [
        "abilir",
        -8.945638076863936
      ],
      [
        "▁ödeme",
        -8.949186702379643
      ],
      [
        "bi",
        -8.949462029319898
      ],
      [
        "▁alma",
        -8.952469874630868
      ],
      [
        "▁Osmanlı",
        -8.953820099151184
      ],
      [
        "▁El",
        -8.95428582876677
      ],
      [
        "▁web",
        -8.955401020926068
      ],
      [
        "▁teslim",
        -8.955743685998893
      ],
      [
        "▁yayın",
        -8.955984436343865
      ],
      [
        "▁satın",
        -8.956400247143682
      ],
      [
        "▁yaş",
        -8.957634757916296
      ],
      [
        "▁sayısı",
        -8.961654265603297
      ],
      [
        "▁dolu",
        -8.963528791545553
      ],
      [
        "▁yapı",
        -8.964063609349639
      ],
      [
        "▁sonrası",
        -8.965347040705794
      ],
      [
        "ebilirsiniz",
        -8.967225130892738
      ],
      [
        "leme",
        -8.967256815701495
      ],
      [
        "▁zorunda",
        -8.967735226954456
      ],
      [
        "▁Özel",
        -8.969187346203267
      ],
      [
        "▁Bakanlığı",
        -8.97017212398742
      ],
      [
        "▁Şimdi",
        -8.971221995337034
      ],
      [
        "▁başında",
        -8.97126862689511
      ],
      [
        "▁başına",
        -8.975098499898543
      ],
      [
        "▁dört",
        -8.975377960787066
      ],
      [
        "▁satış",
        -8.975454815806714
      ],
      [
        "▁başlayan",
        -8.97803998613081
      ],
      [
        "▁günlük",
        -8.978441760983237
      ],
      [
        "▁cevap",
        -8.978607294693628
      ],
      [
        "▁dil",
        -8.98021201227127
      ],
      [
        "▁bulunmaktadır",
        -8.981591552858472
      ],
      [
        "▁araya",
        -8.982377322602563
      ],
      [
        "▁şeyler",
        -8.982841479035988
      ],
      [
        "▁durumu",
        -8.983673714760998
      ],
      [
        "▁Kasım",
        -8.984434385578403
      ],
      [
        "kten",
        -8.984529126919908
      ],
      [
        "▁soru",
        -8.985969526449322
      ],
      [
        "▁düşük",
        -8.989373200452292
      ],
      [
        "ydı",
        -8.99041595625784
      ],
      [
        "▁önceki",
        -8.992459453736867
      ],
      [
        "▁yeterli",
        -8.992709084032947
      ],
      [
        "▁hizmeti",
        -8.993149415236248
      ],
      [
        "▁din",
        -8.994649295266425
      ],
      [
        "ğ",
        -8.994678277757691
      ],
      [
        "▁bilgiler",
        -8.994786840210729
      ],
      [
        "▁talep",
        -8.995370258333375
      ],
      [
        "▁adlı",
        -8.995828415174975
      ],
      [
        "▁ayında",
        -8.996517174132777
      ],
      [
        "▁olmuş",
        -8.996982905061364
      ],
      [
        "▁başvuru",
        -8.997738963151342
      ],
      [
        "▁tavsiye",
        -8.998673900631708
      ],
      [
        "▁Haziran",
        -8.998836747348337
      ],
      [
        "▁merkezi",
        -8.999701775401293
      ],
      [
        "▁etme",
        -9.000004881719306
      ],
      [
        "▁milyar",
        -9.00047273819058
      ],
      [
        "▁yapma",
        -9.00080754623629
      ],
      [
        "nce",
        -9.002070208116253
      ],
      [
        "▁Yönetim",
        -9.003769279625274
      ],
      [
        "▁Spor",
        -9.0039046414633
      ],
      [
        "▁renk",
        -9.004502285616
      ],
      [
        "▁ediyorum",
        -9.005255595749865
      ],
      [
        "▁çözüm",
        -9.005416620398583
      ],
      [
        "▁kaliteli",
        -9.006137093984126
      ],
      [
        "▁edecek",
        -9.006595653305286
      ],
      [
        "▁Ş",
        -9.00770589680277
      ],
      [
        "▁ağır",
        -9.008518020325912
      ],
      [
        "▁Aynı",
        -9.009505046261843
      ],
      [
        "▁yere",
        -9.00963958603093
      ],
      [
        "▁spor",
        -9.009765502782374
      ],
      [
        "iyle",
        -9.009850007155121
      ],
      [
        "▁ihtiyaç",
        -9.011270651786024
      ],
      [
        "▁sizlere",
        -9.011789855273639
      ],
      [
        "▁mutlaka",
        -9.011865607876079
      ],
      [
        "▁olmadığı",
        -9.014497003740528
      ],
      [
        "▁siyasi",
        -9.016527975774679
      ],
      [
        "▁lira",
        -9.01675466646103
      ],
      [
        "▁yatırım",
        -9.018243593231357
      ],
      [
        "▁altına",
        -9.019346596040448
      ],
      [
        "▁alınan",
        -9.019774829313413
      ],
      [
        "▁yolu",
        -9.020663660227793
      ],
      [
        "▁anne",
        -9.020755133567928
      ],
      [
        "▁orta",
        -9.0208891681052
      ],
      [
        "▁parça",
        -9.024721764407504
      ],
      [
        "▁yapılması",
        -9.025472897795341
      ],
      [
        "min",
        -9.026685528442004
      ],
      [
        "▁Mayıs",
        -9.026744003971897
      ],
      [
        "▁Müdürü",
        -9.02724144890845
      ],
      [
        "▁uzak",
        -9.02729535200773
      ],
      [
        "▁edilmesi",
        -9.027510564383414
      ],
      [
        "▁dair",
        -9.02791985640848
      ],
      [
        "unun",
        -9.028404316311951
      ],
      [
        "▁Ekim",
        -9.02963215557851
      ],
      [
        "▁Ahmet",
        -9.030322147781028
      ],
      [
        "▁bahis",
        -9.031411001123809
      ],
      [
        "▁Ay",
        -9.034255208427812
      ],
      [
        "▁resmi",
        -9.034834982877664
      ],
      [
        "▁belki",
        -9.036392377242892
      ],
      [
        "▁önünde",
        -9.038832947331988
      ],
      [
        "▁önem",
        -9.040118860975916
      ],
      [
        "rken",
        -9.041367955067717
      ],
      [
        "gi",
        -9.041685118771069
      ],
      [
        "▁durumunda",
        -9.041774083862274
      ],
      [
        "▁defa",
        -9.042577889274401
      ],
      [
        "dim",
        -9.042918978428638
      ],
      [
        "▁edilir",
        -9.043242457814411
      ],
      [
        "▁olmadığını",
        -9.044998006829974
      ],
      [
        "▁bulunuyor",
        -9.04527088928393
      ],
      [
        "▁dönem",
        -9.045336912280103
      ],
      [
        "▁Öz",
        -9.04551180531521
      ],
      [
        "▁sen",
        -9.045761080059416
      ],
      [
        "una",
        -9.046329701908562
      ],
      [
        "▁yaşayan",
        -9.0466245746477
      ],
      [
        "▁Türkçe",
        -9.049781437442268
      ],
      [
        "▁Mart",
        -9.049925659116132
      ],
      [
        "▁Anadolu",
        -9.050010542934826
      ],
      [
        "▁firma",
        -9.05274534071043
      ],
      [
        "▁çevre",
        -9.053168814341017
      ],
      [
        "▁oy",
        -9.054212865589399
      ],
      [
        "▁vermek",
        -9.055218051233183
      ],
      [
        "▁hayat",
        -9.056075268299965
      ],
      [
        "▁kararı",
        -9.057076520627579
      ],
      [
        "▁herkes",
        -9.057375936678227
      ],
      [
        "▁Ya",
        -9.05822269036275
      ],
      [
        "▁halde",
        -9.058500004739892
      ],
      [
        "nca",
        -9.05960240926947
      ],
      [
        "▁çalışmaları",
        -9.059724795964527
      ],
      [
        "▁açıklama",
        -9.059905374251077
      ],
      [
        "▁Diğer",
        -9.06240531121594
      ],
      [
        "ha",
        -9.063409333091368
      ],
      [
        "▁gerektiğini",
        -9.064990107879671
      ],
      [
        "▁örnek",
        -9.065056025205557
      ],
      [
        "▁hedef",
        -9.066776554153671
      ],
      [
        "▁kimse",
        -9.066950397881664
      ],
      [
        "han",
        -9.069120917597644
      ],
      [
        "▁Sosyal",
        -9.06997150175686
      ],
      [
        "▁iletişim",
        -9.070073182736227
      ],
      [
        "▁hala",
        -9.070515371908646
      ],
      [
        "▁bizi",
        -9.070541186655532
      ],
      [
        "▁şehir",
        -9.070893919519344
      ],
      [
        "iye",
        -9.071989930075654
      ],
      [
        "▁olmaz",
        -9.07208579364706
      ],
      [
        "▁beri",
        -9.072128460598888
      ],
      [
        "▁X",
        -9.072205544223344
      ],
      [
        "▁ince",
        -9.073052725115833
      ],
      [
        "▁sohbet",
        -9.073355115429598
      ],
      [
        "▁sağlıklı",
        -9.075670106774945
      ],
      [
        "▁getir",
        -9.076304518006868
      ],
      [
        "▁Prof",
        -9.076827509085566
      ],
      [
        "▁parti",
        -9.077752753155439
      ],
      [
        "▁arama",
        -9.077977895904272
      ],
      [
        "mizin",
        -9.079714619997311
      ],
      [
        "▁sebep",
        -9.079890332817184
      ],
      [
        "alım",
        -9.081399876894576
      ],
      [
        "▁ister",
        -9.082932875275313
      ],
      [
        "▁savaş",
        -9.083429059116632
      ],
      [
        "▁sayıda",
        -9.08407164357956
      ],
      [
        "▁alanında",
        -9.084258744225663
      ],
      [
        "▁tarih",
        -9.085538790440456
      ],
      [
        "▁normal",
        -9.086319519818757
      ],
      [
        "maya",
        -9.0870364880902
      ],
      [
        "İ",
        -9.087763517911943
      ],
      [
        "▁bakım",
        -9.08817786653626
      ],
      [
        "muş",
        -9.089059555541944
      ],
      [
        "▁kamu",
        -9.089097564975996
      ],
      [
        "▁Sağlık",
        -9.090392948982412
      ],
      [
        "▁sonrasında",
        -9.090692229847008
      ],
      [
        "▁Al",
        -9.091858350059228
      ],
      [
        "▁uluslararası",
        -9.092679643699228
      ],
      [
        "ız",
        -9.09520159397195
      ],
      [
        "▁Bunlar",
        -9.095720048649959
      ],
      [
        "▁sistem",
        -9.098057641503727
      ],
      [
        "eli",
        -9.098767405811397
      ],
      [
        "▁Er",
        -9.099439926959876
      ],
      [
        "▁eğer",
        -9.101426844904577
      ],
      [
        "mek",
        -9.10157483648054
      ],
      [
        "▁yorum",
        -9.101620000406896
      ],
      [
        "▁etkili",
        -9.102078047811027
      ],
      [
        "▁Ar",
        -9.102344947749739
      ],
      [
        "▁olay",
        -9.103044090812666
      ],
      [
        "▁sağlar",
        -9.104585741716534
      ],
      [
        "▁yandan",
        -9.10469457935091
      ],
      [
        "▁Müdürlüğü",
        -9.108416546418022
      ],
      [
        "▁dolar",
        -9.108555960917348
      ],
      [
        "▁madde",
        -9.1097945311458
      ],
      [
        "▁kendisine",
        -9.110675789570621
      ],
      [
        "▁sıcak",
        -9.110900439917625
      ],
      [
        "▁fiyat",
        -9.113657824581013
      ],
      [
        "▁İzmir",
        -9.113984641916602
      ],
      [
        "▁alıyor",
        -9.114251743861393
      ],
      [
        "▁ilçe",
        -9.117533626017774
      ],
      [
        "▁Sonra",
        -9.118932687991572
      ],
      [
        "▁araştırma",
        -9.11893657852587
      ],
      [
        "tik",
        -9.120702609685926
      ],
      [
        "▁Merkezi",
        -9.122260193278102
      ],
      [
        "▁öğrenci",
        -9.122969376347951
      ],
      [
        "▁Sen",
        -9.123200816621216
      ],
      [
        "▁işi",
        -9.123592421384954
      ],
      [
        "▁müşteri",
        -9.123921763891916
      ],
      [
        "▁olursa",
        -9.12403214931414
      ],
      [
        "▁Büyükşehir",
        -9.124101724724902
      ],
      [
        "▁içi",
        -9.125283059414937
      ],
      [
        "▁Nisan",
        -9.125477672254808
      ],
      [
        "▁belirten",
        -9.125768451223246
      ],
      [
        "▁medya",
        -9.127812755240942
      ],
      [
        "▁onların",
        -9.12786079357625
      ],
      [
        "dür",
        -9.128115094327493
      ],
      [
        "▁aç",
        -9.12944668033665
      ],
      [
        "ran",
        -9.130883234980164
      ],
      [
        "▁Cumhuriyet",
        -9.13268095682217
      ],
      [
        "▁bunlar",
        -9.133095982242622
      ],
      [
        "▁yağ",
        -9.133717991425891
      ],
      [
        "▁iddia",
        -9.134061675344768
      ],
      [
        "▁okul",
        -9.134686497735402
      ],
      [
        "▁yap",
        -9.13541392213292
      ],
      [
        "▁hasta",
        -9.137397057460142
      ],
      [
        "▁çoğu",
        -9.13944096573028
      ],
      [
        "on",
        -9.140245326129032
      ],
      [
        "▁ünlü",
        -9.141395918259384
      ],
      [
        "▁grup",
        -9.141446242934645
      ],
      [
        "▁akşam",
        -9.142478231017359
      ],
      [
        "▁değerli",
        -9.144397729764293
      ],
      [
        "▁İyi",
        -9.145579179331254
      ],
      [
        "▁Benim",
        -9.146713030981536
      ],
      [
        "▁alanda",
        -9.147081267539726
      ],
      [
        "▁sağlamak",
        -9.148588690048447
      ],
      [
        "▁basın",
        -9.149515990433173
      ],
      [
        "▁teknoloji",
        -9.150044851680503
      ],
      [
        "▁Onun",
        -9.150585605328336
      ],
      [
        "▁müzik",
        -9.151543145918604
      ],
      [
        "▁yeri",
        -9.15209125862952
      ],
      [
        "▁on",
        -9.154694473671753
      ],
      [
        "▁onları",
        -9.15571783755655
      ],
      [
        "▁hesap",
        -9.156553737973088
      ],
      [
        "▁Şu",
        -9.157755954958535
      ],
      [
        "liğe",
        -9.157774667317142
      ],
      [
        "▁marka",
        -9.157803907732594
      ],
      [
        "▁saç",
        -9.161707633140496
      ],
      [
        "▁yıllarda",
        -9.162169731419612
      ],
      [
        "▁şeyi",
        -9.162302282579077
      ],
      [
        "▁lazım",
        -9.163075340356977
      ],
      [
        "▁ileri",
        -9.164661731402598
      ],
      [
        "▁yada",
        -9.16494417210124
      ],
      [
        "▁kilo",
        -9.16557505495836
      ],
      [
        "▁birisi",
        -9.165621533528647
      ],
      [
        "▁yaparak",
        -9.16720112765712
      ],
      [
        "▁ücretsiz",
        -9.16765622497805
      ],
      [
        "▁işaret",
        -9.168277010663363
      ],
      [
        "▁Siz",
        -9.169400946643146
      ],
      [
        "▁alanı",
        -9.170176058128387
      ],
      [
        "▁döneminde",
        -9.171697638614788
      ],
      [
        "▁terör",
        -9.173329065854531
      ],
      [
        "▁başta",
        -9.173825667830076
      ],
      [
        "▁aylık",
        -9.173883040831962
      ],
      [
        "▁Kara",
        -9.174179470684017
      ],
      [
        "▁halk",
        -9.174583652813823
      ],
      [
        "▁veri",
        -9.175981760227515
      ],
      [
        "elim",
        -9.17626000416506
      ],
      [
        "▁toplum",
        -9.177470676646157
      ],
      [
        "▁puan",
        -9.178275018052574
      ],
      [
        "▁üye",
        -9.180354816036408
      ],
      [
        "▁kayıt",
        -9.180734620865751
      ],
      [
        "▁Ocak",
        -9.180965488690125
      ],
      [
        "mizde",
        -9.181077030474851
      ],
      [
        "▁Hz",
        -9.18234665793954
      ],
      [
        "imi",
        -9.18371331754268
      ],
      [
        "▁İlçe",
        -9.184577511280583
      ],
      [
        "mızın",
        -9.184753293205413
      ],
      [
        "▁video",
        -9.187709296198273
      ],
      [
        "▁ceza",
        -9.187784010450516
      ],
      [
        "▁gerekmektedir",
        -9.187994913938208
      ],
      [
        "▁beyaz",
        -9.188161806426393
      ],
      [
        "▁yaşanan",
        -9.19074765420682
      ],
      [
        "muz",
        -9.191913967033722
      ],
      [
        "▁Kemal",
        -9.193151409384674
      ],
      [
        "siyle",
        -9.1940900198239
      ],
      [
        "larımız",
        -9.195551971581727
      ],
      [
        "▁kar",
        -9.195921667950726
      ],
      [
        "cu",
        -9.196973464721825
      ],
      [
        "▁çalışmalar",
        -9.197240151243975
      ],
      [
        "▁il",
        -9.197420421495496
      ],
      [
        "w",
        -9.199135031343731
      ],
      [
        "▁dünyada",
        -9.199231038698901
      ],
      [
        "lerimiz",
        -9.199774524536597
      ],
      [
        "dik",
        -9.20252965602522
      ],
      [
        "▁fotoğraf",
        -9.207349097949715
      ],
      [
        "▁yaşında",
        -9.207822055082618
      ],
      [
        "▁Derneği",
        -9.208352618827588
      ],
      [
        "▁ederim",
        -9.208430099046847
      ],
      [
        "▁gösteren",
        -9.208530285556357
      ],
      [
        "▁saldırı",
        -9.20917271014277
      ],
      [
        "kan",
        -9.211358445436916
      ],
      [
        "▁De",
        -9.211766690974754
      ],
      [
        "yim",
        -9.213444679050397
      ],
      [
        "▁tabi",
        -9.214896843739073
      ],
      [
        "▁sırada",
        -9.215143955488282
      ],
      [
        "▁Kültür",
        -9.215397256066629
      ],
      [
        "▁onlar",
        -9.215729101381731
      ],
      [
        "▁sağlayan",
        -9.217318827934463
      ],
      [
        "▁faaliyet",
        -9.21778657050796
      ],
      [
        "▁alarak",
        -9.21794495366429
      ],
      [
        "▁hakkı",
        -9.21820449444248
      ],
      [
        "▁ders",
        -9.218406570643392
      ],
      [
        "▁Ev",
        -9.219150648307908
      ],
      [
        "▁İslam",
        -9.219854117228657
      ],
      [
        "▁ilan",
        -9.220594769828462
      ],
      [
        "▁Ha",
        -9.221204582021997
      ],
      [
        "▁benzer",
        -9.221615353715123
      ],
      [
        "▁Bunu",
        -9.221777807145463
      ],
      [
        "lük",
        -9.224586423032758
      ],
      [
        "▁olmuştur",
        -9.228144700960813
      ],
      [
        "▁merak",
        -9.22819857586653
      ],
      [
        "▁sanat",
        -9.229052504596526
      ],
      [
        "yız",
        -9.229219401972168
      ],
      [
        "liğini",
        -9.229962750401546
      ],
      [
        "▁tane",
        -9.230856022523978
      ],
      [
        "▁Bey",
        -9.231227244613015
      ],
      [
        "▁zengin",
        -9.234336939214712
      ],
      [
        "▁kuru",
        -9.234413894586782
      ],
      [
        "▁diyor",
        -9.235458740098183
      ],
      [
        "▁insanın",
        -9.235469316392381
      ],
      [
        "mıştı",
        -9.236224403927265
      ],
      [
        "dım",
        -9.236236696297288
      ],
      [
        "▁belirtti",
        -9.236259995725032
      ],
      [
        "▁başlar",
        -9.237818909000355
      ],
      [
        "▁kişiler",
        -9.239238980988816
      ],
      [
        "▁esas",
        -9.239406241541785
      ],
      [
        "▁katkı",
        -9.240142717020257
      ],
      [
        "▁net",
        -9.240913261241323
      ],
      [
        "▁İki",
        -9.241347710541651
      ],
      [
        "▁bak",
        -9.2422640154728
      ],
      [
        "▁geçti",
        -9.242537931373638
      ],
      [
        "▁henüz",
        -9.242632381384716
      ],
      [
        "▁beş",
        -9.242813368782459
      ],
      [
        "▁kullanım",
        -9.243425152278563
      ],
      [
        "▁kim",
        -9.244780797506477
      ],
      [
        "lanan",
        -9.245023338848366
      ],
      [
        "▁Birliği",
        -9.245037377923703
      ],
      [
        "nize",
        -9.247325095104465
      ],
      [
        "▁yurt",
        -9.248680336292722
      ],
      [
        "▁dışı",
        -9.25048761588221
      ],
      [
        "▁kullanarak",
        -9.251231843455693
      ],
      [
        "▁karşısında",
        -9.252413741275136
      ],
      [
        "ver",
        -9.255034262583456
      ],
      [
        "▁hoş",
        -9.255288131846372
      ],
      [
        "▁istediğiniz",
        -9.255578602538481
      ],
      [
        "▁ürünleri",
        -9.257240499561025
      ],
      [
        "▁sonuç",
        -9.257614783164476
      ],
      [
        "▁Sayın",
        -9.258631251270344
      ],
      [
        "▁kurum",
        -9.258762027717289
      ],
      [
        "▁oda",
        -9.259354953526113
      ],
      [
        "▁bol",
        -9.260293819660601
      ],
      [
        "▁oyuncu",
        -9.260371694445608
      ],
      [
        "▁İnsan",
        -9.260590856438085
      ],
      [
        "▁Ö",
        -9.261596059373133
      ],
      [
        "▁deniz",
        -9.261812257734551
      ],
      [
        "▁Deniz",
        -9.263741246381294
      ],
      [
        "▁escort",
        -9.26452566559745
      ],
      [
        "▁kendine",
        -9.266311520441022
      ],
      [
        "▁programı",
        -9.269089214787844
      ],
      [
        "▁Orta",
        -9.270539807574218
      ],
      [
        "▁özelliği",
        -9.271365311987209
      ],
      [
        "▁arası",
        -9.272425119693695
      ],
      [
        "▁bayan",
        -9.272785821380483
      ],
      [
        "▁yılın",
        -9.27281312230625
      ],
      [
        "nün",
        -9.274003704483132
      ],
      [
        "▁yazılı",
        -9.27402146352163
      ],
      [
        "▁hayata",
        -9.274121589681128
      ],
      [
        "▁ediyoruz",
        -9.277396092870159
      ],
      [
        "▁tasarım",
        -9.278817847052668
      ],
      [
        "imiz",
        -9.279369162088388
      ],
      [
        "▁uzman",
        -9.27952887868626
      ],
      [
        "▁can",
        -9.281360508986157
      ],
      [
        "▁önüne",
        -9.281858706106748
      ],
      [
        "▁temiz",
        -9.28210366000349
      ],
      [
        "▁basit",
        -9.283487276587273
      ],
      [
        "▁bundan",
        -9.284270869408525
      ],
      [
        "▁sitesi",
        -9.285119365574772
      ],
      [
        "▁anlamda",
        -9.286968055187376
      ],
      [
        "▁yoksa",
        -9.287131333612704
      ],
      [
        "bu",
        -9.287767280635805
      ],
      [
        "▁kesinlikle",
        -9.291796389073943
      ],
      [
        "▁sabah",
        -9.29184020774504
      ],
      [
        "▁işte",
        -9.29253928018395
      ],
      [
        "▁aday",
        -9.293081544088968
      ],
      [
        "sen",
        -9.293228061506266
      ],
      [
        "▁sorunu",
        -9.294856409225165
      ],
      [
        "▁polis",
        -9.295347061237816
      ],
      [
        "▁yapılır",
        -9.295449486612775
      ],
      [
        "ecektir",
        -9.296397617303612
      ],
      [
        "▁demek",
        -9.298244370901392
      ],
      [
        "▁alışveriş",
        -9.298695985283235
      ],
      [
        "▁asla",
        -9.298851245946
      ],
      [
        "▁Aralık",
        -9.298956172832112
      ],
      [
        "▁Re",
        -9.29984451761035
      ],
      [
        "▁Ağustos",
        -9.300575132036274
      ],
      [
        "▁izle",
        -9.301172325918213
      ],
      [
        "▁yerinde",
        -9.301237370284706
      ],
      [
        "▁güven",
        -9.301258066331984
      ],
      [
        "▁sınıf",
        -9.301981823740403
      ],
      [
        "▁yapıldı",
        -9.302095277012823
      ],
      [
        "▁model",
        -9.303278086259665
      ],
      [
        "▁Uluslararası",
        -9.304458541434185
      ],
      [
        "▁yılda",
        -9.305479278419948
      ],
      [
        "▁sonucunda",
        -9.30564605139128
      ],
      [
        "▁Doğu",
        -9.305899087371218
      ],
      [
        "▁bilgileri",
        -9.309272659445424
      ],
      [
        "▁sezon",
        -9.30949080260234
      ],
      [
        "meli",
        -9.30951753909698
      ],
      [
        "▁mal",
        -9.309571120153345
      ],
      [
        "sıyla",
        -9.309721962078436
      ],
      [
        "▁baskı",
        -9.310303719684281
      ],
      [
        "ist",
        -9.310371132874174
      ],
      [
        "▁kültür",
        -9.310876244651453
      ],
      [
        "▁Bazı",
        -9.311686855815584
      ],
      [
        "▁Sadece",
        -9.313394910823176
      ],
      [
        "▁neler",
        -9.315376282671554
      ],
      [
        "▁kurulu",
        -9.31626154282697
      ],
      [
        "mize",
        -9.318152993917623
      ],
      [
        "▁Hem",
        -9.318314119114307
      ],
      [
        "ndaki",
        -9.31876372400135
      ],
      [
        "ing",
        -9.319632012284135
      ],
      [
        "▁Buna",
        -9.319721552824484
      ],
      [
        "▁oyunu",
        -9.3205134344772
      ],
      [
        "▁Rusya",
        -9.32198837918799
      ],
      [
        "▁birinci",
        -9.322488563030921
      ],
      [
        "▁ürünler",
        -9.324826109792124
      ],
      [
        "▁sahiptir",
        -9.325132727281396
      ],
      [
        "▁sana",
        -9.325390046657962
      ],
      [
        "▁günlerde",
        -9.326808345505535
      ],
      [
        "▁sayfa",
        -9.327832102174211
      ],
      [
        "▁belediye",
        -9.329560635833213
      ],
      [
        "▁kesin",
        -9.332010601136886
      ],
      [
        "▁CHP",
        -9.334047042563219
      ],
      [
        "mda",
        -9.335062842486908
      ],
      [
        "▁açıklamada",
        -9.335161660562168
      ],
      [
        "▁Yüksek",
        -9.33627478214523
      ],
      [
        "▁bazen",
        -9.336381212324385
      ],
      [
        "▁acı",
        -9.337359863115232
      ],
      [
        "▁sonraki",
        -9.337471099010521
      ],
      [
        "▁görmek",
        -9.338473646651105
      ],
      [
        "sunuz",
        -9.338738147726026
      ],
      [
        "▁Allahın",
        -9.339705445255573
      ],
      [
        "▁yapıyor",
        -9.33983381880093
      ],
      [
        "mişti",
        -9.341330620007856
      ],
      [
        "▁alıp",
        -9.342042732259815
      ],
      [
        "ol",
        -9.342084321452772
      ],
      [
        "teki",
        -9.343624216174792
      ],
      [
        "lardır",
        -9.343874083542804
      ],
      [
        "▁sayı",
        -9.34392572659307
      ],
      [
        "▁Yine",
        -9.344005811777638
      ],
      [
        "▁nokta",
        -9.344213235134381
      ],
      [
        "▁orada",
        -9.344812856806033
      ],
      [
        "▁La",
        -9.344823540079089
      ],
      [
        "▁yavaş",
        -9.344989926482548
      ],
      [
        "▁Merkez",
        -9.345069376158932
      ],
      [
        "▁suç",
        -9.345603512873588
      ],
      [
        "▁hafif",
        -9.345639582787301
      ],
      [
        "▁Ticaret",
        -9.346035595859076
      ],
      [
        "▁onlara",
        -9.346046190850156
      ],
      [
        "▁bas",
        -9.346857688017597
      ],
      [
        "▁Eski",
        -9.34690217867343
      ],
      [
        "▁İstanbulda",
        -9.347208860806925
      ],
      [
        "▁profesyonel",
        -9.348043590191248
      ],
      [
        "▁vergi",
        -9.350042498576217
      ],
      [
        "taki",
        -9.35055371365469
      ],
      [
        "▁geçmiş",
        -9.350727886359438
      ],
      [
        "▁Kendi",
        -9.351554965564198
      ],
      [
        "▁Ba",
        -9.352664632198628
      ],
      [
        "▁yıldır",
        -9.354960952161651
      ],
      [
        "acaktır",
        -9.356104118935491
      ],
      [
        "▁erken",
        -9.356111125267578
      ],
      [
        "▁program",
        -9.356157992615636
      ],
      [
        "▁işe",
        -9.356231784122306
      ],
      [
        "lığa",
        -9.35683029655778
      ],
      [
        "▁genellikle",
        -9.357022647045952
      ],
      [
        "▁Bizim",
        -9.357296242244734
      ],
      [
        "▁W",
        -9.35785622108368
      ],
      [
        "ünü",
        -9.360123399137878
      ],
      [
        "▁öne",
        -9.36077678636416
      ],
      [
        "▁sürede",
        -9.361574070389706
      ],
      [
        "▁darbe",
        -9.362118929737587
      ],
      [
        "▁yerel",
        -9.362253888085375
      ],
      [
        "▁üniversite",
        -9.362688354285448
      ],
      [
        "or",
        -9.36364886318126
      ],
      [
        "▁konuşma",
        -9.364195104039915
      ],
      [
        "mıza",
        -9.364309679380938
      ],
      [
        "▁dahi",
        -9.365085501272793
      ],
      [
        "▁kara",
        -9.365144935363652
      ],
      [
        "▁alın",
        -9.365224969192848
      ],
      [
        "▁Kadın",
        -9.366003426586706
      ],
      [
        "▁katıldı",
        -9.36608910808123
      ],
      [
        "▁bilim",
        -9.36697897463383
      ],
      [
        "▁nedir",
        -9.368863035819313
      ],
      [
        "▁engel",
        -9.369255791500894
      ],
      [
        "▁alır",
        -9.370906431810582
      ],
      [
        "nızda",
        -9.371366625694268
      ],
      [
        "▁gerçekleştir",
        -9.372518546023217
      ],
      [
        "▁dava",
        -9.372909510422591
      ],
      [
        "▁yapmış",
        -9.373068574632347
      ],
      [
        "▁harika",
        -9.374401090604177
      ],
      [
        "▁olmasına",
        -9.377416833181645
      ],
      [
        "▁isimli",
        -9.378225703671616
      ],
      [
        "▁kendisini",
        -9.378291526590546
      ],
      [
        "▁kişisel",
        -9.379768967977904
      ],
      [
        "▁belirterek",
        -9.382588043164603
      ],
      [
        "▁amacı",
        -9.382998256941608
      ],
      [
        "▁Atatürk",
        -9.383054937365399
      ],
      [
        "▁kullanma",
        -9.384060091473005
      ],
      [
        "▁olun",
        -9.384263644840079
      ],
      [
        "▁bunların",
        -9.384475810711535
      ],
      [
        "▁hayatını",
        -9.38478024075925
      ],
      [
        "sü",
        -9.38493486907953
      ],
      [
        "▁etmeye",
        -9.385366518503853
      ],
      [
        "ından",
        -9.385757366096048
      ],
      [
        "▁Tek",
        -9.385793574242141
      ],
      [
        "▁oranı",
        -9.386026446532092
      ],
      [
        "▁altı",
        -9.38636650304542
      ],
      [
        "▁etmektedir",
        -9.38803823174674
      ],
      [
        "▁davet",
        -9.388709425017868
      ],
      [
        "▁Bütün",
        -9.388994318935023
      ],
      [
        "lerdir",
        -9.389824347085892
      ],
      [
        "▁işlemi",
        -9.390892641343164
      ],
      [
        "▁hayal",
        -9.39145157138382
      ],
      [
        "sak",
        -9.391982187048232
      ],
      [
        "▁plan",
        -9.39211902245474
      ],
      [
        "▁kendisi",
        -9.392413390526755
      ],
      [
        "▁bilgisayar",
        -9.393327476849372
      ],
      [
        "▁görüş",
        -9.39346820836366
      ],
      [
        "▁etmiş",
        -9.393801447341595
      ],
      [
        "▁bilinen",
        -9.39405547651575
      ],
      [
        "▁Başbakan",
        -9.395366393374964
      ],
      [
        "▁üçüncü",
        -9.39554627299873
      ],
      [
        "▁Suriye",
        -9.39706081812799
      ],
      [
        "▁vb",
        -9.397195998853439
      ],
      [
        "▁J",
        -9.397405668197981
      ],
      [
        "▁giden",
        -9.39883587145809
      ],
      [
        "▁aşağıdaki",
        -9.399934793805462
      ],
      [
        "▁değerlendirme",
        -9.400710159902545
      ],
      [
        "▁gider",
        -9.40133219932624
      ],
      [
        "▁edip",
        -9.401368634019173
      ],
      [
        "▁doğum",
        -9.401376261571421
      ],
      [
        "▁güneş",
        -9.402244941080383
      ],
      [
        "▁banka",
        -9.402498477443801
      ],
      [
        "▁Google",
        -9.402824140730148
      ],
      [
        "▁ilişki",
        -9.402828949396795
      ],
      [
        "▁Can",
        -9.403224603454877
      ],
      [
        "▁görme",
        -9.40379540565851
      ],
      [
        "▁bunları",
        -9.404581062471427
      ],
      [
        "▁Örneğin",
        -9.404739344638521
      ],
      [
        "▁veriyor",
        -9.40527875202888
      ],
      [
        "▁gitti",
        -9.405539211822568
      ],
      [
        "▁edilmiş",
        -9.405676263073659
      ],
      [
        "▁mükemmel",
        -9.405829836857604
      ],
      [
        "▁isim",
        -9.406012975587767
      ],
      [
        "▁Böylece",
        -9.406402579633149
      ],
      [
        "▁aracı",
        -9.406559924038818
      ],
      [
        "▁derin",
        -9.40720213375152
      ],
      [
        "▁eş",
        -9.407810616095743
      ],
      [
        "▁inşa",
        -9.408470616826994
      ],
      [
        "▁Peki",
        -9.409005705298123
      ],
      [
        "▁kısmı",
        -9.410568681351064
      ],
      [
        "▁Ç",
        -9.411034168677578
      ],
      [
        "▁arka",
        -9.411524977129593
      ],
      [
        "▁kaldı",
        -9.412054919172423
      ],
      [
        "▁çeken",
        -9.412258392611031
      ],
      [
        "▁koruma",
        -9.412624096372529
      ],
      [
        "▁Şubat",
        -9.413161941505358
      ],
      [
        "▁şirket",
        -9.413172903451008
      ],
      [
        "▁ortalama",
        -9.413635374607809
      ],
      [
        "▁tepki",
        -9.414078477409005
      ],
      [
        "▁artış",
        -9.41457201493919
      ],
      [
        "▁özellikleri",
        -9.41462829424839
      ],
      [
        "▁reklam",
        -9.41506165354781
      ],
      [
        "▁Böyle",
        -9.415545719668271
      ],
      [
        "yoruz",
        -9.416672452905052
      ],
      [
        "▁yan",
        -9.416755059862526
      ],
      [
        "sından",
        -9.416842548084384
      ],
      [
        "▁modern",
        -9.417715332723823
      ],
      [
        "▁Gül",
        -9.419538137166452
      ],
      [
        "lığını",
        -9.419568865327314
      ],
      [
        "▁biçimde",
        -9.419612729896693
      ],
      [
        "▁tatil",
        -9.421012188976022
      ],
      [
        "▁giren",
        -9.421511269871027
      ],
      [
        "▁taş",
        -9.421810600533501
      ],
      [
        "▁yola",
        -9.421999997426942
      ],
      [
        "ür",
        -9.423155571877457
      ],
      [
        "▁yapmaya",
        -9.42428052496865
      ],
      [
        "▁Uzun",
        -9.426337403798156
      ],
      [
        "▁Yardımcısı",
        -9.426927339180692
      ],
      [
        "▁olumlu",
        -9.427416752606252
      ],
      [
        "▁Bursa",
        -9.427782965002173
      ],
      [
        "▁hediye",
        -9.42894569698117
      ],
      [
        "▁verir",
        -9.42973398073932
      ],
      [
        "▁dizi",
        -9.429885064961736
      ],
      [
        "der",
        -9.429892159736042
      ],
      [
        "▁bölge",
        -9.430115607103941
      ],
      [
        "ren",
        -9.430274728914421
      ],
      [
        "▁Madde",
        -9.431138702674161
      ],
      [
        "▁saygı",
        -9.432358636588038
      ],
      [
        "▁The",
        -9.433912307785919
      ],
      [
        "▁ülkede",
        -9.435700610269915
      ],
      [
        "▁etki",
        -9.436292729130315
      ],
      [
        "men",
        -9.437519989654756
      ],
      [
        "▁kullanımı",
        -9.438842326145346
      ],
      [
        "▁yapar",
        -9.43978970185587
      ],
      [
        "▁diyerek",
        -9.439916796876549
      ],
      [
        "▁kullandı",
        -9.441324622518469
      ],
      [
        "acağını",
        -9.441509303302409
      ],
      [
        "kça",
        -9.44247000297149
      ],
      [
        "▁milli",
        -9.442503010050917
      ],
      [
        "▁askeri",
        -9.442518581909692
      ],
      [
        "▁rol",
        -9.443326639808895
      ],
      [
        "▁olumsuz",
        -9.444244063140394
      ],
      [
        "larınızı",
        -9.444252697790802
      ],
      [
        "lerinizi",
        -9.444334697985553
      ],
      [
        "▁suyu",
        -9.44594460185602
      ],
      [
        "▁görüntü",
        -9.446906695313693
      ],
      [
        "▁Sa",
        -9.447369841322192
      ],
      [
        "▁dün",
        -9.447578113661061
      ],
      [
        "▁elektrik",
        -9.450435376860804
      ],
      [
        "▁çıkıyor",
        -9.451632995538226
      ],
      [
        "▁olduğuna",
        -9.452813759761842
      ],
      [
        "▁aşırı",
        -9.452971972012621
      ],
      [
        "tü",
        -9.453684372379277
      ],
      [
        "▁test",
        -9.454035594068323
      ],
      [
        "▁verme",
        -9.454375343037347
      ],
      [
        "▁etkisi",
        -9.455723596952431
      ],
      [
        "▁evde",
        -9.45643050431984
      ],
      [
        "▁ücret",
        -9.456965698029805
      ],
      [
        "kçe",
        -9.457267585059821
      ],
      [
        "▁süresi",
        -9.45804794419187
      ],
      [
        "▁ülkenin",
        -9.458380392842402
      ],
      [
        "▁Çocuk",
        -9.458445232678198
      ],
      [
        "▁Aydın",
        -9.458765751120467
      ],
      [
        "▁boş",
        -9.459439071053046
      ],
      [
        "▁serbest",
        -9.459574959922538
      ],
      [
        "▁önemlidir",
        -9.46044279130793
      ],
      [
        "▁çocuklar",
        -9.461442136466347
      ],
      [
        "▁güncel",
        -9.46146436372949
      ],
      [
        "▁yaşama",
        -9.461477698431901
      ],
      [
        "▁kazan",
        -9.462801880804072
      ],
      [
        "▁aşk",
        -9.464948170502613
      ],
      [
        "▁günde",
        -9.464986117248891
      ],
      [
        "▁getiren",
        -9.466131247799096
      ],
      [
        "son",
        -9.466699944790369
      ],
      [
        "▁Vali",
        -9.466709400943396
      ],
      [
        "▁senin",
        -9.466823334617798
      ],
      [
        "▁belirtilen",
        -9.467133660955232
      ],
      [
        "▁diş",
        -9.467330717626293
      ],
      [
        "ör",
        -9.468167613626024
      ],
      [
        "▁Halk",
        -9.468885837090692
      ],
      [
        "▁Artık",
        -9.469425185944262
      ],
      [
        "▁etmesi",
        -9.470181487311352
      ],
      [
        "▁fayda",
        -9.470559528501557
      ],
      [
        "▁arkadaş",
        -9.472236768806695
      ],
      [
        "▁nedeni",
        -9.472966113554493
      ],
      [
        "▁kalp",
        -9.473775339884416
      ],
      [
        "▁kişilerin",
        -9.474179660406824
      ],
      [
        "▁Z",
        -9.474436061015906
      ],
      [
        "▁site",
        -9.47641219233103
      ],
      [
        "▁yapacak",
        -9.477047933782298
      ],
      [
        "▁Proje",
        -9.477686015977351
      ],
      [
        "▁hizmetleri",
        -9.478334381631578
      ],
      [
        "▁Ma",
        -9.479474962619841
      ],
      [
        "▁kaynak",
        -9.48078283254324
      ],
      [
        "▁sol",
        -9.481445990681454
      ],
      [
        "▁temsil",
        -9.481509938386004
      ],
      [
        "▁tatlı",
        -9.481677862424826
      ],
      [
        "▁tahmin",
        -9.482369505786128
      ],
      [
        "▁dosya",
        -9.482822570188386
      ],
      [
        "▁Hava",
        -9.483400359396226
      ],
      [
        "▁maç",
        -9.48347846977136
      ],
      [
        "▁öğretim",
        -9.483487448859458
      ],
      [
        "▁gir",
        -9.483500642344822
      ],
      [
        "lardı",
        -9.484142313992246
      ],
      [
        "▁yaşındaki",
        -9.485445188062277
      ],
      [
        "▁öncesi",
        -9.485760116703192
      ],
      [
        "iş",
        -9.486413597476647
      ],
      [
        "▁kırmızı",
        -9.486547513341092
      ],
      [
        "▁yazar",
        -9.486744648915503
      ],
      [
        "▁meslek",
        -9.48720917917958
      ],
      [
        "yiz",
        -9.48830159318384
      ],
      [
        "▁olmaya",
        -9.488804661052141
      ],
      [
        "▁getirdi",
        -9.489472234785158
      ],
      [
        "▁Le",
        -9.489626615517523
      ],
      [
        "▁yeşil",
        -9.490128860802512
      ],
      [
        "▁yara",
        -9.493614933983135
      ],
      [
        "▁ortadan",
        -9.495020565044221
      ],
      [
        "to",
        -9.495043252195646
      ],
      [
        "▁okuma",
        -9.495229396895757
      ],
      [
        "▁çek",
        -9.49563681155367
      ],
      [
        "▁almış",
        -9.496017240823928
      ],
      [
        "▁yerini",
        -9.496388814483868
      ],
      [
        "▁adını",
        -9.496505954584153
      ],
      [
        "▁Aile",
        -9.497030175182108
      ],
      [
        "▁olmasını",
        -9.497239854668278
      ],
      [
        "kar",
        -9.497495745088703
      ],
      [
        "▁Evet",
        -9.497542635279121
      ],
      [
        "▁Teknik",
        -9.499520041995853
      ],
      [
        "▁gören",
        -9.499525360854044
      ],
      [
        "▁sanayi",
        -9.49979885016693
      ],
      [
        "malıdır",
        -9.500398167238247
      ],
      [
        "▁düşünüyorum",
        -9.500506053997782
      ],
      [
        "▁faiz",
        -9.500600379299888
      ],
      [
        "▁koy",
        -9.500828527339523
      ],
      [
        "▁ayı",
        -9.501002683390553
      ],
      [
        "▁Çin",
        -9.501423637999698
      ],
      [
        "▁personel",
        -9.501527132065986
      ],
      [
        "▁Milletvekili",
        -9.502072360245213
      ],
      [
        "yım",
        -9.502397789256275
      ],
      [
        "iniz",
        -9.503128218725946
      ],
      [
        "▁bende",
        -9.50450634224137
      ],
      [
        "▁vakit",
        -9.504761851337788
      ],
      [
        "▁öğrenciler",
        -9.504967212944472
      ],
      [
        "▁düşünce",
        -9.505052243295559
      ],
      [
        "▁Sanayi",
        -9.506929631223006
      ],
      [
        "▁müdahale",
        -9.507622009407777
      ],
      [
        "▁sefer",
        -9.50849177829714
      ],
      [
        "▁üyesi",
        -9.509062764974123
      ],
      [
        "▁sona",
        -9.509108869566163
      ],
      [
        "▁kapalı",
        -9.509597483582946
      ],
      [
        "▁mü",
        -9.510712623239222
      ],
      [
        "yen",
        -9.511447375922272
      ],
      [
        "▁kalma",
        -9.511770159933992
      ],
      [
        "▁kur",
        -9.511911332412124
      ],
      [
        "▁araba",
        -9.512484708130449
      ],
      [
        "▁Başkanlığı",
        -9.51299876916652
      ],
      [
        "▁yalnızca",
        -9.513044620064152
      ],
      [
        "▁ismi",
        -9.513827928469293
      ],
      [
        "▁sert",
        -9.514913037840664
      ],
      [
        "▁süreci",
        -9.515045097942199
      ],
      [
        "▁Ana",
        -9.515904128668025
      ],
      [
        "▁ihtiyacı",
        -9.516354396234291
      ],
      [
        "▁güvenli",
        -9.517204076269884
      ],
      [
        "▁Batı",
        -9.518186746644206
      ],
      [
        "can",
        -9.519198910897908
      ],
      [
        "▁üzerindeki",
        -9.51951740605557
      ],
      [
        "▁belirli",
        -9.52147701028675
      ],
      [
        "▁geldiği",
        -9.521733546584187
      ],
      [
        "▁İngilizce",
        -9.522322297026845
      ],
      [
        "▁bebek",
        -9.524141456142885
      ],
      [
        "yken",
        -9.525682311178269
      ],
      [
        "▁aktif",
        -9.526329596934199
      ],
      [
        "▁fiyatları",
        -9.526351159306532
      ],
      [
        "▁ilçesinde",
        -9.527181728063905
      ],
      [
        "▁Se",
        -9.527431400163973
      ],
      [
        "▁kişilik",
        -9.52819111034501
      ],
      [
        "▁eve",
        -9.528650881496638
      ],
      [
        "layarak",
        -9.529124286007255
      ],
      [
        "layan",
        -9.529412489025859
      ],
      [
        "▁memnun",
        -9.529668184452767
      ],
      [
        "▁kaynağı",
        -9.530050283499056
      ],
      [
        "▁Ara",
        -9.530461479584591
      ],
      [
        "sek",
        -9.530821043093125
      ],
      [
        "▁Kıbrıs",
        -9.531189067958854
      ],
      [
        "▁Irak",
        -9.532577952911195
      ],
      [
        "▁çay",
        -9.532723386611291
      ],
      [
        "▁kitabı",
        -9.53581554130283
      ],
      [
        "▁kafa",
        -9.535946855864243
      ],
      [
        "▁hız",
        -9.537519424362817
      ],
      [
        "anlar",
        -9.537548461797554
      ],
      [
        "▁taşıma",
        -9.538290669663455
      ],
      [
        "▁doğrudan",
        -9.539565434782734
      ],
      [
        "▁bölgede",
        -9.539673782933805
      ],
      [
        "▁emin",
        -9.539928792405107
      ],
      [
        "▁altın",
        -9.540571370479253
      ],
      [
        "▁İran",
        -9.54087773743064
      ],
      [
        "▁geçiş",
        -9.54297580537132
      ],
      [
        "▁kapı",
        -9.543817493328532
      ],
      [
        "▁işçi",
        -9.544247935332455
      ],
      [
        "▁yargı",
        -9.545790362645869
      ],
      [
        "gu",
        -9.547619008242663
      ],
      [
        "▁baba",
        -9.547948980130883
      ],
      [
        "van",
        -9.548251426202095
      ],
      [
        "▁modelleri",
        -9.548921194591296
      ],
      [
        "▁der",
        -9.54896470599392
      ],
      [
        "▁of",
        -9.549088150215226
      ],
      [
        "▁konut",
        -9.551050854915566
      ],
      [
        "▁kalite",
        -9.551259124181462
      ],
      [
        "▁çift",
        -9.553644519999871
      ],
      [
        "▁seni",
        -9.553671059904461
      ],
      [
        "▁akıllı",
        -9.553710688490684
      ],
      [
        "▁gücü",
        -9.554535458123958
      ],
      [
        "▁işbirliği",
        -9.554748423976
      ],
      [
        "▁alacak",
        -9.555322749779485
      ],
      [
        "lenen",
        -9.55615874464418
      ],
      [
        "▁Türkiyeye",
        -9.556211361717232
      ],
      [
        "▁oldukları",
        -9.556478357901135
      ],
      [
        "▁pazar",
        -9.556670961603885
      ],
      [
        "▁yönetimi",
        -9.556863954811375
      ],
      [
        "▁performans",
        -9.558120242398525
      ],
      [
        "▁Yılmaz",
        -9.558337582312735
      ],
      [
        "▁Baş",
        -9.558460941204252
      ],
      [
        "▁korku",
        -9.55850725799459
      ],
      [
        "▁düzenli",
        -9.560005285402635
      ],
      [
        "▁cinsel",
        -9.560091999095896
      ],
      [
        "▁olmadan",
        -9.560635671953019
      ],
      [
        "▁yasa",
        -9.560636480290125
      ],
      [
        "▁Hatta",
        -9.562109785221304
      ],
      [
        "▁işlemleri",
        -9.562228103163498
      ],
      [
        "▁gerçekleştiril",
        -9.562425903488574
      ],
      [
        "anlamına",
        -9.563193164250936
      ],
      [
        "▁içeren",
        -9.56394227280713
      ],
      [
        "▁saha",
        -9.564137230225114
      ],
      [
        "▁kullanıcı",
        -9.56463675274263
      ],
      [
        "▁asıl",
        -9.565791242260286
      ],
      [
        "▁hata",
        -9.566535483229488
      ],
      [
        "▁cam",
        -9.566598009450013
      ],
      [
        "▁kas",
        -9.567196932193841
      ],
      [
        "▁filmi",
        -9.567380003446551
      ],
      [
        "▁kendilerine",
        -9.567562487581826
      ],
      [
        "▁herkesin",
        -9.568036132207993
      ],
      [
        "▁Haber",
        -9.568363234338749
      ],
      [
        "▁Küçük",
        -9.568532702807325
      ],
      [
        "▁yalnız",
        -9.569308065038305
      ],
      [
        "▁yapılmış",
        -9.570323519149818
      ],
      [
        "lanma",
        -9.57040717576863
      ],
      [
        "▁sıkıntı",
        -9.571864656731313
      ],
      [
        "▁doğrultusunda",
        -9.571945255286
      ],
      [
        "▁sınav",
        -9.572219620084217
      ],
      [
        "▁seyahat",
        -9.572847160503267
      ],
      [
        "▁Bölge",
        -9.573026940644588
      ],
      [
        "▁Di",
        -9.57320246830239
      ],
      [
        "yo",
        -9.574615148215486
      ],
      [
        "▁eğitimi",
        -9.574775716644563
      ],
      [
        "▁yaparken",
        -9.575400435461667
      ],
      [
        "▁tip",
        -9.576338948971719
      ],
      [
        "▁Antalya",
        -9.578187678316327
      ],
      [
        "▁ticaret",
        -9.578543210351947
      ],
      [
        "▁açıkladı",
        -9.578648127052622
      ],
      [
        "eceğini",
        -9.580676865897894
      ],
      [
        "▁ışık",
        -9.580678581437812
      ],
      [
        "▁ekran",
        -9.582222494005423
      ],
      [
        "▁silah",
        -9.583084412654427
      ],
      [
        "▁hepsi",
        -9.583196505227107
      ],
      [
        "▁belge",
        -9.58368777208855
      ],
      [
        "ama",
        -9.583696247778494
      ],
      [
        "▁Müslüman",
        -9.583768786129143
      ],
      [
        "▁Amerika",
        -9.585962695487504
      ],
      [
        "▁sebebi",
        -9.586979474637737
      ],
      [
        "▁mobil",
        -9.587032802318047
      ],
      [
        "▁malzeme",
        -9.587627595280887
      ],
      [
        "▁insanları",
        -9.587816005436869
      ],
      [
        "▁Güzel",
        -9.588398990371395
      ],
      [
        "tür",
        -9.589137495286003
      ],
      [
        "ber",
        -9.589963456506023
      ],
      [
        "bet",
        -9.590083130862586
      ],
      [
        "▁cm",
        -9.592064913784586
      ],
      [
        "mızda",
        -9.592231806232473
      ],
      [
        "▁söyleyen",
        -9.592369515503426
      ],
      [
        "▁toplantı",
        -9.593730020984966
      ],
      [
        "▁gol",
        -9.593970121278028
      ],
      [
        "▁Güney",
        -9.594404925710277
      ],
      [
        "spor",
        -9.59518760394701
      ],
      [
        "larımızı",
        -9.595466876891138
      ],
      [
        "▁verildi",
        -9.595534557941816
      ],
      [
        "▁metre",
        -9.596063092950915
      ],
      [
        "▁Aslında",
        -9.59667926904945
      ],
      [
        "▁gelmiş",
        -9.597656677669749
      ],
      [
        "▁büyüme",
        -9.597848608789182
      ],
      [
        "mis",
        -9.599215345594995
      ],
      [
        "▁desteği",
        -9.600202224167672
      ],
      [
        "▁olduğundan",
        -9.600363171608823
      ],
      [
        "▁Herkes",
        -9.600480722579155
      ],
      [
        "anın",
        -9.600647322186001
      ],
      [
        "▁Kürt",
        -9.601429055159864
      ],
      [
        "▁taşı",
        -9.602342819258928
      ],
      [
        "▁Recep",
        -9.602452897755835
      ],
      [
        "▁çerçevesinde",
        -9.603502131707884
      ],
      [
        "seniz",
        -9.60424534992601
      ],
      [
        "▁bölüm",
        -9.60504363283772
      ],
      [
        "▁Genç",
        -9.605104881786634
      ],
      [
        "▁cok",
        -9.605447670216629
      ],
      [
        "lanır",
        -9.60562244515981
      ],
      [
        "▁top",
        -9.606613739135316
      ],
      [
        "▁gel",
        -9.60682405800417
      ],
      [
        "▁ayak",
        -9.607209000773286
      ],
      [
        "▁Güvenlik",
        -9.607390818596699
      ],
      [
        "▁Kuzey",
        -9.608352510908182
      ],
      [
        "▁Bilgi",
        -9.60881386077389
      ],
      [
        "▁zamanlarda",
        -9.609466355516467
      ],
      [
        "▁neredeyse",
        -9.610063986408768
      ],
      [
        "▁girdi",
        -9.610072074051486
      ],
      [
        "▁transfer",
        -9.611303054404067
      ],
      [
        "▁hukuk",
        -9.614817546956594
      ],
      [
        "▁çocukların",
        -9.615236162148571
      ],
      [
        "▁sevgi",
        -9.616035857034252
      ],
      [
        "lerimizi",
        -9.616756655481366
      ],
      [
        "▁Araştırma",
        -9.616975457061926
      ],
      [
        "▁fırsat",
        -9.617274124578728
      ],
      [
        "▁ölüm",
        -9.617396501587779
      ],
      [
        "▁soğuk",
        -9.617511552263007
      ],
      [
        "▁idi",
        -9.619843722434286
      ],
      [
        "▁yıllar",
        -9.620178879405396
      ],
      [
        "▁dedim",
        -9.620221764140235
      ],
      [
        "▁değişik",
        -9.620608994469215
      ],
      [
        "▁kal",
        -9.6226070083026
      ],
      [
        "▁Sultan",
        -9.623624674014467
      ],
      [
        "▁noktada",
        -9.624342371616473
      ],
      [
        "▁çaba",
        -9.624910263604544
      ],
      [
        "▁cilt",
        -9.625590111197418
      ],
      [
        "▁halkın",
        -9.625649416098181
      ],
      [
        "ılan",
        -9.625919785104257
      ],
      [
        "ince",
        -9.62592073892961
      ],
      [
        "lanmış",
        -9.626007353154217
      ],
      [
        "▁yerli",
        -9.626095591424752
      ],
      [
        "▁toplumsal",
        -9.62633715789801
      ],
      [
        "▁kaza",
        -9.626774860315209
      ],
      [
        "▁Onlar",
        -9.62695143892286
      ],
      [
        "▁dünyaya",
        -9.627204092452947
      ],
      [
        "▁değeri",
        -9.627459704135022
      ],
      [
        "K",
        -9.627752901902698
      ],
      [
        "▁lisans",
        -9.627836774015128
      ],
      [
        "▁mesaj",
        -9.629340050348306
      ],
      [
        "ıyla",
        -9.63014409987433
      ],
      [
        "▁bölümü",
        -9.630290322729234
      ],
      [
        "▁Çalışma",
        -9.63192145404665
      ],
      [
        "ılır",
        -9.634605452120494
      ],
      [
        "▁bütçe",
        -9.634847652062444
      ],
      [
        "▁yöntem",
        -9.635040203778816
      ],
      [
        "▁süt",
        -9.636611314018134
      ],
      [
        "▁alınması",
        -9.63686655409583
      ],
      [
        "▁önceden",
        -9.637133445334507
      ],
      [
        "ili",
        -9.637356510496158
      ],
      [
        "▁hayvan",
        -9.637366465137083
      ],
      [
        "ici",
        -9.637402998705975
      ],
      [
        "▁Kanun",
        -9.637743996178227
      ],
      [
        "▁kap",
        -9.63791102948347
      ],
      [
        "▁ilave",
        -9.638219490656528
      ],
      [
        "▁edebilirsiniz",
        -9.638623814896444
      ],
      [
        "▁otel",
        -9.638929507547573
      ],
      [
        "▁işin",
        -9.639339260348876
      ],
      [
        "▁içindeki",
        -9.640347499223136
      ],
      [
        "▁binlerce",
        -9.641222530072788
      ],
      [
        "▁sorumlu",
        -9.641902087287638
      ],
      [
        "▁sonu",
        -9.641907484660951
      ],
      [
        "▁gizli",
        -9.642104187788954
      ],
      [
        "▁Lig",
        -9.64274543588656
      ],
      [
        "▁Hasan",
        -9.643285220012356
      ],
      [
        "▁Almanya",
        -9.643529002886739
      ],
      [
        "▁yük",
        -9.643840585919131
      ],
      [
        "▁Ek",
        -9.645496885686368
      ],
      [
        "▁kurulan",
        -9.646548073811987
      ],
      [
        "▁dönüş",
        -9.647335929753694
      ],
      [
        "▁otomatik",
        -9.64754725846634
      ],
      [
        "▁bulunur",
        -9.647790467140789
      ],
      [
        "liğine",
        -9.648438772168115
      ],
      [
        "sunu",
        -9.648542523120522
      ],
      [
        "▁hayatı",
        -9.649098280567458
      ],
      [
        "▁şeker",
        -9.64911520894725
      ],
      [
        "▁seks",
        -9.649290877151838
      ],
      [
        "▁fikir",
        -9.649366880137826
      ],
      [
        "▁Nasıl",
        -9.64943694095193
      ],
      [
        "▁An",
        -9.649736659479576
      ],
      [
        "▁imkanı",
        -9.64998477608048
      ],
      [
        "▁sivil",
        -9.650268890588334
      ],
      [
        "▁merkez",
        -9.651617043826684
      ],
      [
        "ton",
        -9.651699607954729
      ],
      [
        "▁yaygın",
        -9.65223902234596
      ],
      [
        "▁İkinci",
        -9.652469917489967
      ],
      [
        "▁gösteriyor",
        -9.652615865711464
      ],
      [
        "▁taşıyan",
        -9.652743175972635
      ],
      [
        "▁yarı",
        -9.652795820967254
      ],
      [
        "▁Yıldırım",
        -9.652960042977941
      ],
      [
        "▁ekibi",
        -9.654385400012147
      ],
      [
        "▁olacağını",
        -9.655120240227658
      ],
      [
        "▁bağlantı",
        -9.655863185281246
      ],
      [
        "▁ilaç",
        -9.656161812688675
      ],
      [
        "▁motor",
        -9.65647181144166
      ],
      [
        "▁kere",
        -9.656806010347923
      ],
      [
        "▁be",
        -9.656957935952308
      ],
      [
        "▁online",
        -9.657778263520731
      ],
      [
        "▁detaylı",
        -9.657936322137251
      ],
      [
        "▁kullanılır",
        -9.65925987280698
      ],
      [
        "▁çalışması",
        -9.660964810087805
      ],
      [
        "▁giderek",
        -9.661377008963646
      ],
      [
        "ünün",
        -9.662151899302932
      ],
      [
        "▁anlamı",
        -9.66220623425967
      ],
      [
        "▁Tayyip",
        -9.663261783361536
      ],
      [
        "▁boya",
        -9.663430580262176
      ],
      [
        "▁Co",
        -9.663849234861322
      ],
      [
        "▁liste",
        -9.663946877120738
      ],
      [
        "gen",
        -9.664942897997468
      ],
      [
        "▁demektir",
        -9.66496579055173
      ],
      [
        "▁Fakültesi",
        -9.665136951346774
      ],
      [
        "▁şehit",
        -9.665489028180462
      ],
      [
        "▁beslenme",
        -9.666060515885922
      ],
      [
        "▁kadınlar",
        -9.666753736918068
      ],
      [
        "meye",
        -9.66686978477191
      ],
      [
        "▁Sanat",
        -9.666891693316906
      ],
      [
        "▁olanlar",
        -9.666944829034493
      ],
      [
        "▁iken",
        -9.6679516241488
      ],
      [
        "▁kamera",
        -9.668258280751298
      ],
      [
        "▁almaktadır",
        -9.670577179805523
      ],
      [
        "▁yaşadığı",
        -9.67075185293098
      ],
      [
        "▁başlıyor",
        -9.670943620410196
      ],
      [
        "tim",
        -9.670948873422326
      ],
      [
        "▁olmalı",
        -9.671022698388134
      ],
      [
        "▁ateş",
        -9.671820462132947
      ],
      [
        "▁şarkı",
        -9.672195435332839
      ],
      [
        "▁gaz",
        -9.67257945048615
      ],
      [
        "▁do",
        -9.672925537915242
      ],
      [
        "▁Kar",
        -9.673117745622049
      ],
      [
        "▁Fatih",
        -9.673173888419605
      ],
      [
        "acağı",
        -9.673271413045782
      ],
      [
        "▁hükümet",
        -9.673290087273458
      ],
      [
        "▁görülen",
        -9.674031822586254
      ],
      [
        "▁öğrencilerin",
        -9.67488060548152
      ],
      [
        "cık",
        -9.675049512100586
      ],
      [
        "▁sahne",
        -9.675190680082695
      ],
      [
        "▁amaç",
        -9.675537816470207
      ],
      [
        "▁parçası",
        -9.67570518096362
      ],
      [
        "sonuna",
        -9.6760226898642
      ],
      [
        "▁sinema",
        -9.676548837506582
      ],
      [
        "▁olmayı",
        -9.676643511758513
      ],
      [
        "▁çıkma",
        -9.677489734351035
      ],
      [
        "▁İç",
        -9.677691357911348
      ],
      [
        "▁meyve",
        -9.678905052902858
      ],
      [
        "▁savunma",
        -9.679144600657205
      ],
      [
        "▁kadro",
        -9.679213734922108
      ],
      [
        "▁bölgesinde",
        -9.680488963582404
      ],
      [
        "▁fiyatı",
        -9.681845218677665
      ],
      [
        "▁siyah",
        -9.68207773836388
      ],
      [
        "▁gıda",
        -9.682264813215244
      ],
      [
        "landı",
        -9.682448432824872
      ],
      [
        "▁modeli",
        -9.682870490994054
      ],
      [
        "▁hızla",
        -9.682898369760867
      ],
      [
        "▁İsrail",
        -9.684327684643646
      ],
      [
        "eceği",
        -9.684459647232845
      ],
      [
        "▁Çevre",
        -9.684482220283504
      ],
      [
        "▁değişiklik",
        -9.684592533491868
      ],
      [
        "▁durumlarda",
        -9.684882438586015
      ],
      [
        "Ä",
        -9.685955447826931
      ],
      [
        "▁İbrahim",
        -9.686296119260149
      ],
      [
        "▁yasak",
        -9.686463153129898
      ],
      [
        "▁uygulaması",
        -9.686726124228073
      ],
      [
        "▁işler",
        -9.687653040636269
      ],
      [
        "▁lütfen",
        -9.688941712592506
      ],
      [
        "melidir",
        -9.689763314286775
      ],
      [
        "▁sipariş",
        -9.690078643148494
      ],
      [
        "▁ettiğini",
        -9.690531702511155
      ],
      [
        "ana",
        -9.690608222619385
      ],
      [
        "ımız",
        -9.690682497631576
      ],
      [
        "tar",
        -9.691342325406083
      ],
      [
        "▁yapısı",
        -9.691956779321004
      ],
      [
        "▁başkanı",
        -9.693771844951105
      ],
      [
        "▁kişiye",
        -9.69419929160066
      ],
      [
        "▁öncelikle",
        -9.694838672514612
      ],
      [
        "iyoruz",
        -9.695819051273238
      ],
      [
        "▁bakış",
        -9.696002401569936
      ],
      [
        "▁ticari",
        -9.696189215212671
      ],
      [
        "▁yaptıkları",
        -9.696204605613664
      ],
      [
        "▁hastalık",
        -9.697218562712534
      ],
      [
        "▁geçerli",
        -9.699814238812413
      ],
      [
        "▁dolayısıyla",
        -9.700195669558935
      ],
      [
        "medi",
        -9.700798457142335
      ],
      [
        "▁öğretmen",
        -9.701762224751048
      ],
      [
        "lenmiş",
        -9.702210290682212
      ],
      [
        "▁öğren",
        -9.702332372028405
      ],
      [
        "abilecek",
        -9.702360740379373
      ],
      [
        "▁teklif",
        -9.702691149269082
      ],
      [
        "▁tarım",
        -9.70301585859433
      ],
      [
        "▁verecek",
        -9.703075880305
      ],
      [
        "▁resim",
        -9.70324474155172
      ],
      [
        "▁alındı",
        -9.704640665397392
      ],
      [
        "▁bulun",
        -9.704669068468409
      ],
      [
        "▁ha",
        -9.704960837923434
      ],
      [
        "▁Yapı",
        -9.70496291048615
      ],
      [
        "▁bence",
        -9.707124810844146
      ],
      [
        "▁toprak",
        -9.707387399276412
      ],
      [
        "sam",
        -9.707792615183282
      ],
      [
        "▁ürünü",
        -9.707830127800758
      ],
      [
        "▁ton",
        -9.708061553781631
      ],
      [
        "▁kullanmak",
        -9.708923240673778
      ],
      [
        "Ü",
        -9.70896278131017
      ],
      [
        "▁çıkış",
        -9.709379434915798
      ],
      [
        "suz",
        -9.709564668740892
      ],
      [
        "lendi",
        -9.709715099317506
      ],
      [
        "▁hazırlanan",
        -9.709869640397185
      ],
      [
        "▁uçak",
        -9.710291757686994
      ],
      [
        "▁Rus",
        -9.71049787644346
      ],
      [
        "▁bağımsız",
        -9.71061563746801
      ],
      [
        "yse",
        -9.712316046012822
      ],
      [
        "▁inşaat",
        -9.712495799610743
      ],
      [
        "▁Murat",
        -9.71270111147738
      ],
      [
        "▁bina",
        -9.712830410078332
      ],
      [
        "gerçekleştirilen",
        -9.7131622289711
      ],
      [
        "▁inci",
        -9.71421412886129
      ],
      [
        "▁kaydetti",
        -9.71487708204727
      ],
      [
        "▁sözleşme",
        -9.716578464653253
      ],
      [
        "▁dikkate",
        -9.718521700653252
      ],
      [
        "▁Film",
        -9.71864749108597
      ],
      [
        "▁otomobil",
        -9.718956474550552
      ],
      [
        "▁terk",
        -9.71968488733209
      ],
      [
        "anı",
        -9.720717827909112
      ],
      [
        "▁insanı",
        -9.72075710513591
      ],
      [
        "makta",
        -9.721325331932263
      ],
      [
        "▁Merhaba",
        -9.721792646269254
      ],
      [
        "eri",
        -9.721800118603921
      ],
      [
        "go",
        -9.721973421433288
      ],
      [
        "▁Yaz",
        -9.72366483825277
      ],
      [
        "▁gösterir",
        -9.723862833152499
      ],
      [
        "▁süreç",
        -9.724303060557318
      ],
      [
        "▁ediliyor",
        -9.72430389379834
      ],
      [
        "▁Gün",
        -9.72456485465358
      ],
      [
        "unda",
        -9.72481428240402
      ],
      [
        "yorum",
        -9.725301184143639
      ],
      [
        "▁yetkili",
        -9.725564067567234
      ],
      [
        "▁Altın",
        -9.725690321988505
      ],
      [
        "▁sınır",
        -9.725763872697495
      ],
      [
        "▁almaya",
        -9.725855138602496
      ],
      [
        "▁sağlıyor",
        -9.726273724249474
      ],
      [
        "miyor",
        -9.726415265501073
      ],
      [
        "▁inceleme",
        -9.726486523013866
      ],
      [
        "▁mahkeme",
        -9.727246380108957
      ],
      [
        "tin",
        -9.728968673755457
      ],
      [
        "▁zevk",
        -9.729455680650613
      ],
      [
        "▁Otel",
        -9.729829802355784
      ],
      [
        "iyi",
        -9.7306726088466
      ],
      [
        "▁Si",
        -9.730772590831885
      ],
      [
        "▁yasal",
        -9.73164934379907
      ],
      [
        "ch",
        -9.732521019520208
      ],
      [
        "▁projesi",
        -9.733787225333103
      ],
      [
        "▁renkli",
        -9.733789511176726
      ],
      [
        "▁Pazar",
        -9.734081323163563
      ],
      [
        "▁gezi",
        -9.734232257579702
      ],
      [
        "▁dua",
        -9.73620717874926
      ],
      [
        "▁Paşa",
        -9.73631120661596
      ],
      [
        "onun",
        -9.736445884000855
      ],
      [
        "▁etkin",
        -9.736732907127974
      ],
      [
        "▁gelin",
        -9.736852750578862
      ],
      [
        "▁eşi",
        -9.737060522265683
      ],
      [
        "üne",
        -9.738213458190497
      ],
      [
        "▁turizm",
        -9.738387323520115
      ],
      [
        "▁kart",
        -9.738504746745145
      ],
      [
        "▁inan",
        -9.738865819457496
      ],
      [
        "▁Fenerbahçe",
        -9.739333467320144
      ],
      [
        "▁sorunları",
        -9.740729584312657
      ],
      [
        "▁popüler",
        -9.741575326317566
      ],
      [
        "▁kendilerini",
        -9.741656796762292
      ],
      [
        "▁risk",
        -9.742322678235928
      ],
      [
        "ali",
        -9.742701995539475
      ],
      [
        "▁edilmiştir",
        -9.743234464545063
      ],
      [
        "inizi",
        -9.743951199424384
      ],
      [
        "▁ağrı",
        -9.744192636435752
      ],
      [
        "▁duvar",
        -9.744736459883427
      ],
      [
        "▁ortamda",
        -9.745598754095601
      ],
      [
        "rma",
        -9.748077753905537
      ],
      [
        "▁çağrı",
        -9.748243828545295
      ],
      [
        "▁itibariyle",
        -9.748489767066863
      ],
      [
        "▁Galatasaray",
        -9.74879095768147
      ],
      [
        "▁Dolayısıyla",
        -9.749055494731309
      ],
      [
        "▁öz",
        -9.749459990476536
      ],
      [
        "▁düzenleme",
        -9.749625741536851
      ],
      [
        "▁Bankası",
        -9.749865046657716
      ],
      [
        "▁Alman",
        -9.750284026095645
      ],
      [
        "▁vermiş",
        -9.750549112748857
      ],
      [
        "lanması",
        -9.750581557054904
      ],
      [
        "hane",
        -9.750669085714593
      ],
      [
        "nizin",
        -9.751171498177591
      ],
      [
        "▁Anayasa",
        -9.751849915373928
      ],
      [
        "▁Beşiktaş",
        -9.752923909923714
      ],
      [
        "▁ekipleri",
        -9.753579777913032
      ],
      [
        "▁Tarım",
        -9.754205901104179
      ],
      [
        "▁makine",
        -9.755583154058126
      ],
      [
        "▁Web",
        -9.756468680354022
      ],
      [
        "▁istediği",
        -9.756666717195628
      ],
      [
        "▁olmaktadır",
        -9.757446345482835
      ],
      [
        "▁Oyun",
        -9.757626353736342
      ],
      [
        "▁Konu",
        -9.758098823603213
      ],
      [
        "▁diyen",
        -9.758354908846266
      ],
      [
        "▁futbol",
        -9.758473084288081
      ],
      [
        "▁katılan",
        -9.759197547444643
      ],
      [
        "▁Do",
        -9.75933249093526
      ],
      [
        "▁olmalıdır",
        -9.759719430863015
      ],
      [
        "▁yumurta",
        -9.75978042387405
      ],
      [
        "▁bakımından",
        -9.759793217782953
      ],
      [
        "▁Meclis",
        -9.760062789789663
      ],
      [
        "▁ihale",
        -9.760099752058448
      ],
      [
        "▁Ramazan",
        -9.761102050435182
      ],
      [
        "▁asker",
        -9.761227320750193
      ],
      [
        "▁yalan",
        -9.761437676877826
      ],
      [
        "▁eksik",
        -9.761499205708638
      ],
      [
        "▁sonuçlar",
        -9.761966635610701
      ],
      [
        "▁nefes",
        -9.762687537476038
      ],
      [
        "▁iyice",
        -9.763126575396297
      ],
      [
        "cak",
        -9.763749792766935
      ],
      [
        "▁sizler",
        -9.76487678832294
      ],
      [
        "▁bekliyor",
        -9.765164338840048
      ],
      [
        "▁sorunlar",
        -9.76570928077011
      ],
      [
        "▁çalışıyor",
        -9.765903593239944
      ],
      [
        "▁ucuz",
        -9.766634385924116
      ],
      [
        "▁kartı",
        -9.766816630906561
      ],
      [
        "rak",
        -9.767670067839113
      ],
      [
        "▁ekonomi",
        -9.768242677102744
      ],
      [
        "▁istiyorsanız",
        -9.768464115041159
      ],
      [
        "▁yapımı",
        -9.768670865575839
      ],
      [
        "▁ruh",
        -9.76886608858066
      ],
      [
        "▁benzeri",
        -9.768868723879962
      ],
      [
        "▁sağlam",
        -9.769176631868326
      ],
      [
        "▁istiyor",
        -9.769269721798986
      ],
      [
        "▁numara",
        -9.769620332153085
      ],
      [
        "▁uyku",
        -9.770439069467386
      ],
      [
        "▁Ro",
        -9.771082133523084
      ],
      [
        "▁sunuyor",
        -9.771848385991524
      ],
      [
        "▁arkadaşlar",
        -9.771966006937912
      ],
      [
        "▁görsel",
        -9.772095401520854
      ],
      [
        "▁sonuçları",
        -9.772095670204482
      ],
      [
        "▁güvenilir",
        -9.772532515850665
      ],
      [
        "▁Yapılan",
        -9.772844755341929
      ],
      [
        "▁bal",
        -9.772985279785676
      ],
      [
        "▁Osman",
        -9.773789397876307
      ],
      [
        "▁Ömer",
        -9.773969798976522
      ],
      [
        "▁Kan",
        -9.774163288516958
      ],
      [
        "▁kelime",
        -9.774237968522451
      ],
      [
        "birbirinden",
        -9.774401575062006
      ],
      [
        "▁tarihli",
        -9.774493049726198
      ],
      [
        "▁üyeleri",
        -9.775199073766617
      ],
      [
        "▁genelinde",
        -9.776498827197537
      ],
      [
        "▁Bakan",
        -9.776720608823966
      ],
      [
        "▁dönemi",
        -9.777103082494332
      ],
      [
        "▁ederken",
        -9.777609370226575
      ],
      [
        "▁San",
        -9.777671451736268
      ],
      [
        "bir",
        -9.778017702077191
      ],
      [
        "▁muhteşem",
        -9.778232760914022
      ],
      [
        "▁yapıldığı",
        -9.778691426542448
      ],
      [
        "▁zamanı",
        -9.77876521773776
      ],
      [
        "▁emekli",
        -9.779609666563335
      ],
      [
        "▁Hüseyin",
        -9.780370436693099
      ],
      [
        "M",
        -9.780922731988687
      ],
      [
        "▁kimi",
        -9.781205698698752
      ],
      [
        "larımızın",
        -9.78179741726932
      ],
      [
        "▁yazılım",
        -9.78232262513406
      ],
      [
        "▁Odası",
        -9.78272039791256
      ],
      [
        "▁bilimsel",
        -9.782795675856278
      ],
      [
        "▁görevi",
        -9.782937754663914
      ],
      [
        "nızın",
        -9.783176515754468
      ],
      [
        "▁grubu",
        -9.783467030316304
      ],
      [
        "dum",
        -9.783842883591031
      ],
      [
        "▁Söz",
        -9.783898405771208
      ],
      [
        "▁kampanya",
        -9.783919588019321
      ],
      [
        "▁yöntemi",
        -9.783923352809396
      ],
      [
        "▁kol",
        -9.784082057256644
      ],
      [
        "▁yapabilirsiniz",
        -9.784250072284795
      ],
      [
        "lanıyor",
        -9.78447932575797
      ],
      [
        "▁Turizm",
        -9.785045366238627
      ],
      [
        "▁Para",
        -9.785363115226923
      ],
      [
        "▁vücut",
        -9.786228365394635
      ],
      [
        "▁cihaz",
        -9.78628666546174
      ],
      [
        "Ç",
        -9.786389775691086
      ],
      [
        "liğin",
        -9.786724641763527
      ],
      [
        "▁takdirde",
        -9.78676488295892
      ],
      [
        "▁kanun",
        -9.786986182743378
      ],
      [
        "▁Cumhuriyeti",
        -9.787093744506397
      ],
      [
        "▁istiyoruz",
        -9.787112126150856
      ],
      [
        "▁başlama",
        -9.788952103200678
      ],
      [
        "▁Dünyanın",
        -9.790740883568503
      ],
      [
        "▁aldım",
        -9.791283723814335
      ],
      [
        "▁seri",
        -9.792008645430833
      ],
      [
        "▁kış",
        -9.792082089820772
      ],
      [
        "▁hal",
        -9.79235716412986
      ],
      [
        "▁yangın",
        -9.792474381520682
      ],
      [
        "▁elektronik",
        -9.792709983403467
      ],
      [
        "▁çekti",
        -9.79273748712676
      ],
      [
        "▁No",
        -9.79317681237059
      ],
      [
        "▁Okul",
        -9.793502117653924
      ],
      [
        "▁gelişme",
        -9.793957826384636
      ],
      [
        "▁sarı",
        -9.794277927651526
      ],
      [
        "▁görüşme",
        -9.79440883289364
      ],
      [
        "dık",
        -9.794911705602875
      ],
      [
        "▁tehdit",
        -9.79498579370625
      ],
      [
        "▁ısı",
        -9.795362404146163
      ],
      [
        "▁kahve",
        -9.795897002396243
      ],
      [
        "Pnin",
        -9.796243295063904
      ],
      [
        "▁süren",
        -9.796473273080819
      ],
      [
        "▁olacağı",
        -9.79668939437907
      ],
      [
        "▁devletin",
        -9.79705459853717
      ],
      [
        "laşma",
        -9.797131502052522
      ],
      [
        "▁yanıt",
        -9.797263469442992
      ],
      [
        "▁işletme",
        -9.797816990758516
      ],
      [
        "▁Ey",
        -9.798869100453897
      ],
      [
        "mıyor",
        -9.798968751072152
      ],
      [
        "lerimizin",
        -9.799259477864444
      ],
      [
        "co",
        -9.799383990459628
      ],
      [
        "▁Demir",
        -9.799502720612665
      ],
      [
        "▁gelip",
        -9.799815467256796
      ],
      [
        "▁çeşit",
        -9.799859869594485
      ],
      [
        "▁millet",
        -9.80010189224416
      ],
      [
        "nizde",
        -9.800469500527639
      ],
      [
        "▁karşılaşma",
        -9.800950838522924
      ],
      [
        "▁teşvik",
        -9.80208683837064
      ],
      [
        "▁açı",
        -9.804935034394072
      ],
      [
        "▁acil",
        -9.804938692320158
      ],
      [
        "▁olmadı",
        -9.80504093041388
      ],
      [
        "▁geçir",
        -9.805192350872838
      ],
      [
        "▁kültürel",
        -9.806342166644276
      ],
      [
        "▁konularda",
        -9.807330710784568
      ],
      [
        "▁boyu",
        -9.808143803407335
      ],
      [
        "▁bünyesinde",
        -9.808783197178675
      ],
      [
        "eyi",
        -9.809022308189586
      ],
      [
        "▁düşen",
        -9.80933822136078
      ],
      [
        "▁final",
        -9.80995538016048
      ],
      [
        "▁şart",
        -9.810276532739302
      ],
      [
        "masını",
        -9.811024118048636
      ],
      [
        "▁geçer",
        -9.811132764415298
      ],
      [
        "gan",
        -9.81127098625411
      ],
      [
        "▁açılan",
        -9.811279626950583
      ],
      [
        "iyorum",
        -9.811414149110309
      ],
      [
        "▁anlama",
        -9.811496488872265
      ],
      [
        "▁Tam",
        -9.811649741547702
      ],
      [
        "▁olduğumuz",
        -9.812118258737362
      ],
      [
        "▁sektöründe",
        -9.81270686722743
      ],
      [
        "▁bağ",
        -9.813198565910378
      ],
      [
        "▁dönemin",
        -9.813394418215008
      ],
      [
        "▁ulusal",
        -9.813480830761314
      ],
      [
        "amaz",
        -9.813609229751107
      ],
      [
        "▁şık",
        -9.813615127180164
      ],
      [
        "▁idare",
        -9.813889050282357
      ],
      [
        "▁Partisi",
        -9.814024453716637
      ],
      [
        "▁sıkı",
        -9.81402545545999
      ],
      [
        "lığına",
        -9.814460871482408
      ],
      [
        "▁Emniyet",
        -9.814499082418038
      ],
      [
        "malı",
        -9.815176508510255
      ],
      [
        "▁çıkacak",
        -9.815533984556119
      ],
      [
        "▁yaptık",
        -9.815572635665022
      ],
      [
        "▁adeta",
        -9.816050535413938
      ],
      [
        "▁sanki",
        -9.817200769824424
      ],
      [
        "▁ideal",
        -9.817347621087988
      ],
      [
        "▁Ra",
        -9.818486004303319
      ],
      [
        "▁iptal",
        -9.818606679423084
      ],
      [
        "▁dini",
        -9.820148231887613
      ],
      [
        "▁So",
        -9.820957388883432
      ],
      [
        "T",
        -9.820972953088225
      ],
      [
        "mekte",
        -9.821369174620733
      ],
      [
        "▁ilginç",
        -9.82179941446846
      ],
      [
        "▁kızı",
        -9.822487945674734
      ],
      [
        "▁amaçlı",
        -9.822882161226804
      ],
      [
        "▁tarihleri",
        -9.824835720246476
      ],
      [
        "ınız",
        -9.825008643839691
      ],
      [
        "▁is",
        -9.826051507413009
      ],
      [
        "▁kira",
        -9.826388444714654
      ],
      [
        "▁piyasa",
        -9.826767568262033
      ],
      [
        "tal",
        -9.826998964435305
      ],
      [
        "abiliyor",
        -9.827090927153646
      ],
      [
        "▁trafik",
        -9.82735081095922
      ],
      [
        "▁buraya",
        -9.827689039711313
      ],
      [
        "▁Site",
        -9.828304423612748
      ],
      [
        "▁sa",
        -9.828360504898484
      ],
      [
        "▁gitme",
        -9.828612033756027
      ],
      [
        "▁Süper",
        -9.828770534661794
      ],
      [
        "▁geçtiğimiz",
        -9.829255823765571
      ],
      [
        "▁paket",
        -9.829262883241222
      ],
      [
        "▁toplu",
        -9.829453743953424
      ],
      [
        "isi",
        -9.829476037054146
      ],
      [
        "ysa",
        -9.830342788807982
      ],
      [
        "▁kadınların",
        -9.830519046490808
      ],
      [
        "▁gereği",
        -9.83151530399398
      ],
      [
        "▁toplumun",
        -9.831760601738578
      ],
      [
        "ağı",
        -9.832167921661684
      ],
      [
        "▁vurgu",
        -9.832545943999358
      ],
      [
        "▁gelme",
        -9.83300084236745
      ],
      [
        "▁öncesinde",
        -9.83425354000917
      ],
      [
        "▁barış",
        -9.835081331054424
      ],
      [
        "▁uyum",
        -9.835812522091786
      ],
      [
        "▁denetim",
        -9.835938558309145
      ],
      [
        "▁maddi",
        -9.836098420645682
      ],
      [
        "din",
        -9.836104706374735
      ],
      [
        "▁çizgi",
        -9.836402974759336
      ],
      [
        "▁deneme",
        -9.836578968466458
      ],
      [
        "▁Peygamber",
        -9.837489318194814
      ],
      [
        "▁se",
        -9.837706432657834
      ],
      [
        "▁atan",
        -9.838547563406928
      ],
      [
        "köy",
        -9.83894463743326
      ],
      [
        "▁Cuma",
        -9.839399518412312
      ],
      [
        "▁hakim",
        -9.8395644239159
      ],
      [
        "arı",
        -9.839629190334099
      ],
      [
        "▁çocuğun",
        -9.839864373369664
      ],
      [
        "▁konuşan",
        -9.840093765404509
      ],
      [
        "▁iktidar",
        -9.840815050167295
      ],
      [
        "▁açıdan",
        -9.841356335257503
      ],
      [
        "▁yerlerde",
        -9.841503373034733
      ],
      [
        "▁soruşturma",
        -9.84185633699035
      ],
      [
        "▁karşılık",
        -9.842470217400516
      ],
      [
        "▁Nur",
        -9.84343058436405
      ],
      [
        "▁sağlayacak",
        -9.84343114276127
      ],
      [
        "▁bitki",
        -9.843691913382262
      ],
      [
        "▁tabii",
        -9.843740038890036
      ],
      [
        "▁sabit",
        -9.844375357129891
      ],
      [
        "▁bölümünde",
        -9.844541055929907
      ],
      [
        "▁Amerikan",
        -9.844950519511144
      ],
      [
        "▁Da",
        -9.844960440027972
      ],
      [
        "▁Neden",
        -9.845099294542868
      ],
      [
        "abi",
        -9.845336113119192
      ],
      [
        "▁yüzünden",
        -9.845794377932693
      ],
      [
        "▁Kamu",
        -9.846375522645856
      ],
      [
        "▁sağlığı",
        -9.84667643983667
      ],
      [
        "ladı",
        -9.846953723012447
      ],
      [
        "▁lise",
        -9.847447980036566
      ],
      [
        "▁kolayca",
        -9.847939918563567
      ],
      [
        "yum",
        -9.848341832177011
      ],
      [
        "▁vermeye",
        -9.848541718672665
      ],
      [
        "leşme",
        -9.84882104127905
      ],
      [
        "lıyor",
        -9.848907501288151
      ],
      [
        "▁elbette",
        -9.849383276490213
      ],
      [
        "▁rapor",
        -9.849978008197287
      ],
      [
        "▁yetki",
        -9.850963404068773
      ],
      [
        "▁bulunma",
        -9.851216618704356
      ],
      [
        "▁Tabi",
        -9.85126994800342
      ],
      [
        "▁cep",
        -9.852343242614605
      ],
      [
        "▁Ön",
        -9.852779981919067
      ],
      [
        "▁sunan",
        -9.85281048043002
      ],
      [
        "▁hakları",
        -9.853260973435926
      ],
      [
        "▁deneyim",
        -9.853795558764428
      ],
      [
        "▁taraf",
        -9.854056498616178
      ],
      [
        "▁Teknoloji",
        -9.854245697761582
      ],
      [
        "▁Tarih",
        -9.85433036663476
      ],
      [
        "▁İçin",
        -9.854440470329404
      ],
      [
        "▁Windows",
        -9.854926200429299
      ],
      [
        "▁oranında",
        -9.855124975470147
      ],
      [
        "▁verilmesi",
        -9.85544158422777
      ],
      [
        "▁not",
        -9.857117670967423
      ],
      [
        "▁birer",
        -9.857129685860905
      ],
      [
        "▁eşit",
        -9.857164457544242
      ],
      [
        "▁Tarihi",
        -9.857462377115585
      ],
      [
        "▁Enerji",
        -9.857481519940222
      ],
      [
        "▁Adana",
        -9.857682354088109
      ],
      [
        "▁AKP",
        -9.858390809618232
      ],
      [
        "▁yoluyla",
        -9.8597000987421
      ],
      [
        "▁aşağıda",
        -9.859856464967953
      ],
      [
        "Ş",
        -9.860480103774767
      ],
      [
        "▁günler",
        -9.861059800746476
      ],
      [
        "evi",
        -9.861537043272785
      ],
      [
        "▁çık",
        -9.86205399593179
      ],
      [
        "▁hali",
        -9.862145808945716
      ],
      [
        "▁ba",
        -9.862301498179903
      ],
      [
        "▁kadının",
        -9.862379313258902
      ],
      [
        "▁tedavisi",
        -9.863182659900817
      ],
      [
        "▁karşıya",
        -9.864034670898826
      ],
      [
        "▁fabrika",
        -9.86424667401163
      ],
      [
        "▁duygu",
        -9.864863594372071
      ],
      [
        "▁yarın",
        -9.865455803470033
      ],
      [
        "▁kurul",
        -9.865694832644705
      ],
      [
        "▁anlat",
        -9.865703552765684
      ],
      [
        "▁Gazete",
        -9.865850134580414
      ],
      [
        "▁Uygulama",
        -9.866021529339791
      ],
      [
        "▁otobüs",
        -9.866485447518546
      ],
      [
        "▁ufak",
        -9.86665981837976
      ],
      [
        "▁kullanan",
        -9.86786530709239
      ],
      [
        "▁Konya",
        -9.868118995130143
      ],
      [
        "▁sigorta",
        -9.86825317097225
      ],
      [
        "mer",
        -9.8683172819463
      ],
      [
        "▁sebebiyle",
        -9.868637320916813
      ],
      [
        "▁aşağı",
        -9.86923207657313
      ],
      [
        "▁CH",
        -9.869527531163444
      ],
      [
        "▁hayatta",
        -9.869911564354151
      ],
      [
        "▁katıl",
        -9.870017026304057
      ],
      [
        "▁tarz",
        -9.870423393056624
      ],
      [
        "▁gelmesi",
        -9.870706850535463
      ],
      [
        "▁böylece",
        -9.87124805414578
      ],
      [
        "▁ülkemizde",
        -9.871596786227416
      ],
      [
        "asyon",
        -9.871730968009679
      ],
      [
        "▁ayar",
        -9.87176873283253
      ],
      [
        "sem",
        -9.871837542763432
      ],
      [
        "▁kalın",
        -9.872235851216828
      ],
      [
        "▁sistemleri",
        -9.872480334251792
      ],
      [
        "dikleri",
        -9.872668624016207
      ],
      [
        "▁Ka",
        -9.873083686353633
      ],
      [
        "▁düzey",
        -9.873876884608418
      ],
      [
        "▁mezun",
        -9.875189105760578
      ],
      [
        "▁üretimi",
        -9.875341885391629
      ],
      [
        "▁As",
        -9.876060542990619
      ],
      [
        "▁katı",
        -9.876215971565617
      ],
      [
        "▁Güneş",
        -9.876880593913873
      ],
      [
        "▁bulma",
        -9.877664889108972
      ],
      [
        "▁Ta",
        -9.878326550663061
      ],
      [
        "▁olduğunuz",
        -9.878871397305177
      ],
      [
        "▁doğa",
        -9.878942289858335
      ],
      [
        "yon",
        -9.87915304167584
      ],
      [
        "▁VE",
        -9.879292861266057
      ],
      [
        "▁Na",
        -9.879498182336638
      ],
      [
        "▁verilir",
        -9.879647979173264
      ],
      [
        "▁birbirine",
        -9.879841215829847
      ],
      [
        "▁söylüyor",
        -9.880725289417748
      ],
      [
        "▁Kanunun",
        -9.88126437242134
      ],
      [
        "nci",
        -9.881286372522988
      ],
      [
        "▁yönünde",
        -9.882282544364006
      ],
      [
        "▁Önce",
        -9.882309728993656
      ],
      [
        "▁olduklarını",
        -9.882348774321775
      ],
      [
        "luğu",
        -9.883060639303334
      ],
      [
        "mez",
        -9.883088894479314
      ],
      [
        "▁yatak",
        -9.883147865001648
      ],
      [
        "▁mahalle",
        -9.883313399451534
      ],
      [
        "▁doktor",
        -9.883570891247379
      ],
      [
        "▁düşman",
        -9.883705091868817
      ],
      [
        "▁indir",
        -9.883848109982974
      ],
      [
        "▁tanesi",
        -9.884849423964223
      ],
      [
        "▁açılış",
        -9.885669033476878
      ],
      [
        "ova",
        -9.885676631900768
      ],
      [
        "▁Bilim",
        -9.886500555033162
      ],
      [
        "▁Geçen",
        -9.8868846765305
      ],
      [
        "▁rahatsız",
        -9.8870748364186
      ],
      [
        "▁onay",
        -9.88713617493419
      ],
      [
        "▁herkese",
        -9.887350375995952
      ],
      [
        "▁cami",
        -9.888730314853792
      ],
      [
        "▁üstünde",
        -9.889166177915628
      ],
      [
        "▁faydalı",
        -9.88969960043434
      ],
      [
        "mde",
        -9.890116954112653
      ],
      [
        "▁Meslek",
        -9.890136077391123
      ],
      [
        "▁anlatan",
        -9.890358668585446
      ],
      [
        "▁blog",
        -9.890404382067029
      ],
      [
        "▁zayıf",
        -9.89068378155398
      ],
      [
        "▁yolunda",
        -9.890684743930741
      ],
      [
        "▁Yıldız",
        -9.891002751174216
      ],
      [
        "▁sektör",
        -9.892108612385583
      ],
      [
        "▁Av",
        -9.892222891664114
      ],
      [
        "▁kon",
        -9.892378152793702
      ],
      [
        "▁ulaşım",
        -9.892404758008887
      ],
      [
        "▁biridir",
        -9.892618708037999
      ],
      [
        "▁yanına",
        -9.892667058404285
      ],
      [
        "▁ettim",
        -9.892754151073754
      ],
      [
        "▁edilecek",
        -9.892990522972939
      ],
      [
        "▁Fi",
        -9.893026266753903
      ],
      [
        "▁analiz",
        -9.893192352136298
      ],
      [
        "▁Muhammed",
        -9.893246658292814
      ],
      [
        "▁televizyon",
        -9.893746718171727
      ],
      [
        "▁ameliyat",
        -9.893822969600956
      ],
      [
        "▁maddesi",
        -9.89415464141038
      ],
      [
        "▁esnasında",
        -9.89418318369434
      ],
      [
        "▁sayede",
        -9.894527526291961
      ],
      [
        "▁gösterdi",
        -9.895256670974184
      ],
      [
        "▁Öncelikle",
        -9.895344924791438
      ],
      [
        "▁Zaman",
        -9.89582049726228
      ],
      [
        "▁eşya",
        -9.896063478183777
      ],
      [
        "mar",
        -9.896065507424485
      ],
      [
        "▁İnternet",
        -9.896485679545444
      ],
      [
        "▁kimlik",
        -9.896562607703524
      ],
      [
        "▁adayı",
        -9.897027780752504
      ],
      [
        "▁düş",
        -9.89714673179624
      ],
      [
        "▁elinde",
        -9.897674022151273
      ],
      [
        "▁indirim",
        -9.898525392673418
      ],
      [
        "▁makale",
        -9.89911626191611
      ],
      [
        "▁açma",
        -9.900971134594219
      ],
      [
        "▁falan",
        -9.90106812265312
      ],
      [
        "▁ulaşabilirsiniz",
        -9.901225522841017
      ],
      [
        "▁uyarı",
        -9.901473253963262
      ],
      [
        "edi",
        -9.901955653420483
      ],
      [
        "▁yararlan",
        -9.902228242506002
      ],
      [
        "▁TV",
        -9.90263458818089
      ],
      [
        "▁gerektiği",
        -9.902790913989145
      ],
      [
        "taş",
        -9.90298306728382
      ],
      [
        "▁Me",
        -9.9031661648707
      ],
      [
        "▁Ge",
        -9.903642818449041
      ],
      [
        "▁ondan",
        -9.90409225367559
      ],
      [
        "▁Kim",
        -9.904156401289832
      ],
      [
        "▁isterseniz",
        -9.904414109972864
      ],
      [
        "ğu",
        -9.90558280675707
      ],
      [
        "▁gidip",
        -9.905614712866427
      ],
      [
        "▁istedi",
        -9.906207878361336
      ],
      [
        "▁Grup",
        -9.906377486410506
      ],
      [
        "▁park",
        -9.906635035186014
      ],
      [
        "▁insanlara",
        -9.90684407954445
      ],
      [
        "▁üstüne",
        -9.906980026529023
      ],
      [
        "▁Şube",
        -9.907407776046076
      ],
      [
        "▁Du",
        -9.90756569541185
      ],
      [
        "▁maçı",
        -9.907821794653003
      ],
      [
        "▁tecrübe",
        -9.907957383188688
      ],
      [
        "▁seçenekleri",
        -9.90894453123927
      ],
      [
        "▁anlam",
        -9.909729701129306
      ],
      [
        "▁Erdoğanın",
        -9.90987531780083
      ],
      [
        "▁önde",
        -9.910139726807625
      ],
      [
        "ğını",
        -9.91193549239651
      ],
      [
        "▁mesele",
        -9.912468957216587
      ],
      [
        "▁Anne",
        -9.913501710372886
      ],
      [
        "▁edildiği",
        -9.913803676540418
      ],
      [
        "▁daire",
        -9.914864731521288
      ],
      [
        "▁dijital",
        -9.91526398424152
      ],
      [
        "maz",
        -9.91534038976557
      ],
      [
        "▁şehrin",
        -9.915659511756592
      ],
      [
        "üm",
        -9.915997607663826
      ],
      [
        "▁Sonuç",
        -9.916702530312053
      ],
      [
        "▁Gece",
        -9.916749730791311
      ],
      [
        "▁takımı",
        -9.917393989554538
      ],
      [
        "▁geliştirme",
        -9.917442945443003
      ],
      [
        "▁yoktu",
        -9.917625503748264
      ],
      [
        "şunları",
        -9.918375512286293
      ],
      [
        "▁keyifli",
        -9.918419489255024
      ],
      [
        "ebilecek",
        -9.918604586626865
      ],
      [
        "per",
        -9.919209763457319
      ],
      [
        "▁mutluluk",
        -9.91950224154725
      ],
      [
        "▁yedi",
        -9.919517678336486
      ],
      [
        "▁fiziksel",
        -9.919797403313158
      ],
      [
        "▁gidiyor",
        -9.919922457480217
      ],
      [
        "▁hayır",
        -9.920307038711776
      ],
      [
        "ği",
        -9.920500323600297
      ],
      [
        "▁akıl",
        -9.920569893598875
      ],
      [
        "▁sergi",
        -9.92057223827262
      ],
      [
        "▁namaz",
        -9.92058904187953
      ],
      [
        "▁vermektedir",
        -9.920850772918916
      ],
      [
        "▁katılım",
        -9.921069455413043
      ],
      [
        "▁kilometre",
        -9.921539561751176
      ],
      [
        "▁demokrasi",
        -9.92172384004695
      ],
      [
        "▁gazete",
        -9.922222977755048
      ],
      [
        "▁yön",
        -9.922956590713529
      ],
      [
        "cü",
        -9.923065750020237
      ],
      [
        "▁kanser",
        -9.924239399038708
      ],
      [
        "▁düşün",
        -9.924318797488505
      ],
      [
        "▁süreçte",
        -9.924459661999787
      ],
      [
        "▁tanı",
        -9.92468931330718
      ],
      [
        "Dnin",
        -9.924833691337343
      ],
      [
        "aj",
        -9.925363981460018
      ],
      [
        "▁Gençlik",
        -9.926547715462421
      ],
      [
        "▁Phone",
        -9.92669188467528
      ],
      [
        "▁sinir",
        -9.927185889624477
      ],
      [
        "sta",
        -9.927224052167391
      ],
      [
        "▁Doğru",
        -9.927290300823598
      ],
      [
        "imizin",
        -9.927926311284986
      ],
      [
        "▁balık",
        -9.928623564997304
      ],
      [
        "▁genelde",
        -9.928637918909235
      ],
      [
        "▁İngiliz",
        -9.92897220422239
      ],
      [
        "▁Pro",
        -9.929469963415357
      ],
      [
        "▁ödül",
        -9.92955847565839
      ],
      [
        "▁kullanılması",
        -9.929910746576315
      ],
      [
        "▁babası",
        -9.930353682060009
      ],
      [
        "▁beyin",
        -9.930886727395457
      ],
      [
        "▁sıvı",
        -9.930890795080277
      ],
      [
        "▁Göz",
        -9.930958430943067
      ],
      [
        "nuz",
        -9.931123395644772
      ],
      [
        "▁uyumlu",
        -9.931282057459475
      ],
      [
        "▁birini",
        -9.932015099601562
      ],
      [
        "dıkları",
        -9.932643299481985
      ],
      [
        "▁New",
        -9.93371181798476
      ],
      [
        "▁Mi",
        -9.934062680943219
      ],
      [
        "let",
        -9.93415715177712
      ],
      [
        "▁bırak",
        -9.934642322094591
      ],
      [
        "▁civarında",
        -9.934802978580041
      ],
      [
        "▁tarif",
        -9.934955647008774
      ],
      [
        "▁halkı",
        -9.934962609835921
      ],
      [
        "▁İngiltere",
        -9.93549618011837
      ],
      [
        "▁deri",
        -9.935546362487463
      ],
      [
        "▁yarış",
        -9.935651521243923
      ],
      [
        "▁sermaye",
        -9.93596325469247
      ],
      [
        "▁Arap",
        -9.936049054901057
      ],
      [
        "müş",
        -9.936158833975746
      ],
      [
        "▁Ceza",
        -9.936437516737083
      ],
      [
        "▁kulak",
        -9.936910151012407
      ],
      [
        "▁Açık",
        -9.936974213943422
      ],
      [
        "▁günümüzde",
        -9.937305765737275
      ],
      [
        "▁Asya",
        -9.937312019714026
      ],
      [
        "tepe",
        -9.93736632896646
      ],
      [
        "▁Yer",
        -9.937378107483028
      ],
      [
        "▁operasyon",
        -9.937567410447766
      ],
      [
        "▁arazi",
        -9.937603369981337
      ],
      [
        "lenme",
        -9.938022773631435
      ],
      [
        "ış",
        -9.938335905259692
      ],
      [
        "▁hastalığı",
        -9.938459835121085
      ],
      [
        "▁Oda",
        -9.938522701031161
      ],
      [
        "▁Han",
        -9.93897003577866
      ],
      [
        "▁temizlik",
        -9.939439071080441
      ],
      [
        "▁oyunları",
        -9.939725023293457
      ],
      [
        "▁heyecan",
        -9.940164810459343
      ],
      [
        "ası",
        -9.940350133305037
      ],
      [
        "▁bulmak",
        -9.940374546126323
      ],
      [
        "ize",
        -9.940758368421802
      ],
      [
        "▁çocukları",
        -9.940952169804277
      ],
      [
        "▁alanları",
        -9.941042621701355
      ],
      [
        "▁ekip",
        -9.941219626905768
      ],
      [
        "layabilirsiniz",
        -9.941394446216217
      ],
      [
        "▁bayram",
        -9.94150907784424
      ],
      [
        "▁vererek",
        -9.942458823594897
      ],
      [
        "▁yayınlanan",
        -9.94322397652793
      ],
      [
        "▁say",
        -9.943318717724587
      ],
      [
        "ildi",
        -9.943646829076153
      ],
      [
        "tma",
        -9.943660083394192
      ],
      [
        "▁şiir",
        -9.944516170930175
      ],
      [
        "▁siteleri",
        -9.944718759723953
      ],
      [
        "▁şirketi",
        -9.945285674885168
      ],
      [
        "▁aralarında",
        -9.945612514303445
      ],
      [
        "▁Euro",
        -9.946023966044523
      ],
      [
        "▁bey",
        -9.946242696308058
      ],
      [
        "LER",
        -9.946465822213762
      ],
      [
        "▁In",
        -9.946473652390074
      ],
      [
        "▁Yazı",
        -9.947403797120844
      ],
      [
        "▁kent",
        -9.948084418218178
      ],
      [
        "▁ada",
        -9.94863030263019
      ],
      [
        "▁boy",
        -9.948874860042466
      ],
      [
        "N",
        -9.949335261866187
      ],
      [
        "lendirme",
        -9.949519216129818
      ],
      [
        "masına",
        -9.949989321276021
      ],
      [
        "▁masa",
        -9.950202219470453
      ],
      [
        "▁etmiştir",
        -9.950298636956674
      ],
      [
        "▁başlayacak",
        -9.950439336485415
      ],
      [
        "▁algı",
        -9.950486264682969
      ],
      [
        "▁pratik",
        -9.951768914747303
      ],
      [
        "▁yarım",
        -9.95194317691684
      ],
      [
        "▁Mo",
        -9.952023873368917
      ],
      [
        "▁kriz",
        -9.952438368186073
      ],
      [
        "▁Var",
        -9.953108107622493
      ],
      [
        "▁adres",
        -9.953480626941781
      ],
      [
        "▁değişim",
        -9.953518386374192
      ],
      [
        "▁halka",
        -9.953626771830818
      ],
      [
        "▁ölçüde",
        -9.953652251784009
      ],
      [
        "▁değerlendir",
        -9.953774951353154
      ],
      [
        "▁paylaş",
        -9.953802519714817
      ],
      [
        "leyerek",
        -9.953863821518059
      ],
      [
        "▁standart",
        -9.954165905214255
      ],
      [
        "▁sakin",
        -9.954294145059167
      ],
      [
        "Bundan",
        -9.954681838341026
      ],
      [
        "▁geçici",
        -9.954717365601434
      ],
      [
        "▁the",
        -9.954761273022351
      ],
      [
        "▁başkan",
        -9.955201069743607
      ],
      [
        "▁zemin",
        -9.955634007739334
      ],
      [
        "▁Ko",
        -9.955729342678454
      ],
      [
        "lardaki",
        -9.95667334736119
      ],
      [
        "▁Za",
        -9.957098117438875
      ],
      [
        "▁tutar",
        -9.957190268464743
      ],
      [
        "▁çekici",
        -9.958104820721621
      ],
      [
        "▁Android",
        -9.958110809527787
      ],
      [
        "▁gelişmeler",
        -9.958168861381512
      ],
      [
        "▁düzeyde",
        -9.958177104165578
      ],
      [
        "▁sevgili",
        -9.958322636534936
      ],
      [
        "▁batı",
        -9.958359750996454
      ],
      [
        "▁yarar",
        -9.958376389530647
      ],
      [
        "▁sorumluluk",
        -9.958773448839006
      ],
      [
        "ger",
        -9.959357251145123
      ],
      [
        "▁Dil",
        -9.960668279582428
      ],
      [
        "▁Vakfı",
        -9.960952537317285
      ],
      [
        "▁edilebilir",
        -9.9612046877909
      ],
      [
        "▁aşı",
        -9.961253898897736
      ],
      [
        "▁Bal",
        -9.961355174094201
      ],
      [
        "▁Kuran",
        -9.961409904393062
      ],
      [
        "▁ka",
        -9.961723401751645
      ],
      [
        "▁Başka",
        -9.962234667187824
      ],
      [
        "iyet",
        -9.962370713066033
      ],
      [
        "▁kazanan",
        -9.963431945691775
      ],
      [
        "▁cezası",
        -9.963831666067323
      ],
      [
        "▁Karadeniz",
        -9.963862868035392
      ],
      [
        "▁iade",
        -9.964551601662981
      ],
      [
        "▁sürü",
        -9.964568036944835
      ],
      [
        "▁şeyin",
        -9.964970036354135
      ],
      [
        "▁Akdeniz",
        -9.965615904651829
      ],
      [
        "▁tehlike",
        -9.966050100982056
      ],
      [
        "abilen",
        -9.966940093697312
      ],
      [
        "▁sözü",
        -9.966948993419425
      ],
      [
        "▁düz",
        -9.967093540388234
      ],
      [
        "▁acaba",
        -9.967101361272338
      ],
      [
        "▁yaşamak",
        -9.96782706687195
      ],
      [
        "▁güvenliği",
        -9.968982142596671
      ],
      [
        "▁Mu",
        -9.969325188232204
      ],
      [
        "ğı",
        -9.969621849435331
      ],
      [
        "▁alternatif",
        -9.9700370954456
      ],
      [
        "▁gelişmiş",
        -9.97007704507851
      ],
      [
        "▁Ada",
        -9.970878742102006
      ],
      [
        "lanmıştır",
        -9.971081361934077
      ],
      [
        "▁ofis",
        -9.971785164404244
      ],
      [
        "▁Sarı",
        -9.971794607333724
      ],
      [
        "▁Escort",
        -9.972273618652634
      ],
      [
        "▁işleri",
        -9.97230357743681
      ],
      [
        "▁sigara",
        -9.972377201748172
      ],
      [
        "▁öğrenme",
        -9.97248915641242
      ],
      [
        "▁yönde",
        -9.972728420230839
      ],
      [
        "▁Saat",
        -9.973920139094128
      ],
      [
        "▁usta",
        -9.973953466782662
      ],
      [
        "▁Bi",
        -9.974120045924822
      ],
      [
        "▁alabilirsiniz",
        -9.974603532490434
      ],
      [
        "mesini",
        -9.974638400375536
      ],
      [
        "▁huzur",
        -9.975092483017221
      ],
      [
        "▁II",
        -9.975339742690846
      ],
      [
        "▁eğlenceli",
        -9.975350894390807
      ],
      [
        "▁Fransa",
        -9.975399752801602
      ],
      [
        "▁Ke",
        -9.976039961707684
      ],
      [
        "gin",
        -9.976497737713359
      ],
      [
        "▁Ulusal",
        -9.97678169040736
      ],
      [
        "▁lider",
        -9.977480843790111
      ],
      [
        "▁Üniversite",
        -9.97753788853659
      ],
      [
        "▁Facebook",
        -9.978009747811761
      ],
      [
        "▁alanlarda",
        -9.978065819063351
      ],
      [
        "th",
        -9.978099329721742
      ],
      [
        "▁birinin",
        -9.978509802816317
      ],
      [
        "▁yerden",
        -9.978651650542696
      ],
      [
        "▁Bana",
        -9.97870847998369
      ],
      [
        "▁Bak",
        -9.979077939315601
      ],
      [
        "▁arzu",
        -9.979735721151306
      ],
      [
        "▁dön",
        -9.980466475464338
      ],
      [
        "ndeki",
        -9.980641698975283
      ],
      [
        "▁Belki",
        -9.980651555109763
      ],
      [
        "▁yapmanız",
        -9.980699456922249
      ],
      [
        "kları",
        -9.980899182111953
      ],
      [
        "▁fatura",
        -9.981148076542388
      ],
      [
        "▁şiddet",
        -9.981242434300182
      ],
      [
        "▁değildi",
        -9.981314665843486
      ],
      [
        "▁borç",
        -9.981380942439237
      ],
      [
        "▁hastane",
        -9.981410652372192
      ],
      [
        "▁kazandı",
        -9.981424192356371
      ],
      [
        "▁Bar",
        -9.98187192229307
      ],
      [
        "▁Lo",
        -9.982176734580198
      ],
      [
        "▁Çelik",
        -9.982507670186292
      ],
      [
        "▁verimli",
        -9.982825941911498
      ],
      [
        "▁Allaha",
        -9.983253742368694
      ],
      [
        "▁geçme",
        -9.984046815383389
      ],
      [
        "gar",
        -9.98466199361502
      ],
      [
        "lığın",
        -9.984702981532498
      ],
      [
        "▁Yıl",
        -9.984824280822066
      ],
      [
        "▁bilgiye",
        -9.984913587012336
      ],
      [
        "▁nerede",
        -9.985264407553693
      ],
      [
        "▁alınarak",
        -9.985348692522086
      ],
      [
        "▁Apple",
        -9.98548793951572
      ],
      [
        "▁aracılığıyla",
        -9.985664926471866
      ],
      [
        "▁pay",
        -9.986303644298557
      ],
      [
        "▁maruz",
        -9.986745092646158
      ],
      [
        "▁örgüt",
        -9.987280215661986
      ],
      [
        "▁Kent",
        -9.987442006479109
      ],
      [
        "▁özen",
        -9.987591887495993
      ],
      [
        "▁eylem",
        -9.987670875634006
      ],
      [
        "▁evet",
        -9.987744367857218
      ],
      [
        "umu",
        -9.987866586844772
      ],
      [
        "▁Fransız",
        -9.988136145324635
      ],
      [
        "▁Li",
        -9.98815518380674
      ],
      [
        "▁işlemler",
        -9.988261219979405
      ],
      [
        "lerdi",
        -9.988312393978186
      ],
      [
        "▁Beyaz",
        -9.988346919214038
      ],
      [
        "▁sınırlı",
        -9.988829322642921
      ],
      [
        "▁derecede",
        -9.98893153428207
      ],
      [
        "▁arz",
        -9.989303709495495
      ],
      [
        "ser",
        -9.990013908487953
      ],
      [
        "ırken",
        -9.990321160702988
      ],
      [
        "▁zorunlu",
        -9.99088757238014
      ],
      [
        "▁çalışır",
        -9.99096830599139
      ],
      [
        "▁Fa",
        -9.991060733642527
      ],
      [
        "▁günün",
        -9.992133790031108
      ],
      [
        "abileceği",
        -9.992305928625221
      ],
      [
        "▁kalıcı",
        -9.99240838671773
      ],
      [
        "▁Ankarada",
        -9.992606489388686
      ],
      [
        "▁belirlenen",
        -9.993359405690883
      ],
      [
        "ifadelerini",
        -9.99385292640245
      ],
      [
        "▁garanti",
        -9.99412062779566
      ],
      [
        "gündeme",
        -9.994460098057207
      ],
      [
        "gözaltına",
        -9.994694627956873
      ],
      [
        "▁Şehir",
        -9.994912814353954
      ],
      [
        "▁geleneksel",
        -9.994948965918818
      ],
      [
        "▁duruma",
        -9.994996755160429
      ],
      [
        "leyen",
        -9.99520546189854
      ],
      [
        "▁altını",
        -9.995673236837217
      ],
      [
        "▁alması",
        -9.996266595837982
      ],
      [
        "▁Öte",
        -9.997195811043007
      ],
      [
        "▁adresi",
        -9.997903855823683
      ],
      [
        "▁yolcu",
        -9.997956624356767
      ],
      [
        "▁yapın",
        -9.99796942880937
      ],
      [
        "▁eser",
        -9.998441806364298
      ],
      [
        "layıp",
        -9.998564998868009
      ],
      [
        "▁farkı",
        -9.999603983775154
      ],
      [
        "▁şekli",
        -9.999954813384052
      ],
      [
        "▁miktar",
        -10.000036005552383
      ],
      [
        "▁yolda",
        -10.00008382452516
      ],
      [
        "irken",
        -10.00039085667483
      ],
      [
        "▁beden",
        -10.000572436856588
      ],
      [
        "I",
        -10.00075745260759
      ],
      [
        "▁tamam",
        -10.000803144225744
      ],
      [
        "▁gitmek",
        -10.001387058206921
      ],
      [
        "▁Vi",
        -10.001458500873273
      ],
      [
        "▁edilmektedir",
        -10.001583004595233
      ],
      [
        "▁temin",
        -10.001643208638994
      ],
      [
        "H",
        -10.001700552935123
      ],
      [
        "müz",
        -10.001857779624913
      ],
      [
        "▁küresel",
        -10.002371578717648
      ],
      [
        "▁sür",
        -10.002421345713989
      ],
      [
        "▁tiyatro",
        -10.003063422224384
      ],
      [
        "▁gördü",
        -10.00308821413192
      ],
      [
        "▁kalmış",
        -10.003500605472807
      ],
      [
        "▁Program",
        -10.003603649565285
      ],
      [
        "▁getirmek",
        -10.003623740672468
      ],
      [
        "acağız",
        -10.003748261424397
      ],
      [
        "▁Öyle",
        -10.003813190445484
      ],
      [
        "▁Polis",
        -10.003904652616361
      ],
      [
        "▁klasik",
        -10.004246093630785
      ],
      [
        "▁problem",
        -10.004406004729473
      ],
      [
        "▁Bo",
        -10.004709774387583
      ],
      [
        "Y",
        -10.004750244511609
      ],
      [
        "▁Seçim",
        -10.005146293982168
      ],
      [
        "▁mevcuttur",
        -10.005874554355144
      ],
      [
        "▁gerekse",
        -10.00602101236215
      ],
      [
        "lay",
        -10.00638064620059
      ],
      [
        "▁tasarımı",
        -10.0065030187401
      ],
      [
        "▁Kız",
        -10.006847450023022
      ],
      [
        "▁ürünlerin",
        -10.007485543447473
      ],
      [
        "▁istihdam",
        -10.008030670894408
      ],
      [
        "▁tartışma",
        -10.008358071654358
      ],
      [
        "▁Trump",
        -10.008473721811901
      ],
      [
        "▁buradan",
        -10.008900018900638
      ],
      [
        "▁belgesi",
        -10.00917576272245
      ],
      [
        "▁temas",
        -10.009306642962207
      ],
      [
        "▁mağaza",
        -10.010190749640104
      ],
      [
        "▁büyü",
        -10.010734512210314
      ],
      [
        "▁çekiyor",
        -10.010959787813151
      ],
      [
        "▁anlattı",
        -10.011023355921747
      ],
      [
        "▁sunduğu",
        -10.011608906546801
      ],
      [
        "▁düşünme",
        -10.011693773090114
      ],
      [
        "indeki",
        -10.011978873008282
      ],
      [
        "▁Hiç",
        -10.01232799138486
      ],
      [
        "▁Kredi",
        -10.012580650389957
      ],
      [
        "▁Or",
        -10.01263396164098
      ],
      [
        "▁kuruluş",
        -10.013116093213435
      ],
      [
        "▁üret",
        -10.013726117076327
      ],
      [
        "▁yazma",
        -10.013792035907496
      ],
      [
        "▁bilen",
        -10.014530166288939
      ],
      [
        "▁başladığı",
        -10.01481880028592
      ],
      [
        "▁olunca",
        -10.015832710088311
      ],
      [
        "▁gayet",
        -10.015897509817389
      ],
      [
        "▁zamanında",
        -10.01621528512066
      ],
      [
        "▁tarzı",
        -10.0172962589775
      ],
      [
        "▁Sizler",
        -10.017886323627447
      ],
      [
        "▁belirtildi",
        -10.018701392666266
      ],
      [
        "▁şekil",
        -10.019412274638068
      ],
      [
        "▁Etiketler",
        -10.019667880264882
      ],
      [
        "▁köşe",
        -10.02004482463947
      ],
      [
        "▁İn",
        -10.020128509767762
      ],
      [
        "met",
        -10.020201191040853
      ],
      [
        "▁vatandaşlar",
        -10.020319335246183
      ],
      [
        "▁girme",
        -10.020732531879679
      ],
      [
        "▁Din",
        -10.020800755408949
      ],
      [
        "▁Te",
        -10.020994244862878
      ],
      [
        "▁yaptım",
        -10.021991866513087
      ],
      [
        "▁ihracat",
        -10.022313560072176
      ],
      [
        "ıyoruz",
        -10.022828630254644
      ],
      [
        "▁kimsenin",
        -10.023179698386505
      ],
      [
        "▁adamı",
        -10.023658163889104
      ],
      [
        "▁Ad",
        -10.023872307739685
      ],
      [
        "▁Samsun",
        -10.023970305532869
      ],
      [
        "rek",
        -10.024051407923256
      ],
      [
        "▁farkında",
        -10.024151403176685
      ],
      [
        "▁edebilir",
        -10.024467588243759
      ],
      [
        "▁aykırı",
        -10.025297861630735
      ],
      [
        "▁icin",
        -10.02612202529907
      ],
      [
        "▁Ege",
        -10.02618998770508
      ],
      [
        "▁oku",
        -10.027521639865007
      ],
      [
        "▁miktarda",
        -10.027912959634321
      ],
      [
        "▁bulunması",
        -10.028102769051964
      ],
      [
        "▁Baba",
        -10.028375159234796
      ],
      [
        "▁Tabii",
        -10.028970399144917
      ],
      [
        "▁Ri",
        -10.029248888480502
      ],
      [
        "▁uygulamaları",
        -10.029317738036974
      ],
      [
        "oğlunun",
        -10.02984662950786
      ],
      [
        "imizi",
        -10.030236996434592
      ],
      [
        "▁Kısa",
        -10.030589689397901
      ],
      [
        "▁sanırım",
        -10.031567538863428
      ],
      [
        "▁mümkündür",
        -10.031641056620039
      ],
      [
        "▁hikaye",
        -10.031715888231624
      ],
      [
        "tor",
        -10.032085339616454
      ],
      [
        "▁Kitap",
        -10.032203801481419
      ],
      [
        "▁saf",
        -10.032643465648722
      ],
      [
        "▁çıktığı",
        -10.033000541757184
      ],
      [
        "fer",
        -10.03301987762077
      ],
      [
        "▁Kurumu",
        -10.033913757286467
      ],
      [
        "▁olmaması",
        -10.03410649827707
      ],
      [
        "▁yaptığımız",
        -10.034649844843004
      ],
      [
        "▁tablo",
        -10.035054812526859
      ],
      [
        "▁kendimi",
        -10.035139524398215
      ],
      [
        "▁At",
        -10.035938271898017
      ],
      [
        "cılık",
        -10.036117232366275
      ],
      [
        "▁orman",
        -10.037199902393912
      ],
      [
        "▁örgütü",
        -10.037248812406684
      ],
      [
        "▁üstün",
        -10.037590172229644
      ],
      [
        "▁mavi",
        -10.038134530942576
      ],
      [
        "▁kalır",
        -10.038662088167483
      ],
      [
        "▁bulabilirsiniz",
        -10.039158920571074
      ],
      [
        "▁Ata",
        -10.039354807865022
      ],
      [
        "▁gemi",
        -10.03976358436486
      ],
      [
        "ıcı",
        -10.040791452589827
      ],
      [
        "▁geldiğini",
        -10.04082603364882
      ],
      [
        "▁Oys",
        -10.041541920693787
      ],
      [
        "▁denge",
        -10.04166556457768
      ],
      [
        "▁Hizmet",
        -10.041882088332242
      ],
      [
        "▁nüfus",
        -10.041993940797672
      ],
      [
        "▁tesis",
        -10.042296699556143
      ],
      [
        "▁bit",
        -10.042622967084654
      ],
      [
        "▁Kaya",
        -10.04295599135355
      ],
      [
        "▁yazık",
        -10.042976380167191
      ],
      [
        "▁sağlama",
        -10.044510187978005
      ],
      [
        "▁dev",
        -10.044646659969588
      ],
      [
        "▁karakter",
        -10.04529346603876
      ],
      [
        "▁sürecinde",
        -10.046112842477266
      ],
      [
        "▁sevk",
        -10.046181823639271
      ],
      [
        "İM",
        -10.046803751859828
      ],
      [
        "▁telefonu",
        -10.047349679644498
      ],
      [
        "▁köy",
        -10.047449699844496
      ],
      [
        "▁ol",
        -10.048231612978247
      ],
      [
        "▁verici",
        -10.048375801926108
      ],
      [
        "diğimiz",
        -10.048713023122266
      ],
      [
        "▁izni",
        -10.048779789435773
      ],
      [
        "▁hizmetler",
        -10.048866725282931
      ],
      [
        "▁rengi",
        -10.049851259538887
      ],
      [
        "▁birden",
        -10.04991191073483
      ],
      [
        "▁deprem",
        -10.05079151700614
      ],
      [
        "▁Üç",
        -10.052343559715654
      ],
      [
        "▁oldum",
        -10.052368628935199
      ],
      [
        "▁ettik",
        -10.05239218027155
      ],
      [
        "▁Gazi",
        -10.052484527110414
      ],
      [
        "▁Hayat",
        -10.052521293854072
      ],
      [
        "▁olayı",
        -10.052551700197645
      ],
      [
        "▁çalışmalarını",
        -10.053731696717694
      ],
      [
        "▁Orman",
        -10.053789611441662
      ],
      [
        "▁olmasa",
        -10.053842073324311
      ],
      [
        "▁gelişim",
        -10.054808055735009
      ],
      [
        "▁taze",
        -10.05511272867436
      ],
      [
        "▁milletvekili",
        -10.055231293005852
      ],
      [
        "LAR",
        -10.055602615857055
      ],
      [
        "▁Türkiyedeki",
        -10.055785914968839
      ],
      [
        "▁içerik",
        -10.056300606092387
      ],
      [
        "leniyor",
        -10.056513487055083
      ],
      [
        "▁moda",
        -10.056532316700098
      ],
      [
        "▁hasar",
        -10.05671857925004
      ],
      [
        "▁İsmail",
        -10.056781739305853
      ],
      [
        "Dışişleri",
        -10.056875635188405
      ],
      [
        "▁anında",
        -10.057751726740483
      ],
      [
        "▁çocuğu",
        -10.057902003276784
      ],
      [
        "▁Günü",
        -10.058686240299007
      ],
      [
        "▁rekabet",
        -10.05881096768311
      ],
      [
        "▁kesim",
        -10.059306766545545
      ],
      [
        "▁fırsatı",
        -10.060602715661098
      ],
      [
        "▁yapıp",
        -10.061130777208158
      ],
      [
        "▁Taş",
        -10.061744382739507
      ],
      [
        "▁gerçekleşen",
        -10.062197372056271
      ],
      [
        "▁alınır",
        -10.063207366356611
      ],
      [
        "▁yaşlı",
        -10.063349004452713
      ],
      [
        "▁Van",
        -10.063582350826062
      ],
      [
        "önümüzdeki",
        -10.064135077750974
      ],
      [
        "▁noktası",
        -10.064740640629326
      ],
      [
        "▁gelince",
        -10.065061225432956
      ],
      [
        "▁and",
        -10.065219482631377
      ],
      [
        "▁ortam",
        -10.066435928496704
      ],
      [
        "▁yapması",
        -10.066622685119055
      ],
      [
        "▁kullandığı",
        -10.066957337789148
      ],
      [
        "▁Be",
        -10.067298829973211
      ],
      [
        "Bunların",
        -10.067567289555663
      ],
      [
        "mayın",
        -10.068402878497766
      ],
      [
        "▁olanak",
        -10.068742583243232
      ],
      [
        "DA",
        -10.068905948134026
      ],
      [
        "larındaki",
        -10.069176447185216
      ],
      [
        "▁artan",
        -10.070070709705922
      ],
      [
        "▁evlilik",
        -10.070770035125237
      ],
      [
        "▁kurumsal",
        -10.070916578549001
      ],
      [
        "▁Hafta",
        -10.071450216239406
      ],
      [
        "A",
        -10.07149058985718
      ],
      [
        "▁hoca",
        -10.07185907528194
      ],
      [
        "▁mekan",
        -10.071867223370813
      ],
      [
        "▁Süleyman",
        -10.07246581691734
      ],
      [
        "net",
        -10.072706770677062
      ],
      [
        "▁dayalı",
        -10.073078480269974
      ],
      [
        "▁kanal",
        -10.073969034322738
      ],
      [
        "kal",
        -10.0744234166286
      ],
      [
        "▁kazanma",
        -10.074668648473068
      ],
      [
        "▁özgür",
        -10.075150342277949
      ],
      [
        "▁Futbol",
        -10.075189479710062
      ],
      [
        "yarak",
        -10.075472040642246
      ],
      [
        "▁geçiyor",
        -10.07575605397217
      ],
      [
        "▁koyu",
        -10.075804632046193
      ],
      [
        "yacak",
        -10.075891906401026
      ],
      [
        "▁teşekkürler",
        -10.076484435791185
      ],
      [
        "▁kıl",
        -10.076702469697013
      ],
      [
        "▁HD",
        -10.076801803861663
      ],
      [
        "▁açtı",
        -10.077295929776218
      ],
      [
        "▁kurma",
        -10.077679747077942
      ],
      [
        "▁işleme",
        -10.078113475739947
      ],
      [
        "▁girer",
        -10.078783956439016
      ],
      [
        "B",
        -10.079209023112943
      ],
      [
        "▁görünüm",
        -10.079639169557499
      ],
      [
        "▁politika",
        -10.079764159133271
      ],
      [
        "kta",
        -10.080408046982747
      ],
      [
        "▁Zira",
        -10.080959137643266
      ],
      [
        "▁Gu",
        -10.08175183481683
      ],
      [
        "▁tarafı",
        -10.083183405511644
      ],
      [
        "▁yaşıyor",
        -10.08319059720363
      ],
      [
        "▁Yayın",
        -10.083578001934647
      ],
      [
        "▁olaylar",
        -10.083721078188566
      ],
      [
        "▁sunulan",
        -10.08372547639111
      ],
      [
        "▁ağ",
        -10.083810371998801
      ],
      [
        "▁başı",
        -10.08475421444385
      ],
      [
        "▁futbolcu",
        -10.084865833476465
      ],
      [
        "▁Hemen",
        -10.084892209011945
      ],
      [
        "▁değiş",
        -10.085055372324106
      ],
      [
        "▁endişe",
        -10.085415918046914
      ],
      [
        "▁tut",
        -10.086074995582042
      ],
      [
        "▁yağı",
        -10.086277021976485
      ],
      [
        "yakından",
        -10.0863114460944
      ],
      [
        "▁başlıklı",
        -10.086362412901378
      ],
      [
        "▁İşleri",
        -10.086556793976454
      ],
      [
        "▁Abdullah",
        -10.086819153810852
      ],
      [
        "▁Temel",
        -10.087252752975404
      ],
      [
        "cik",
        -10.087502823026806
      ],
      [
        "▁sanatçı",
        -10.08755703190845
      ],
      [
        "▁hayırlı",
        -10.088168872076883
      ],
      [
        "▁Park",
        -10.08902017224344
      ],
      [
        "▁sürece",
        -10.089294191202395
      ],
      [
        "▁düştü",
        -10.08969477000695
      ],
      [
        "▁gönül",
        -10.089795260080649
      ],
      [
        "▁buldu",
        -10.089895701071285
      ],
      [
        "▁dik",
        -10.090626725115266
      ],
      [
        "mın",
        -10.090832806060057
      ],
      [
        "▁haberi",
        -10.091186928054801
      ],
      [
        "▁tamamı",
        -10.091383620872437
      ],
      [
        "▁Birçok",
        -10.091415764495741
      ],
      [
        "▁çiçek",
        -10.091858168820178
      ],
      [
        "▁dili",
        -10.092173638046082
      ],
      [
        "süz",
        -10.092261269667572
      ],
      [
        "▁etkinlik",
        -10.092487581596417
      ],
      [
        "▁ölü",
        -10.092637913599265
      ],
      [
        "▁depo",
        -10.093016720172464
      ],
      [
        "İN",
        -10.093148649669391
      ],
      [
        "▁Man",
        -10.093813426203724
      ],
      [
        "▁yıllardır",
        -10.094432749640015
      ],
      [
        "▁Tıp",
        -10.094846955048446
      ],
      [
        "▁Doğan",
        -10.095089143444252
      ],
      [
        "ste",
        -10.09513544879065
      ],
      [
        "▁ücreti",
        -10.09558945317877
      ],
      [
        "▁bakın",
        -10.096076861748585
      ],
      [
        "▁sebeple",
        -10.096276414371346
      ],
      [
        "▁demir",
        -10.096464138078392
      ],
      [
        "▁kendinizi",
        -10.096467129182047
      ],
      [
        "▁kır",
        -10.096520282862764
      ],
      [
        "▁Sayfa",
        -10.096802689530366
      ],
      [
        "▁ederiz",
        -10.09681269286798
      ],
      [
        "▁Kocaeli",
        -10.096838098858328
      ],
      [
        "▁korumak",
        -10.097155228427113
      ],
      [
        "▁zamanlar",
        -10.097575568297307
      ],
      [
        "▁Pa",
        -10.097771961205831
      ],
      [
        "▁He",
        -10.09819342922538
      ],
      [
        "▁dikkatli",
        -10.098541007017644
      ],
      [
        "▁sat",
        -10.098887197754081
      ],
      [
        "▁sev",
        -10.098962143579593
      ],
      [
        "▁talebi",
        -10.099175096553843
      ],
      [
        "aya",
        -10.099670257560003
      ],
      [
        "ley",
        -10.099948614914975
      ],
      [
        "▁birlik",
        -10.10153676767981
      ],
      [
        "res",
        -10.101630447685077
      ],
      [
        "▁firması",
        -10.10197261670098
      ],
      [
        "cilik",
        -10.102047655423585
      ],
      [
        "▁sar",
        -10.102476586581599
      ],
      [
        "▁görünüyor",
        -10.102640361688792
      ],
      [
        "▁kaybı",
        -10.102999844742975
      ],
      [
        "▁gördüğü",
        -10.103042851768285
      ],
      [
        "▁çıkmış",
        -10.103056467781158
      ],
      [
        "▁sesi",
        -10.103486841479452
      ],
      [
        "▁tuz",
        -10.103536997414166
      ],
      [
        "▁imkan",
        -10.103766714692517
      ],
      [
        "▁Rum",
        -10.103923280314392
      ],
      [
        "ret",
        -10.104290456822179
      ],
      [
        "▁bahçe",
        -10.104363701817476
      ],
      [
        "▁Günümüzde",
        -10.104397285020342
      ],
      [
        "▁gül",
        -10.104786532317066
      ],
      [
        "▁Sabah",
        -10.10504931858067
      ],
      [
        "▁bireysel",
        -10.105212956186607
      ],
      [
        "▁Ülke",
        -10.105659009563748
      ],
      [
        "▁stres",
        -10.10575851323515
      ],
      [
        "zan",
        -10.105919689455776
      ],
      [
        "▁biliyor",
        -10.105990670394096
      ],
      [
        "▁çerçeve",
        -10.106298126129937
      ],
      [
        "▁dost",
        -10.106882170378327
      ],
      [
        "▁olduğum",
        -10.10750602977347
      ],
      [
        "▁Olay",
        -10.107852739637073
      ],
      [
        "liler",
        -10.108946217125677
      ],
      [
        "▁düğün",
        -10.109296754015993
      ],
      [
        "▁emek",
        -10.10981780405628
      ],
      [
        "▁Bil",
        -10.109841372276575
      ],
      [
        "▁olası",
        -10.110196947425719
      ],
      [
        "▁olabilirsiniz",
        -10.110276163173946
      ],
      [
        "eği",
        -10.11041090532193
      ],
      [
        "▁yapılıyor",
        -10.11042616154186
      ],
      [
        "▁Ardında",
        -10.110759035378553
      ],
      [
        "▁isteyenler",
        -10.111001483529854
      ],
      [
        "▁dönüşüm",
        -10.111038719110828
      ],
      [
        "▁perde",
        -10.111074308504303
      ],
      [
        "▁tipi",
        -10.111214717242614
      ],
      [
        "▁Kişi",
        -10.111845285082925
      ],
      [
        "▁pazarlama",
        -10.111955607176935
      ],
      [
        "▁miktarı",
        -10.11212101091809
      ],
      [
        "▁alıcı",
        -10.112239033104101
      ],
      [
        "▁düzen",
        -10.112419904329093
      ],
      [
        "▁seç",
        -10.112718066444529
      ],
      [
        "▁iman",
        -10.112904940397875
      ],
      [
        "▁kargo",
        -10.113519796685207
      ],
      [
        "▁merkezinde",
        -10.113751710042997
      ],
      [
        "▁anlaşma",
        -10.113782462333889
      ],
      [
        "▁içeri",
        -10.1137968109809
      ],
      [
        "▁roman",
        -10.113936777205902
      ],
      [
        "▁Koç",
        -10.113961042344263
      ],
      [
        "▁bilir",
        -10.114314681692546
      ],
      [
        "▁sağlan",
        -10.114490786758237
      ],
      [
        "▁Mersin",
        -10.115047058970388
      ],
      [
        "▁oyna",
        -10.115581983862109
      ],
      [
        "▁Tanrı",
        -10.116167037167157
      ],
      [
        "▁dağ",
        -10.116251240666939
      ],
      [
        "MA",
        -10.116368759455549
      ],
      [
        "▁sorunun",
        -10.11671521410055
      ],
      [
        "▁beyan",
        -10.117087285044933
      ],
      [
        "▁Hak",
        -10.117214312752173
      ],
      [
        "▁sizleri",
        -10.117268824546844
      ],
      [
        "▁attı",
        -10.117444878878167
      ],
      [
        "▁kahvaltı",
        -10.11757632702369
      ],
      [
        "▁Pe",
        -10.117621213183545
      ],
      [
        "▁bazıları",
        -10.117717909170398
      ],
      [
        "lıdır",
        -10.11781426833728
      ],
      [
        "▁kes",
        -10.118222935709298
      ],
      [
        "▁azından",
        -10.118229241735195
      ],
      [
        "▁getirdiği",
        -10.118286946569977
      ],
      [
        "▁ekmek",
        -10.118360050653445
      ],
      [
        "▁Ni",
        -10.118372992934793
      ],
      [
        "▁Ku",
        -10.118564668145797
      ],
      [
        "▁suretiyle",
        -10.11924467319078
      ],
      [
        "▁forma",
        -10.119354102749565
      ],
      [
        "▁arkadaşı",
        -10.119574974370973
      ],
      [
        "ris",
        -10.119613794048577
      ],
      [
        "▁hayatın",
        -10.120279620160264
      ],
      [
        "▁tutma",
        -10.120444128582008
      ],
      [
        "ebiliyor",
        -10.120676150806975
      ],
      [
        "▁Mısır",
        -10.120867808464581
      ],
      [
        "▁itiraz",
        -10.121551300883922
      ],
      [
        "▁Saç",
        -10.123787590164097
      ],
      [
        "lerdeki",
        -10.12411290080702
      ],
      [
        "▁Ekonomi",
        -10.125266255934699
      ],
      [
        "▁çalış",
        -10.125288744567621
      ],
      [
        "▁halı",
        -10.125291307048242
      ],
      [
        "▁yarat",
        -10.125624526589666
      ],
      [
        "▁St",
        -10.125703137584335
      ],
      [
        "şunu",
        -10.125839154411793
      ],
      [
        "▁yukarıda",
        -10.126411339285237
      ],
      [
        "▁Afrika",
        -10.126548938146858
      ],
      [
        "▁Gıda",
        -10.126686681277953
      ],
      [
        "▁Hoca",
        -10.127362782993025
      ],
      [
        "▁Malatya",
        -10.128624892831638
      ],
      [
        "ant",
        -10.128965419290878
      ],
      [
        "lerimi",
        -10.128985476671815
      ],
      [
        "▁Car",
        -10.128992197338597
      ],
      [
        "ime",
        -10.129610954721992
      ],
      [
        "ucu",
        -10.130438360669642
      ],
      [
        "eceğiz",
        -10.131123621973929
      ],
      [
        "▁eğlence",
        -10.131137052482147
      ],
      [
        "▁gösterdiği",
        -10.131224134173392
      ],
      [
        "▁çalışmak",
        -10.131228211593248
      ],
      [
        "▁hakkını",
        -10.131276296897644
      ],
      [
        "▁tanıma",
        -10.131376920098168
      ],
      [
        "▁kaldır",
        -10.131458782708716
      ],
      [
        "▁MHP",
        -10.131639244935293
      ],
      [
        "▁sıfır",
        -10.132035899738714
      ],
      [
        "▁kalitesi",
        -10.132858940053724
      ],
      [
        "▁uygulanan",
        -10.132868241386584
      ],
      [
        "▁ülkeler",
        -10.133039309994684
      ],
      [
        "atı",
        -10.133039493968258
      ],
      [
        "▁engelli",
        -10.133519867332604
      ],
      [
        "▁kullanılabilir",
        -10.133822174388095
      ],
      [
        "▁göç",
        -10.133898213127607
      ],
      [
        "▁odası",
        -10.133996283711792
      ],
      [
        "▁çalışmaya",
        -10.134504340791697
      ],
      [
        "landığı",
        -10.134513823565994
      ],
      [
        "▁art",
        -10.134640937796362
      ],
      [
        "▁denir",
        -10.135834432339136
      ],
      [
        "lenir",
        -10.136043222250823
      ],
      [
        "▁beğeni",
        -10.136966247201297
      ],
      [
        "▁Çanakkale",
        -10.137095448172532
      ],
      [
        "▁çekim",
        -10.13720277900409
      ],
      [
        "▁milletin",
        -10.137347197753607
      ],
      [
        "▁Hakkında",
        -10.137473141414954
      ],
      [
        "üz",
        -10.137989776206599
      ],
      [
        "▁Şahin",
        -10.13822651985423
      ],
      [
        "▁firmalar",
        -10.139101205470256
      ],
      [
        "▁bakan",
        -10.139344671197286
      ],
      [
        "ster",
        -10.139692064856945
      ],
      [
        "▁maalesef",
        -10.13993108635954
      ],
      [
        "▁kuş",
        -10.140099219222735
      ],
      [
        "▁kimyasal",
        -10.140332938820794
      ],
      [
        "cek",
        -10.140333150829123
      ],
      [
        "▁varlığı",
        -10.140376077796844
      ],
      [
        "▁kuvvet",
        -10.140377552691412
      ],
      [
        "▁com",
        -10.140491450626891
      ],
      [
        "lanarak",
        -10.140640960170703
      ],
      [
        "▁görün",
        -10.140698780462762
      ],
      [
        "▁olduk",
        -10.140960928098147
      ],
      [
        "▁Ona",
        -10.141047362514517
      ],
      [
        "▁yürüyüş",
        -10.141453840282923
      ],
      [
        "▁paylaşım",
        -10.141465456470028
      ],
      [
        "▁şirketin",
        -10.141607855800258
      ],
      [
        "▁türü",
        -10.141696758563771
      ],
      [
        "▁haklı",
        -10.142177873937898
      ],
      [
        "▁sözleri",
        -10.142630315321346
      ],
      [
        "lerimize",
        -10.14319373486464
      ],
      [
        "▁rüya",
        -10.143256440541897
      ],
      [
        "▁programları",
        -10.143845212902184
      ],
      [
        "▁katıldığı",
        -10.143897662406584
      ],
      [
        "▁doğu",
        -10.1439141068563
      ],
      [
        "▁servisi",
        -10.144387004404837
      ],
      [
        "lâ",
        -10.144409676768417
      ],
      [
        "▁Bölüm",
        -10.144569486948587
      ],
      [
        "▁Dış",
        -10.144625624980906
      ],
      [
        "ınca",
        -10.144680644291295
      ],
      [
        "▁devre",
        -10.14495868097618
      ],
      [
        "▁Va",
        -10.145290458682796
      ],
      [
        "▁parmak",
        -10.145350029939673
      ],
      [
        "▁sizlerle",
        -10.145621249084883
      ],
      [
        "emez",
        -10.145845271538825
      ],
      [
        "▁Yeşil",
        -10.14601844162467
      ],
      [
        "▁üzeri",
        -10.146292994763279
      ],
      [
        "▁işgal",
        -10.146365698771934
      ],
      [
        "▁hızı",
        -10.146370114622675
      ],
      [
        "▁ibadet",
        -10.146658250792974
      ],
      [
        "▁şehri",
        -10.146853067251445
      ],
      [
        "▁çıkması",
        -10.146874515050266
      ],
      [
        "▁ayakkabı",
        -10.146958371560201
      ],
      [
        "▁Hizmetleri",
        -10.14763945510681
      ],
      [
        "▁mutfak",
        -10.147896361439448
      ],
      [
        "ban",
        -10.147969500155197
      ],
      [
        "▁güne",
        -10.148239138786064
      ],
      [
        "▁davranış",
        -10.148619758457937
      ],
      [
        "▁lideri",
        -10.149570678929278
      ],
      [
        "▁siyaset",
        -10.150148576377962
      ],
      [
        "▁Adam",
        -10.15062261474729
      ],
      [
        "lüğü",
        -10.150678986623136
      ],
      [
        "▁yaka",
        -10.150802210058394
      ],
      [
        "▁kitle",
        -10.151190459235641
      ],
      [
        "▁aşkın",
        -10.151232630544262
      ],
      [
        "▁altyapı",
        -10.151532942831535
      ],
      [
        "▁kedi",
        -10.15246077369197
      ],
      [
        "▁Roma",
        -10.152721441897128
      ],
      [
        "▁mali",
        -10.153052394339706
      ],
      [
        "▁araçlar",
        -10.153061559301417
      ],
      [
        "▁Müşteri",
        -10.153179712269003
      ],
      [
        "▁getirme",
        -10.154133180993309
      ],
      [
        "▁gördüm",
        -10.154155192883909
      ],
      [
        "diğiniz",
        -10.154549535128893
      ],
      [
        "Geçtiğimiz",
        -10.155020051269252
      ],
      [
        "▁Adalet",
        -10.15502690165393
      ],
      [
        "▁değiştirme",
        -10.155952738413317
      ],
      [
        "▁tanıtım",
        -10.156068592425992
      ],
      [
        "▁İnce",
        -10.15638493610204
      ],
      [
        "▁üstü",
        -10.156386548500503
      ],
      [
        "YA",
        -10.156500010731135
      ],
      [
        "▁dakikada",
        -10.157019644360206
      ],
      [
        "▁ülkelerin",
        -10.157412613518277
      ],
      [
        "▁kaybetti",
        -10.15763129838223
      ],
      [
        "▁tak",
        -10.157648254228333
      ],
      [
        "▁Resmi",
        -10.157837385191053
      ],
      [
        "▁yıldız",
        -10.157982479267208
      ],
      [
        "▁bomba",
        -10.159086929388769
      ],
      [
        "▁gelmektedir",
        -10.159326349726408
      ],
      [
        "▁beklenen",
        -10.159328175171462
      ],
      [
        "▁geleceği",
        -10.160130826840053
      ],
      [
        "ile",
        -10.160926902098991
      ],
      [
        "bur",
        -10.160971684349295
      ],
      [
        "▁aracın",
        -10.161074242565526
      ],
      [
        "▁hazırlık",
        -10.161833220297277
      ],
      [
        "▁projeler",
        -10.162026907614466
      ],
      [
        "▁döviz",
        -10.162280978308631
      ],
      [
        "▁göstermektedir",
        -10.16248291423006
      ],
      [
        "rit",
        -10.163354671006639
      ],
      [
        "▁önemi",
        -10.163532839089628
      ],
      [
        "▁Bay",
        -10.163979050957352
      ],
      [
        "▁rahatlıkla",
        -10.164531771609022
      ],
      [
        "▁metal",
        -10.16477078474202
      ],
      [
        "▁özellikler",
        -10.165179332754523
      ],
      [
        "▁olmaktan",
        -10.165236187037317
      ],
      [
        "▁noktasında",
        -10.165552612490725
      ],
      [
        "▁süper",
        -10.166013902132667
      ],
      [
        "▁yapmayı",
        -10.16645380335394
      ],
      [
        "▁firmamız",
        -10.166554330392774
      ],
      [
        "▁saatlerinde",
        -10.166883110720734
      ],
      [
        "▁Sistemi",
        -10.166934147190869
      ],
      [
        "▁anahtar",
        -10.16721981799461
      ],
      [
        "▁Hasta",
        -10.168128396815618
      ],
      [
        "▁kiralama",
        -10.168348037689467
      ],
      [
        "▁Oku",
        -10.168618254026187
      ],
      [
        "▁vatan",
        -10.168680343687276
      ],
      [
        "▁olmaları",
        -10.169260877601262
      ],
      [
        "▁Savaş",
        -10.169474567278334
      ],
      [
        "▁sınırları",
        -10.170748573429977
      ],
      [
        "▁sağlanması",
        -10.170881172343105
      ],
      [
        "▁konular",
        -10.171073982548531
      ],
      [
        "▁maçta",
        -10.171529966038694
      ],
      [
        "ılmış",
        -10.171741844052615
      ],
      [
        "ımızın",
        -10.171873642706561
      ],
      [
        "▁gençler",
        -10.172058054068893
      ],
      [
        "▁konuş",
        -10.172059147566118
      ],
      [
        "▁edilerek",
        -10.172560577766978
      ],
      [
        "▁ettikleri",
        -10.17256584197204
      ],
      [
        "▁sunar",
        -10.172897930924151
      ],
      [
        "kleri",
        -10.173504355278663
      ],
      [
        "▁yılları",
        -10.173553163186861
      ],
      [
        "▁hat",
        -10.173674414783909
      ],
      [
        "▁ata",
        -10.174020038875978
      ],
      [
        "▁bilgisi",
        -10.17440826971428
      ],
      [
        "▁öğrencileri",
        -10.174843242366679
      ],
      [
        "▁görüyoruz",
        -10.17538014780686
      ],
      [
        "ker",
        -10.175442270314255
      ],
      [
        "▁Gerçek",
        -10.175461906192782
      ],
      [
        "▁oluştur",
        -10.175535530967624
      ],
      [
        "har",
        -10.176097210132077
      ],
      [
        "▁Programı",
        -10.176494488074725
      ],
      [
        "▁seçimi",
        -10.176763350049091
      ],
      [
        "▁oluşturan",
        -10.177289683554495
      ],
      [
        "▁söylemek",
        -10.17751297036791
      ],
      [
        "ji",
        -10.177832554667601
      ],
      [
        "lılar",
        -10.178131277517771
      ],
      [
        "▁sessiz",
        -10.178492342820038
      ],
      [
        "▁Hukuk",
        -10.178901231040719
      ],
      [
        "başı",
        -10.17920917953493
      ],
      [
        "▁Kanunu",
        -10.179270539851732
      ],
      [
        "▁ulaşmak",
        -10.17932520422889
      ],
      [
        "▁ayda",
        -10.179497232235166
      ],
      [
        "▁düzenlediği",
        -10.179794503984228
      ],
      [
        "▁çekme",
        -10.180749437236535
      ],
      [
        "▁Ders",
        -10.180766775736577
      ],
      [
        "yordu",
        -10.180860183193595
      ],
      [
        "▁uygulamalar",
        -10.180940832545156
      ],
      [
        "▁başladım",
        -10.180992842727164
      ],
      [
        "▁üretilen",
        -10.181061932139489
      ],
      [
        "▁Toplam",
        -10.181655162904542
      ],
      [
        "▁bilet",
        -10.18167388463889
      ],
      [
        "▁bildirim",
        -10.18217204506357
      ],
      [
        "▁dalga",
        -10.18222653397353
      ],
      [
        "▁yaptır",
        -10.18277063468086
      ],
      [
        "▁tehlikeli",
        -10.182836656194535
      ],
      [
        "▁Onu",
        -10.183269885309702
      ],
      [
        "▁Barış",
        -10.183881274928973
      ],
      [
        "▁pro",
        -10.184074168260171
      ],
      [
        "▁Ordu",
        -10.184166798766697
      ],
      [
        "lerindeki",
        -10.184799021058407
      ],
      [
        "▁Yusuf",
        -10.185205874354404
      ],
      [
        "izm",
        -10.185209897198451
      ],
      [
        "▁başlangıç",
        -10.185210251362099
      ],
      [
        "ment",
        -10.185418227547547
      ],
      [
        "tım",
        -10.185442934560593
      ],
      [
        "▁olabilecek",
        -10.185598621141205
      ],
      [
        "▁çatı",
        -10.18591857133686
      ],
      [
        "▁gözlem",
        -10.186213586623788
      ],
      [
        "sidir",
        -10.186462094457287
      ],
      [
        "▁Öğrenci",
        -10.1872230651467
      ],
      [
        "var",
        -10.187341506433613
      ],
      [
        "▁bizlere",
        -10.18739692595683
      ],
      [
        "▁atma",
        -10.187407913175063
      ],
      [
        "▁görevli",
        -10.187729401044754
      ],
      [
        "q",
        -10.18790673195139
      ],
      [
        "▁Tur",
        -10.188090317885171
      ],
      [
        "▁taraftan",
        -10.188127139109106
      ],
      [
        "▁hariç",
        -10.188661450401062
      ],
      [
        "AR",
        -10.188994370397864
      ],
      [
        "▁Pi",
        -10.189066720255502
      ],
      [
        "▁geldiğinde",
        -10.189954716858502
      ],
      [
        "▁ağaç",
        -10.190027848066595
      ],
      [
        "▁görülür",
        -10.190446178567202
      ],
      [
        "ettin",
        -10.191606072220996
      ],
      [
        "ent",
        -10.191888134502523
      ],
      [
        "▁İşletme",
        -10.192517711425102
      ],
      [
        "▁araçları",
        -10.193335721777236
      ],
      [
        "▁anlatıyor",
        -10.194098296146732
      ],
      [
        "▁Üyesi",
        -10.19452574744144
      ],
      [
        "▁çatışma",
        -10.194661921352791
      ],
      [
        "▁artır",
        -10.1947364006347
      ],
      [
        "dığımız",
        -10.195180854827276
      ],
      [
        "▁Mü",
        -10.195260658254536
      ],
      [
        "ket",
        -10.195548255004981
      ],
      [
        "TE",
        -10.195915061680124
      ],
      [
        "▁sorular",
        -10.196265499650993
      ],
      [
        "▁banyo",
        -10.196303606919628
      ],
      [
        "larımıza",
        -10.196883370658444
      ],
      [
        "lenmesi",
        -10.197276506228434
      ],
      [
        "▁bölümde",
        -10.197321749135648
      ],
      [
        "▁örneğin",
        -10.197647052128298
      ],
      [
        "▁Yurt",
        -10.197682188723116
      ],
      [
        "ME",
        -10.197884876027377
      ],
      [
        "▁yemeği",
        -10.197905999942734
      ],
      [
        "▁husus",
        -10.198100410387033
      ],
      [
        "cılar",
        -10.1985615831219
      ],
      [
        "▁alım",
        -10.19887137382173
      ],
      [
        "▁Ye",
        -10.199106641362109
      ],
      [
        "▁umut",
        -10.19914397816017
      ],
      [
        "▁oluşur",
        -10.199233144096262
      ],
      [
        "▁oranda",
        -10.199407744799512
      ],
      [
        "▁Grubu",
        -10.199415886234846
      ],
      [
        "▁kavga",
        -10.199799753138784
      ],
      [
        "▁cümle",
        -10.200020189843684
      ],
      [
        "▁petrol",
        -10.200031113756756
      ],
      [
        "▁izleme",
        -10.200428065048621
      ],
      [
        "▁To",
        -10.201076139434354
      ],
      [
        "tiği",
        -10.20112740666732
      ],
      [
        "Üstelik",
        -10.20120974095418
      ],
      [
        "▁aylarında",
        -10.201255590345113
      ],
      [
        "▁Ürün",
        -10.201421233123854
      ],
      [
        "▁bizler",
        -10.201507145291435
      ],
      [
        "▁olmuştu",
        -10.20153680814858
      ],
      [
        "▁harekete",
        -10.20166158497893
      ],
      [
        "▁Doç",
[...]
